#version: 0.2 - Trained by `huggingface/tokenizers`
Ġ ì
Ġ ë
ì Ŀ
í ķ
ë ĭ
Ġ ê
ìĿ ´
ë Ĭ
ê ³
ê °
ì §
ëĬ Ķ
ëĭ ¤
íķ ĺ
ì Ĺ
ê³ ł
ì ķ
ë ĵ
ì ŀ
. .
ì§ Ģ
ì Ħ
Ŀ ¼
ë ı
ê ²
ê° Ģ
ì ł
Ġ í
ëĵ ¤
´ ë
Ĥ ĺ
Ġì ķ
íķ ľ
ê ¸
ê µ
ã ħ
ëı Ħ
ì ĭ
¸ ë
ìĹ Ĳ
Ġì ŀ
ë Ŀ¼
ë §
Ġì Ŀ
ìĿ Ģ
Ĥ ¬
Ġì ł
ë ¡
ëĭ Ī
Į Ģ
¦ ¬
ê ±
ì ļ
ìĿ Ħ
ìĦ ľ
ì ľ
ì ĸ
ë¡ ľ
ë Ĥĺ
Ġê °
Ġë §
ë ¦¬
ãħ ĭ
ê¸ °
ë ©
ìķ Ħ
Ġì §
ê² Į
Ġê ·
Ġë ĭ
êµ Ń
ë į
ë ł
ìĿ ¸
ìĿ ĺ
ë© ´
ë ¥
íķ ´
ìŀ Ĳ
ë ³
Ġì Ĺ
Ġë °
ë ¶
ê± °
ìľ ¼
ë °
ì £
ë ¯
ì Ĥ¬
Ī ĺ
Ġìķ Ħ
ë Ħ
ìĸ ´
ìķ ¼
Ġë ¬
ë ŀ
Ġ íķĺ
ë ¬
ë ĮĢ
ë§ Į
ì ĥ
Ġë ª
ìĭ ľ
Ġì ĭ
ĠìĿ ´
Ġê µ
ìļ Ķ
ì Ľ
Ġì Ĥ¬
ëĦ ¤
Ġì ĸ
ì ²
ë¯ ¼
Ġê ²
ìł ķ
ì Ĭ
¡ °
ëį °
Ġê· ¸ë
Ġìł ķ
ì£ ¼
ê ¹
.. .
Ġë ³
ãħĭ ãħĭ
Ġë ¶
ë¥ ¼
ë ĥ
Ġë ĮĢ
ì ¹
ì ĺ
Ġë Ĥĺ
Ġê ³
Ġì Ħ
ìł ľ
ì °
ëĥ Ĳ
Ġì§ Ģ
ëĭ ¹
ì Īĺ
Ġìŀ Ī
ë Ł
ë ²
ë¶ Ģ
Ġë Ĥ
ì ¤
ë Ĥ
í ĺ
êµ ¬
ìľ¼ ë¡ľ
ë ª
íķĺ ëĬĶ
Ġìķ Ī
Ġ íķľ
Ġë ı
Ġ íķ
ì Ĩ
! !
ê ·
Ġëĭ ¤
Ġìŀ Ĳ
ìĽ Ĳ
Ġê ¸
ëĵ¤ ìĿ´
Ġì ļ
ĠìĿ ´ë
Ġêµ Ń
ìĿ ¼
ê¹ Į
Ġì ĥ
íķĺ ê³ł
Ġë ¯
ë Ĳ
ëĭĪ ëĭ¤
Ġì ĺ
ì Ļ
Ġì ¢
Ġì Ŀ¼
Ġê° Ģ
ìŀ ¬
í Į
ì¹ ĺ
ìĥ ģ
í ĸ
ĠìĹ Ĩ
ìĭ ł
Ġë ¹
ìŀ ¥
Ġì £
ë³ ´
Ġê ±
í Ļ
? ?
ê¸ Ī
Ġì Ļ
ë ħ
ê² ĥ
Ĩ µ
Ġë¬ ¸
ëł ¤
Ġê¸ °
ë ¹
ìĹĲ ìĦľ
ê² ł
ë¬ ¸
ëŀ Į
Ġì ľ
ì Ĥ
Ġì ¡°
í ĥ
~ ~
Ġë§ Ĳ
Ġì ¤
ëĬĶ ëį°
ë§ Ī
Ġì °
ìĬ ¤
ê° Ħ
ìł ģ
Ġë Ħ
ê³ ¼
ë§ Ĳ
Ġë³ ´
ê± ´
ķ Į
ìĦ ¸
Ġê· ¸
Ġë Ĳ
í Ĩµ
Ġì Īĺ
Ġë į
ì ¡°
ëı Ļ
¶ Į
Ġê° ľ
í ŀ
Ġì ²
ìł Ħ
ì§ Ħ
Ġì Ĩ
ìĦ ł
Ġë ĵ
Ġ ãħĭãħĭ
Ġëª ¨
Ġë Ń
Ġë ²
.. ..
ìĦ ±
ĠêµŃ ë¯¼
ì ¢
Ġìł Ħ
ļ Į
Ġë¬ ´
Ġìł Ģ
Ġìĭ ľ
ëĭ¤ ê³ł
ìĹ ¬
Ġì Ĥ
ìĸ ´ë
íŀ Ī
ĠìĿ ¸
Ġìļ °
ìĨ Į
ê ¶Į
Ġ ãħ
íķ ł
ìĿ´ ëĭ¤
ìķ Ī
ìĻ Ģ
Ġëª »
ëĵ¤ ìĿĢ
ë¬ ´
Ġê³ µ
ëĲ ĺ
ë³ ¸
ìŀ Ī
ĠìķĦ ëĭĪ
Ġëį Ķ
´ Ģ
Ġìĥ Ŀ
Ġìŀ ĺ
ĠìĤ¬ ëŀĮ
Ġë¶ Ģ
ìĹ Ī
í ļĮ
ê° ģ
Ġì§ Ħ
ŀ ĺ
Ġì¤ ĳ
ëĭ ¨
íĸ Ī
ëĿ¼ ê³ł
¨ ¹
Ġí ĺ
ì§ ľ
Ġ íķ´
ëŁ ¬
ë ¦
ê° ľ
Ġìĸ ´ë
ìĭ ¬
Ġí Ļ
ì¤ ĳ
ê· ¸ë
Ł °
ìļ °
ìĺ ¤
ìĥ Ŀ
ìĿ Į
íķ ´ë
ìĹ Ĩ
Ġê± °
Ġì ¹
ìľ ł
ëĬĶ ê±°
Ġì£ ¼
ìĤ °
Ġê ¹
ë ģ
ìł Ģ
ìĭ Ŀ
ĠìĻ ľ
ĠëĤĺ ëĿ¼
ì ¶
Ġë¯ ¸
êµ Ĳ
ĠìĹ ¬
íĻ Ķ
ëª ħ
ĵ °
ëł ¹
ê° Ļ
Ġìł ľ
Ĩ Ī
Ġë ĺ
ìĭ ¤
í ı
Ġí Į
íĮ Į
Ġê² ĥ
í ħ
í Ķ
Ġí ĥ
ìŀ Ħ
ê² ½
ĠëĦ Ī
ìľ¼ ë©´
ì ¡
Ġë° Ķ
í Ĭ
ëį ĺ
Ħ °
ë¹ Ħ
ë ĳ
ĠëĲ ĺ
Ġë§ Ī
Ġëĭ Ī
Ġëĭ ¹
Ġë§ Į
į °
ëħ Ħ
Ġê° Ļ
ëĵ ł
ìľ Ħ
Ġë Ī
Ġí ĸ
Ġ 1
ìĿ ¸ë
ìļ ©
íķĺ ë©´
ë ķĮ
Ġìķ Į
ë¯ ¸
´ Ĳ
ĠìĦ ¸
Ġë¹ Ħ
íķ´ ìĦľ
ë¥ ´
Ġê² ½
ì§ Ī
Ġë ħ
Ġìķ Ĭ
í Ĥ
ĠëŃ Ĳ
ë° ľ
Ġë¬¸ ìŀ¬
ìŀ ħ
Ġí ı
Ġê³ ł
Ġì Ľ
ëĵ ľ
ĠìĥĿ ê°ģ
í Ħ°
ê ´Ģ
ëį Ķ
Ġë¯ ¼
ìĹ ħ
ì² ´
Ġìļ° ë¦¬
ê³ µ
Ġìĸ ´
ë Ķ
ĠìĨ Į
ìĿ´ ëĿ¼
Ġë§ İ
Ġíķ ł
ìļ ´
íĨµ ëł¹
ì² ĺ
ëĭ¤ ëĬĶ
ĳ ľ
Ġìľ Ħ
ë¶ Ħ
ëł Ī
ì§ ģ
íķĺ ì§Ģ
Ġíķĺ ëĬĶ
ëĭ ĺ
Ġìĺ ¤
ì° ¨
ê¹Į ì§Ģ
Ġì¢ ĭ
Ġì ¶
ĠìĿ¼ ë³¸
ł ĩ
ì Ī
ĠìĦ ł
Ġìľ ł
Ġë¶ Ī
ëĭĪ ê¹Į
ê³ Ħ
ĠëĤ ¨
Ġìĭ ł
ìĿ´ ëĤĺ
ìĦ¸ ìļĶ
ìŀ ĳ
Ġë° ĺ
ìĬ µ
ã Ħ
ì° °
íķĺ ê²Į
íħ Į
íķ ©
ëģ ¼
ĠìĤ ´
ëĤ ´
ìĨ į
ëĤĺ ëĿ¼
O O
ì¤ Ģ
ë ¨¹
© ´
íķľ ëĭ¤
³ Ĳ
Ġëĵ ¤
ìķ Ļ
Ġë Ķ
Ł ¬
Ġë¶ ģ
Ġì¤ĳ êµŃ
ëŀ ĳ
ë² ķ
ëŁ °
ĠìĿ ĺ
ë¶ Ī
ëł ¥
íĤ ¤
ë° ©
Ġì ĵ°
Ġì£ ½
ë £
ë° Ķ
ê¸ Ģ
íĸ ī
Ġë° Ľ
Ġíķľ êµŃ
í ģ
ì Ķ
Ġëı Ħ
íķĺ ëĭ¤
ì² ľ
ĠìĿ´ë Ł°
ĠëĤ ´
ìķ ĺ
ëª ¨
Ġìĥ ģ
Ġëı Ī
ìĹ °
Ġì ´
Ġìŀ ħ
Ġì§Ħ ì§ľ
ìĹ Ń
ìĿ¸ë į°
ëĲ ľ
ì§Ģ ë§Į
ê± ¸
ĥ ¥
Ġì§ ĳ
ëĤ ľ
Ġì§Ģ ê¸Ī
ëĳ Ĳ
ìĹĲ ê²Į
Ġêµ ¬
ì² Ń
ì£ Ħ
ĠëĪ Ħ
ë° ķ
Ġë Ĭ
ëĮĢ ë¡ľ
µ ľ
í ĳľ
ĠìķĦ ëĭ
íķ´ ìķ¼
ì ¦
ì ´
íķ´ë Ŀ¼
êµ °
Ġë ģ
ĠëĮĢ íĨµëł¹
Ġì¢ Ģ
ëª »
, ,
Ľ Ħ
ì ¼
ì¡ ±
¸ë ¡
łĩ ê²Į
Ġê° Ĳ
Ġíĸ Ī
Ġë¬¸ìŀ¬ ìĿ¸
Ġìķ ł
Į ĵ
íķ Ļ
Ġê ¼
Ġê² Ģ
íĺ ¸
ì§ ĵ
ë¯¼ êµŃ
´ë ©´
íķľ íħĮ
Ġë¹ ¨
Ġ 2
ĠëĮĢ íķľ
± ħ
ë ĨĪ
Ġì¢ Į
ëĬ ¥
ëĦ¤ ìļĶ
Ġë ĸ
ê° Ĳ
ëŀ ĺ
ì§ ĳ
ëĵ ¯
ë² Ī
ìĺ ģ
Ġë ķĮ
ê· ¼
Ġë§ ŀ
ê¸ ī
Ġìŀ ¬
íĮ Ĳ
ê°Ļ ìĿĢ
Ġìŀ ¥
ëłĪ ê¸°
êµ¬ ëĤĺ
ëŀ Ģ
0 0
ìĦ Ŀ
ĠìŀĪ ëĬĶ
Ġìłķ ì¹ĺ
ë© °
Ġí Ķ
ì¤ Ħ
¼ ì§Ģ
ëĤ ¨
í Ŀ
ìĿ´ ê³ł
Ġì¡° êµŃ
Ġì² ĺ
ĠëĤ ´ë
Ġë¶ģ íķľ
ë¥ ¸
Ĩ ĵ
Ġë¯¼ ì£¼
ìĥ Ī
Ġëĺ Ĳ
Ġëı Ļ
Ġë° ķ
ìķ ł
ë° ĺ
í Ĺ
ìĤ¬ ëŀĮ
Ġì° ¸
Ġíķĺ ê³ł
!! !
Ġìł ģ
Ī ¬
ĠìĿ¸ ê°Ħ
Ġìłķ ë¶Ģ
Ġê·¸ë ĥ¥
½ Ķ
ĠìĦ ľ
Ġê¹ Ģ
ì¹ ľ
§ Į
ł ¤
Įĵ ê¸Ģ
ëĿ¼ ëıĦ
Ġì µľ
Ġë ¨
Ġìĸ´ë ĸ
ìĬµ ëĭĪëĭ¤
ìĬ ¨
ë¶Ģ íĦ°
ëĬĶ ê²Į
ì¢ Ģ
Ġë¬¸ ìłľ
ë° Ľ
Ġìĸ ¼
ë¬ ¼
Ġë° ©
íķ ¨
ĠìķĦëĭ Į
ãħ İ
ãħ ī
Ġíķ ´ë
ë² Ħ
íĥ ľ
ë¶ ģ
ìĽ Į
Ġë² ķ
ë§ Ŀ
ð Ł
Ġì Ĭ
Ġí Ĺ
íĥ Ģ
ëĵ ±
ëĵ¤ ìķĦ
ë² ł
ë³´ ëĭ¤
Ġë° ľ
Ġì° ¨
ê »
ì£¼ ìĿĺ
Ġë¬ ¼
Ġë ĳ
ãħ ¡
ìĤ ´
ëŁ ¼
Ġë¶ Ħ
ë§ ¤
ì£ ł
ë©´ ìĦľ
ĠìĦ ±
Ġêµ Ĳ
İ ¸
Ġê° ķ
ëħ ¸
íĬ ¸
ê² ©
Ġì¹ ľ
ëĭ ¬
êµŃ ë¯¼
Ġìĭ ¤
Ġë ©
ìĸ´ ìĦľ
ìķ¼ ì§Ģ
Ġãħĭãħĭ ãħĭ
íķ© ëĭĪëĭ¤
± ìĿ´
ĠëĮĢíķľ ë¯¼êµŃ
Ġì² Ń
ë¹ ¨
´ ĳ
ë ´Ĳ
ìĿ´ ì§Ģ
Ġíĺ Ħ
Ġìłķ ìĭł
ĠìĹ Ń
Ĩ ł
ĠìĽ Ĳ
íĶ Ħ
ìłģ ìľ¼ë¡ľ
íĺ ľ
ë¬ ´ë
Ġí Ĭ
ì¢ ħ
ì ħ
Ġê² °
ê· ¸
ìł ¸
Ġë ¨¹
ì ³Ĳ
Ġë§ Ŀ
íģ ¬
Ġ 3
Ġê°Ļ ìĿĢ
ìĨĮ ë¦¬
ê¸ ¸
Ġìĥ Ī
Ġë§Į ëĵ¤
Ġìĺ ¬
¸ë ¦¬
Ġë¬´ ìĬ¨
Ġì Ī
Ġê ´Ģ
ìŀħ ëĭĪëĭ¤
Ġëı Į
ĠìĿ´ ìłľ
ìľ¼ ëĭĪ
ìĸ ĳ
Ġí ŀĺ
ĠíĶ ¼
ìĿ¸ ê°Ģ
ìĿ´ ëĥĲ
Ġê·¸ë Ł°
ì¼ ľ
ë² Į
Ġìłķ ê¶Į
ê²ł ëĭ¤
Ġê·¸ë ¦¬
ë Ī
íĿ ¬
Ł ¼
ë³ ´ë
Ġë° °
ì¶ ľ
Ġëª¨ ë¥´
Ġìļ ķ
ĠëĦ ĺ
ë¬¸ ìŀ¬
ëł¤ ê³ł
ê² ¨
ë¦ °
Ġì§Ģ ì§Ģ
Ġë Ĩ
ë³ ĳ
ìĶ ¨
Ķ Ķ
Ġê²½ ìłľ
Ġì¹ ĺ
ĠìĹ °
ëŁ ½
ª ½
ê² °
ë¡ ł
ì ©
Ġí Ŀ
ì²ĺ ëŁ¼
Ġìłķ ë§Ĳ
ĠìĻ ¸
!! !!
ë ¨
Ġíķĺ ëĤĺ
ì ĵ°
ë° °
ê ¼
Ġë ĨĪ
?? ?
Ġëĭ ¬
Ġë¯¸ êµŃ
Ġê³ Ħ
Ġë Įĵê¸Ģ
ê ¾
Ġ 5
ì° ½
ìŀ ĸ
Ġìĺ ģ
Ġê¸° ìĤ¬
íķľ ëĭ¹
ê° ±ìĿ´
ëĵ¤ ìĿĺ
Ġê²Ģ ì°°
OO O
ê²ĥ ëıĦ
ê¸ ´
ìĿ¸ ìĿ´
Ġë§ ī
ëĬĶ ì§Ģ
ìķ ħ
Ġê·¸ë Ł¬
í Ĵ
Ġì¶ Ķ
íķĺ ëĦ¤
Ġí Ĩµ
ĠëĦĪ ë¬´
ìŀĲ ê°Ģ
ë£ Į
ìĺ Ī
Ġíķĺ ì§Ģ
ê¹ ¨
Ġëĭ ¨
ëĵ¤ ìĿĦ
ìłģ ìĿ¸
ìłķ ë¶Ģ
ì ±ħ
ìĻ ľ
Ġëħ ¸
íĶ ¼
ë¦¬ ê³ł
Ġì´ Ŀ
Ġë¯¼ì£¼ ëĭ¹
Ġëª °
íĺ Ħ
Ġìŀ ¡
ìĽ Ķ
ëĤ ł
Ġë³ ¸
Ġí ģ
ìļ ¸
Ġë Ĵ
³ ´
Ġê·¸ë ŀĺ
íĻ ©
ĠìĹĨ ëĬĶ
íĺ ķ
Ġë§ ¤
Ġìĭ ¬
ì§Ģ ê³ł
ĠíĻ ķ
ëĬ Ĳ
ëĵ¤ ëıĦ
ê²ł ì§Ģ
ìĿ´ ëĦ¤
ê°Ģ ë¦¬
íı Ĳ
Ġë³ ´ë
ìĿ´ ê°Ģ
¡ ľ
ĠìŀĲ ê¸°
ìķĦ ìĦľ
ĠëŃ Ķ
ìĸ µ
Ġíķ ©
ĠìĦ¸ ê¸Ī
Ġìĭ ¶
Ġ .
Ħ ¤
¸ë¡ ł
ìĪ ľ
¥ ¼
ë¬¸ ìĹĲ
¸ë ł
ĠìĨ Ĳ
ìĿ´ ëĿ¼ê³ł
ĠìŀĪ ëĭ¤
Ġìĸ ĳ
ê² Ģ
ĠëĤ ľ
ëĿ¼ ëĬĶ
Ġì ¦
ê° ķ
ĠëĶ °
Ĩĵ ê³ł
Ġëĳ Ĳ
ë§Ĳ ê³ł
ìŀ ¡
ĠêµŃ ê°Ģ
~~ ~
Ġì ½Ķ
Ġëı ħ
ĠìķĪ ëĲĺ
ìłķ ê¶Į
ī ´
Ġíķľ ëĭ¤
ì Ł
» ê²Į
ĠëĪ Ī
Ġìĸ¼ ë§Ī
ìŀĸ ìķĦ
ìĺ ¨
ìĺ Ģ
ë ĺ
ì²ľ ì§Ģ
Ġíĸ ī
ĠìĹĨ ëĭ¤
Ġì ¡
Ġê· ¼
ãħĭãħĭ ãħĭ
Ġì¢ ħ
Ġê° Ħ
ëĶ Ķ
º ¼
ìĿ´ ìķ¼
Ġê± ´
Ġìŀĺ ëª»
íķĺ ëĥĲ
ĠíĮ Ĳ
íĺ Ģ
· ¨
Ġì ³Ĳ
ì´ Ŀ
ëı Ī
ë¦¬ ëĬĶ
í ĽĦ
ìķĦ ëĭĪ
į ¨
ìĸ´ ìķ¼
Ġìĵ° ëłĪê¸°
ëĦ Ī
ĠìķĦëĭĪ ëĿ¼
į ¼
ìĿ¸ ì§Ģ
Ġìĸ´ë ĶĶ
ëı ħ
Ġì¤ Ħ
íķĺ ëĤĺ
Ġí ĽĦ
íķ µ
ì¦ Ŀ
Ġìĺ Ī
Ġê·¸ë łĩê²Į
Ġíı ī
Ġê·¸ë¦¬ ê³ł
Ġëģ Ŀ
Ġì£ Ħ
ãħ ł
ìķ Ĭ
Ġìł Ī
ë£ ¨
Ĩ į
ĠìłĢ ëŁ°
ìł Ĳ
ĠìĬ ¤
íķ´ ëıĦ
Ġìķ ŀ
ìł Ī
Ġ ãħĭ
Ġìĸ´ëĸ »ê²Į
Ġìļ°ë¦¬ ëĤĺëĿ¼
ìŁ ģ
ëĭ¤ ê°Ģ
í ĭ
ĠëĤĺ ìĺ¤
ìĿĺ ìĽĲ
ĠíĮ Į
Ġë¯ ¿
ë³ Ģ
ì§Ģ ëıĦ
ĠëĲ ľ
ĠíĻ Ķ
ì¢ Į
ë Ń
ê·¼ íĺľ
Ġëĺ ĳ
ìĹĨ ëĬĶ
ëı ¼ì§Ģ
ê° Ī
ì° ¸
Ġì¢Į íĮĮ
ë¡ľ ëĤĺ
ë¡ Ŀ
Ġë² Ħ
.. ...
Ġí Ī¬
íķĺëĬĶ ê±°
Ġë¬¸ìŀ¬ ìķĻ
íķľ ê±°
Ġëĵ¤ ìĸ´
Ġë² Į
ĠìĨ į
ìĭľ ëĭ¤
ê°Ģ ëĬĶ
Ġëª ħ
Ġíķ Ļ
Ġë§İ ìĿ´
ìŀĲ ëĵ¤
¿ Ĳ
Ġê³ ¼
» Ķ
Ġëĵ ±
ìĹ ´
ìŀĪ ëĬĶ
ë Ŀ
Ġëª ©
Ġìŀ Ħ
Ġìļ Ķ
Ġëĵ ľ
ìĬ¤ íģ¬
Ġìĭ ¸
ê± ´ë
ë¹ ł
Ġíķ Ħ
ìĭľ íĤ¤
ìĻ ¸
ĠìŀĲ ìľł
½ ĳ
ì¶ ©
ìĸ ¸
Ĥ ´
ëĪ Ħ
ë ´
ì¶ Ķ
ëĭ µ
Ġëĭ¹ ìĭł
ê±° ë¦¬
ī´ ìĬ¤
ĠìŀĲ íķľëĭ¹
ëħ Ģ
ëįĶ ëĭĪ
Ġìĭ «
í İ¸
ĠíĬ ¹
ĠëĪĦ ê°Ģ
Ġêµ °
ìķ ½
Ġë ´Ĳ
ë³ µ
Ġëĭ µ
ìĹĲ ëĬĶ
Ġìĸ ¸
ìĨ ¡
Ġë¹¨ ê°±ìĿ´
ĠìĨĮ ë¦¬
ìĸ´ ìļĶ
Ġ OOO
ìĿ´ ëŁ°
ìłķ ìĿĢ
ĠìĿ´ë łĩê²Į
ì ģ
ì§Ħ ì§ľ
Ġê·¸ë §Į
ìĸ´ ëıĦ
ĠìĤ¬ íļĮ
ĠìķĦ ì§ģ
ìĦ ¸ë
Ġì§ ģ
ĠëĴ ¤
íĺ ģ
ëĵ Ŀ
Ġìĸ ¸ë¡ł
ìĿ´ ëĬĶ
ĠìĹ Ħ
ĠìĿ´ ê²Į
ì° ©
ëĤ ´ë
ì¤ ĺ
Ġí ĭ
íĻ ľ
ë¦ ½
Ġ 4
ê¸° ëĬĶ
íĹ ĺ
ëĿ ½
ìķ Į
Ġìłľ ë°ľ
ĠêµŃ íļĮ
¸ë¡ ľ
íĥ Ħ
ìĦ ¤
Ġíĥ Ħ
ê» ĺ
ê°Ģ ìĦľ
ë ĸ
Ġìķ ħ
ìĺ ¬
Ġìĸ¼ë§Ī ëĤĺ
Ġëª ĩ
í Ī¬
ì¡ Į
ëĬĶ ëĭ¤
ì£ ½
ìĿĦ ê¹Į
ĠìĿ´ ìĥģ
ã Ĩį
Ġë³´ ê³ł
Ġëĭ¤ ë¥¸
íķĺëĬĶ ëį°
íı ¬
Ġëĸ ł
Ġëĺ ¥
ĠìĤ´ ìķĦ
ĠìķĦëĭĪ ê³ł
ĠëĲ ł
ĩ Į
Ġíĥ Ģ
Ġì² ľ
¨ ìĸ´
Ķ ì£Ħ
ìĬ ¹
ĠìĽ ĥ
ìĥ ī
Ġí Ĩł
ì§Ģ ëĬĶ
ĠìĪĺ ì¤Ģ
Ġê¹ Į
ìĭ ¶
ê¹ Ģ
íķľ êµŃ
ĠìĤ¬ëŀĮ ìĿ´
ìĻĢ ëĮĢ
ìŀĲ ëĬĶ
ëĬ ĺ
íĮ ¨
Ġãħ ī
Ġíķ´ ìķ¼
Ġë¬ ´ë
ìĹ Ķ
ìĹĪ ëĭ¤
ìĹĲ ëıĦ
Ġê² Į
ĠìĪĺ ìĤ¬
Ġãħ İ
íĴ Ī
ëŀ Ħ
ì° ¬
Ġíı Ń
ì¡° êµŃ
Ġì¦ Ŀ
íĮ Ķ
ë¯¼ ì£¼
ĠêµŃë¯¼ ëĵ¤
ê ´ĳ
Ġí ĳľ
ìłķ ëıĦ
Ġìłľ ëĮĢë¡ľ
Ġìļ ´
ìļ° ë¦¬
ìľ ¨
ĠíķĦ ìļĶ
ì´ Ī
Ġê ´ĳ
ëª ©
ê º¼
ìŀ ĺ
?? ??
ì£¼ ê³ł
Ġíĥ ľ
íĸ ¥
ĠìĦł ëıĻ
Ġì§ ĵ
Ġë ´
ĠìĦ ¤
¶ Ģ
ëĲľ ëĭ¤
ĠìĿ´ë ¯
Ġìĺ ¨
íĻ ĺ
Ġê ¶Į
Ġì¹ľ ìĿ¼
Ġë³ ´ë©´
ĩ ´
íĥ Ŀ
¸ë ŀĺ
ë¬¸ìŀ¬ ìĿ¸
ìĿ´ ë©´
ê·¸ë ŀĺ
ìĿ¼ ë³¸
êµ¬ ë§Į
ľ ´
ĠëĤ ł
ìĸ´ë Ŀ¼
Ġê±° ì§ĵ
- -
Ġë§Ĳ ê³ł
^ ^
ì ª½
ê²ł ëĦ¤
Ġìķ ¼
Ġë ½ĳ
Ġê³µ ìĤ°
ĠìĹ Ĳ
Ġì ±ħ
ê°Ģ ì§Ģ
ĸ ìĹĲ
Ġì¡° ìĦł
ìĥĪ ëģ¼
Ġìĸ ĺ
Ġ ãĦ
ĠëıĮ ìķĦ
íı Ń
í Ĩł
Ġì½Ķ ë¡ľëĤĺ
ìľ ¡
íĸĪ ëĭ¤
ĠëŃ ĺ
ê· ¹
ëĤĺ ìļĶ
ëĦ ĺ
íķĺ ê¸°
ĠëĬ Ĳ
Ġãħ ¡
íħ Ĳ
ë¦ Ħ
íĬ ¸ë
ë§Ī ëĿ¼
Ġì¶ ľ
ĠìķĦëĭĮ ê°Ģ
Ġë³´ ìĪĺ
Ġìŀ ĳ
ìĽ Ģ
ì¤ĳ êµŃ
ĠìĹ ´
² Ī
ĠìĤ ¼
Ġë³ Ģ
ìĿ ĳ
ëĮĢ íķľ
Ġí İ¸
ë³´ ê³ł
Ġê° Ī
ìĭ Ń
Ġì¡° ìĤ¬
ĠëĤĺëĿ¼ ê°Ģ
ìĨ Ĳ
Ġëª¨ ëĳĲ
Ġì¢ĭ ìķĦ
Ġì Ķ
Ġë§Ī ìĬ¤íģ¬
Ġìĭł ì²ľì§Ģ
í İ
ĠìĤ¬ ìĭ¤
ì¢ ĭ
Ġíķĺ ë©´
ëĭ¤ ëĭĪ
Ġëĭ¤ ìĭľ
ìĿ µ
¸ëł ¥
Ġê³Ħ ìĨį
ìĿ´ ëŀĳ
ìĹĨ ìĿ´
ìĿ´ëĿ¼ ëıĦ
Ġìłķ ìĿĺ
ĠìĻ Ħ
ĩ ¼
ê¹¨ ë¬¸
Ġíķ´ë Ŀ¼
ëĬĶ ê±´
~~ ~~
ëı Į
ê°Ļ ìĿ´
Ġì° į
ĠìĦ¸ ìĥģ
ĠëĨ Ģ
ê¸° ìĹĲ
± Ħ
ĠìĿ´ë ²Ī
Ġëª¨ ëĵł
ìķĦ ìķ¼
Ġìĸ´ ì©
ì¦ ĺ
ìĸ´ë Ĥĺ
ì² ł
ì ¸
Ġ ?
íķĺ ëĿ¼
Ġëħ ¼
Ġíģ °
ìĭľ ì¼ľ
ê° Ĵ
Ġì² ł
¸ë ¬
Ġí ļĮ
Ġíı ¬
íķĺ ìŀĲ
Ġê·¸ë Ł¼
ĠìĿ´ ìľł
ìĹ ¼
ĠíĥĦ íķµ
ĠíĹ Ī
íĺ ¼
Ġì ·¨
¦ °
ĠìĤ¬ëŀĮ ëĵ¤
Ġãħī ãħī
íķĺ ëĭĪ
êµ ´
ë§ ŀ
ì° Į
ĠíĮ Ķ
ë ķ
ê³ł ìŀĪ
íķĺë©´ ìĦľ
ë¨ ¸
Ġ ..
ìĻ Ķ
ë§ ī
ĠíĻ ©
ëĵ¤ ìĸ´
Ġì¢ĭ ìĿĢ
ëł ¨
íķĺ ìĭľ
ì ½Ķ
Ġê°ľ ëı¼ì§Ģ
Ġë§İ ìĿĢ
ĠëĭĪ ëĵ¤
ìĭľ ë¯¼
Ġì´ Ī
Ġíķ ¨
ĠìĿ´ë¯ ¸
Ġë§Ĳ ìĿ´
Ġë¹ ł
ê¸° ê°Ģ
íı ī
ë³ Ħ
Ġ1 0
ĠëĪĦ êµ¬
ëŁ¬ ìļ´
ê±° ëĭ¤
ĠìķĦ ìĿ´
ë Ĩĵê³ł
ĠìĦł ê±°
ëĲ ł
ìł ł
Ġì¡° ìŀĳ
ê¸° ë¥¼
ëĭ¹ ìĿ´
Ġë°ķ ê·¼íĺľ
¸ë Ŀ¼
Ġê¼ Ń
ìĪ ł
ëĬĶ ê²ĥ
Ġì ª½
ìĹĨ ëĭ¤
ëĶ °
íħĲ ëį°
Ġí Ĵ
Ġë¨ ¼
Ġìľ ¤
ĠìĹ¬ ìŀĲ
ê¸° ìĹħ
Ġì±ħ ìŀĦ
Ġí Ľ
Ġíĭ Ģ
Ġì ĵ
ìĿ´ ëĭĪ
ĠìĥĪ ëģ¼
ìħ ¨
ãħİ ãħİ
Ġíķľ ë²Ī
¸ë ĮĢ
íķĺëĬĶ ê²Į
* *
íķľ ëĭ¤ê³ł
ìĿ¸ ëĵ¤
ë§Į ìĽĲ
ëł ĩ
Ġë°Ķ ë¡ľ
Ġ ...
ĳ ìĽĲ
Ġê¸ Ī
ëįĺ ëį°
ì§Ģ ê¸Ī
Ġë ľ
ĠìĿ´ íķ´
íķ´ ì£¼
Ġìķ ½
ì į¨
Ġê ´
ë¨¹ ê³ł
ê±° ì§Ģ
Ġ 6
ìĽ ĥ
¶ ģ
ë ¸
ìĿ´ ìĥģ
ìĪĺ ê°Ģ
Ġì ī
.... ....
ëģ Ħ
Ġ2 0
ëłĩ ê²Į
Į į
ìĿ´ ëŀĢ
ê±´ë į°
ëĶ ±
Ġíķľ ìĭ¬
ëĮĢ íĨµëł¹
Ġìĸ¸ ìłľ
ĠìķĦ ì£¼
Ġì²Ń ìĻĢëĮĢ
ĠìŀĲ ìĭĿ
ì§ ķ
ëĮĢ ì²´
ãħ ľ
í ľ´
ĠìķĮ ê³ł
ĠìľĦ íķ´
íķĺ ìĹ¬
Ġê·¸ ê²Į
ìĭ ¸
ĠëĤ´ ê°Ģ
Ġë° ±
ĠëĭĪ ê°Ģ
ĠëķĮ ë¬¸ìĹĲ
ì§Ģ ìķĬ
ĠìķĦ ë¬´ë
ìĻĢ ìĦľ
ì¤ĳ ìĹĲ
ë¦¬ ê°Ģ
Ġê¹ ¨
ë° ±
; ;
ì² Ļ
Ġë¶Ģ ëª¨
ĠëĦ ¤
ì¹ĺ ê³ł
Ġë² Ķì£Ħ
ê² ¬
ë ľ
ĠíĻ ĺ
ê¾ ¸
ë¥ ´ë
ĠìķĦ ëĭĪëĭ¤
Ġíĺ ¸
ìĦ± ìĿ´
ìļ ķ
ê¼ ´
ë§ İ
ìĤ¬ ê°Ģ
ìķĦ ëĿ¼
ë² Ķ
êµŃ ê°Ģ
ì¡° ìĦł
ëįĶ ëĿ¼
ê²ł ëĥĲ
ĠëĬ ĺ
Ġë¹ ¼
ĠìķĦ ë¬´
ĠìłĪ ëĮĢ
ëĬĶê±° ì§Ģ
Ġê·¸ë łĩ
ĠìĪ ľ
ĠìĤ ´ë
ĠêµŃë¯¼ ìĿ´
ĠëŃĲ ê°Ģ
Ġì¢Į ë¹¨
Ġí į¼
ĠìķĦì§ģ ëıĦ
ê° Ķ
ĠìķĦ ë²ł
Ġ1 00
Ġê· ¹
Ġê¼ ¬
ĠìŀĪ ëĬĶëį°
ëŃ Ĳ
Ġëĭ¹ ìĹ°
ê²½ ìłľ
ĠìĹĨ ìĸ´
ë ¿Ĳ
ëĭ ´
ìł ĳ
Ġê¼ ´
ë³ ´ë©´
ìģ ľ
í Ľ
Ġê°Ģ ì¡±
Ġí İ
ĠíĶ¼ íķ´
Ġë¬´ ëĬ¥
ìłķ ìĭł
ĠìĤ °
ìĻľ êµ¬
Ġíı Ĳ
Ġìĥģ íĻ©
Ġë³ Ħ
Ġê¸° ìĹħ
¸ë ¹
ĠíĻ į
Ġì´Ŀ ìĦł
íĥ Ī
í ĩ´
ëıĻ ìķĪ
Ġê°Ļ ìĿ´
± ìłķ
ĠêµŃë¯¼ ëĵ¤ìĿ´
ìĭľ ê°Ħ
ìłĦ ìĹĲ
Ġìłķ ëıĦ
ê±° ëĤĺ
Ġì¤ Ģ
ì§Ģ ë§Ĳê³ł
ê²ĥ ìĿ´
ĠìĿ¸ ìłķ
ĠìĿ´ ìļ©
ë¬´ ìĽĲ
² Ħ
Ġë°ĺ ëĮĢ
Ġë° Ŀ
íģ ¼
Ġê± ¸
ê³ ³
Ġì§ ±
ê²ĥ ëĵ¤
Ġë Ŀ¼
ê·¸ë Ł¬
ê¾ ¼
Ġê¸ Ģ
ìĭľ ê³ł
ĠêµŃíļĮ ìĿĺìĽĲ
ĠìŀĲ ìĭł
íĭ °
ĠëĤĺëĿ¼ ë¥¼
Ġë¯¸ ì¹ľ
ìĿ´ëĿ¼ ëĬĶ
ìĤ¬ ëĬĶ
ë¦ ´
ĠìĹĨ ê³ł
ì²´ ê°Ģ
Ġê²½ ì°°
ĠìĻ Ģ
ìŀ¥ ê´Ģ
Ġê·¼ ëį°
Ġì° ¾
ì¹ĺ ëĬĶ
ĠêµŃë¯¼ ìĿĦ
Ġì§ Ī
ëĺ Ĳ
ê·¸ë ĥ¥
ìĬ¤ ëŁ½
ë Ĥ¬
ìĸ ¼
ĠìŀĪ ìĹĪ
ìļ´ ëıĻ
ĠëĭĪ ëĵ¤ìĿ´
į ©
Ġë¨ ¸ë¦¬
ê ´
Ġíķ© ëĭĪëĭ¤
Ġë¹¨ ë¦¬
Ġ "
ë ī´ìĬ¤
ìħ Ķ
ĠíĮ ¨
ãħ ĩ
Ġíĥ Ī
Ġì¶ ©
Ġìĸ´ëĸ ¤
ìĺ ¥
ê ¿
ãħ ħ
ìĿ¼ ë³´
íĶ Į
ë Ĩ
Ġë°Ľ ìķĦ
ĠìĿ´ ê±´
ĠìĦ¸ ê³Ħ
Ġíķ µ
Ġìłģ íıĲ
Ġì§ ľ
ê²½ ìĽĲ
ë¦ ¼
Ġãħ ħ
ĠëĮĢ êµ¬
ëĭ¤ ë©´
ê² ģ
ì£¼ ëĬĶ
ëĲĺ ëĬĶ
ĠëĮĢ ê¹¨ë¬¸
Ġìĭľ ìŀĳ
ĠìĻĦ ìłĦ
íĥ ĵ
ĠìĤ¬ëŀĮ ëĵ¤ìĿ´
ìĿ¸ ê°Ħ
Ġëĸ ¨ìĸ´
ìŀĲ ë¦¬
Ġê°Ģ ì§ľ
Ġìŀ¥ ê´Ģ
ì¹ ´
ê¸° ëıĦ
Ġì į¨
Ġê¶Į ëł¥
ëĭ¹ ìĿĢ
ĠìłĦ ë¶Ģ
ìĥĿ ê°ģ
Ġëıħ ìŀ¬
ì² ´ë
Ġ ~
ĠìĿ´ë Ł¬
ëķĮ ë¬¸ìĹĲ
ì§Ģ ê°Ģ
ê¸° ìĤ¬
Ġê¹Ģ ìłķìĿĢ
ãĦ ´
ëł ¸
Ĥĺ ëĿ¼
ë »Ķ
Ġë »Ķ
Ġì¡ ´
ìĿ´ ëŁ¬
ì¡° ê±´
ì ¯
ìŀ¥ ìĿ´
êµĲ ìķĪ
Ġê²° êµŃ
ĠìĽ Ķ
Ġë³´ ìĹ¬
Ġãħ ł
Ġë¨¼ ìłĢ
ãħī ãħī
ìĶ ©
ĠìĤ¬ ê¸°
ĠìĹ¬ ë¡ł
ë¶ģ íķľ
» ¤
ì ī
Ġêµ¬ ìĨį
ìĿ´ ê²Į
Ġë§Ī ìĿĮ
Ġíĺ ¼
Ġìŀ¬ ìķĻ
Ġìĭľ íĤ¤
ĠìķĦ ëĭĺ
Ġë° ¥
ĥ Ĳ
ë¡ Ģ
ìĤ ¼
ëĵ¤ ìĹĲê²Į
ì°© ìĻľêµ¬
íķ Ń
Ġìŀħ êµŃ
ìĿ´ ìłľ
ëł¤ ëĿ¼
ëĳ ¥
Ġë ĩĮ
ĠëĦĪ íĿ¬
ëŁ ī
ê²Ģ ì°°
Ġë ķ
ĠìĹ¬ ê¸°
Ġì²ĺ ë²Į
ìĸ´ë Ĥ
ê¹ Ŀ
¥ Ĳ
ê°ľ íĺģ
í ļ
ê°Ģ ê³ł
Ġíķ Ń
íķĺ ë©°
± Ļ
Ġìļ ©
ëł ´
Ġê±°ì§ĵ ë§Ĳ
Ġìĭ Ŀ
Ġì§Ģ ëĵ¤
Ġìĸĺ ê¸°
ª ħ
ë¬¸ìŀ¬ ìķĻ
ëĿ¼ ìĿ´
íĮ ħ
ì² ©
ĠëĶ ±
ì µľ
ĠìķĦëĭĪ ë©´
Ġíĺ ĳ
ì¡ ´
ì¢Į íĮĮ
ëĮĢ ê°Ģë¦¬
ĠëĤ´ë ł¤
Ġê· Ģ
ëĭ Į
Ġëį °
1 8
ì Įį
Ġíŀĺ ëĵ¤
íķĺ ìĦ¸ìļĶ
Ġí Ĥ
íĻ ķ
ĠíĿ ¬
ê° ĳ
ĠíĺĦ ìĭ¤
ìłķ ì¹ĺ
Ġíķĺ ëĬĶëį°
Ġê·¸ëŀĺ ìĦľ
Ľ ë¶Ī
ëĨĪ ëĵ¤
Ġëª» íķľ
íķ´ìķ¼ ì§Ģ
Ġ 7
Ġê± ±ìłķ
Ġ ,
ë¥ ĺ
Ġìłķ ìĥģ
ì¡° ìĤ¬
ìĪĺ ìŀĪ
ê²ĥ ìĿ´ëĭ¤
Ġëĭ¤ ëĭĪ
ĠìĤ¬ ê³ł
ìĽĶ íĺ¸
ë° ĸìĹĲ
ìĬ¤ ë¡ľ
ì¡° ìŀĳ
íĸĪ ëĬĶëį°
ë´Ĳ ëĿ¼
Ġíĸī ëıĻ
Ġë¨ ¸
ê±´ ê°Ģ
Ġì§Ģ ìĽĲ
ì£¼ ìĦ¸ìļĶ
© ëĭĪëĭ¤
íĹ Ī
ì ĵ
ëĲĺ ë©´
,, ,
ëĮĢíķľ ë¯¼êµŃ
ĠëĤ¨ ìŀĲ
Ġãħ Ī
ĠìŀĪ ìĿĦ
¸ë¬ ´
Ġê¸° ìŀĲ
ë´ ī
Ġë© į
íĺ ĳ
íķ´ë ´Ĳ
Ġìĸ´ ëĬĲ
ĠìĹĦ ì²Ń
Ġëª¨ë¥´ ëĬĶ
ãĦ ¹
Ġë ī´ìĬ¤
Ġìĭľ ê°Ħ
ì ·¨
ĠêµŃë¯¼ ìĿĺ
Ġëĵ £
Ġëģ Į
ĠìłĦ ëĿ¼ëıĦ
íķľ ëį°
ìķ ŀ
ê¼ ¬
ë Įĵê¸Ģ
Ġíķ´ ëıĦ
ĠìķĦëĭĪ ëĥĲ
ìķĦ ë¨¹
Ġìĸ´ì© Į
Ġë¬´ ì¡°ê±´
Ġëĭ¤ ìĿĮ
ìłĢ ëŁ°
Ġìłķ ì±ħ
Ġãħİ ãħİ
íĺ ¹
ĠìĤ¬ ê³¼
Ł¼ íĶĦ
ëł¤ ëĬĶ
Ġíķĺ ëĬĶê±°
ãĦ ·
ëŀ į
ë Ģ
ħ Ħ
Ġê²ĥ ìĿ´
ì ±Ħ
Ġìĸ´ ì°Į
ìĹ ĩ
Ġ !
.... ..
ãħ¡ ãħ¡
Ġì¤ĳ ìļĶ
ĠíĤ ¤
ìłķ ë§Ĳ
ĠëĲĺ ëĬĶ
ĠëĤľ ë¦¬
Ġê° ĸ
ê¹ Ĳ
Ġê²ĥ ìĿ´ëĭ¤
ëĭ ¥
ì¹ ¨
ë¬¸ ìłľ
Ġê°Ģ ëĬ¥
ĠëĬ ¥
ê¸° ê³ł
Ġë§Įëĵ¤ ìĸ´
§ Ī
ĠìĿ ĳìĽĲ
Ġê°Ģ ì§Ģê³ł
Ġê° ĳ
Ġìĸ µ
Ġí Ħ°
ê±° ìķ¼
Ġë³ ĳ
ìķĺ ëĭ¤
Ġìķ ķ
íķĺ ê²ł
Ġì§Ģ ìĹŃ
Ġì į©
ìľ ¤
ìĪĺ ì²ĺ
ĠëıĦ ëĮĢì²´
íĭ Ģ
Ġì§ĳ ëĭ¨
ì¼ Ģ
ì ½
íķĺ ëįĺ
ĠëĮĢ ëĭ¨
ëĲ Ĳ
ëħ Ĳ
Ġê° ģ
Ġê°Ģ ìŀ¥
ê±´ ì§Ģ
Ġë§ ĺ
Ġë¨¹ ê³ł
ëģ¼ ë¦¬
ê· Ģ
íķ´ë ³´
ðŁ ĺ
ê· ľ
Ġë² ł
ìĦ Ń
ì° į
ëıĦ ë¡Ŀ
íĤ ¨
ëĵ¤ ë§Į
ìķĦ ìļĶ
ìĬ ¬
ëĤ¨ ë¶Ī
Ġê ¶ģ
ĠëįĶ ë¶Ī
í į¼
ìĿ¸ ìĿĢ
Ġë ĥ
Ġë³ µ
Ġê³µ ë¬´ìĽĲ
Ġê°Ļ ëĭ¤
Ġë° Ģ
ëį ķ
ĠìĿ Į
Ġìł Ĳ
Ġë³ ¼
ìĦł ê±°
Ġíķ´ ìĦľ
Ġë³´ë Ĥ´
ëª °
ìĹĪ ëĬĶëį°
ĠìĦľ ìļ¸
Ġë ¿Ĳ
ìĤ ´ë
Ġíķ´ ê²°
ëĵ¤ ê³ł
ĠíĶ Ħ
Ħ ¸
ëı ¼
ì§Ģ ì§Ģ
ìĦ¸ ê¸Ī
ìĿ´ ë²Ħ
ĠìĤ¬ ê±´
³ ¤
Ġê²Ģ ìĤ¬
ĠëĨ Ĵ
ĠìķĪ ë³´
ìĦ¸ ê³Ħ
Ġëĭ¬ ì°½
Ġëĳ ĺ
ìĹŃ ìĭľ
ë¦¬ ì§Ģ
ìĪĺ ëıĦ
íķľ ê²Į
Ġíķĺ ë£¨
ëĤĺ ëĬĶ
ëĤĺ ìĦľ
Ġíĺ ķ
ìŀĲ ëĵ¤ìĿ´
Ġë§Į ëĵł
ĠëĤĺ ìģľ
ì¸ µ
ĠìĻ¸ êµŃ
ë¥´ ê³ł
ĠìĹĨ ìĿ´
ë¨¸ ëĭĪ
ë°Ľ ê³ł
ĠìĿ´ ìłł
ĠìĻ¸ êµĲ
ĠëĮĢ ê°Ģë¦¬
íĬ ¼
ª ¨
ë¨ ¼
ĠìĹŃ ìĤ¬
ëĵľ ëĬĶ
Ġ '
ĠìĶ ¨
ëł¤ ë©´
Ġê² ģ
ĠëĶ° ëĿ¼
Ġê°Ģ ìĦľ
íĥ ģ
ê°Ħ ëĭ¤
Ġê± ¸ë
ëĬĶê±° ìķ¼
Ġì§ ķ
ĠëĲľ ëĭ¤
Ġì ĩ¼
ĠìļĶ ì¦ĺ
ìĿ¼ ìĿ´
Ġ 8
ê·¸ë Ł¼
ìŀĲ ë¥¼
ìĹĲìĦľ ëĬĶ
ëĵľ ìĭľ
Ġ3 0
Ġìĭľ ë¯¼
ìĦ¸ë ¨
ĠìłĦ ìŁģ
ĠìĿ´ ê±°
ìĭ¬ íŀĪ
¸ë¹ ł
Ġëª» íķĺëĬĶ
ê²ĥ ëĵ¤ìĿ´
ìŀĲ íķľëĭ¹
ëĲĺ ê³ł
ĠìłĢ ëłĩê²Į
ĠëĶ ¸
Ġê³µ ê°ľ
ãħ Ī
Ġì° ¬
Ġë¯ ¸ëŀĺ
Ġê°ĻìĿĢ ëį°
ĠìŀĪ ëĦ¤
Ġì§Ģì§Ģ ìľ¨
ìĦ¸ë¨ ¼ì§Ģ
ĠìĤ¬ ìĿ´
Ġì ±Ļ
ëĤĺ ìĺ¤
Ġì «
ìĿĦ ëķĮ
ĠíĴ Ģ
Ġìļ°ë¦¬ ê°Ģ
ĠëĮĢíĨµëł¹ ìĿ´
ĠìĿ ¸ë
ĠëĤĺ ìĺ¨
Ġìµľ ê³ł
ë³´ë Ħ¤
ëĿ¼ ì§Ģ
ëŀ Ĳ
Ġë¶ Ļ
íķ ĳ
Ġê¸ ¸
Ġìķŀ ìľ¼ë¡ľ
ĠìŀĪ ìľ¼ë©´
ĠëĭĪ ëĦ¤
ĠìŀĪ ëĤĺ
Ġê·¸ ê±¸
Ġê°ľ íĺģ
ë³´ ëĭĪ
ìĭ¬ ìĿ´
ë³ ¸ë
Ġ 9
ì¹ ł
Ġë°© ìĨ¡
ĠíĹ Ľ
Ġê·¸ëŀĺ ëıĦ
ê² ¼
ìĭĿ ìĿ´
ãĦ ±
íĶĦ ë¡ľ
Ġì¦Ŀ ê±°
ë Ĵ
ì ¿
ì ³¤
¯ ¼
ìĪ ¨
ë¯¸ êµŃ
Ġê° Ķ
ë°Ķ ë¦¬
ë¸ Į
ìĿ´ ëĵ¤
Ġì¹ ¨
Ġë¶Ģ ëģĦ
íķł ëķĮ
Ġê¸° ëłĪê¸°
Ĭ ìĿĢ
Ħ Ī
ëĮĢ íĳľ
Ķ ì§ģ
íİ ĺ
¡ľ ëĤ¨ë¶Ī
Ġëģ ¼
Ġì§Ħ ìłķ
Ġê¸ ī
ê² ¹
íķĻ ìĥĿ
ĠëĦĺ ìĸ´
ĠìĹŃ ìĭľ
Ġì´ Ľë¶Ī
Ġì° ©
ìķ ķ
ë¯¼ì£¼ ëĭ¹
¦ Ħ
ĠìĬ ¹
ĠíĨł ì°©ìĻľêµ¬
ãħ Ĥ
¿ Į
Ġê ¿
Ġì ı
ĠìĿ¼ ë°ĺ
ì ĩ¼
ëĮĢ ê°Ģ
ë°ķ ê·¼íĺľ
ê·¸ë ¦¬
Ł ´
ì§Ģ ë§ĪëĿ¼
ĠìŀĪ ê³ł
íĽ Ī
ĠìĦľ ë¯¼
ĠêµĲ ìľ¡
Ġì§Ģ ì¼ľ
´ë Ŀ¼
Ġë© Ķ
Ġìĸ¼ êµ´
Ġì§Ģ ëŀĦ
íı °
ìĦĿ ìĹ´
ì§ ¸
ĠìĤ¬ ëĬĶ
ìĽĲ ìĿ´
Ġê´ ľ
Ġê³ ³
ìŀĲ ê¸°
Ġë¶Ī ë²ķ
Ġëĵ ¯
Ġë§¤ êµŃ
ìłľ ë°ľ
ĠìĿ´ ìķ¼
ë¦¬ ë¥¼
ĠìĿ Ģ
Ġë§Ĳ ìĿĦ
ĠìĤ¼ ìĦ±
ĠìľĦ íķľ
Ġë¬´ ìĭľ
Ġì° Į
ëĿ¼ ë©´
ë§Ī ëĭ¤
Ġì¹ľìĿ¼ íĮĮ
ĠìĬ¤ ìĬ¤ë¡ľ
ĠìĪ ¨
Ġìķł ëĵ¤
ìķ¼ íķľëĭ¤
Ġìłķìĭł ì°¨
íķ Ħ
Ġì° ½
ìĿ¸ ìĿĺ
ìĿ´ íĮħ
Ġë¶Ī ìĮį
Ġìķ Ķ
ĠíĬ ¸ë
ĠìķĮ ë°Ķ
Ġìĭľ ì¼ľ
ëĪ Ī
Ġìŀ ł
Ġê°ľ ìĨĮë¦¬
Ġë¶Ģ ìłķ
ĠëĬ¥ ëł¥
ĠìĹ ħ
Ġê º¼
ìŀ Ķ
Ġ5 0
Ġë°Ŀ íĺĢ
ëªħ ìĿ´
ê³ ¨
ì§ Ŀ
Ġìłľ ìĿ¼
ë§Ī ëĶĶ
Ġì§Ħ ìĭ¤
ĠìķĪëĲĺ ëĬĶ
ì¦ Ī
Ġìłķë¶Ģ ê°Ģ
ìļ°ë¦¬ ëĤĺëĿ¼
Ġê³ ¨
ìĪĺ ì¤Ģ
ê° ĸ
ĠíĻķ ìĭ¤
ëıĻ ìĤ°
ë¹¨ ê°±ìĿ´
Ġê²° ê³¼
Ġê°Ģ ë§Į
ì§Ģ ë©´
ìľ¼ë©´ ìĦľ
ëĥ ¥
ëĿ¼ ìĦľ
ì°¨ íĶ¼
Ġë¬¸ìłľ ê°Ģ
ìĥģ ìĿ´
Ġíģ ¬
ĠìķĬ ëĬĶ
ĠìĹĨ ìķł
ì° ®
ë© Ķ
ìĻ ķ
ĠìĤ¬ëŀĮ ìĿĢ
ê¸Ī ì§Ģ
íĸĪ ëĭ¤ê³ł
ìķĦ ëĭĮ
¸ë Ĥĺ
Ġê±° ì§Ģ
ë© į
Ġë ¦¬
ìĵ° ëłĪê¸°
ëĤľ ëĭ¤
ëŀĢ ëĭ¤
Ġëª» íķĺê³ł
´ë °
ëĬĶê±° ëĭ¤
ì§Ħ ëĭ¤
ëį ľ
ĠíĮ ©
ĠìķĦë¬´ë ¦¬
ê³ł ìĭ¶
ìĽĮ ìĦľ
ĠíĪ¬ íĳľ
ĠìķĬ ê³ł
ĠëĦ Į
¸ë¬´ íĺĦ
Ġë° ĸìĹĲ
Ġì¡° ìļ©
ĠìĹ´ ìĭ¬íŀĪ
êµŃ ìĹĲ
ëĵ¤ ê³¼
ëĺ ¥
ĮĢ ë¡ľ
ê´ ´
ëĢ Į
Ġê³µ ë¶Ģ
ĠìĿ¼ ë²ł
Ĳ ĺ
ìĸ´ ìķ¼ì§Ģ
ê°Ģ ìļĶ
Ġìŀ¡ ìķĦ
Ġë¬¸ ì£Ħ
ĠìĿ¸ ê¶Į
ìĪ Ń
ê²ł ì§Ģë§Į
ì© Ŀ
ìł ¸ëĿ¼
ë¦¬ ë©´
Ġê²ĥ ëıĦ
íĬ ¹
Ġë¬´ ìĭĿ
Ġê´Ģ ìĭ¬
íķł ìĪĺ
ëĲ ¨
ìĭľ ëĮĢ
Ġíĥ ĵ
Ġë© Ģ
2 0
Ġëħ ¸ë
Ġíķĺ ëĦ¤
ĠìĿ¼ë³¸ ìĿ´
ìłģ ìĿ´
ĠíĻ© êµĲìķĪ
ì¶ ķ
Ġíķ´ ìķ¼ì§Ģ
ìŀĪ ëĭ¤
ë¶Ģ ë¶Ħ
Ġì¤ĳêµŃ ìĿ¸
ìĿĢ ê±°
Ġë ©´
ĠëįĶ ëŁ¬ìļ´
Ġë°ĺ ìĿ¼
Ġë©į ì²Ń
ë© ´ë
ĠëĲ Ĳ
ëĿ¼ ë¦¬
ĠìķĪ íķĺê³ł
ĠìŀĪ ëĥĲ
ĠìŀĪ ìľ¼ëĭĪ
ĠìĿ´ë ¦Ħ
ì¤ Į
ìĸ ¸ë¡ł
ë¬´ë ¶Ģ
Ġíıī íĻĶ
ì ĩ
Ġãħ¡ ãħ¡
ĠìķĬ ìķĺ
ë Į
ĠëĮĢ íĳľ
ĠìĿ¸ ìĥĿ
ĠëĤĺ ê²½ìĽĲ
ĠìĦ¸ ìĽĶíĺ¸
Ġê³µ ìĪĺì²ĺ
ìĭł ì²ľì§Ģ
Ġë² Ī
Ġíķĺ ë©´ìĦľ
Ġë¬´ ìĦľ
Ġìķ ī
Ġê²ĥ ìĿĢ
ìģ ĺ
ìĿ´ëŁ¬ ìĬ¤
Ġì§Ģ ëĤĺ
Ġë³´ ëĭĪ
Ġë³´ ëĭ¤
Ġãħł ãħł
Ķì§ģ íŀĪ
ê²ģ ëĭĪëĭ¤
ĠìķĬ ìĿĢ
Ġë´Ĳ ëĿ¼
ĠìĽĶ ê¸ī
ìĹĲìĦľ ëıĦ
ĠëŃĲ ëĥĲ
ê±° ëĿ¼
ìĪľ ìĭ¤
ê°Ļ ëĭ¤
ìķĦ ì¹ĺ
ĠìĹ¬ ìĦ±
ìĪ Ļ
ë° ¥
Ġì¶ ķ
Ġìĸ´ëĶĶ ìĦľ
ìĤ¬ íļĮ
Ġì »¤
Ġíķĺ ìĭľ
ŀ ¬
ìķĦ ì§ģ
ê·¼ ëį°
Ġëª¨ë¥´ ê³ł
Ľ °
ê³µ ìĤ°
ëĬĶ êµ¬ëĤĺ
Ġê² ©
ê²ĥ ìĿĦ
ê² Ł
ê²ĥ ìĿĢ
,, ,,
ìĤ¬ ìĿ¼
ĠëĤĺ ê°Ģ
ê¸° ë¡ľ
Ġë°ĺ ëĵľìĭľ
ê±° ëĵł
ìŀ¬ ìķĻ
ìľ¼ ëĭĪê¹Į
ëĵ¤ íķľíħĮ
ìļ ±
ĠìķĪ ëĲľëĭ¤
§ Ĳ
êµ¬ ìļĶ
Ġìļ° íķľ
ë´ ¤
Ġì ±Ħ
ĠìķĮ ìķĦ
ëĭĪ ê°Ģ
íķĺ ëĿ¼ê³ł
Ġìĺ¤ ëĬĺ
ìĤ¬ëŀĮ ìĿ´
ĠìŀĪ ì§Ģ
ĠìŀĦ ëªħ
Ġëª¨ ìĬµ
Ġë§Ī ëĿ¼
Ġëĭ¹ ìŀ¥
ëł¤ ìĦľ
Ġê¶ģ ê¸Ī
ĠêµŃë¯¼ ëĵ¤ìĿĢ
ĠíĬ¸ë Ł¼íĶĦ
ë¯ ¸ë
íķľêµŃ ëĭ¹
Ġëı ¼ì§Ģ
Ġìĥ ī
ëĮĢ ëĬĶ
ìĪĺ ìĤ¬
ëĭ¤ëĬĶ ê²Į
ì§ ±
ĠëĤĺ ëıĦ
Ġê·¸ë ķĮ
Ġë¬¸ìŀ¬ìĿ¸ ìĿ´
Ġë¯¼ì£¼ ì£¼ìĿĺ
Ġë°ĺ ìĦ±
³ µ
ŀ Ģ
Ġë»Ķ ë»Ķ
Ġë´ ¤
Ġìĸ´ë ł¤
ĠìĿ´ë ĤĺëĿ¼
ìŀ¥ ìĿĦ
ĠíĮĲ ëĭ¨
Ġìĺ¬ ëĿ¼
Ġë¶Ī ë§¤
Ĥ ¨
ìŀĲ ê³ł
Ġì¢ħ êµĲ
¦ ĩ
Ġê·¸ëŁ° ëį°
ĠìĤ¬ íĺķ
ì¤ ¬
ëĴ ¤
ĠìĿ¸ê°Ħ ìĿ´
ĠìĿĺ ë£Į
Ġê°Ħ ì²©
íŀĪ ëł¤
ëĤ´ ê°Ģ
Ġë°Ľ ê³ł
ìĹĨ ê³ł
Ġê±° ê¸°
ĠëĶ Ķ
ëŀį ëĭĪëĭ¤
¨ ëĤł
ĠíķĻ êµĲ
ĠìĹ¬ ëŁ¬
Ġë§Ĳ ëıĦ
ê± ¸ë¡ľ
Ġãħ Ĥ
íķ´ ìļĶ
Ġìĸĳ ìĭ¬
íĤ ¹
ĠìĿ¸ê°Ħ ëĵ¤
ìŀĲ ëĤĺ
Ġë´ ī
ê°Ģ ì¡±
Ġìĭ« ìĸ´
ìĿ´ ìĹĪ
ëįĺ ê°Ģ
ìĿ¸ ê±°
ë¨ ¸ë¦¬
Ġì¡° ê¸Ī
ĠëĤ´ë ¡ľëĤ¨ë¶Ī
ìĿ¸ ëĵ¤ìĿ´
Ġëĸ ¨
ìĿ¸ ëĭ¤
ĠìĤ¬ëŀĮ ëĵ¤ìĿĢ
ë§Ĳ ìĿ´
ĠìĿĺ ìĽĲ
Ġì ¥Ĳ
ĠìĥĿê°ģ ìĿ´
¸ëł Ī
ìł¸ ìķ¼
Ġëĭ¤ ëĵ¤
ĠìķĪ íĥĢ
Ġì²ĺ ìĿĮ
Ġê°Ĳ ìĤ¬
ìĭĿ ìľ¼ë¡ľ
ĠìĤ¬ ëĿ¼
ĠíĻķ ì§Ħ
ëĬĶê±° ëĥĲ
Ġë¹Ħ êµĲ
ìĭľ ìŀ¥
ìĦ ¼
ìłķ íĿ¬
íķĺì§Ģ ë§Į
ê°Ģ ì§Ģê³ł
ĠíķĻ ìĥĿ
ìĻ Ħ
ĠëĦĪ ëĦ¤
ìĸ´ë ²Ħ
ĠëĤ «
ìļ° ê³ł
ĠëıĦ ìĻĢ
ìĽ ħ
ìĦ ¸ëł¥
Ġê²° íĺ¼
ĠëĴ ·
Ġëħ Ħ
ìĥģ ëıĦ
ľ ĺ
Ġê ½
ìĹ Ħ
ë¹ µ
ĠìľĦ íķ´ìĦľ
ðŁ Ĳ
ìĭľíĤ¤ ê³ł
Ġê°Ĳ ìĹ¼
ĠìĦľ ë¡ľ
ì§Ģ ë¥¼
Ġíĺ¼ ìŀĲ
ĠìķĦ ëĬĶ
íķĺ ëĭ¤ê³ł
ĠìĪ ł
ìŀĲ ìľł
!!!! !!!!
Ġë¯¸ ìĦ¸ë¨¼ì§Ģ
Ġê³µ ìłķ
íĸĪ ëįĺ
ëĤ´ ê³ł
íŀ ĺ
Ġê°ľ ìĿ¸
ìĿ´ëĿ¼ ë©´
Ġë¹Ħ íĮĲ
Ġì¤ ĺ
Ġê°Ģì§ľ ëī´ìĬ¤
Ġíķĺ ëĥĲ
ë¥ ¸ë
ìĦł ëıĻ
ê¹Į ìļĶ
ë§ ¹
¬ ¼
ĠêµĲ íļĮ
Ġìĭ¶ ëĭ¤
Ġí ħ
ĠëĨĪ ëĵ¤
Ġëª ¸
ĠëķĮ ë¬¸
ë² Ķì£Ħ
Ġê± ´ë
Ġê³µìĤ° ì£¼ìĿĺ
Ġì§Ģ íĤ¤
¶ Ħ
ë¯¸ ì¹ľ
ëĭ¨ ì²´
ĠìŀĪ ìĬµëĭĪëĭ¤
ĠìĿ ½
ĠëĤĺ ìĦľ
ë³´ ìĪĺ
ë° Ģ
ê·¸ë Ł°
ãħł ãħł
00 0
ĠìĿ´ìľł ê°Ģ
ãĦ ²
ìĦ± ìĿĦ
Ġê³¼ ê±°
Ġí ļ
ì¢Į ë¹¨
Ġì°¾ ìķĦ
ĠìŀĪ ëĭ¤ê³ł
ĠìĹĨ ëĦ¤
Ġê³µìĤ° ëĭ¹
ĠìĤ¬ íĩ´
ĠìĤ¬íļĮ ì£¼ìĿĺ
Ġì¡°êµŃ ìĿ´
ë°Ķ ë¡ľ
Ġíķĺ ì§Ģë§Į
ê°Ģ ë©´
ë§Į íģ¼
ê» Ħ
Ġì§Ħ ë³´
Ġíıī ìĥĿ
ìĭ «
ĠëĤĺ ëĬĶ
Ġì¹ ´
íĺ ¸ë
Ġíİ ĺ
-- --
ì§ĳ ëĭ¨
ðŁ Ĵ
ë¥ ł
ì§Ģ ìļĶ
ëħ¸ ì´Ŀ
êµŃ ìĿ´
ĠíķľêµŃ ëĭ¹
ĠíĭĢ ëĶ±
ĠëĦ £
íķĺëĬĶ ê±´
Ġìļ´ ëıĻ
ìĸ´ë ³´
Ġìłķìĭł ë³ĳ
íĻ į
ê·¸ëŀĺ ìĦľ
Ġë¶Ģ ëıĻìĤ°
íĴ Ģ
ĠìĻ Ķ
Ġìĵ ´
ëķ ħ
ìĿ´ ê±´
ĠíķĺëĬĶ ê²Į
ëĤĺ ë©´
ĠíĸĪ ëĬĶëį°
êµĲ ìľ¡
ĠìĤ ¶
Ġì ©
ðŁ ĳ
ë¥´ ëĬĶ
Ġë§ŀ ëĬĶ
íŀ Į
ê°Ģ ëĿ¼
í Ģ
Ġíĥ Ŀ
Ġìŀ Ķ
ìķĦ ì£¼
ĠìŀĪ ìĸ´
ë¦° ëĭ¤
Ġì¢ĭ ê²łëĭ¤
ê³µ ìŀĲ
ĠìķĦ ëĥĲ
ì§Ģ ë§Ī
Ġìĺ¤ íŀĪëł¤
Ġë¬´ ìĹĩ
ìĹĲ ìļĶ
Ġë¬ »
Ġê³ §
ëĭĺ ìĿ´
Ġìĭ ¹
ìĿ´ ë²Ī
ëĶ ©
ìĹĲ ìĦł
ĠìĤ¬ ìļ©
Ġíķľ ëĭ¤ê³ł
ħ ëĭĪëĭ¤
íķľ ê±´
Ġì² ´
ĠëĮĢ ì²´
ìĬ¤ íĬ¸
ëĺ ĳ
ëĭ¹ ìĭł
ĠìĿ´ ê¸°
ĠíĻĶ ìĿ´íĮħ
Ġêµ° ëĮĢ
Ġë³´ë Ĥ
ĠìķĮ ìķĺ
ìĤ¬ íĮĮ
Ġë ¿Į
ëĵ¤ìĿ´ ëĭ¤
ëıĮ ìķĦ
ĠíĹ Į
ë¯ ¿
Ġìł ĬìĿĢ
Ġíķ´ ìĻ¸
Ġ ãĨį
Ġë¹ Į
Ġí ĩ´
Ġê±° ìĿĺ
Ġìĭł ê²½
Ġëľ »
Ġê· ľ
Ġë²ķ ë¬´ë¶Ģ
ìĭľ ìķĦ
ìĤ¬ ê³ł
´ë ¡ľ
ëįĶ ë§Į
Ġë¬ ¸ë¹ł
ĠìŀĲ ë¹ł
êµ° ìļĶ
Ġì§± ê¹¨
ĠìĹĨ ëĬĶëį°
ìĬ ´
ĠìĿ´ë ŀĺ
íķľ ëĭ¤ëĬĶ
Ġìĸ »
Ġìĭ¬ íĮĲ
Ġ Ġ
/ /
¢ °
ìĸ ĺ
ĠíĻ ľ
ìĭľ ëĬĶ
ĠìŀĲ ê¾¸
ĠëĤĺ ìĻĶ
Ġê¸° íļĮ
Ġê¸° ë³¸
Ġëĵľ ëŁ¬
ĠìĿ´ë Ŀ¼
ì´Ŀ ìŀ¥
Ķ ëĿ¼
Ġì¹ĺ ë£Į
íļ ¨
ĠìĿ´ë ªħ
Ġëĭ¹ìĹ° íŀĪ
Ġìłķ ëĭ¹
ëľ ¨
ë Ĩĵ
ĠëĤĺ ìĿ´
ĠìĿ¼ ìĿ´
ĠêµĲ ìĪĺ
ĠìĤ¬ ì§Ħ
ĠíļĮ ìĤ¬
ĠëĮĢ íķĻ
Ġì¡´ ìŀ¬
ìĿ´ ëŀĺ
ĠëĤ ®
ĠìŀĪ ìĿĮ
ê·¹ ê¸°
Ġí Ħ¸
Ġëª° ìķĦ
ê²ł ëĭ¤ê³ł
1 0
ĠêµŃ ëĤ´
ìĿ¸ ì¤Ħ
ĠëĤĺ ìĺ¬
Ġë³´ ëĬĶ
Ġì¢ħ ë¶ģ
ëıĦ ê°Ģ
ìĭľ ê¸¸
Ġê²Ģì°° ê°ľíĺģ
ëĵ¯ ìĿ´
ĠìĻ ķ
ĠìĤ¬ ëŀĳ
Ġë³¸ ìĿ¸
ĠëĭĪ ëĵ¤ìĿĢ
ëĳ ĳ
Ġë°Ķ ê¿
Ġìī ¬
ë¥ ´ë©´
ì§Ģ ë§Ĳ
ìłľ ë¡ľ
ì§Ģ ê²Į
Ġì¹ľ êµ¬
ĠìŀĲ ë¦¬
ìĽ ł
ĠêµŃë¯¼ ìĿĢ
ĠìĿ´ìķ¼ ê¸°
ìłķ ìĿ´
ĠëĤĺ ìĻĢ
Ġê´Ģ ëł¨
ëŃ Ķ
ì »
Ġê·¸ëŁ¬ ëĭĪ
Ġê³ł ìĥĿ
ĠëĮĢ ë¶Ģë¶Ħ
ĠëĪĪ ì¹ĺ
Ġ ~~
Ġê¸° ìĸµ
ĠìŀĲ ê²©
Ġëķ ħ
Ġë³´ ìĿ´
´ë Ĥĺ
Ġìĸ´ë ¦°
ìĿ´ ë¡ľ
ìĺģ ìĹħ
Ġìŀ¥ ëĤľ
Ġëħ ¸ëł¥
Ġë¹Ħ ë¦¬
ĳ Ī
ê±° ëĥĲ
ìŀĦ ê¸Ī
Ġê°ľ íĮĲ
ĠëĲĺ ìĹĪ
ê³ ¡
ëł¤ ìķ¼
ëĤĺ ê³ł
ëĵ £
Ġìłķ ìĿĢ
ëł¥ ìĿ´
ĠëıĦ ìĽĢ
Ġê°Ĳ ìĺ¥
Ġìķł êµŃ
Ġë º
Ġë Ĩĵ
Ġëħ¼ ë¦¬
Ġê²ĥ ìĿĦ
ìķĦ ë²ł
ëĳ ĺ
Ġ (
íĸĪ ìľ¼ë©´
Ġì§Ģ ëĵ¤ìĿ´
íķĺì§Ģ ë§Ĳê³ł
ëĨĪ ìĿ´
ëŀ µ
í Ĥ¬
íķĺëĬĶ ì§Ģ
ê³ ¤
ìĩ Ħ
ìĶ Ģ
ìī ¬
Ġë§ ¨ëĤł
Ġìķ¼ ëĭ¹
ê± ¸ë
ì¯ ¤
ĠìłĦ íĺĢ
Ġëħ ¸ë¬´íĺĦ
ìĤ¬ ê±´
Ġë ¸
Ġê·¸ ê±°
ëĲĺ ìĸ´
ìĿ¸ ìĿĦ
ëħ ¼
ìĦ¸ ìĥģ
Ġì§ģ ìłĳ
ĠìĿ¼ ë¶Ģ
Ġë¬´ ìĦŃ
ë§Į ìĿ´
ĠíķŃ ìĥģ
Ġë ¡ľ
ĠìŀĲ ì²´ê°Ģ
ì§Ģ ìĽĲ
ĠìķĦ ëĵ¤
ë¡ľ ìļ´
Ġìī ½
ìķ ¡
ëĪĦ ê°Ģ
ìłķ ìĿĦ
ĠëįĶë¶Ī ìĸ´
Ķ ´
ĠíĹĽ ìĨĮë¦¬
Ġìĥģ ê´Ģ
!! !!!
ĠíĽ ¨
Ġíķľ ë§ĪëĶĶ
ë¬¸ íļĮ
Ġê± į
ìļ° ëĬĶ
ĠëĬĲ ëĤ
ìķĦ ëıĦ
ì½Ķ ë¡ľëĤĺ
ĠíĮ© íĬ¸
ìłķ ìĿĺ
Ġë¶Ħ ëªħ
ìĹ ĺ
Ġê¸° ëĭ¤
ê¸° ë§Į
ì¤ĺ ìķ¼
ĠìĤ¬ ë²ķ
ĠãĦ ±
ĠìŀĲ ìĤ´
Ġì§Ģ ê°Ģ
ê²¹ ëĭ¤
ĠìłĢ ëŁ¬
Ġê·¸ë ŀ¬
´Ĳ ëĿ¼
ë¡ ±
Ġë§Ĳ íķĺëĬĶ
Ġê¹ ľ
ë¯¼ì£¼ ì£¼ìĿĺ
Ġíķ¨ ê»ĺ
ì²ł ìĪĺ
Ġìłķë¶Ģ ëĬĶ
ìĿĦ íħĲëį°
ĠìķĦëĭ Ļ
Ġìĺ ³
ëĳĲ íĻĺ
ĠìĦł íĥĿ
Ġíĭ °
Ġìł ĳ
ìĪĺ ë¡Ŀ
Ġì¢ ĥ
Ġì£¼ ìŀ¥
Ġìĵ° ê³ł
Ġìĭ¬ ê°ģ
ìŀĲ ëĵ¤ìĿĢ
Ġì ½
Ġ -
ëĦ £
ìķĪ ë¶Ģ
ĠëĮĢ ë³Ģ
ĠëĤ´ ìļ©
Ġë°© ë²ķ
Ġíķľìĭ¬ íķľ
Ġì£¼ ë³Ģ
Ġëıħ ë¦½
Ġì¡°ìĦł ì¡±
ëģ Ĺ
ĠìķĦëĭĮ ëį°
ĠíĸĪ ëĭ¤
ëĤĺ ëıĦ
ł Ī
ê·¸ë Ħ¤
íĴ į
Ġì£¼ ëĳ¥
Ġì°¨ ëĿ¼ë¦¬
Ġë°Ķ ìĿ´ëŁ¬ìĬ¤
Ġíķĺ ëĭĪ
êµŃë¯¼ ìĿ´
ìĵ ´
ì£¼ ë©´
ĠìĹ¬ íĸī
ĠëĤ Ļ
ĠíĺĦ ìŀ¬
Ġëĺĳ ê°ĻìĿĢ
Ġëª© ìĪ¨
ĠëĲĺ ìĸ´
Ġìµľ ìķħ
5 0
ìĹ¬ ìĦľ
Ġë°Ķ ëĢĮ
Ġìĭ¶ ìĿĢ
ëĨ Ģ
Ġê¸° ë¶Ģ
Ġê²ĥ ëĵ¤ìĿ´
ëĵł ì§Ģ
Ġì§Ģê¸Ī ìĿĢ
ìĵ° ê³ł
Ġì§Ħ ìĭ¬
ìłķ ì±ħ
ëıħ ìŀ¬
Ġë§ Ľ
ëĭ¹ íŀĪ
ĠìĹĨ ìĿĮ
ìĥĿ ì¶©
Ġìĭľ ìŀ¥
ë³´ ëĬĶ
ìŀĲ ë¡ľ
ëĬĲ ëĿ¼
Ġãħ ĩ
ĠìľĦ íĹĺ
ê» ı
ë¶Ħ ìĿ´
Ġíĺ ¹
ê° ±
íķĺ ëĦ¤ìļĶ
ìŀĲ ìĭĿ
íķľ ë²Ī
ìĬµ ëĭĪê¹Į
ìĤ¬ ë¥¼
ĠìĦ ¸ë
ìĸ´ë ĸ
ì§Ģ ìĹŃ
ìĤ¬ ìĭ¤
Ġê·¸ ê²ĥëıĦ
íķ´ìķ¼ íķľëĭ¤
ìļ ´ë
í Ħ
Ġìļ ¸
ìĿ´ ë¥¼
ĠìĿ¼ ìĿĦ
Ġê²ĥ ëĵ¤
íķĺ ëĭĪê¹Į
Ġìĸ´ ì°¨íĶ¼
Ġì§ĳ ê°Ĵ
Ġìµľ ìłĢ
Ġê² ¬
íķ© ìĭľëĭ¤
ĠìĿ´íķ´ ê°Ģ
Ġë© ĭ
ê¸° ìŀĲ
Ġê·¸ë Ĥĺ
ĠìķĦ íĮĮ
ìĿ´ëĿ¼ ëĭĪ
ë¶Ģ ëĮĢ
ĠëĮĢ ìĿĳ
ë´Ĳ ëıĦ
Ġìµľ ìĨĮ
Ġì¤Ģ ë¹Ħ
Ġë§¤êµŃ ëħ¸
Ġì§ĳ íļĮ
Ġë¯¼ ì¡±
ë³´ ìŀĲ
ë§Į ëªħ
ĠëĤ´ë ħĦ
Ġìĵ ¸
Ġìŀħ ëĭĪëĭ¤
ìĺ¨ ëĭ¤
íķĺ ëł¤ê³ł
Ġë¹Ħ ëĤľ
Ġë³ ĳìĽĲ
Ġì²ĺ ëŁ¼
ë¬¸ ê°Ģ
ĠíĿ Ķ
Ġëª¨ ë¥´ë
ìĹ¬ ê¸°
Ġíķĺ ìĦ¸ìļĶ
Ġë°Ķ ëŀįëĭĪëĭ¤
ĠëıĪ ìĿ´
ëĥĲ ê³ł
Ġë°Ķ ë³´
ìĥģ ìĿĦ
Ġë¯¸ ìĤ¬ìĿ¼
ìļ ¸ëĮĢ
ì º
Ġê°Ģ ëĬĶ
ëģ Ŀ
íķł ê¹Į
ĠìĤ¬ ë§Ŀ
Ġëĺĳ ê°Ļ
Ġ ....
Ġìĸ´ì© Ķ
ĠëģĿ ê¹Įì§Ģ
ĠëĦ¤ ìĿ´ë²Ħ
Ġì²ł ìłĢ
ĠìķĮ ìķĦìĦľ
ê¸ ĭ
ĠìĿĺ íĺ¹
ë§Į ìĹĲ
ëįĺ ì§Ģ
ĠëıĪ ìĿĦ
Ġë¶Ģ íĦ°
íķĺê³ł ìŀĪ
ĠìĤ¬ íĥľ
ĠìľĦ ìĦł
ĠëĨ į
ìŀ ĩ
Ġ4 0
ĠëĮĢ íķ´
ì§Ħ íķĳ
ë¸ Ķ
ìł¸ ìĦľ
ì¹ľ ìĿ¼
ê´Ģ ê³Ħ
ìĥĿ íĻľ
ĠìĿ¼ë³¸ ìĿĢ
Ġíĺ Ī
ë³ ¼
Ġë »
ĠìĬ ¬
Ġìľ¤ ìĦĿìĹ´
ìĤ¬ëŀĮ ëĵ¤
íĺ¸ ìĤ¬
ëįĶ ëĿ¼ëıĦ
íķĻ êµĲ
ëħ ¸ë
ìĶ ¬
ì§ Ĳ
¸ë¬ ¼
Ġìĸĳ ìķĦì¹ĺ
í Ĩ
ĠëįĶ ëŁ½
ĠìŀĪ ëĭ¤ëĬĶ
Ġìľł ìĭľë¯¼
ĠìĹĦ ë§Ī
Ġë¬´ë ĦĪ
Ġì º
Ġê´ľ ì°®
Ġíķł ë¨¸ëĭĪ
ìķĦì§ģ ëıĦ
ł¤ ê³ł
í ĳ
ê²ĥ ëĵ¤ìĿĢ
Ġë¯¿ ê³ł
ë§İ ìĿĢ
ĠìĿ¼ ë³¸ë
Ġë°Ľ ìĿĦ
ĠíĶ¼íķ´ ìŀĲ
ì¤ĳ ëıĻ
ë§ Ľ
ì¢ĭ ìĿĢ
Ġíķĺ ìŀĲ
ĠìĥĿê°ģ íķĺëĬĶ
Ġìĺ¨ ê°ĸ
Ġëį ®
ĠìĦ¸ê¸Ī ìľ¼ë¡ľ
¦ ¼
ĠëĮĢ ì±ħ
ĠìĿ¸ íĦ°
Ġê·¸ë ĮĢë¡ľ
ìĬ¤ëŁ½ ëĭ¤
Ġìŀ¬ ìĤ°
ĠìĤ¬ëŀĮ ìĿĦ
Ġìľ ¼
ĠìķĦëĭĪ ëĿ¼ê³ł
ëĭ¨ ëĭ¤
Ġìª½ ë°Ķë¦¬
ĠìĿĺ ìĭ¬
ê³ł ëıĦ
ĠìĹĨ ìĹĪ
ĠìĿĳìĽĲ íķ©ëĭĪëĭ¤
ëĬĶ ê°Ģ
´ë ¦¬
Ħ ìĥĪ
Ġíķĺ ëĬĺ
ĠìķĦëĭ Ĳ
ĠìĿ´ìłľ ëĬĶ
ìľĦ ìĹĲ
ĠêµŃ ìłľ
ë¶Ħ ëĵ¤
Ġê¸° ëĮĢ
ª ¼
ê²ł ëĤĺ
ë¬´ ìĬ¨
ìľĦ íķ´
Ġë§İ ëĭ¤
ĠìķĦëĭĪ ì§Ģ
Ġê°Ģ ê²©
ĠìĽĲ ëŀĺ
íķ´ë´Ĳ ëĿ¼
Ķ °
Ġë³¸ ëĭ¤
ê²½ ì°°
ê¹Ŀ ëĭ¤
ĠìĹ ī
Ġê·¸ ëıĻìķĪ
íĥ ķ
ë ¢°
ë¨¹ ëĬĶ
ìŀĲ ëıĦ
ĠëĤ¨ ìĿĺ
ëĮĢ êµ¬
ë°© ìĨ¡
Ġê°Ģë§Į íŀĪ
ĠëĲĺ ê³ł
ĠêµŃ ìłķ
íĹ Į
Ġìĺ ¹
ë§ Ļ
ë ļ
ìļĶ ì¦ĺ
ì£¼ ëıĦ
ì¤ĳ ê¶Į
ëłĪ ìŀĦ
Ġìĺ¤ ëŀĺ
ĠìłĦ ìĦ¸ê³Ħ
ìķĦ ìĿ´
ìĸ´ ê°Ģ
Ġëĺĳ ê°ĻìĿ´
ĠëĤĺ ì¤ĳìĹĲ
Ġê³ł ìĨĮ
ëĮĢ ê¹¨ë¬¸
ëĤĺ ê²Į
ĠìķĪ ìłĦ
ì´Ī ìĹĲ
Ġíĺ Ĳ
íĻĶ ë¬¸
Ġë§Įëĵ¤ ê³ł
ëķĮ ëĬĶ
1 9
Ġê·¸ë Ł´
íıĲ ëł´
Ġë§Ĳ ìĿĢ
ë¶Ģ ëª¨
Ġë°ķ ìłķíĿ¬
ìĹ¬ íĸī
ëĭ¬ ì°½
ĠëĪĦ êµ°
Ġì¦ ī
ì¡Į ëĦ¤
ìĿ¸ê°Ģ ìļĶ
ë Ĩį
Ġê³µ ê°Ĳ
Ġë° ĳ
ĠìĿĺ ìĤ¬
Ġê°Ģ ëĿ¼
ĠìĿ´ë ¦¬
íķ´ë ³
íĶ Ī
ĠìĿ¼ ìŀĲë¦¬
ì¼ °
Ġë¬¸ íĨµ
Ġê°Ģ ì§Ģ
ĠìĪĺ ì¶ľ
Ġíķĺ ëĭ¤
ĠëĬ Ļ
ê·¸ëŀĺ ëıĦ
Ġëĵ¤ ê³ł
Ġìļ° íĮĮ
ìĪĺ ë¥¼
ĠìŀĲ ëŀĳ
Ġ =
Ġëĭ Ń
Ġë³´ ê¸°
Ġëª¨ ë¥¸
íķł ê±°
ê²ł ëĭ¤ëĬĶ
3 0
ĠìĤ¬ìĿ´ ë¹Ħ
Ġëĭµ ëĭµ
Ġê´Ģ ê³Ħ
ĠëŃĶ ê°Ģ
Ġìĭľ ëĮĢ
íĺ Ĳ
Ġìŀ Ĭ
ì²Ń ìĻĢëĮĢ
ë¬´ë ¦¬
ìĿĦ ê±°
íĬ ľ
Ġê² ¨
êµŃ íļĮ
ì¤ĺ ëĿ¼
Ġê±´ ê°ķ
ĠìĤ¬ê¸° ê¾¼
ëĭ «
ĠëĨĪ ëĵ¤ìĿ´
ëĲ ©ëĭĪëĭ¤
ìŀĸìķĦ ìļĶ
Ġê·¸ ìłĢ
ë¹ ¼
Ġê¸Ī ì§Ģ
ì ¥Ĳ
Ġí ľ´
ĠìĿ¼ ìłľ
ìĿ´ ê±°
ĠìĦ Ŀ
Ġê³ł íĨµ
ìļ ¸ë
Ġì¡°ìļ© íŀĪ
ĠíĮĲ ìĤ¬
Ġê¸° ìĪł
ĠíķĺëĤĺ ëıĦ
ì¯ §
Ġì¤ĳêµŃ ìĹĲ
Ġìĸµ ìļ¸
2 5
ĠìĪĺì¤Ģ ìĿ´
ĠìĪĺ ëıĦ
ĠëįĶ ìĿ´ìĥģ
ê·¸ë¦¬ ê³ł
į ĺ
íĮĶ ìĿ´
ìķł ëĵ¤
íķĺ ëŁ¬
Ġë§Ĳ ë¡ľ
Ġê°Ģ ì§Ħ
Ġìłķì¹ĺ ìĿ¸
Ġë° ı
ìĿĦ ëĵ¯
Ġê·¸ ê±´
Ġê´ĳ ì£¼
¥ ´
Ġíŀĺ ëĵł
íĸĪ ëĦ¤
ĠìķĬ ëĬĶëĭ¤
ëķ Ĳ
Ġë¹¼ ê³ł
ĠìķĦ ë§Ī
Ġìĥģ ìĭĿ
ê²ł ëĦ¤ìļĶ
Ġëħ¸ ì¡°
íķĺ ëł¤
ë¡ Ń
ì§Ħ êµŃ
Ġë´Ĳ ëıĦ
Ġìļ°ë¦¬ ëĬĶ
ê²Ģ ìĤ¬
ë© ¸
Ġëĭ ´
Ġê¹¨ ëģĹ
ĠíĬ¹ íŀĪ
ë°ĺ ëıĦ
ĠìĿ´ ìĿµ
ëĭ¹ íķľ
Ġëª¨ ìŀĲ
Ġì¶ľ ìĭł
ĠìĿ ĳ
Ġì¹ ¼
ëį ©
Ġë¬´ëĬ¥ íķľ
Ġìµľ ìĪľìĭ¤
Ġãħ ľ
ì »¤
ĠìĤ´ ìĿ¸
ëĤĺ ê²½ìĽĲ
Ġë¬¼ ë¡ł
ĠëıĻ ëĦ¤
ĠëĮĢ ìĦł
ĠìĹ° ìĺĪ
ìĹĲ ë§Į
ĠëĦĪ ëĬĶ
Ġëĭ¤ ë¥´
ìĹ¬ ìŀĲ
ê° Ŀ
ľ ìĹĲ
Ġê´ ´ë
ìľ¼ ë©°
ĠëĮĢ ê¸°ìĹħ
ĠëĤ ³
ĠíĮĲ ê²°
íĻĶ ê°Ģ
ìłķë¶Ģ ê°Ģ
ĠìĿ´ ìŀ¬
¸ë °
ë§Ĳ ë¡ľ
ëĳ Ķ
ë£¨ íĤ¹
ëĭĪ ê¹Ĳ
.... ...
Ġê¿ Ī
ĠëĲĺ ì§Ģ
** **
ì¹ Ļ
ĠìĹĨ ìĸ´ìĦľ
Ġíķĺì§Ģ ë§Ĳê³ł
Ġìĵ° ëĬĶ
ĠìĹ¬ ëĭ¹
ìĸ´ë ¦¬
Ġì§ĳ ê¶Į
ëĨĪ ëĵ¤ìĿ´
Ġë¬¸ìŀ¬ìĿ¸ ìĿĢ
Ġê¹ Ķ
ĠìłĢ ì§Ģ
Ġíĳľ íĺĦ
Ġë§Į ëĵľ
íķľ ê²ĥ
Ġíĥľ ê·¹ê¸°
ì²´ë ¥¼
ĠëıĮìķĦ ê°Ģ
Ġë³´ ëıĦ
ĠìĥĿ ê²¼
Ġíı¬ ê¸°
ìĭľ ìĺ¤
ì¢ ĥ
Ġìŀ ĥ
Ġë Ľ°
ĠëŃ ī
ëĶ ¸
ĠìĤ¬ ìĹħ
ŀ ĳ
ĠìĦ¤ ì¹ĺ
ê¹ Ķ
Ġíķ´ ì£¼
ëĤĺ ë³´ëĦ¤
Ġëħ¸ ëıĻ
ĠíĨµ ìĿ¼
ìĤ¬ íĥľ
Ġì Į
Ġì£¼ ìĤ¬íĮĮ
ë¯¸ íĸ¥
ìĬ Ī
ìŀ¡ ê³ł
ĠëĨĪ ìĿ´
Ġíķĺ ìĹ¬
ĠãĦ ·
ĠìĹŃ ëĮĢ
¶ Ī
ëĤĺëĿ¼ ê°Ģ
Ġë°Ķ ëĿ¼
ê²ł ìĬµëĭĪëĭ¤
ĠìĹĨ ì§Ģ
ê·¸ë §Į
ĠìĿ¼ë³¸ ìĹĲ
Ġìļ´ ìłĦ
Ġë¶ģíķľ ìĹĲ
Ġê°ķ ëĤ¨
ĠëĦĪ ëıĦ
ĠìŀĲ ìĺģìĹħ
Ġë² Ĺ
ĠêµŃ ê°ľ
íķ´ë ¥¼
ì§ĵ ìĿĦ
ìĹĨ ìĸ´
ìĿ¸ ëĵ¯
íĬ¸ë Ĥ¨
íĸ ĩ
ĠíĪ¬ ìŀĲ
ë ½ĳ
Ġì£¼ ê³ł
ê²ł ì£ł
Ġë¯¸êµŃ ìĿ´
Ġíŀĺ ëĤ´
Ġì² Ļ
ë¶ Ļ
ĠíĽ¨ ìĶ¬
Ġì§Ģ ëıĦ
íļ į
Ġëį ľ
Ġìĥģ ëĮĢ
Ġê¹Į ì§Ģ
ëĳĲ ê³ł
Ġë°ľ ìłĦ
ê°Ģ ëĬ¥
ê·¸ë łĩê²Į
Ġìĺ¹ íĺ¸
ìľ¼ ëł¤ê³ł
ĠìĿ¸ê°Ħ ëĵ¤ìĿ´
ëħ ķ
ìŀĺ ëª»
ìĭľì¼ľ ëĿ¼
ëıħ êµĲ
íķĺ ê²łëĭ¤
Ġíķł ìĪĺ
Ġë°ľ ìĸ¸
ĠëĿ¼ ê³ł
Ġìŀħ ìŀ¥
Ġíķľ íħĮ
Ġê²Ģì°° ìĿ´
ĠìķĦë¬´ ê²ĥëıĦ
ĠìĿ´ìĥģ íķľ
ìĬ¬ ëŀĮ
Ġ s
ë§Ī ìĬ¤íģ¬
ĠíĻķ ìĿ¸
Ġìĭ« ëĭ¤
ìĭľ íĤ¨
Ġëª° ëŀĲ
ìŀĲ ìĿĺ
ĠìĿ¸ ìĤ¬
ł µ
ĠëĲĺ ë©´
ĠìľĦ ìķĪë¶Ģ
? !
êµ¬ ë¦¬
ì¸ ¡
Ġê·¸ëŁ¬ ë©´
Ġìļ° ìĦł
ĠìĥĿê°ģ ìĿĦ
Ġê´Ģ ë¦¬
ê°Ģ ëĿ½
ì¿ ł
ĠìķĦ ìĺĪ
ê· ł
Ġìĺ¬ ëł¤
ëł ¬
ĠìĹ ¼
ìĬ ·
Ġ :
ì§Ī ìĿ´
ĠëŃĲ ëĿ¼
ìĸ´ë ĶĶ
Ġ1 8
ĠìĹĨ ìľ¼ë©´
Ġì¡ ±
Ġìŀĺëª» ëĲľ
Ġë²Į ìį¨
ë¬ µ
Ġìŀ ĩ
ë »
ĠíĥĿ ìĭľ
Ġê°Ģ ìł¸
Ġì¹ Ń
Ġì§Ģì§Ģ íķĺëĬĶ
Ġì¡° ìĭ¬
ëĭ¬ ëĿ¼ê³ł
íĻĶ ë¥¼
ìĦľ ëĬĶ
ìĹĪ ìľ¼ë©´
Ł ½
Ġë¶Ģ ì¡±
ìĿ¼ ë²ł
ìĿ´ ëłĩê²Į
ê¹Į ë´Ĳ
ĠìĿ¼ ëĭ¨
Ġë¶Ģ íĥģ
Ġì »
ê°Ģ ìķ¼
Ġë°Ľ ìķĺ
Ġìĭľ ìľĦ
Ġë§Ĳ ìĶĢ
ìĿ´ ëĵł
íķĺ ëįĶëĭĪ
ãħ £
Ġëı ¼
ĠìŀħêµŃ ê¸Īì§Ģ
ìĿ´ ëıĦ
Ġëª» íķĺê²Į
Ġì§Ħìłķ íķľ
ëĭ¤ ë¥¸
ê» ´
êµĲ íĻľ
ĠìĤ´ ê³ł
ĠìķĪ ëĤĺ
ìłľ ìĹĲ
ì§Ģ ëŀĦ
Ġëį ķ
ĠëĳĲ ê³ł
ĠìĨ Ķì§ģíŀĪ
ê°ĻìĿĢ ëį°
ì½ ©
Ġíĸī ë³µ
Ġëĸ ¼
Ġì²Ń ìĽĲ
ëĳ ¬
Ġì£Ħ ëĭ¤
Ġë³´ íĺ¸
Ġëľ ¯
ĠëĮĢíķľë¯¼êµŃ ìĿĦ
ìĿ´ íĬ¸
Ġê³¼ ìĹ°
ĠëĬ ¦
ëĮĢ ì¤ĳ
Ġëĭ¹ìĭł ìĿ´
ìķĦ ë²Ħ
² ķ
Ġê¸° ìĥĿì¶©
Ġë°Ľ ëĬĶ
ĠìĻ ¸ë
Ġë§Ĳ ìķĦ
Ġê¼¬ ëĿ¼ì§Ģ
ë¦¬ ëĦ¤
Ġë¶ĢëģĦ ëŁ½
ìłĦ ëĿ¼ëıĦ
ìĹĨ ëĦ¤
Ġëĭ¹ ìĦł
Ġê± ¸ë¦¬
ĠìĹĨ ëĭ¤ê³ł
ĠìĿ´ëªħ ë°ķ
Ġëĺĳ ë°Ķë¡ľ
Ġíĺ ľ
íıŃ íĸī
ĠìĿ´ ìłķëıĦ
ëĸ ¨ìĸ´
íĸĪ ëĥĲ
ì§Ģ ëĦ¤
ì¤Ģ íĳľ
ĠëĮĢ ëĨĵê³ł
Ġ ^^
ëªħ ìĿĦ
Ġìĺ Ĩ
Ġë¬¸ì£Ħ ìĿ¸
Ġì£½ ìĹ¬
¸ëĮĢ íĨµëł¹
ëĦ ·
Ġë ļ
ê³µ ê°ľ
ê ¶ģ
Ġê ¾
³ ´ë
ìĪĺ ëĬĶ
ëł¥ ìĿĦ
ĠìĻľ êµ¬
Ġë¬¼ ëŁ¬
ëĶ ´
Ġìķħ ë§Ī
ìĸ´ ì¤Ģ
ĠìĿ ¸ë¬¼
Ġë² Ķ
ì§ĳ íļĮ
Ġìķł ëĵ¤ìĿ´
ĠíĿ¬ ìĥĿ
ĠëķĮ ëł¤
Ġì²Ń ë¬¸íļĮ
ĠìĤ´ìķĦ ëĿ¼
Ġíķľìĭ¬ íķĺëĭ¤
ë¯¸ íĦ°
ëħĦ ìĿ´
ĠëĬĲ ê·¸
ĠìķĦëĭĻ ëĭĪëĭ¤
Ġê± ·
ë§Į íķľ
ëª ½
ãħľ ãħľ
Ġì¡°ìĦł ìĿ¼ë³´
Ġê·¸ëĤĺ ë§Ī
Ġì§ĵ ê±°ë¦¬
ìĪĺ ìĪĺ
Ġê°ķ ëł¥
ë°Ľ ìķĦ
ì´Ŀ ìĦł
Ġì¶© ë¶Ħ
ĠìŀĲ ê°Ģ
~ !
ì¶ °
íķĺ ìĭł
Ġê°ķ ìłľ
ĠìķĦ íĶĦ
íĢ ´
ëĸ ł
Ġë²ķ ìĿĦ
ëĤ Ļ
íĸĪ ì§Ģ
ĠìŀĪëĬĶ ì§Ģ
ìĸ´ëĤ ľ
ĠìķĦ ê°Ģë¦¬
íķĺì§Ģ ë§ĪëĿ¼
ĠìĿ´ë ĨĪ
ì§Ģ ë¡ľ
ĠìłĦ ëĳĲíĻĺ
ëĿ¼ ëĭĪ
ë¯¸ ìķł
ìłķë¶Ģ ëĬĶ
Ġë Ĩĵê³ł
ĠìķĬ ëĤĺ
Ġëĵ ł
ĠìĿ´ë £
Ġìĸ´ ìĿ´
ë´Ĳ ìķ¼
ĠìŀĪ ìĸ´ìķ¼
ë°Ľ ëĬĶ
ìłĦ ìŁģ
ê¸° ëĵ¤
ìľł ìĭľë¯¼
Ġê¸° ê°Ģ
ê°Ģ ê°Ģ
ĠëĤĺìĺ¤ ëĬĶ
Ġì£½ ìĿĢ
ĠëĶ° ë¡ľ
ĠìĥĿ íĻľ
ê°Ħ ìĹĲ
ì į
ĠìĿĺ ë¯¸
ĠëĤ¨ íİ¸
Ġë¯¸ íĨµ
ĠìŀĪ ìĿĦê¹Į
ìĿ¼ ê¹Į
Ġêµ ³
ĠíķĺëĬĶ ì§ĵ
Ġë¯ ¸ë
ëħ¸ ì¡°
ë¹¨ ë¦¬
Ġê²½ íĹĺ
Ġë§İ ìķĦ
ëŀ ľ
ì¹ Ń
ê°ľ ìĽĶ
ëįĶ ë¶Ī
Ġë¶Ī ìķĪ
´ë ķĮ
Ġì§± ê°ľ
ìķ Ĺ
ĠëĤĺëĿ¼ ëĥĲ
ëĤ´ ëĬĶ
íķĺëĬĶ ê²ĥ
ëĲĺ ìĹĪ
ìĿ¼ ìĿĦ
ĠìĦłëıĻ ì§Ī
íĻ© êµĲìķĪ
ìĿ¸ ëıĦ
Ġê·¸ëłĩ ì§Ģ
Ġê´ĳ íĻĶë¬¸
ĠìłĦ ìĹĲ
ìĿ´ ê¸°
ĠíıŃ ë§Ŀ
Ġë½ĳ ìķĦ
ìĤ¬ëŀĮ ìĿĢ
Ġ !!
ĠëĤĺëĿ¼ ëĬĶ
ĠëĮĢíķľë¯¼êµŃ ìĿĺ
íĥĦ íķµ
ĠìĦ ¸ëł¥
Ġìĺģ ìĽĲ
ì¡° ì°¨
ê³µìĤ° ëĭ¹
ìĥģ íĻ©
Ġìĸ´ë Ķ
ë³´ë Ĥ´
ĠìķĮ ëł¤
ĠìŀĲ êµŃë¯¼
ìĭ¶ ëĭ¤
ì¤Į ë§Ī
Ġë¹Ħ ìĬ·
Ġëĭ ĺ
Ġë§ī ë§Ĳ
ìĺĢ ëĭ¤
Ġíĺ¸ êµ¬
ĠìĤ Ń
ĠëıĮ ëł¤
ëĭ¤ ìĿĮ
ìĤ¬ ê¸°
Ġê·¸ëŀĺ ìķ¼
Ġê¸°ìĤ¬ ë¥¼
Ġ7 0
Ġê±° ë¦¬
Ġë¶Ī ëŁ¬
Ġìĭł ê³ł
ìľĦ ë¡ľ
ĠìķĦëĭĮê°Ģ ìļĶ
ëĤ ¸
Ġìłķ íĻķ
ìĿ´ ë¯¸
ë ĩĮ
Ġì£¼ ëĬĶ
ĠìĿ´ ê±¸
ìŀĪ ê³ł
ìķ Ķ
ëĵĿ ê¶Į
ĠìķĦíĮĮ íĬ¸
Ġì§ Ĳ
Ġì²ĺ ë¦¬
Ġë¶ģíķľ ìĿ´
Ġì§ĳ ìķĪ
Ġìļ´ ìĺģ
ëĤĺ ê°Ħ
ĠìĿ¼ ìĸ´ëĤĺ
Ġì§ĳ ìĹĲ
Ġí ľĺ
ĠìķĦ ë²Ħ
Ġì§ľ ì¦Ŀ
¦ ´
Ġì§Ģ ëĤľ
ì¹ĺ ê°Ģ
¥ ¸
ĠíķľêµŃ ìĿ¸
ëģ Ķ
ĠìĪĺ ìĭŃ
Ġë¶Īë§¤ ìļ´ëıĻ
ë¬¸ ì£Ħ
êµ¬ ìĦĿ
Ġãħīãħī ãħī
Ġìĸ´ë łµ
êµ¬ ë¨¼
ëĭ Ń
Ġë°ľ íĳľ
íĥĢ ê¸°
Ġìľł ì¹ĺ
ĠíĪ¬ ê¸°
Ġëĺ ĺ
ĠìŀĪ ìĸ´ìĦľ
ĠìĿ¸ë ¯¼
ìĪŃ ìĿ´
´ ¤
Ġë§Į ëĵľëĬĶ
ìĺ¤ ëĬĶ
ì³Ĳ ë¨¹
Ġëª» íķł
Ġì¡ ´ëĤĺ
ĠìķĪ ëĲľ
Ġì§Ģê¸Ī ê¹Įì§Ģ
Ġê°ĳ ìŀĲê¸°
ë¦½ ëĭĪëĭ¤
Ġëĭ ¥
ë² ½
ë¶Ģ ë¡ľ
ìŀĪ ëĥĲ
ìĶ¨ ê°Ģ
Ġë łĪ
Ġë§ ¡
ì³Ĳ ìĦľ
ìħ ĺ
ĠìĦľ ìļ¸ëĮĢ
Ľ ëĤł
ĠìĨĮ ëĵĿ
íĺ Ī
ì¶ ĺ
Ġëĵ¤ìĸ´ ê°Ģ
ĠíķľêµŃ ìĿĢ
ìŀ¥ ìĹĲ
Ġì§Ģê¸Ī ëıĦ
ĠíķĺëĬĶ ì§Ģ
Ġê³µ ê²©
íķ´ì£¼ ìĦ¸ìļĶ
ĠëĮĢíķľë¯¼êµŃ ìĿ´
ë¬¸ìŀ¬ ìĿ¸ìĿ´
ìĨĮ ëĵĿ
ëıĦ ë¡ľ
Ġìŀ¬ íĮĲ
ìĤ¬ ëĬ¥
ĠìĽĥ ê¸°
ìłĢ ê¸°
Ġë³¸ ìĿ¸ìĿ´
ĠêµŃ ë°©
Ġê·¹ ìļ°
ëĦĪ ë¬´
íĸĪ ê³ł
ĠíĬ¹ ê²Ģ
ĠìłĦ íĻĶ
Ġì§ģ ìĽĲ
Ġìŀ¬ìķĻ ìĿ´
íķĺì§Ģ ìķĬ
íĺľ ìĽĲ
³´ ëĭ¤
ëĭ¹ ìĹĲ
Ġì Ł
ĠëĪĪ ë¬¼
ĠëĴ¤ ì§ĳ
ìł ¸ë
ë ½
Ġíķĺ ëįĺ
íķĺëĭ¤ ê°Ģ
ĠìĶ¨ ë¶Ģ
Ġê¸° ì¤Ģ
ĠíĶĦ ëłĪìŀĦ
Ġì¤ĳêµŃ ìĿ´
ĠëĤ¨ íķľ
íĶ ½
ĠìĹĨ ìľ¼ëĭĪ
Ġìĵ ¸ë
Ġë°Ķ ëŀĢëĭ¤
Ġë°Ľ ìĿĢ
Ġìľł ì§Ģ
Ŀ¼ ê³ł
Ġìłķê¶Į ìĿ´
ĠìĪĺ ìŀħ
Ġë°ľ ìĥĿ
Ġì Įį
Ġëĭ¤ íĸī
Ġì¹ĺ ë§¤
Ġìłľ ìłķìĭł
ëĤ ©
Ġì·¨ ê¸ī
Ġíķ ĳ
Ġ2 00
ĠíĿ ĺ
Ġê²½ìłľ ê°Ģ
ìķĦëĭĮ ê°Ģ
Ġì ¯
ìŀ¥ ìĿĢ
ëĸ ¼
ĠëĦĪ ë¬´ë
íķł ëĵ¯
ê°Ĳ ìłķ
Ġãħİ ãħİãħİ
ĠìłķìĿĢ ìĿ´
ìĥĪëģ¼ ëĵ¤
ĩ ¬
Ġìª½ íĮĶ
ìĹĪ ëĤĺ
íĬľ ë¸Į
Ġëĵ± ëĵ±
Ġìŀ¥ ìĤ¬
Ġëĸł ëĵ¤
ĠíĨµ íķ©
ì¹ĺ ë¥¼
Ġì°¬ ìĦ±
ĠíĿ¬ ë§Ŀ
Ġíħ Į
ĠíĿ Ĳ
ĠìĤ´ë ł¤
ĠíķľêµŃ ìĿ´
ĠìĥĿ ìĤ°
© °
ì§ ĸ
Ġë°© ìĹŃ
Ġìĺģ íĻĶ
ê¸° ê´Ģ
¸ë Ħ¤
ìłĢ ë¦¬
Ġê±¸ë ł¤
ëĭĺ ëĵ¤
ìĿ´ ëĦ¤ìļĶ
ìŀħ ëĭĪê¹Į
í Ħ¸
Ġë²Ķì£Ħ ìŀĲ
ìĸ¼ ë§Ī
Ġë¶Ħ ëħ¸
ê¹Ģ ìłķìĿĢ
Ġìľł ê³µìŀĲ
ĠìłĢ ì§Ī
ĠìķĦëĭĪ ìķ¼
Ġìĭł ë¢°
ìĭ¬ ìĿĦ
íĪ¬ íĳľ
ĠëĬĲ ëģ¼
ĠìļĶ êµ¬
Ġìĵ°ëłĪê¸° ëĵ¤
Ġì© Ŀ
ĠìĥĪëģ¼ ëĵ¤
ëĵ¤ìĿ´ ëĤĺ
ë§ ĺ
ĠíĻķì§Ħ ìŀĲ
ì±ħ ìŀĦ
ĠëĬĲëĤ Į
ëıĪ ìľ¼ë¡ľ
Ġíļ ¨
ìĿ¼ ìĿĢ
Ġì²Ń ëħĦ
ìķħ íķľ
ëł¤ ëĤĺ
ĠìµľìłĢ ìŀĦê¸Ī
ł ¥
Ġë¹ Ī
Ġë¯¼ì£¼ëĭ¹ ìĿ´
ĠìķĪ ê°Ģ
Ġíĺľ íĥĿ
ìĸ´ ì£¼
ĠìĤ¬ëŀĮ ëıĦ
ë¬´ ëĬ¥
Ġëģ Ĭ
Ġì§Ģ ê»Ħ
ìłľ ê°Ģ
ëĭĪ ëĵ¤
Ġë¯¸ ê°ľ
Ġë§ŀ ëĭ¤
Ġì ª¼
Ġë Ł¬
ëıĦ ë¥¼
???? ????
Ġ6 0
Ġìľ ¡
ê¸ ¸ëŀĺ
Ġë Ĥ¬
Ġí ĳ
ĠìŀĪ ëĬĶê±°
Ġê²½ ìļ°
Ġìķħ íĶĮ
Ġìĭľ ì§Ħíķĳ
Ġê°Ĳ ìĦ±
ðŁĲ ķ
ë¯¼ ì¡±
ĠêµŃë¯¼ ëĵ¤ìĿĦ
ĠëıĪ ìľ¼ë¡ľ
êµĲ íļĮ
Ġë°Ķê¿ Ķ
ĠíĴ Ī
ìķĪ íķĺê³ł
ìĿ´ ì§Ģë§Į
ë§Į ëĵ¤
Ġíİĺ ë¯¸
Ġê°ľ ê°Ģ
Ġì§ ĸ
ê¸´ ëĭ¤
Ġêµ¬ ëĿ¼
ĠëĲ ©ëĭĪëĭ¤
Ġì¢Į ì¢Ģ
Ġê²© ë¦¬
ìŀħ êµŃ
Ġë¯¼ ëħ¸ì´Ŀ
ĠëıĦ ëĳĳ
ĠëĮĢ íķ´ìĦľ
ê² Ĳ
êµĲ ìĪĺ
ë²ķ ìĿĦ
íĥĢ ëł¹
ĠëĤ´ë ¦¬
Ġê°Ģ ë¥´
ĠìŀĲê¸° ê°Ģ
° ©
Ġê°Ĳ ë°©
ìĵ ¸
Ġë¯¸ ì³¤
ĠëĤĺëĿ¼ ìĹĲìĦľ
ë¹ Ī
ĠìĪ Ļ
Ġë¬ ¸ë
Ġë§Ī ìĦ¸ìļĶ
Ġë¹Ħ ë¡Ģ
ìĹ° ê¸Ī
ĠìĿ´ ê²ĥ
ëĦ Į
ì© Į
ëĪĦ ë¦¬
ĠãħĪ ãĦ¹
Ġë¬´ìĭĿ íķľ
ê²° êµŃ
4 0
ì§Ģ ë§ī
ëŁ¬ ìĽĮ
Ġëĭ¤ ë¥¸ë
ìĹ¼ ë³ĳ
Ġëį ĺ
ĠìĿ´ë Ķ´
Ġíĺĳ ë°ķ
ĠíĻĺ ê²½
ëıĦ ëĮĢì²´
ìĿ¼ ë¿Ĳ
ê²ł ìĸ´
Ġì¢ĭìķĦ íķĺëĬĶ
Ġê¼´ íĨµ
ĠìĹ¬ê¸° ìĦľ
ĠëŃĶ ì§Ģ
Ġíķ´ë ³´
Ġëĭµ ìĿ´ëĭ¤
Ġì¦ Ĳ
íķľ ìĭ¬
Ġì ĳĪ
ëª ĩ
ìķĮ ë°Ķ
ìĨĮ ëħĦ
ë§Į ëıĦ
Ġë§¤ ìĿ¼
ĠëĮĢ ì²ĺ
Ġê°Ģ ë©´
Ġëĭ¹ ìĭľ
íķľëĭ¤ ë©´
Ġëª° ëĿ¼
ë¶Ģ ê°Ģ
ĠìĿ´ ì¤ĳ
ī ¤
Ġëĭ¤ ëħĢ
Ġë¹ ļ
ĠãĦ ´
ĠìĿ¼ ìľ¼
ëŁ ´
Ġëĭ¬ ëĿ¼
Ġ1 5
ë§Ĳ ìĿĦ
íķĺ ìħ¨
ìŀĪ ëĦ¤
Ġíķĺì§Ģ ë§ĪëĿ¼
ĠíĹ ¤
Ġë§Ĳ ìķĦë¨¹
Ġì£½ ìĿĦ
Ġìĺ¬ ë¦¬
ĠìłĲ ìłĲ
ëł ģ
ĠëĤĺ ìĻĢìĦľ
ĠëıĪ ë²Į
ìłģ íıĲ
ĠìłĢ ë¦¬
Ġë²ķë¬´ë¶Ģ ìŀ¥ê´Ģ
Ġë³´ ìĿ¸ëĭ¤
Ġë¶Ģ ìĤ°
Ġê°ľ ë°ľ
Ġìī½ ê²Į
Ġìĭ¸ ìĽĢ
Ġíķĺ ê¸°
Ġë©įì²Ń íķľ
Ġë¯¼ì£¼ íĻĶ
Ġë§İ ëĦ¤
Ġ /
ë³´ë ¥¼
ëħĦ ìłĦ
Ġë¬¼ ê³ł
¹ Ħ
Ġëª¨ ìĸĳ
ì¡ ¸
ĠëĤĺ ë²ł
Ġì§Ģ ë°©
į Ķ
ĠìĿ´ íĽĦ
Ġ !!!
Ġê²° ìłķ
íķĦ ìļĶ
ĠìĿĺ ê²¬
Ġë¯¸ ì³Ĳ
ìĦ¸ ìĽĶíĺ¸
ĠìĦ± ê³µ
ê²ł ìĸ´ìļĶ
ĠíĽ Ī
ìľ¼ ëĿ¼ê³ł
ì¶ľ ìĭł
ì¡Į ëĭ¤
ìľĦ ê°Ģ
ë§Ĳ ìĿĢ
ĠìĹĨ ëĤĺ
ħ ìĭľëĭ¤
ìĦ¸ë ĮĢ
Ġë¹¨ ìķĦ
ìĺ¤ ëĬĺ
Ġëħ¸ ìĺĪ
Ġë§Ī ì°¬
ìĦ± ìĿĢ
Ġì·¨ ìĹħ
ĠëĩĮ ê°Ģ
íĦ ´
ģ ¼
ĠìĹĨ ìĬµëĭĪëĭ¤
Ħ ĺ
Ġë§İìĿĢ ëį°
ìļ© ìĿ´
ìĭ ¼
ë³´ ëĭ¨
Ġë°ľ ìķħ
Ġë°Ŀ íŀĪ
ĠìĤ´ ê¸°
Ġì°© ê°ģ
ĠëĤĺìĺ¤ ë©´
Ġê³ł ë°ľ
ë¬ ¸ë
Ġê¸° ëĵĿê¶Į
Ġë¬´ ì£Ħ
ë§ŀ ëĬĶ
ëĲĺ ìĦľ
Ġëĭ¤ ë¥¼
ê°Ħ ì²©
ë¹Ħ ë¦¬
ħ ¸
Ġë Ŀ
Ġì ¿
ìĿĦ ìĪĺ
Ġë³´ ìŀĲ
Ġë¬¸ìŀ¬ìķĻ ìĿ´
Ġìĭ Ń
ê¼´ íĨµ
ì§ľ ë¦¬
ê°Ķ ëĭ¤
Ġì²łìłĢ íŀĪ
Ġê´Ģ ê´ĳ
ê¸° ëłĪê¸°
ì¤Ģ ëĭ¤
Ġãħ £
ëħĦ ê°Ħ
Ġê±° ëĭ¤
ĠìķĦ ëĤĺ
íķĺ ê²łì§Ģ
ī´ ëĵľ
ðŁĴ Ļ
ĠëĤĺëĿ¼ ìĹĲ
Ġìĸ¸ìłľ ê¹Įì§Ģ
ê±° ì§ĵ
Ġë³´ìĹ¬ ì£¼
ë ·
ìłģ ìĿ´ê³ł
ê±° ê³ł
Ġíŀĺ ìĿĦ
ìĭł ëıĦ
ĠìĨĮ ë¹Ħ
ëķĮ ë¬¸
ĠëĤ¨ íĥĵ
ĠíĸĪ ëįĺ
Ġëªħ ëĭ¨
ê ½
Ġí ŀ
ĠìĿ´ë²Ī ìĹĲ
ĠíĹ ¬
Ġë¬¼ ìĸ´ë
ëĲĺ ì§Ģ
Ġê°Ģ íķ´
Ġíģ ´ë
ìĻ¸ êµĲ
ìļ´ ìłĦ
Ġê°Ĳ ìłķ
ë ¿
ê°Ģ ë¥¼
Ġì¡° ì¤ĳëıĻ
§ Ŀ
Ġë¬´ìĦľ ìļ´
ìĨ Ķì§ģíŀĪ
Ġíķľ ëĭ¤ëĬĶ
Ġì§Ģ ìĺ¥
ëħĦ ìĹĲ
ê³łìŀĪ ëĭ¤
ĠìĿ´ë ħ
Ġë¯¸ êµ°
Ġãħ Ĩ
ìļ° ë©´
Ġìłģ ëĭ¹íŀĪ
ë³´ ëĭ¤ëĬĶ
ìĭľì¼ľ ìķ¼
Ġìį© ìĿĢ
Ġì ħ
ìŀĪ ëĤĺ
ìľ¼ë¡ľ ìĦľ
Ġëĥ ĦìĥĪ
Ġìļķ ë¨¹
Ġìłķì¹ĺ ë¥¼
Ġëĭµ ìĿ´
ĠíĥĢ ëł¹
ĠíķľêµŃ ìĹĲ
Ġê°ĸ ê³ł
ĠìĹĨ ëĥĲ
ĠìĹĨ ìĿĦ
ëĿ¼ ìĿ¸
´ë ³´
íĨł ì°©ìĻľêµ¬
Ġí Ħ
íķľíħĮ ëĬĶ
íģ ´ë¡ľ
ĠìŀĲë¹ł ì¡ĮëĦ¤
ĠìĹĲ ëĿ¼ìĿ´
ĠìĿ¸ êµ¬
ĠìķĬ ìĿĦ
Ġìĺ ·
ĠìķĪ ëı¼
ĠíĻķìĭ¤ íŀĪ
ĠìŀĲìľł ë¯¼ì£¼ì£¼ìĿĺ
Ġëĵ¤ ìĿ´
Ġìļ´ ìļ´
ìĽĮ ëĿ¼
ìĿĺ ë¥¼
ì¢ĭ ìķĦ
ì§ĵ ê±°ë¦¬
ìĽĲ ìłĦ
ìĹĪ ëĦ¤
ìĪĺìĪĺ ìĥī
ĠëĤĺëĿ¼ ìĿĺ
ìĹĨ ìĿĮ
?? ???
íĬ¸ë Ł¼íĶĦ
ê°Ģ ì§ľ
ĠìĥĿ ê¸°
ìĥģ ìĿĢ
ĠëĮĢíĨµëł¹ ìĿĢ
Ġê°ĸ ëĭ¤
Ġë½ĳ ìĿĢ
ĠëĮĢ íĨµ
ìłľ ë¥¼
ìķĦëĭĪ ëĥĲ
ĠìĦ¸ìĥģ ìĿ´
ìŁģ ìĿ´
ðŁ ĩ
Ġê°Ģ ìĬ´
ë¡ľ ì§Ģ
ìłķê¶Į ìĿ´
Ġíķ© ìĭľëĭ¤
Ġê²Į ìŀĦ
ì¡° ë¦¬
íĸĪ ëĭ¤ëĬĶ
Ġì¡°êµŃ ìĿĦ
Ġì´Ŀ ìŀ¥
Ġê³ł ë§Ļ
ĠëŃĲ ëĿ¼ê³ł
íħĮ ëĭĪ
ê³µ ë¬´ìĽĲ
ê±° ë©´
ĠìĬ¹ ë¦¬
ĠìĿ¸íĦ° ëĦ·
ì¸ ł
ãħ Ĭ
ëĭ Ŀ
ìĭŃ ëĭĪëĭ¤
Ġë¬¼ íĥĢê¸°
ìķĦ ëĭĺ
Ġë°Ķ ê¾¸
ëĬĶëį° ëıĦ
Ġëĭ¹ìĭł ìĿĢ
Ġë²ł íĬ¸ëĤ¨
Ġìŀĺ íķĺê³ł
¡ Ń
Ġë°Ķ ëŀĮ
ê¹Į ìļ´
ì§Ģ ëĤĺ
Ġëĸł ëĤĺ
êµŃë¯¼ ëĵ¤
Ġìļ° ìĬµ
ìĭľ ìłĪ
~~~~ ~~~~
ìĵ° ëĬĶ
ì²Ń ìĤ°
ìķĦëĭĪ ëĿ¼
íķĺ ê¸´
ĠìŀĲìĭł ìĿĺ
ìĹ¬ ë¡ł
ĠíķĦìļĶ íķľ
íĸĪ ëĤĺ
ĠíĸĪ ìľ¼ë©´
ĠìłĦ êµŃ
Ġë¬´ë ¦¬
ëĭ Ĳ
ìľĦ ë¥¼
ĠëĤ ©
ë°Ķ ëĭ¥
ĠìĪĺ ê°Ģ
ëĭĪ íģ´ë¡ľ
ëĬĲ ëĥĲ
1 5
íĹ ¤
ìĸ´ë ¨¹
¯ ¸
Ġì£Ħ ê°Ģ
Ġëĺĳ ëĺĳ
Ġê°ľ ëħĲ
Ġë°Ľ ìķĦìķ¼
ë§¤ êµŃ
ĠêµŃê°Ģ ê°Ģ
Ġê´ĳ ê³ł
ĠìĻ¸ ì¹ĺ
ĠìĹĲ íľ´
Ġë§ŀ ì§Ģ
ĠìĿ´ëŁ° ê±°
ìĽĲ ìĪľ
ìķĦëĭĪ ê³ł
ìĭľíĤ¤ ëĬĶ
ĠìĽĲ ìłĦ
Ġê¼ ¼
ê¶Į ìĿĦ
ëĵ¤ ìĹĲ
ë¬´ ìĭľ
ĠìĦł ìĥĿ
Ġë¯¸ ìķĪ
ìĦľ ìļ¸
ìĿĦê¹Į ìļĶ
ìķĦ ê°Ģ
Ġìļ© ìĦľ
ë³¸ ëĭ¤
ëĪ ł
Ġì¡° ì§ģ
ëĨį ëĭ¨
Ġëĸ ¡
ĠìĿ¼ë³¸ ìĿĦ
ĠíĨµ ê³¼
Ġìķł ì´ĪìĹĲ
ìĶ¨ ëĬĶ
Ġë¶Ħ ìĹ´
ëĪĦ ëĿ¼
íĭĢ ëĶ±
ìķĦ ë¬´ë¦¬
ĠëĮĢ ìĭł
Ġìĭł ë¬¸
ĠëĮĢíĨµëł¹ ëĭĺ
ìĿ´ ìŀĲ
ìħĶ ìĦľ
Ġì§ĳ ìĹĲìĦľ
ĠëĪĦ êµ´
íĬ ¸ë¦¬
íķľê±° ì§Ģ
Ġíıī ëĵ±
ì²Ń ìĽĲ
ĠíĴ į
Ġì£¼ ìĦ¸ìļĶ
ëĵ ¬
ë¦¼ íĶ½
Ġ8 0
íģ °
ìĿ´ ìĹĲ
ĠìķĦë¬´ ëıĦ
1 00
Ġìĭľ ìłĪ
ìĨį ìĹĲ
ëĸ ³
Ġë¯¿ ëĬĶ
Ġê°Ģ ê³ł
ëıĦ ëĬĶ
Ġìĭľ ìĽĲ
ìŀĪ ìľ¼ë©´
ĠìĶ ¹
ìĤ¬ëŀĮ ëĵ¤ìĿ´
ìķĦ ëĥĲ
ĠìĿĺë£Į ì§Ħ
Ġìĺ ®
Ġê·¸ëŁ¬ ëĤĺ
ĠìĿ´ë §Į
Ġë¹ µ
íļĮ ìĤ¬
ëĸ ¨
Ġê¸° ë¶Ħ
ìĥģ ìĹĲ
ìķĺ ëĬĶëį°
ĠìĥĿê°ģ íķĺê³ł
ĠìĽ Ģ
Ġíķľ ëªħ
Ġìłľ ëª©
Ġë¬¸ìłľ ëĭ¤
Ġêµ³ ìĿ´
ëĭ¹ íķĺê³ł
ĠëıĦ ë§Ŀ
ĠìĨ ¡
ì°¸ ìĹĲ
ìĿ¸ ëĵ¤ìĿĢ
ðŁ ¤
¥ ĺ
Ġì§Ħ íĸī
ĠìĿ´ë¯ ¼
ë¦¬ ìŀĲ
ĠìŀĲìľł íķľêµŃëĭ¹
ĠëıĻ ìĽĲ
ìĬ¤ íħ
ĠìłĢ ê±°
ì§Ģ ìĸ´
Ġê·¼ ê±°
íķĺ ëĭ¤ëĬĶ
Ġì¡´ ê²½
ìĥģ ìľ¼ë¡ľ
Ġê²ģ ëĭĪëĭ¤
Ġíģ¬ ê²Į
íĨµ íķ©
ë§İ ìĿ´
ìĭľ ìĹĲ
ìĭľ ë©´
ë©´ë Ĳĺ
´ë ł¤
ĠìķĪíĥĢ ê¹Ŀ
Ġëª© ìĤ¬
ĠëĮĢ ì¶ľ
Ġì ī´ëĵľ
Ġìļ°ë¦¬ ëıĦ
Ġì¹Ń ì°¬
Ġëĭ¨ ìĭĿ
Ġ 0
ìĿĢ ëį°
ë°Ľ ìĿĦ
Ġê¸° ìĨĮ
ëĭĪ ëĵ¤ìĿ´
ë¬´ ìŀ¥ê´Ģ
Ġíĺ¹ ìĭľ
ë¶Ħ ìĹĲ
ëħĦ ëıĻìķĪ
Ġë¬¸ìŀ¬ ìĿ¸ë
ëķĮ ê¹Įì§Ģ
ëĦ¤ ìĿ´ë²Ħ
Ġãħľ ãħľ
ìĭľ ê¸°
ëĪĦ êµ¬
Ġë¬¸ìłľ ìĿ¸
Ġìľ¤ ë¯¸íĸ¥
ĠìłĢ ê²Į
Ġëĵľ ë£¨íĤ¹
ìŀĪ ëĬĶëį°
ëķĮ ëıĦ
Ġê°ķ ê°Ħ
ĠìĶ Į
Ġê°Ģ ìķ¼
´ë° Ľ
ìĸ´ë Ĩĵê³ł
Ġëľ ¨
ìĸ¸ ìłľ
ê¶Į ëł¥
ëĭ¬ ëĿ¼
Ġë´Ĳ ìķ¼
ĠêµŃë¯¼ ëĵ¤ìĿĺ
Ġãħħ ãħĤ
Ġíĸ ¥
Ġì¤ĳ ìķĻ
ĠìĤ´ë ¦¬
ĠìŀĲ ì¡´
Ġë Įĵ
ìĸ´ë Ĥ´
Ġì£¼ ìĭĿ
Ġë¯¼ì£¼ëĭ¹ ìĿĢ
ĠìĿ¼ë³¸ ìĿĺ
ìĹĪ ëĭ¤ê³ł
ëĭ¹ ìĹ°
Ġíķľ ê±°
Ġìĭ¤ ë§Ŀ
Ġë°© ìĤ¬ëĬ¥
ìŀ¥ ìĹĲìĦľ
ìľ¤ ìĦĿìĹ´
ĠãĦ ¹
Ġêµ° ìĤ¬
ìľ¼ ëĤĺ
ê¸Ī ìĿĦ
êµŃë¯¼ ìĿĦ
ĠëıĻ ë§¹
ëľ »
ĠìĥĿê°ģ ìĿĢ
Ġì³Ĳ ë¨¹
Ĳ ľ
íĶ¼ íķ´
Ġì¡ ¸
ĠíıĲ ì§Ģ
Ġìŀħ ë§Į
Ġìĸ´ë ¦¬
ìĿ´ ìłł
ìĹĪ ì§Ģ
Ġì¤ĳìļĶ íķľ
ë¹Ħ ê°Ģ
Ġì©Ŀ ì©Ŀ
Ġìĭ¸ ìļ°
Ġìĭ¤ íĮ¨
Ġì§Ģ êµ¬
Ġê±° ë¶Ģ
ìī ½
íķĺ ê¸¸
ê²ĥ ê°Ļ
ê»ĺ ìĦľ
Ġìłķê¶Į ìĿĦ
Ġì¢ĭ ëĭ¤ê³ł
Ġìłķ ìŀĳ
ĠíĨµ ê³Ħ
ĠìŀĲê¸° ëĵ¤
ê¸° ëĤĺ
ĠëıĻ ë¬¼
ĠìŀĪëĭ¤ ë©´
~ !!
ëŃ ĺ
´ë©´ ìĦľ
ĠìĹ¬ ìŀĲê°Ģ
íķĺëĬĶ êµ¬ëĤĺ
ĠìĿ´ìłľ ìĻĢìĦľ
Ġë§Īì°¬ ê°Ģì§Ģ
Ġìĸ´ ìĿ´ê°Ģ
ëķ ľìĹĲ
ĠëĨ Ķ
Ġê »
ì© ¡
ĠëŃĲ íķĺëĬĶ
.. ?
ë³ĳ ìĽĲ
Ġë¶Ģ ë¥´
Ġê³ł ë§Ī
¨ ¸
ìĿ´ ìľł
Ġíķ´ë ´ĲëĿ¼
Ġì§ĵ ìĿĦ
Ġì¹ľ ì¤ĳ
í ľĺ
ì´ ī
íķĺëĬĶê±° ì§Ģ
ĠìŀĲ ëħĢ
ëĦ Ĳ
ĠìĹ° êµ¬
ĠëĲĺ ëĬĶëį°
ìŀ¬ ìĤ°
ê¾ ¸ë
Ġê°Ģ ìłķ
íĮ ©
Ġë²Į ìĸ´
ĠëĤĺìĺ¨ ëĭ¤
ì§Ī ìĿĦ
ìĺĪ ìļĶ
Ġìłķì¹ĺ ìłģ
ë³´ íĹĺ
Ġíı¬ íķ¨
Ġì¡°êµŃ ìĿĢ
ĠìĿ Ħ
ì «
ì£¼ íĥĿ
ìĿ´ ë§Į
ìľĦ ìĽĲ
ĠëıĦ ëįķ
ĠëŃĶ ëį°
Ġë¬¸ìłľ ëĬĶ
ìĺ¤ ë©´
ĠìµľìĨĮ íķľ
ìķĺ ëĦ¤
ĠëŁ¬ ìĭľìķĦ
Ġì¢ĭ ëĭ¤
ĠìĿ¼ ìĿĢ
ìłľ íĴĪ
Ġëº ı
ê·¸ë ¦ĩ
ëĨĪ ìĿĢ
Ġìľł ëŁ½
ë³µ ìĿĦ
ìĭł ìĿ´
ìĸ´ëĸ »ê²Į
Ġì±ħìŀĦ ìĿĦ
íĨµ ìĪĺ
íĻľ ëıĻ
ĠìĻĢ ìĦľ
ìľĦ ê¸°
Ġì±Ļ ê²¨
ëª¨ ëĵł
Ġê³ł ë¯¼
ĠìĨĮ ëĮĢê°Ģë¦¬
ĠëĮĢëĭ¨ íķľ
ìłķ ëĭ¹
ĠìķĦ ìĽĥ
ìŀ¥ ëĤľ
Ġë³Ģ íĺ¸ìĤ¬
ê¸° ìłĦìĹĲ
ĠëĮĢ ëĭ¤
íĺ Ķ
Ġíĳľ ì°½
ìĻĢ ëĿ¼
ëł¸ ëĭ¤
Ġìķķ ìĪĺìĪĺìĥī
Ġë§Ī ìķ½
ĠëĤĺ ìģĺ
ĠëĤ ¸
Ġë§Į ëĤĺ
Ġìĥģ íĥľ
ìĪĺ ë¡ľ
ìľ¼ ëł¤
Ġíķľ ë°ĺëıĦ
Ġë§Ī ì§Ģë§ī
ìĿ¼ ìĹĲ
íĸĪ ëĬĶì§Ģ
ë°ĺ ëĮĢ
ìłķ ìĥģ
ê°Ĳ ìĿ´
ë¬¼ ê³ł
ĠìĿ´ìľł ëĬĶ
ìĦĿ íĿ¬
ëł Ģ
ĠëŃĲ íķĺëĥĲ
íķĺê³ł ëĬĶ
ìĬ¤ ëŁ¬ìļ´
ë¿ Ķ
ĠëĤĺ ë¶Ī
Ġíķĺ ëĿ¼ê³ł
ĠíķĺëĤĺ ëĭĺ
ĠëĲ ¨
± ī
ëĮ ķ
ì į©
Ġë¹Ħ ìĭ¸
ìĹĪ ëĥĲ
ëĤ¬ ëĭ¤
Ġíķĺ ê¸´
Ġì² ¨
Ġëĭ¨ ì²´
Ġì£¼ ë¯¼
Ġì£Ħ ë¥¼
ìĿ´ ë©°
ìłľ ëıĦ
Ġë¹ ¡
ĠëĤĺ íĥĢ
ë°Ľ ìĿĢ
Ġ1 2
Ġê¸° ëıħêµĲ
ĠëĤĺ ëĪł
Ġêµ¬ ë¶Ħ
Ġë§Įëĵ¤ ìĸ´ìĦľ
Ġìļ°íķľ íıĲëł´
Ġê°Ĳ ìĭ¸
Ġë³´ ìĥģ
Ġê°Ħ ëĭ¤
ĠíĮĶ ìķĦ
ëĨĪ ëĵ¤ìĿĢ
ê¼ Ń
ìķŀ ìĹĲ
ĠìĦ¤ ëªħ
ĠìłĦ ë¬¸ê°Ģ
êµŃíļĮ ìĿĺìĽĲ
ìĺ ´
ìĦ¸ë ¥¼
ë Ľ°
ëĬĶ ëĭ¤ê³ł
ĠëĪĪ ìĹĲ
ĠëįĶ ìļ±
ìĹħ ìŀĲ
Ġ5 18
ëĭ¤ ìĭľ
ĠìĺĪ ìłĦ
íĳ ¼
Ġë§Ĳ ë§Į
ĠìĿ´ëħ Ĳ
ìļ´ë į°
Ġë§Ī ì¹ĺ
ĠìĹŃ ê²¨
ĠëĺĲ ëĿ¼ìĿ´
ëĵł ê°Ģ
ìĭľ ìļĶ
ĠìĹ ´ë
íĸĪ ìĿĦ
ĠíĻĶ ê°Ģ
Ġë¬´ ê¸°
ì¡°ìĦł ìĿ¼ë³´
ë²ķ ìĿ´
ëłĪ ìĿ´
Ġ1 9
ìķĦ ì§Ģ
ëŀ ı
Ġë§Į ìķ½
Ġë Į
Ġì²ł ìĪĺ
ĠìķĪ íķĺëĬĶ
ìĿ¸ ê¶Į
ìŀ¡ ìķĦ
ĠìĹ¬ë¡ł ì¡°ìĤ¬
ìķĦ ë¦¬
ĠëĶ ´
ëĦĺ ëĵ¤
ĠëĺĲ íķľ
Ġëĳĺ ëĭ¤
ë¥´ ê²Į
Ġë¬ µ
ĠìķĪ ëĲł
ĠìŀĲ ëıĻ
Ġìĸ´ íľ´
Ġíķ´ ì²´
Ġë³Ħ ë¡ľ
¸ë¹ Ħ
Ġìļķ íķĺëĬĶ
ìŀ ī
ìĹĪ ëįĺ
íķ´ë Ĩĵê³ł
Ġìľł íĬľë¸Į
Ġíķĳ ê³Ħ
Ġìĺ ĽëĤł
ìĬ¤ëŁ½ ê²Į
ĠíĶĦ ë¡ľ
ì¢ħ êµĲ
ĠíĻľ ëıĻ
ìĦĿ ëł¬
Ġíķ© ìĿĺ
ĠëĲĺ ëĥĲ
ì§Ģ ìĹĲ
ìĵ´ ëĭ¤
ĠíĨł ì°©
ìĽĲ ëıĦ
Ġíķľ ëĭ¬
ĠíĽĦ ìĨĲ
ê²ł ëĭĪ
Ġê²½ ìŁģ
ëĮĢ ê³ł
ĠëĲĺ ëĬĶê±°
ë´ Ħ
ĠìĿ´ëŁ¬ ëĭĪ
Ġì£½ ì°½
Ġì Ń
ìŀ ł
ĠìĪĺ êµ¬
ìŀĦ ìĿĦ
ĠëĦĪ ê°ĻìĿĢ
Ġì§ģ ìĹħ
ìķĪ ìĿ´
ì¹ľ ëĭ¤
ĠìĽĢ ì§ģ
ĠìŀĲ ì£¼
ê´Ģ ìĿ´
ĠìĦ± íıŃíĸī
ëĲĺ ëĥĲ
ì¤ĺ ìĦľ
ĠìŀĪ ì§Ģë§Į
´ë° °
ëıĻ ëĦ¤
â Ļ
ë² ¼
ĠëĶ ¸ë
ë İ
Ġëª» íķ´
ķ ëĭĪëĭ¤
Ġìłķë¶Ģ ìĿĺ
Ġì¤ ¬
Ġìĺ¤ ë¡ľì§Ģ
ê² Ħ
Ġìłķê¶Į ìĿĺ
ĠíĮĶ ìķĦë¨¹
ì ı
Ġì« Į
ĠìķĦ ì¤Įë§Ī
êº¼ ëĭ¤
° ëĮĢ
ê²ł ëĬĶëį°
Ġë§ĺ ëĮĢë¡ľ
êµ¬ ìĨį
ëĤ ¼
ĠìķĬ ìľ¼ë©´
íķ´ ê°Ģ
Ġìłķê¶Į ìĿĢ
Ġë´ ħëĭĪëĭ¤
ĠëĤ´ ê³ł
ìľ¼ ìĦ¸ìļĶ
Ġì°¸ ìĹ¬
ĠíŀĺëĤ´ ìĦ¸ìļĶ
Ġìĸ´ëł¤ ìļ´
Ġë²Ħ íĭ°
Ġìļ° ë¦°
Ġë¯¿ ìĿĦ
Ġìµľìķħ ìĿĺ
ì¡° ê°Ģ
ê³¼ ëĬĶ
íĽ ł
ĠìĥĿ ê¸´
² Į
ëĭ¤ ìļ´
Ġìļ°ë¦¬ëĤĺëĿ¼ ëĬĶ
Ġì°¬ ìĸĳ
ìķĪ ìĹĲ
ĠëĮĢë³Ģ ìĿ¸
ĠëĨĢ ìķĦ
ĠíĿ ĳ
ê°ľ ëı¼ì§Ģ
ê·¸ ê²Į
ãħİãħİ ãħİ
Ġìłģ ê·¹
Ġíķ¨ ë¶Ģë¡ľ
Ġëĭ «
ĠìķĪ ì²łìĪĺ
íķĺìĭľ ëĬĶ
ìĻĦ ìłĦ
ĠíĮ ¬
ĠíķľêµŃ ìĿĦ
ìķĦ ëĵ¤
ìĿ¼ ìĦ±
Ġë¬ ¸ëĮĢíĨµëł¹
ëĬ ł
Ġë¶ģ ê´´
Ġê·¸ëŁ° ê±°
ĠìĿ´ë Ĥ
ì§± ê¹¨
ê²½ ìĭ¬
ìĸ´ ì°¨íĶ¼
Ġëĵ Ŀ
ìĿĮ ìĿ´
Ġë³´ë ³µ
Ġì§ ¤
ë¥´ ìĬ¤
ìħĶ ìķ¼
Ń ë¹Ħ
Ġìļ°ë¦¬ ìĿĺ
ì° ¾
ĠìŀĪ ìĸ´ìļĶ
ĠêµĲ íĻľ
ëĭ¹ ìĿĦ
Ġë¯ ¸ë¦¬
ĠìĦ¸ ìĽĶ
ìĬ¤íħ ľ
ìĤ¬ ìĿ´
ê²ĥ ë§Į
ĠìĪľ ê°Ħ
Ġíķĺ ê²Į
Ġë¶Ħ ëĵ¤
ĠìĹŃ ê²¹ëĭ¤
Ġë²ķ ìĿ´
Ġê±° ê¸°ìĹĲ
İ Ħ
Ġë§Ī ìĿ´
Ġë§Į íģ¼
Ġë¬¸ ìłķê¶Į
ĠëĤ´ë ¶Ģ
ìŀ¬ íĮĲ
Ġíķĺ ëĿ¼
Ġíķľë²Ī ëıĦ
ĠìĻ ł
ĠëĮĢíķľë¯¼êµŃ ìĿĢ
ĠìŁ ¤
ĠìĽĲ íķĺëĬĶ
ĠíĹĮ ë²ķ
ë¨¹ ìĿĢ
ëľ ¯
ëĿ¼ ìĭľ
ĠìķĮ ì§Ģ
ĠìĿ´ ì§Ģ
ë°ľ ìĿ´
ìĦľ ìķ¼
íķĺ ëł¤ëĬĶ
Ġì¤ĳêµŃ ìĿĢ
ìĿ į
íķł ê²ĥ
Ġê°ľëı¼ì§Ģ ëĵ¤
Ġíķĺ ëįĶëĭĪ
ìĬ¤ ëŁ°
Ġëĵ£ ê³ł
¨ ìĿ´
ĳ Ĳ
ĠìĤ° ëĭ¤
Ġëª¨ë¥´ ê²łëĭ¤
ì¦Ī ìķĦ
ëĵľ ë¦½ëĭĪëĭ¤
ĠëĳĲ ë²Ī
ĠìŀĲ ë³¸
Ġê¹ ¡
ìĸ´ë ĮĢ
íĨµ ìĿ¼
ìĹ¬ ìķ¼
ìĽĲ ìĿĢ
Ġë¬¸ íĻĶ
íĮ¨ ìĬ¤
~~ ~~~
ìĹ¬ ëŁ¬
ĠíĿĶ ëĵ¤
Ġë¶Ī ë¦¬
ë°© ìĹĲ
ëĤĺ ëĦ¤
Ġìŀ¡ ê³ł
ì´ Į
ì¡°êµŃ ìĿ´
ëŁ½ ëĭ¤
ĠìĺģìĽĲ íŀĪ
Ġì« Ħ
Ġì§Ģ ëĬ¥
íķĺì§Ģ ë§Ī
Ġì į¼
Ġê³µ ì§ľ
ëĲĺ ëĬĶëį°
ìĹĲê²Į ëĬĶ
ðŁĳ į
ìĿĺ ìĭĿ
ĠìĻĦìłĦ íŀĪ
ì¹ĺ ë©´
Ġëĭ¬ ëł¤
Ġìĺģ íĸ¥
ìķĮ ê³ł
ì ±Ļ
Ġë¬´ ì§Ģ
ìĿ´ ì£ł
Ġì ¼
ìĦ ¸ë¡ľ
Ġê·¸ ì§Ģ
ĠìĹĨ ëĭ¤ëĬĶ
Ġì§Ħìĭ¤ ìĿĦ
ĠíķĺëĬĶ êµ¬ëĤĺ
ãħ ģ
Ġíķ© ë¦¬
ĠìŀĲ ìĹ°
Ġíķĺ ìķ¼
Ġë¨¹ ëĬĶ
Ġì¶©ë¶Ħ íŀĪ
ëį© ìĸ´ë¦¬
Ġíĺ ¸ë
Ġëĭ¨ ìĪľ
ìľ¼ë¡ľ ëĬĶ
ë· °
ĠëĬ Ķ
â Ŀ
ë¡ľ ëĬĶ
Ġ ??
íĮĲ ìĤ¬
ëĭĺ ìĿĢ
Ġì° ¢
ë¦¬ ê²Į
Ġë§ ¹
Ġê´ľ íŀĪ
ì Į
ìķĺ ìľ¼ë©´
Ġê²Ģ ìĥī
ĠíķľêµŃ ìĿĺ
£ ¨
ĠíĬ ¸
´ë ĮĢ
ì§Ģ ìĤ¬
ë¦¬ ìķĦ
Ġë³Ģ ëªħ
Ġì¶Ķ ì¢ħ
Ġëª ½
ĠëĬĻ ìĿĢ
Ġì§ Ŀ
Ġë°° ìĭł
Ġìĸĳ ë°ĺ
Ġë°° ìļ°
ĠëĮĢëĭ¨ íķĺëĭ¤
ìĸ¼ êµ´
ëĤĺ ê°Ģ
ë¦¬ ëĥĲ
ê±° ë¦¬ëĬĶ
íĬ ¸ëłĪ
ĠìĪ «
ĠìŀĪëĬĶ ê²Į
ë¶Ģ ëĬĶ
êµŃ ìĿĺ
ê·¸ë łĩ
ëĮĢíĨµëł¹ ìĿ´
Ġë²Į ëłĪ
Ġëĵ± ìĭł
ê¸° ëĭ¤
Ġì´ĿìĦł ìĹĲìĦľ
Ġ9 0
ĠìĦ¸ìĥģ ìĹĲ
Ġêµ ¶
Ġì ¸
ĠëĤĺ ë¨¸
ĠìĦ¸ë ĩĮ
Ġë¸ Į
ìĥģ íĥľ
ìĸ´ë ´Ĳ
ĠíĸĪ ëĭ¤ê³ł
ìķĪ íķ¨
ĠìĹ¬ëŁ¬ ë¶Ħ
Ġíķ´ë ¨¹
ĠìĨĮë¦¬ ë¥¼
ĠìłķìĿĺ ëĭ¹
ë¬ ¸ë¹ł
ĠíĿ ¥
Ġìĸ´ë ¥¸
Ġë§Ĳ íķľ
Ġëª¨ ë¥¼
ĠìłĦ ì²´
ìĤ¬ ì§Ħ
ìł¸ ëıĦ
Ġë²ķ ë¬´ìŀ¥ê´Ģ
ì£¼ ê°Ģ
ê³µ ìĪĺì²ĺ
íĮĲ ìĹĲ
íĥĢ ê³ł
ê´ ´ë
ì¹ĺ ê¸°
Ġë¬¸ ìĶ¨
ãħīãħī ãħī
ìĪĺ ìĿĺ
ĠãħĤ ãħħ
ìį ¬
ĠOOO ëĵ¤
ë³´ë ¡ľ
ĠëĩĮ ë¬¼
íĿ ¥
ìĨĮ ë¯¸
Ġíķ´ë ´Ĳ
ê°ľ ê°Ģ
ëĮĢ ë¥¼
Ġì°¸ ìľ¼ë¡ľ
ìľł ê³µìŀĲ
ìłľ ëıĻ
êµŃë¯¼ ëĵ¤ìĿ´
ĠìłĦ ë¬¸
ì´ Ľë¶Ī
ìĸ´ ìĿ´
ë³´ ì§Ģ
Ġãħ ģ
Ġê³µ ì²ľ
íĹ Ĳ
Ġëħ ¸ëŀĺ
Ġ S
Ġí ľ
Ġì±Ļ ê¸°
Ġíģ° ìĿ¼
Ġëª° ëł¤
ìłķëıĦ ë©´
Ġê²½ ìĥģëıĦ
ĠëĤ¨ ë¶ģ
Ġìķł ëĵ¤ìĿĢ
Ġê±¸ë ¦°
ëĤĺ ìĺ¨ëĭ¤
ĠìĦ± ìŀ¥
Ĥ ł
ëĸ ¡
ĠìĨĮ ìĦ¤
ĠìĦł ì§ĦêµŃ
ê²© ìĿ´
Ġìłķìĭłë³ĳ ìŀĲ
Ġê°Ķ ëĭ¤
ĠëıĻ ìĿĺ
ĠìĦ¸ê¸Ī ìĿĦ
ĠíĺĲ ìĺ¤
êµŃë¯¼ ìĿĺ
ĠìĦ ¬
ìķĦ íĮĮ
Ġëª© ìĨĮë¦¬
Ġëĭ¹ íķĺê³ł
ìĿĢ ê²Į
Ġì§ģ ìŀ¥
ì ĳĪ
Ġë¶ĢëģĦ ëŁ¬ìļ´
Ġê´´ë ¡Ń
ëħĦ ëıĦ
ãĦ· ãĦ·
Ġë¶Ī íİ¸
ë¥¸ ëĭ¤
Ġì¹ĺ ê³ł
ëĮĢ ë³Ģ
Ġë¬¸ ìłķë¶Ģ
ĠìĨĮ ë¦Ħ
ìĸ¼ë§Ī ëĤĺ
ì§Ģ ëĵ¤
ĠìĻľ ê³¡
ê± ±ìłķ
ĠëĮĢíĨµëł¹ ìĿĦ
ĠìŀĲíķľëĭ¹ ìĿ´
² Ļ
ìĽĲ ìĹĲ
Ġë¹ Ļ
i n
ë¹ Ļ
Ġì§Ĳ ìĬ¹
Ġìĭľ ê¸ī
Ġíį¼ ì£¼
Ġíŀ Ī
ì²ĺ ë²Į
ìŀĪ ìĿĮ
Ġê°ĲìĤ¬ íķ©ëĭĪëĭ¤
ìĿ´ ìĹ¬
ë¹Ħ ìĬ¤
ë Įĵ
Ł ìķĦ
Ġì Įĵ
ìĽĲ ëŀĺ
ĠëĤľ ëĭ¤
Ġìļ ¸ë
ĠíĿ ī
ĠìķĦ ê¹Ŀëĭ¤
Ġê°Ļ ìķĦ
ê³³ ìĹĲ
ëĤ´ë ł¤
ĠëģĮ ìĸ´ëĤ
Ġë³´ ìĿ´ëĬĶ
ì³Ĳ ëĿ¼
Ġëª¨ ì¡°ë¦¬
¼ Ī
ë²Ħ ë¦¬ê³ł
ìĦ¸ ê°Ģ
íķĺìĭľ ê³ł
........ ........
ë§ ¨
ìĿ´ ë¦¬
ĠëĤ´ë Ĩĵ
ĠíĥĢ ê³ł
ĠìĽ Į
ìĿ´ ìŀ¬
Ġë¶Ģëª¨ ê°Ģ
ĠìĺĪ ìĤ°
Ġìłķìĥģ ìłģìĿ¸
ìĸ´ ëĵ¤
£ Į
ìĦĿ ìĿ´
Ġ ~~~
Ġíĺ ģ
ë¥ Ń
ĠìŀĦ ê¸°
ĠìĿ´ëŀĺ ìĦľ
Ġë¯¸íĨµ ëĭ¹
ë¬¸ìŀ¬ìĿ¸ ìĿĢ
Ġì ĮĢ
ìŀĪ ìĸ´
Ġì£¼ ìłľìĹĲ
ĠëĮĢ íĻĶ
Ġìĺģ ìĽħ
Ġë¶Ģ íĮ¨
Ġë° ¤
Ġíķľ ìĿ¼
Ġì¢Ģ ë¹Ħ
Ġì°½ íĶ¼
íķĺ ê±°ëĤĺ
ìĦł ìĿĦ
ĠìĹ ´ë°Ľ
Ġíķĺì§Ģ ë§Ĳ
Ġ c
ë°ķ ìĿ´
Ġì¯ §
ëĤ´ë Ŀ¼
Ġì´Ī ëĵ±
Ġì£½ ìĿĮ
ĠìłķëıĦ ë¡ľ
Ġìŀ¬ ëĤľ
ĠëĲľ ëĭ¤ê³ł
ĠíĹ Ĳ
íĨµ ìĿ´
!!!! !!
Ġë¯¸êµŃ ìĿĢ
Ġê¸° ëıĦ
ëĬĶê±´ ê°Ģ
Ġìłľ íĴĪ
Ġìļ°ë¦¬ëĤĺëĿ¼ ê°Ģ
ë¯ Ħ
Ġì·¨ ìĨĮ
ìĭł ë¬¸
Ġ3 00
;; ;
Ġê¹Ģ ëĮĢì¤ĳ
ì¹ ´ë
ĠìķĪ ëĭ¤
íķĻ ìĿĺ
Ġê¸ ´
ĠìĤ¶ ìĿĢ
Ġë°° ëĭ¬
ĠìĤ¬ìĭ¤ ìĿĦ
ëħĦ ìĿĢ
ëħĦ ëĮĢ
íĸĪ ìĿĮ
Ġíķ´ ì£¼ìĦ¸ìļĶ
ëĤ´ ìĦľ
ĠìŀĦ ê¸Ī
Ġê±°ê¸° ìĦľ
Ġê·ľ ìłľ
ìĭľ ëĤĺ
Ġëĸ ³
ĠëĦ Ĳ
ë§Į ê°Ħ
Ġì§Ģì§Ģ íķ©ëĭĪëĭ¤
Ġì¤ĳ ìĹĲ
Ġëĭ¤ëĭĪ ëĬĶ
ê°ľ ë°ľ
ëįĶ ëĥĲ
íķ´ ì£¼ê³ł
ì²´ë ¡ľ
ìĿ¼ë³¸ ìĿĢ
ê°Ģ ëıĦ
ë§Ī íĬ¸
Ġëª° ëĿ¼ëıĦ
Ġíķľ ëĳĲ
ì°¨ ë³Ħ
Ġê¿ Ģ
ìĽĲ ìĹĲìĦľ
Ġë³´ë Ħ¤
Ġê·¸ëłĩ ê³ł
ĠìķĪ ëĵ¤
Ġë¯¼ ìĥĿ
ëª¨ ëĳĲ
ĠíĨµ ìłľ
ì£Ħ ë¡ľ
ĠíĮĮ ìķħ
ĠìĤ´ ìĿ¸ë
ĠíĻį ì½©
Ġì§Ģ ëĦ¤
Ġê·¸ë§Į íķ´ëĿ¼
Ġì§Ģ ê¸ī
ĠìĤ¬ ìŀ¥
ĠêµŃë¯¼ ìĹĲê²Į
Ġë§Ī ëĪĦëĿ¼
ĠíĻį ì¤Ģíĳľ
Ġêº¼ ìł¸ëĿ¼
Ġë³´ ìľł
Ġê³µ ìŀ¥
Ġëį° ëł¤
Ġíķĺ ëł¤ê³ł
ìĦ± ìŀ¥
ìĦĿ ìĿĢ
ĠìĦ ¸ëĮĢ
Ġìłķìĭł ëĤĺê°Ħ
Ġëĭ¤ìĭľ ëĬĶ
ĠëĨĪ ëĵ¤ìĿĢ
Ġìı ĺ
ìĹ ī
ĠìĹĦì²Ń ëĤľ
ĠìĤ ½
ĠìĿ´ë Ĥĺ
ìĿ´ êµ¬ëĤĺ
ìĤ¼ ìĦ±
Ġ I
ëŀ ¬
ìĨĮ ê¸°ìĹħ
âĻ ¥
ĠìķĬ ëĥĲ
Ġê² ª
ê³µ íĻĶ
Ġì¦Ŀ ëªħ
ĠíĬ Ģ
Ġì£½ ìĸ´
Ġ K
ĠíķľêµŃ ìĹĲìĦľ
ĠìĥĿ ëªħ
Ġëª¨ë¥¸ ëĭ¤
ĥ Ī
íķĺ ë£¨
ë¦¬ ëĿ¼
Ġê°Ģ ëĵĿ
ìĥĪ íĤ¤
ĠëĤ« ëĭ¤
ĠìłĢ ê¸°
b s
Ġìłķë¶Ģ ìĹĲìĦľ
ĠìĿ´ ëĵĿ
Ġë§ŀ ìķĦ
ĠëıĻ ìķĪ
ë§¤ ë§¤
ìĿ´ ëĵ¤ìĿ´
íķľ ì²Ļ
íķľ ê°Ģ
Ġë¬¸ ìĬ¬ëŀĮ
ĠìĹĨ ìĸ´ìļĶ
ìĺĢ ëĬĶëį°
ì§Ģ ëª»
Ġë°ĺ ëıĦ
ĠêµŃê°ľ ìĿĺìĽĲ
ĠìĥĿê°ģ íķĺë©´
ìľĦ ëĬĶ
ĠìĿ¼ë³¸ ê³¼
ë³´ ëıĦ
Ġë²Į ê¸Ī
ê²¨ ìĦľ
ìļ° íķľ
ëįĶë¶Ī ìĸ´
ĠìĹ ĺ
Ġë§Ĳ ìĿ´ëĭ¤
ìķĦ ëĬĶ
ĠìĺĪ ë°°
êµĲ ì¡°
Ġì°¨ ë³Ħ
Ġ t
ĠìĤ¬ ì£Ħ
Ġì²ľ ë²Į
Ġ #
Ġìº Ĳ
Ġë´ī ìĤ¬
Ġãħħ ãĦ²
ĠìŀĲíķľëĭ¹ ìĿĢ
Ġëª¨ë¥´ë Ĥĺ
ê³łìŀĪ ëĦ¤
ë§Ŀ ìĭł
ĠìľĦ íĺĳ
ĠìĿ¼ë³¸ ìľ¼ë¡ľ
ê³µ ê°Ĳ
Ġë° ĸ
ê²½ ìĿ´
ëĤĺ ë²ł
ĠìĪĺ ë°±
ĠìķĦ ë¹ł
Ġãħ Ĳ
6 0
ĠìĨĲ íĺľìĽĲ
ĠìķĪ ëĤĺìĺ¤
ĠìĿ¼ íķĺëĬĶ
Ġìľ¼ ë¡ľ
íķ´ ì¤Ħ
Ġëªħ ìĺĪ
Ġì¡ ¸ëĿ¼
ê²© ë¦¬
êµŃ ìľ¼ë¡ľ
ìĭ ±
ë¥ ľ
ĠìĿ´ ìĸ´
ìĺ¤ ê³ł
Ġìĸ´ ìłľ
ì Ń
ìłķ íķľ
Ġê·¸ë ĨĪ
Ġìķŀ ìĹĲìĦľ
ëģ Į
ĠìĿ´ íĺ¼
ê º
Ġëĭ¹ ëĭ¹
Ġêµ¬ ì¡°
ëĬ¥ ëł¥
Ġëĭ¹ìĹ° íķľ
ìľ¼ ìĭł
Į ë¥Ń
Ġì¤ĳêµŃ ìĹĲìĦľ
Ġìķł ë¹Ħ
ëļ ±
ìŀĲ ìĹ°
Ġë°Ķ ëĭ¥
Ġíķĺ ë©°
ê´ĳ íĽĪ
ìĿ´ ëªħ
ĠìľĦ ì¡°
ëĬĲ ëĭĪ
ĠëĴ¤ì§ĳ ìĸ´
íķĺì§Ģ ëıĦ
Ġ x
ê²½ ìĪĺ
ìĹĲ íľ´
Ġì¶© ìĦ±
Ġì§Ħ ì¤ĳê¶Į
ê±´ê°Ģ ìļĶ
ĠìķĪ ëĭ¬
Ġê³ł ëł¤
Ġê°ĳ ì§Ī
Ġê³ł ìļ©
íŀĪ ê³ł
ĠìĥģíĻ© ìĿ´
íŀ Ĳ
ĠíĽĦ íļĮ
ìĹĪ ê³ł
Ġë¬¼ ê±´
Ġìļķ ìĿĦ
ëıĦ ìķĪ
ĠìķĦìĿ´ ëĵ¤
ë³´ë Ĥ
íķ¨ ìĿĦ
Ġê³Ħ íļį
Ġë¿Ĳ ìĿ´ëĭ¤
Ġë¨¹ ìĿĦ
ê´Ģ ëł¨
Ġìĸ¸ë¡ł ìĿ´
ë³´ë ³µ
Ġìŀħ ìĹĲ
ìķŀ ìľ¼ë¡ľ
ëĲĺ ëĬĶê±°
ìķł ëĵ¤ìĿ´
Ġëħ¼ ë¬¸
Ġë¶ģ ìľ¼ë¡ľ
Ġì´Ī ëĶ©
ìĸ¼ ë¯¸íĦ°
Ġì°¨ ëĭ¨
ë¶Ģ ë¥¼
Ġë¬´ë ĩĮ
Ġìĭľ íĹĺ
Ġë§ŀ ê³ł
ê» Ģ
Ġê±´ë ¬¼
íķł ìĪĺìŀĪ
ĠëĨĴ ìĿĢ
B S
ìĨ Ķ
ê³ł ìĥĿ
ìħ Ī
Ġìļ° ëł¤
Ġìłģ ìļ©
ìĹĲ ê²Ĳ
ìĦ¸ê¸Ī ìľ¼ë¡ľ
ĠìĽĲ ìĪŃìĿ´
ì¢ħ ë¶ģ
ĠìĿ¼ë¶Ģ ëŁ¬
íķ´ ì§Ģ
ì§Ģ ë¦¬
Ģ ë¡ľ
ĠíĬ¹ íĺľ
ìĿ´ íĦ°
Ġê¸° ê´Ģ
ëĮĢ ìĿĺ
ëĭ¹ ìĿĺ
Ġê±° ìķ¼
ĠëĬĲ ê»´
Ġìłķ ë¦¬
b c
ìĿ´ ìĬ¤
Ġ a
ëĮĢ ìĿĳ
ĠëĤĺ ëĮĢ
ĠìķĬ ëĭ¤
ëĵľ ëĿ¼
íħ Ķ
ĠìĿ´ë Ł´
ĠìĥĿê°ģ íķľëĭ¤
Ġê¶Įëł¥ ìĿĦ
ìĨĮ ìĹĲ
ë°ľ ìłĦ
ĠíĶ¼ íķ´ë¥¼
ĠëĮĢê¹¨ë¬¸ ëĵ¤
ëĬĶê±´ ì§Ģ
ì¶Ķ íĸī
Ġë¸ Ķ
Ġìł ¤
ë¦ ´ë
Ġë¹¨ ê°±
ëĨ ¨
Ġê°ľ íķĻ
ëĤ¨ ìķĦ
ĠíıŃ íĸī
Ġíķĺ ëĭĪê¹Į
Ġì§ķ ìĹŃ
íĬ¸ë ¥¼
ë°Ķ ë¥¸
ĠìķĦëĭĮ ì§Ģ
ìĬ ¥
Ġë¬¸ ê°Ģ
ĠìĿ¸ ì¦Ŀ
ĠëĲĺ ëĤĺ
ê± ¸ë¦¬
ì§Ħ ì¤ĳê¶Į
ĠìłĦ íĺķ
ĠìķĮ ê²Į
ì¹ĺ ì§Ģ
íķĺ íķĺ
Ġëį° ë¦¬ê³ł
ë º
ìĿ¼ ëıĦ
ê²° ê³¼
ĠìĥĿê°ģ íķ©ëĭĪëĭ¤
Ġê²½ìłľ ëĬĶ
ë¯¸ êµ°
Ġìľł ë¦¬
Ġëª» íķĺ
ĠêµŃë¯¼ëĵ¤ ìĹĲê²Į
ìĤ¬ëŀĮ ëĵ¤ìĿĢ
Ġíķĺì§Ģ ë§Ī
ë¦¬ ê¸°
Ġë¯¼ ìĭ¬
íķĺëĭ¤ ëĭĪ
ĠìłĪ ëĮĢë¡ľ
Ġìŀ¥ ê¸°
ĠìķĪëĲĺ ê³ł
ëĨ Ķ
ìŀĲ ìĿ¸
ëĭĪ ëĦ¤
¤ Ħ
Ġ A
ĠìĥĪ ë¡ľìļ´
Ġë§ĪìĿĮ ìĿ´
Ġìķī ìķĦ
Ġê²ģ ëĤĺ
ìĭľ ì£ł
ë½ ķ
Ġê°Ģ ìŀĲ
Ġë³Ģ íĺ¸
Ġëª¨ëĳĲ ê°Ģ
Ġíķ´ìķ¼ íķľëĭ¤
ì²ĺ ë¦¬
Ġíĸī ìĤ¬
¸ë ĥĲ
Ġì²ĺ ë¨¹
ìĿ´ ëĭĪê¹Į
ìłĢ ëıĦ
Ġìĭł ëıĦ
Ġì£½ ìĸ´ëĤĺ
Ġì£½ ìĿ´ê³ł
ĠëĳĲ ëł¤
ĠìĨį ìĿ´
Ġê·¸ë§Į íķĺê³ł
ĠìĻ¸êµŃ ìĿ¸
ìĿ´ëĿ¼ ìĦľ
êµ¬ ëĿ¼
ëĶ° ëĿ¼
ìľĦ íķľ
ê¸° ì§Ģ
ĠìķĦë²Ħ ì§Ģ
ĠìĤ¬ ìĥģ
Ġì¶Ķ ì²ľ
Ġ T
ìĬ¹ ë¦¬
Ġìľł ìĿ¼
ìĭĿ ìĿĦ
Ġì§Ģê¸Ī ìĿĺ
ĠëıĪ ìĿĢ
íķĺëĤĺ ìļĶ
ìº Ĳ
ĠìĿ¼ ëıĦ
Ġìŀĺ íķĺëĬĶ
Ġëĥ ī
Ġì§Ģ ìĭľ
ìĿ¼ë³¸ ìĿ´
Ġíķ´ë ªħ
ìłķëıĦ ë¡ľ
íķľ ì§Ģ
Ġê¹ĢìłķìĿĢ ìĿ´
ë ĩ¬
Ġíŀĺ ëĵ¤ìĸ´
ðŁĴĻ ðŁĴĻ
Ġê·¼ ë¬´
ê± ¸ëłĪ
Ġê·¸ ê²ĥ
Ġë» ¥
ìĤ¬ ìĹħ
Ġë¶Ģ ëĵ¤
ĠìķĦë²ł ê°Ģ
Ġê²¨ ìļ°
Ġë¬´ìĦŃ ëĭ¤
= =
Ġë¶ĪìĮį íķľ
ë ¿Į
Ġìĭ¬ ì§Ģìĸ´
Ġìľł ëĭĪíģ´ë¡ľ
Ġë³µ ì§Ģ
ê¸° ìĭ«
ëŁ½ ê²Į
ìĽĲ ìĿĦ
Ġê°ľëı¼ì§Ģ ë¡ľ
ìłķê¶Į ìĿĢ
Ġì§Ģ íķĺ
ëªħ íķľ
Ġë³´ë©´ ìĦľ
ìĦł ìĿ´
ë¬´ ìĭĿ
Ġë¨¸ë¦¬ ê°Ģ
êµ¬ ë©į
Ġê³ł ìľĦ
ĠìĭĿ ë¯¼
Ġëħ ¹
ìĿĺ ê°Ģ
ìĭľ ì¼°
ì¡°ìĦł ì¡±
ĠëĤ¨ ìĿĢ
Ġì° Ķ
ĠìĿ´ëĤ Ļ
ìĤ¬ ëŀĳ
ìļ° íĮĮ
ìĤ´ ìķĦ
Ġíķľ ê²Į
íĬ¸ëłĪ ìĬ¤
ìĸ´ëĤ ł
ĠìĿ´ë§Į íĿ¬
Ġê¸° ë¡Ŀ
¸ë §Į
ĠëŃĲ ìķ¼
ĠíıŃ ëł¥
Ġë§İ ìķĦìĦľ
ĠìĭľíĤ¤ ê³ł
ĠìĿ¸ê°Ħ ëĵ¤ìĿĢ
Ġìļ´ëıĻ ê¶Į
Ġëĭ¬ ê³ł
ĠìĿ´ ìĬĪ
Ģ ëĭ¤
ìĸ´ë Ĩĵ
ìĬ¹ ë¯¼
Ġì¹ ´ë
íķ´ë´Ĳ ìķ¼
ìĹĦ ë§Ī
ëĲĺ ëĤĺ
ĠìŀĦ ëĮĢ
Ġë¶ģíķľ ìĿĢ
ê°Ģ ìŀĲ
ĠëĿ¼ ëĬĶ
ìĦ± ìķł
ì¶© ëĵ¤
Ġìłķì¹ĺ ìłģìľ¼ë¡ľ
ĠìĿ´ë ª¨
ê³łìĭ¶ ëĭ¤
ĠìķĪ ëĲ¨
Ġê³µ ìķ½
ĠíĤ¤ ìļ°
íķł ê²Į
ìłĲ ìĿ´
Ġìłķìĭłì°¨ ëł¤ëĿ¼
ĠìŀĪ ìĸ´ëıĦ
ëĮĢ ëıĦ
Ġëĸ³ ëĸ³
Ġë²Ħ ë¦¬ê³ł
Ġì¶Ķ ë¯¸ìķł
ãħĪ ãĦ¹
ĠëķĮë¬¸ ìĿ´ëĭ¤
Ġìŀ¬ ìĪĺ
Ġìĸ¸ ìłł
ĠìĿ´ ìłĦ
ê²½ ë¶ģ
ĠíķĺëĬĶ ê²ĥ
ĠìŀĲ ìľĦ
ìľ¨ ìĿ´
ëĤ¨ ìŀĲ
ìŀ¥ ìľ¼ë¡ľ
Ġì§Ģ ìłģ
ì²ĺ ë¨¹
Ġë§¤ ìļ°
ì£¼ ë¯¼
ĠìĿ¸ ìĦ±
Ġì² «
ĠíĽĦ ë³´
ëĭĿ ìį¬
ĠãĦ ²
Ġë¶Ģìłķ ìĦłê±°
Ġëĭ ®
ìĿ¸ ìĤ¬
ĠíĨµ íķ´
ĮĢ íĨµëł¹
Ġì½Ķ ìĬ¤
Ġë¬´ìĭľ íķĺê³ł
ãħ Ĳ
Ġì°¸ ê³ł
Ġì§Ī ë¬¸
íıī íĻĶ
¸ëł ¸
Ġíŀĺëĵ¤ ê²Į
ìĿ¸ ìĥĿ
ëĦĪ íĿ¬
Ġ k
ìĽĮ ìķ¼
Ġë¶Ħ ìĿ´
ìĹĺ ëĿ¼
ë¹ ¡
ĠìķĮ ë©´ìĦľ
ëĬĶê²ĥ ìĿ´
ìĹĪ ìĿĮ
ìĿ¸ ìľ¼ë¡ľ
ë¡Ń ê²Į
ìĹĨ ìľ¼ë©´
ìľ¼ ë¡ł
Ġë¹¨ê°±ìĿ´ ëĵ¤
Ġê²Ģì°° ìĿĢ
Ġìĺ¤ ì§Ģ
Ġì¿ ł
ĠìĿ´ ê²ĥëıĦ
Ġë¨ ¼ì§Ģ
Ġ G
ìª½ ìľ¼ë¡ľ
Ġìŀ¥ ìķħ
ĠìĿ´ ëĭ¤
... ?
Ġì§Ģ ëł¹
ĠìĹ° ê¸Ī
Ġë§Ī ìĭľê³ł
ì¤ĺ ëıĦ
ê¸° ìĪł
ĠíķĺëĬĶ ê±´
ìĺ ·
Ġê²½ìłľ ë¥¼
Ġê°ľ ìŀħ
Ġëª» íķľëĭ¤
Ġê²ĥ ëĵ¤ìĿĢ
ì§ĳ ìĹĲ
ê´Ģ ë¦¬
ë¡ ¯
ëĮĢ ìĹĲ
Ġë¬¸ìłľ ì§Ģ
ìĭľ íĤ¬
Ġì¢ Ĩ
Ġì²Ń ìĤ°
Ġëģ Ħ
ì©Ŀ ì©Ŀ
ìĿ¸ ëĵľ
ëħ ¸ë¬´íĺĦ
Ġíģ´ë Ł½
ĠìĺĪ ìĥģ
ëĭ¹ ê³¼
ë¶Ģ ëĵ¤
ĠìĹ ®
íķł ëł¤ê³ł
Ġê°Ļ ìĬµëĭĪëĭ¤
ìĥģ ìĭĿ
ì¹ľ êµ¬
ĠìŀĪ ëĤĺìļĶ
Ġê·¸ë§Į íģ¼
¹ ł
ìĤ¬ íĩ´
Ġê±´ ëĵľ
íķµ íĻĶ
Ġë³ ¸ë
Ġì£½ ìĿ¼
ĠìĿ´ ê²¨
ìŀ¥ ëıĦ
ë§Į ìľ¼ë¡ľ
ĠëĤĺëĿ¼ ê¼´
Ġëĸł ëĤĺìĦľ
Ģ ëĵľ
íĸĪ ìľ¼ëĭĪ
Ġë§Ĳ ëĿ¼
? ...
Ġê·¸ëŁ¬ ëĭĪê¹Į
ìĭ¸ ìĽĢ
ĠìŀĲ ì²´
ëĭ¨ ìĿ´
Ļ ìĭľëĭ¤
Ġíķĺ ìħ¨
Ġìłķ ë³´
ĠìĤ¬íļĮ ìłģ
ìķĦ ëĭĪëĭ¤
Ġìĭľ ëģĦ
ëĭ¤ ë¦¬
ìłķ ìĪĺ
ĠêµŃ ìĤ°
ĠëĦĪ ê°Ģ
ë¹¼ ê³ł
ëĲĲ ëĭ¤
ìłĦ íŀĪ
Ġê·¸ëłĩ ëĭ¤ê³ł
ëŀĺ ê¸°
ëħ¼ ë¦¬
ĠíĭĢ ë¦°
Ġì£½ ìĿ´
1 2
Ġìłķì¹ĺ ìĿ¸ëĵ¤
Ġíķł ê¹Į
Ġê¹Ģ ìĿ¼ìĦ±
Ġíķł ì¤Ħ
ĠìĿ´ ìĭľ
Ġìĺ¤ ì§ģ
Ġìĭ¤ ìłľ
íķĺ ì£ł
Ġë°ĺ ë°ķ
ķ Ĳ
Ġ o
ìĿ´ íķ´
Ġëį° ëª¨
ë§Į ìĿĦ
Ġíķ´ë ĮĢ
Ġíķł ëķĮ
ĠìķĪ ëĲ©ëĭĪëĭ¤
ĠìķĪ íķĺë©´
Ġê³µ ê¸ī
íķĺ ìĹĲ
Ġê°Ļ ìķĦìļĶ
ì ¾
ĳ ¤
ì§Ģ íĤ¤
ìķĦëĭĪ ë©´
ìĹ¬ ìĦ±
ì¹ľìĿ¼ íĮĮ
ĠìĹ¬ë¡ł ì¡°ìŀĳ
Ġë³´ ìĨĮ
ë´Ĳ ìļĶ
ìĺģ ìĥģ
Ġíķ´ë Ĩĵê³ł
ìĿ´ëŀĺ ìĦľ
¯¼ ì£¼
Ġì§Ģì§Ģ ìŀĲ
Ġíķľ ë¯¸
ëĪĪ ë¬¼
Ġëª¨ ë¥´ë©´
íķĺ ëĵł
ëıĪ ìĿ´
ĠêµŃ ìĿµ
Ġë©Ģ ì©¡
ëĤĺëĿ¼ ë¥¼
ĠìĿ´ë ŀĢ
ĠëıĦìĽĢ ìĿ´
Ġì´Ŀ ë¦¬
ĠìĿ´ëĿ¼ ê³ł
ĠëĤ¨ ìķĦ
ĠëģĮ ê³ł
ĠìĤ´ìķĦ ìķ¼
íķ¨ ìĿ´
ëĲ ¬
Ġê¹ľ ë¹µ
ĠëĦĪ ê±°
ĠìŀĲì¡´ ìĭ¬
ê±° ìŀĦ
ĠìłĦ ê¸°
êµŃë¯¼ ìĿĢ
ìłķê¶Į ìĿĺ
ĠìŀĪ ê²Į
Ġìĺ³ ìĿĢ
ĠìĿ´ëĤĻ ìĹ°
ìĭľ ë§Ī
ìĹĪëĭ¤ ë©´
ĠìĹ¬ê¸° ìłĢê¸°
Ġìŀ¬ ë²Į
Ġë§Į ìĦ¸
Ġìķŀ ìĹĲ
ìŀĲ ì²´ê°Ģ
Ġìľ Ĺ
êµ¬ ë¡ľ
ê°Ģ ëĦ¤
íĸĪ ìĸ´
° °
Ġíķ´ ëĭ¹
Ġê°Ģ ì¦ĪìķĦ
Ġìĥģ ëĮĢë¡ľ
ĠìĤ° ìĹħ
Ġê°ģ ì¢ħ
Ġ C
ìŀĪ ì§Ģ
ëĭµ ê²Į
ì¤ĳ ìĹĲëıĦ
ì¹ĺ íķľ
ĠíĺĦ ëĮĢ
íŀĪ ëĬĶ
ìĺģ ìĽħ
Ġê°Ģ ì¹ĺ
---- ----
ê·ľ ì§ģ
Ġëĭ¤ ê°Ģ
ìŀĪ ê²Į
ĠìĿ´ ìĦ±
ĠíĮĲ ë§¤
ë¯¸ ìĦ¸ë¨¼ì§Ģ
Ġìŀĳ ìĿĢ
ĠìĹī ë§Ŀ
Ġë¶ ķ
íķĺì§Ģ ë§Ĳ
ĠìĿĮ ì£¼
Ġë¬¸ìŀ¬ìĿ¸ ê³¼
ĠëĮĢ ì¤ĳ
Ġë³´ íĨµ
Ġê½ ĥ
Ġìłľ ìĻ¸
Ġì½ ©
íĶĦ ëłĪ
ĠìĿ¸ê°Ħ ìĿĢ
ëĭĺ ìĿĺ
ĠìĿĮ ìĭĿ
ĠìķĦ ìĿ´ê°Ģ
Ġë¶ģíķľ ìľ¼ë¡ľ
Ġìļ°ìĬµ ê²Į
Ġê°ľ ëĤĺ
ëĶĶ ìĸ´
ĠëĮĢ ë°ķ
íĮĮ êµ¬ë¦¬
¸ ı
ê·¸ë ŀ
ï ¸ı
Ġì¤ĳ ê³µ
Ġê±° ëĥĲ
ìª½ ë°Ķë¦¬
ĠëĤ¨ ìŀĲê°Ģ
Ġë§ Ļìĭľëĭ¤
Ġë¯¼ íıĲ
ìĭľ ì§Ģ
Ġíļ¨ ê³¼
Ġê³ł ì§ĳ
Ġê¼ °ëĮĢ
ĠëģĮ ìĸ´
Ġì¡° ìŀ¥
ĠìĿ¸ ìŀ¬
ëģ¼ ëĵ¤
Ġë ½
Ġìĭľê°Ħ ìĿ´
ĠëĤ¨ ëħĢ
íĢ ´ë
ìłľ ëª©
ìŀ¡ ìĿ´
ê²ĥ ëĭ¤
ìķĪ ìĿĦ
ĠëĤ´ ëĬĶ
ĠìĪĺ ë§İìĿĢ
ëĭ¤ëĬĶ ê±¸
Ġë§ī ìķĦ
Ġì¢ĮíĮĮ ëĵ¤
Ġìłģ ìĸ´ëıĦ
Ġì§Ģ ê²¹ëĭ¤
ĠíĻķ ìĤ°
Ġì¶Ķ ë°©
Ġê º
ìĹ¬ ëĿ¼
ĠìŀĪ êµ¬ëĤĺ
ìłģ ìĿĢ
Ġì ĩ
~ ?
ìĸ´ë ³
Ġê¸°ìĤ¬ ëĬĶ
Ġë¶Ī ê°ĢëĬ¥
ëħĦ ìĿĦ
Ġì²Ń êµ¬
Ġìķ½ ìĨį
Ġì°¸ ìĦĿ
Ġì¶ķ íķĺ
Ġìĺ¬ ëŀĲ
Ġìŀĺëª» ìĿĦ
ëĤ ³
Ġëª» ì°¨
ĠíĽ Įë¥Ń
Ġê²½ ê¸°
ìĸ´ íľ´
Ġì¡° ë¡±
ì ¨
Ġ m
ĠìĹ¬ ìŀĲëĵ¤
Ġìĭ¶ ìĸ´
Ġíŀĺ ìĿ´
ìĺĢ ìľ¼ë©´
ĠìĤ´ ìķĺ
i d
ìĹĪ ìĸ´
ĠíĬ¹ ì§ķ
ĠëĤ¨ ìĦ±
ë¬¸ì£Ħ ìĿ¸
ê·¸ëŁ° ëį°
ĠëĮĢíķľë¯¼êµŃ ìĹĲ
Ġë¶Ģ ë¶Ħ
ĠìĹ° ë´ī
Ġë°Ķ ëĢ
ĠíĮ¨ ê±°ë¦¬
ĠìłķìĿĺ ë¡ľìļ´
ìĸ´ ëĬĲ
ìĿ¸ ê²Į
Ġìĸ´ëĸ »
Ġë³´ ìĦ¸ìļĶ
íķ© ëĭĪê¹Į
ìł ¸ëĤĺ
ĠìķĪ ì¢ĭ
ëĬĶê±° ìŀĦ
ĠëķĮ ëĬĶ
íķĻ ê¸Ī
ìĺģ íĻĶ
ëĵ¤ìĿ´ ëĦ¤
Ġë³´ ìĿ´ì§Ģ
ìĿ¼ ìĦ¸
ìĸ´ë Ĥ¬
ìĬ¤ ê°Ģ
Ġë¬¸ìŀ¬ìĿ¸ ìĿĦ
Ġìĸ¸ ê¸ī
Ġë¹Ħ ìĭ¼
ĠìĹŃ íķł
íĽĦ ìĹĲ
Ġìĭł ìĥģ
ìŀĲ ì²´
ìĹ¬ëŁ¬ ë¶Ħ
Ġì¸ ¡
íĮ ¬
ë¦¬ ìĦ¸ìļĶ
ëŃ ī
ĠìŀĲìĭł ìĿ´
Ġìĸ´ì©Ķ ìĪĺ
ĠìĿ´ë Ķ°
Ġë¶Ģ ìŀĲ
ê°Ģ ê²Į
ìĿ¸ ê²ĥ
ìĹŃ ìĤ¬
íĮ© íĬ¸
ë¹ł ë¦¬
ìĬ¤ ëŁ¬
ìĹĨ ëĬĶëį°
Ġê°Ģ ê²Į
ĠëĦĪ ìĿĺ
ëĭ¤ëĬĶ ê±´
Ġì¢Įë¹¨ ëĵ¤
Ġë§İ ê³ł
Ġíķ´ ìĤ°
Ġìŀħ ìľ¼ë¡ľ
ëª ¸
ëĤ ®
ëĤ´ ìķ¼
Ġìŀĺ íķľëĭ¤
ĠìĿ¸ íķ´
Ġìį¨ ëĿ¼
ì£¼ ì§Ģ
ĠíĻį ìĸ´
Ġê²ĥ ìŀħëĭĪëĭ¤
Ġì§Ģì§Ģìľ¨ ìĿ´
ĠìĺĪ ìĪĺ
Ġê¸°ìĤ¬ ê°Ģ
Ġì¼ Ģ
ìĿ¼ ëĭ¨
Ġê°Ĳ íŀĪ
Ġë¶Ģ ì¶Ķ
ë¶Ħ ìĹ´
Ġíķł ë§Ĳ
ĠëĲĺ ê²łëĦ¤
ìĨĮë¯¸ ìķĦ
Ġìµľ ëĮĢ
Ġë§Ĳ ìŀĲ
ĠìľĦ ë°ĺ
ìĿ¸ë Ħ¤
ìłĢ íŀĪ
ê³¼ ìĿĺ
ê³Ħ ê°Ģ
ê¸ ´ë
Ġë§Ŀ íķĺê²Į
ĠìķĮ ìķĦìķ¼
ĠëŃĲ ëĭĪ
Ġê²° ë¡ł
Ġìĵ¸ë į°
ë£ ©
ìĭ¤ ìĿ´
ê²Ģì°° ê°ľíĺģ
íİĺ ë¯¸
ĠìĽĲ ì¹Ļ
Ġë¹Ħ íĸī
Ġëħ¸ë ¦ĩ
¶Ģ íĦ°
ëĺ ĺ
Ġíĸī íĥľ
ìĹĲ ëĭ¤
Ġì į
ì¹ ¸
ĠìķĦ ì¹¨
ëĬĶê±° ê³ł
ĠìķĪ ìĵ°
Ġêµ¬ ë§¤
ĠìĹ° ê¸°
ì½ ĺ
ì§Ħ ë³´
Ġìĭľ êµŃìĹĲ
ê¸° ë©´
¼ ìĨĲ
ë§Ī ë¦¬
Ġìĺ¬ ë¦¼íĶ½
ì¤ĳ ìķĻ
B C
Ġíķľ ëĤ¨
ê°Ģ ëĭ¤
ë¹ Į
ì£¼ìĿĺ ìŀĲ
ë¶ ķ
Ġì¤ĳ ëıĦ
ĠíĹĪ ìľĦ
ë§Ī ìĿĮ
Ġë°ķ ìĽĲìĪľ
ì¤Ģ ëĭ¤ê³ł
íķĺìĭľ ê¸¸
ĠìĿ´ë Ł
ĠìľĦ ìĹĲ
Ġê³ł ìŀĳ
ĠìĬ¤ íĬ¸ëłĪìĬ¤
ìĸ´ë ¦°
ĠìĿ´ìŀ¬ ëªħ
ë¨¼ ìłĢ
ì» ·
ìĹħ ì²´
Ġíĸ ĩ
Ġíķĺê³ł ìĭ¶
Ġê¶ģê¸Ī íķĺëĭ¤
Ġë¿Į ë¦¬
Ġê²½ì°° ìĿ´
ĠëĤ¨ ìĿĦ
ĠëĤ ¼
ì§Ģ ëĭĪ
ĠìĿ´ë ģ
ĠëĦĪë¬´ë Ĥĺ
Ġìłķìĭł ìĿ´
ĠíıĲ ê¸°
Ġìľłì¹ĺ ìĽĲ
ìĭľ ìĦ¤
íķĺëĬĶê±° ìķ¼
ìľ µ
Ġê³µ ê³µ
ĠìŀĲê²© ìĿ´
ìĬ¤ íĥĢ
ĠíĬ¹ ë³Ħ
Ġë°Ķ ëĿ¼ëĬĶ
Ġíģ ´ëĿ¼
ĠìĨĲ ê°ĢëĿ½
ê±° ëĬĶ
ĠìķĦëĭĲ ê¹Į
ĠìķĦëĭĮ ëĵ¯
Ġì£¼ ë©´
Ġë°¥ ê·¸ë¦ĩ
ĠìĹ°ìĺĪ ìĿ¸
ĠëĦĪíĿ¬ ëĵ¤
ìłģ ìĿĦ
ìĻ¸ êµŃ
Ġì¯§ ì¯§
Ġì¤ĳ ìĨĮê¸°ìĹħ
ĠìŀĪ ëįĺ
ĠìłĦ ìĹ¼ë³ĳ
ĠìĿ´ íķ´ë
Ġìĭ¹ ëĭ¤
ĠìłĢ ëĶ´
ìķĦ ë¬´
7 0
ìĤ Ń
Ġê¾ ¸
Ġìĭ ¼
íĺ¼ ìŀĲ
ê¸° íļĮ
¦ ½
Ġìŀ £
íķĺ ëįĺëį°
ì´Ŀ ë¦¬
ìķ ī
ĠìĿ´íķ´ ì°¬
íĿ ī
ĠìŀĪ ìĸ´ëĿ¼
Ġìĸ´ ì§¸
Ġë³´ ì§Ģ
ìĸ´ëĸ ¤
Ġêº¼ ìł¸
ì°¨ ê°Ģ
ìĦľ ëıĦ
ëĥ Ī
ë© ĭ
ìĿ¸ ì²Ļ
Ġì¡°ìŀĳ ì§Ī
Ġë¹ ķëĭĪëĭ¤
ê¸° ëĦ¤
Ġëķ ¡
ë¶Ģ ìłķ
ĠëıĦ ë¡ľ
ĠëĬĺ ìĸ´ëĤĺ
íĥĿ ìĭľ
íĪ¬ ê¸°
Ġì¶Ķ ê°Ģ
ëŃĲ ê°Ģ
Ġê°Ļ ìĿĮ
Ġìĭ¤ ìĪĺ
ĠìķĪ íķľëĭ¤
Ġì¤ĳêµŃ ëª½
Ġíķĺ ëĦ¤ìļĶ
a n
Ġì° ¸ë
ĠëįĶ íķľ
ìĭľê°Ħ ìĹĲ
ìĭŃ ìĭľìļĶ
ì¤ į
Ġë¯¸ëŀĺ ê°Ģ
Ġëªħ ë³µìĿĦ
íķ´ì£¼ ëĬĶ
Ġë´ Ħ
Ġë ¼Ī
ĠìĹ ¿
ë³´ë Ŀ¼
ëĦĪ ëĬĶ
ĠëıĮìķĦ ëĭ¤ëĭĪ
Ġë¶ĪìĮį íķĺëĭ¤
Ġíĩ´ ì¶ľ
ìĸ´ ì©Į
Ġìŀ¥ ìķł
ìŀĶ ìķĦ
ĠëĤĺìĦľ ìĦľ
Ġ5 00
Ġë¯¼ ê°Ħ
ê±¸ ê³ł
Ġë°ķ ê·¸ëĦ¤
ĠíıŃ ëıĻ
ĠìĦł ìłĦ
ìĭľ ìŀĳ
ìī Ĳ
ĠëĦĺ ëĵ¤
Ġëª» íķĺë©´
Ġê°ľ ë¿Ķ
íģ¬ ë¡ľ
Ġìļķ íķĺê³ł
ëĿ¼ ëĿ¼
Ġíķĺ ëĭ¤ê°Ģ
Ġ ðŁĲķ
ëĤĺ ìĻĢ
ĠëģĮ ëł¤
Ġìĸ´ëĶĶ ë¡ľ
Ġì£½ ìĸ´ëĿ¼
Ġìķ µ
Ġìĸ´ì©Į ê³ł
ĠìĿ´ ì°¸ìĹĲ
ìĸ´ë ¯¼ì£¼
ĠìĤ¬ ëĵľ
ë¦¬ ëĭ¤
ìĿĦ ëł¤ê³ł
ĠëıĪ ëıĦ
ëĦ¤ ìĪĺ
ĠêµŃê°Ģ ë¥¼
Ġê°Ģì§Ģ ê°Ģì§Ģ
ëĮĢ ëĭ¨
Ġë¯¸ ì¹ĺ
íĸĪ ìĬµëĭĪëĭ¤
Ġíıī ê°Ģ
Ġê°Ģ ëĤľ
Ġë¶Ģ ëĭ´
ì·¨ ê¸ī
ë¹Ħ ë¥¼
ìŀ¬ìķĻ ìĿ´
Ġ100 0
ĠìĿ¸ ìĥģ
Ġê°Ļ ëĦ¤ìļĶ
ê ¶
íķł ë¨¸ëĭĪ
Ġëª» ëĲľ
ĠìĿ´ë ¶Ħ
íĮ ¡
Ġìĭł ê¸°
Ġ1 1
Ġìĭľ íĤ¨
Ġê³ł ëĵ±
ë¦¬ ëĤĺ
Ġì§Ģ ìĭĿ
Ġìµľê³ł ìĿĺ
íĨ ¡
ë² Ĺ
ê°Ģ ë©°
ë¯¸ ê°Ģ
ëĵ¤ìĿ´ ëŀĳ
ĠëĨĢ ê³ł
o n
íĬ ¸ë¡ľ
Ġìĸ´ëĸ»ê²Į ëĵł
ëŀ Ļ
íķĺëĬĶê±° ëĥĲ
ìŀĲ ê¸Ī
Ġê³µ íıī
ĠìĪĺ ì¹ĺ
ĠíķĺëĤĺ ê°ĻìĿ´
ìłĢ ê²Į
Ġë¯¸êµŃ ìĹĲ
ĠíĴĢ ìĸ´
êµ ´ë
ĠìĥĿê°ģ ëıĦ
ĠìĮ ©
ì© į
ëĭ¹ ìĭľ
Ġì°į ìĨĮë¦¬
Ġë§Ŀ íķł
êµ° ìĿ´
êµŃë¯¼ ëĵ¤ìĿĢ
Ġì¹ľ ë¶ģ
Ġì§ķ ì§ķ
Ġì¹ ł
ìĹĲ ëĿ¼ìĿ´
ë¬ »
ë§Ī ëĥ¥
íķĺ ëįĶëĿ¼
ê²ł ìĬµëĭĪê¹Į
Ġë© Ī
ì³Ĳ ëıĦ
ìľ¼ ëĿ¼
Ġêµ ´ë
. ,
Ġì¢ĥ ìĦł
íķ´ë ¨¹
ĠìĿ´ë¯¸ ì§Ģ
ë© Ģ
Ġëıħìŀ¬ ìŀĲ
Ġê°Ļ ëĥĲ
êµŃ ìĿĦ
ãħ ı
ëĤ ¯
Ġíķµ ìĭ¬
¸ë° Ķ
ìĸ´ë ¥¼
ìĤ° ìĹħ
Ġìķķ ë°ķ
ĠìŀĲìĭĿ ëĵ¤
ĠìłĦ ëŀµ
ê± į
ĠëģĿ ëĤĺ
ìĿ¸ ê±´
ëģ Ī
ìĦ¼ íĦ°
ĠìĦ¸ìĥģ ìĿĦ
íĻĶ ìŀĲ
íķĺìŀĲ ê³ł
ë°Ķ ìĿ´ëŁ¬ìĬ¤
ê°Ĳ ìĿĦ
ì¤Ħ ìķĮ
ĠêµĲ íĨµ
Ġê³Ħ ìĤ°
Ġë¯¸ê°ľ íķľ
ê³Ħ ìĨį
ìĸ´ ì§Ģ
Ġì¢ĭìĿĢ ëį°
ê°Ģ ëĤĺ
Ġëª¨ ìķĦ
ë¯¸ë ĶĶ
Ġíķ´ë ³
ĠìĤ¬ ìłĦ
8 0
Ġë¹ ¤
ĠëĪĪ ìĿ´
ê±° ëĿ¼ê³ł
Ġëª¨ë¥´ë ĥĲ
ìĿĦ ê²ĥ
ìłĢ ìĶ¨
ĠíĻĺ ìŀĲ
ëĲĺ ìĸ´ìķ¼
Ġë¶Ī ê³¼
ĠëĤ´ ìĦ¸
ĠìķĪ íķĺëĥĲ
ì°¨ ëĿ¼ë¦¬
ĠëıĻ ì°¸
Ġìķħ ì§Ī
ìĭł ìĿĦ
Ġìłķì¹ĺ ìĹĲ
ĠìĿ¸íĦ° ë·°
ĠëĤĺìĺ¤ ì§Ģ
Ġê¹Ģ ìłķ
íķľê±° ëĭ¤
ë²Ħ ë¦¬
ĠìŀĲ ë£Į
Ġíķĺ ê²łì§Ģ
ëĤ´ë ¦¬
Ġì¤ĳêµŃ ìĿĺ
ĠíĶ Į
~ ^^
íķĺ ê²łëĦ¤
Ġìĸ´ëĸ ł
ĠìĦ± ì¶Ķíĸī
íĺĢ ìĦľ
ê±° ê°Ļ
Ġë§ ¥
Ġë§ĺ ìĹĲ
ĠíĸĪ ì§Ģ
Ġìļķ ìĭ¬
Ġê°ķ íĻĶ
Ġê° ļ
ê°Ģ ëĬĶëį°
ëĲĺ ëĭĪ
Ġê²Ģ ì¦Ŀ
ĠìĻķ ëĶ°
ĠëĺĲ ëĬĶ
ìµľ ê³ł
Ġëª° ê³ł
ìľ¼ ëŁ¬
ë³´ ìĨĮ
ĠëĮĢ ìļ°
Ġê±° ëŀĺ
ê¿ Ģ
ĠìłģíıĲ ì²ŃìĤ°
ĠìĿ´ëªħ ë°ķê·¼íĺľ
ìļ°ë¦¬ ê°Ģ
ĠëĴ¤ ìĹĲ
ì¢Ģ íķ´ëĿ¼
ëĵ± ëĵ±
Ġë³´ìĪĺ ê°Ģ
Ġë°ķ ìĤ´ë
Ġì¶Ķ ê²½
ìµľ ìĪľìĭ¤
ìĥĿ ìĿ´
ìķĺ ëĤĺ
Ġìłķ ê²½ìĭ¬
íĿ ĺ
Ġê·¸ëŁ¬ ëĥĲ
ĠìĥĪ íĤ¤
ëħ Ķ
~ !!!
ê°Ģì§ľ ëī´ìĬ¤
? ..
ëĤ´ë ¡ľëĤ¨ë¶Ī
Ġëĭ¹ìĭł ëĵ¤
ìĻ ¸ë¡ľ
Ġê°ķ ìļĶ
ĠìĨ Ķ
" "
íĸĪ ì§Ģë§Į
Ġìĭľì¼ľ ëĿ¼
ëŀ «
ĠìĤ Ĳ
ë©į ì²Ń
íĮ į
Ġê² ī
ĠìĿ¼ ìĿ´ëĭ¤
Ġíĥľ ìĸ´ëĤĺ
ĠëĤĺ ìķĦ
ĠíĻ© êµĲíĻľ
ìĿ¸ë ¯¼
Ġê²ĥ ìľ¼ë¡ľ
ë¹Ħ ëĬĶ
Ġë© °
ìĺ¤ ì§Ģ
ìĿ¸ ìķĦ
ëĵ¤ìĿ´ ì§Ģ
Ġí ī¤
ĠìķĦëĭĪ ì§Ģë§Į
ëĨĵ ìĿĢ
Ġë ¡
ë¬ ĺ
Ġì¡± ìĨį
Ġê° Ĵ
ìĿĺ ìĤ¬
ĠíķĦìļĶ íķĺëĭ¤
ìłģ ìĿ´ëĭ¤
Ġë¹Ħ ìļ©
Ġìłľ ìŀ¬
Ġì§ĳ ì¤ĳ
ìĹĨ ì§Ģ
íķĺ ëł¤ë©´
ĠìĤ¬ë²ķ ë¶Ģ
íĶ Ķ
íķł ì§Ģ
Ġëįķ ë¶ĦìĹĲ
ĠìĿĺ ë¬´
Ġìī Ĳ
ëĦ¤ ëĵ¤
.... .....
íķĺ ëĿ¼ëĬĶ
ĠìłĢ ëĬ¥
ë§Į íķĺê³ł
ĠëĤ´ë ³´ë
ìĸĳ ë°ĺ
ĠìĪĺìĤ¬ ë¥¼
Ġìłķì±ħ ìĿĦ
ĠíĸĪ ëĥĲ
Ġ ???
ìłĲ ìĿĦ
Ġ .....
ĠíĻĶ ìŀ¥
Ġë¬´ ìĹŃ
Ġê±´ë į°
ìĿ ½
ĠìķĬ ìķĦ
ëĭ« ê³ł
ë¥´ë Ħ¤
Ġë¹ł ìł¸
Ġìĸ´ ì¼Ģ
ĠìĦ¤ ë§Ī
ĠìķĬ ìĬµëĭĪëĭ¤
ìĿĦ ê±°ëĭ¤
ë³´ ìĦ¸ìļĶ
ëĲľ ëĭ¤ê³ł
²Į ëłĪ
ìĹ ´ë
ì¡° ê¸Ī
Ġìĺģ ìĥģ
ëĨĪ ìĿĺ
ìĦ¼ ì§ķ
íĻĶìŀĲ ì°¬
íĸī ìľĦ
Ġë³´ëĤ ¸
ĠêµŃìłķ ëĨįëĭ¨
Ġìı ŁìķĦ
ĠìĿ¼ ëĭ¹
ìĹŃ ì§Ī
Ġíķł ìĪĺìŀĪ
ìĪĺ ìŀĪëĬĶ
ĠìĿ¸ ëıĦ
Ġìĥģ ì²ĺ
Ġë» ĺ
Ġê°Ļ ëĦ¤
ë²ķ ìĿĢ
ĠíķĺìĹ¬ ê°Ħ
ĠíĻĺ ìŀ¥
ĠëĿ Ħ
ãħ Į
ëĤł ìĿ´
Ġ2 5
ëķĮ ë§Īëĭ¤
íĸī ëıĻ
Ġìłķ ëĭµ
ë¹Ħ ë¡ľ
Ġëĭ¬ì°½ ëĵ¤
ĠëŃ £
Ġìĭľ ìĬ¤íħľ
íĺ¸ë ¥¼
ì° Ĳ
ìĽĲ íķ©ëĭĪëĭ¤
ĠíĮĮ ëł´
ĠëĴ¤ ìĹĲìĦľ
ìĿ¸ê°Ħ ìĿ´
Ġìŀĺ ìĤ´
ĠìĤŃ ë°ľ
ĠíĺĦ ìłķë¶Ģ
ĠìĦ± ë²Ķì£Ħ
ìĤ ¶
ë§Ī ìĿ´
Ġëĭ ´ë°°
Ġìĭľ íĸī
Ġì£¼ëĳ¥ ìĿ´
ìĺ µ
ìĽĲ ìĪŃ
íķľ ê±¸
ëª» íķĺëĬĶ
ìĦľ ë¯¼
Ġë¶ģíķľ ìĿĺ
ëł µ
ĠìłĢ ëŀĺ
Ġë¯¸êµŃ ìĿĺ
ĠìŀĲìľł ëĭ¹
Ġíĺ¼ ëŀĢ
ìĭŃ ìĭľìĺ¤
ĠìķĪ ìłķ
ĠìķĮ ìķĺëĭ¤
Ġìĭľ ì²Ń
ë§Į ìĿĢ
ĠëįĶ ëŁ¬
ìĿĺ ë£Į
Ġë°ķê·¼íĺľ ê°Ģ
Ġê²½ ë¶ģ
ì§Ģ ìĺģ
Ġë¹Ħë¡Ģ ëĮĢíĳľ
Ġë°ĺ ë¯¸
êµŃ ë°©
ìĿ´ ë¦Ħ
ì¹ĺ ëĦ¤
ë¡ľ ìĦľ
íĺĦ ìĭ¤
ì²Ń ìŀ¥
Ġëĭ¹ìĭł ìĿĺ
ì İĦ
ìĭľ ê°Ģ
ëĭ¤ ëĬĶëį°
ìĺĢ ëĦ¤
ĠìķĦ ëĬĶëį°
ĠìķĪëĲĺ ì§Ģ
Ġê¸°ìĤ¬ ìĹĲ
ĠìłĢ ëıĦ
ë°Ķ ëĢĮ
Ġë°ľ ê´ĳ
ĠëĲĺ ìĸ´ìķ¼
ë§ŀ ê³ł
Ġíķĺ ê²łëĭ¤
ê³Ħ ë¥¼
ê°ľ ìĨĮë¦¬
ìłľ ëĬĶ
ĠìĿ´ ìĬ¹
ëĮĢ ê°ķ
Ġë©Ķ ë¥´ìĬ¤
ĠëĨĢ ëŁ¬
ê²ł êµ°
Ġìĭľ ì¼°
ê³³ ìĿ´
Ġì°Į ëĿ¼ìĭľ
ëł ¸ëĦ¤
ĠìĤ¬ëŀĮ ëĵ¤ëıĦ
Ġë°Ķ ìģĺ
Ġë²Ħ ìĬ¤
ì ¥
ìĦľ ìĦľ
êµ¬ ê°Ģ
ĠìĦ± ê³¼
Ġìĺ¤ ë¥´
§ İ
ì§ĢìķĬ ê³ł
ł ¸
Ġìķŀ ìŀ¥
ëĵ¤ìĿ´ ìķ¼
ĠêµŃê°Ģ ìĿĺ
ì§ĳ ê°Ĵ
Ġê²½ ìĺģ
Ġì¢ĭìķĦ ìļĶ
ìłľ ëĮĢë¡ľ
Ġê¹¡ íĮ¨
ë§Į ìĿĺ
ì§ĳ ëĭĪëĭ¤
Ġê°Ī ìķĦ
ë¬¸ ìĿ´
ëĦ¤ìĪĺ ìĹĺëĿ¼
ìĥĪ ê¸°
ì³Ĳ ë¨¹ê³ł
ĠíĥĪ ìĽĲìłĦ
© ¸
ì¹ĺ ë§¤
ë²Į ìĿ´
ë¬´ ê¸°
Ġì¡° ë§Įê°Ħ
ĠìłĪ ë°ĺ
ĠìŀĲë³¸ ì£¼ìĿĺ
Ġë§Ŀ ê°Ģ
Ġìłķë¶Ģ ë¥¼
Ġíı¬ ìŀ¥
ĠíķĦìļĶ ê°Ģ
Ġë°ĺëıĦ ì²´
ìĭ¤ íŀĪ
ĠìķĦë¬´ë Ł°
ê±° íĴĪ
ìĿ¼ ë°ĺ
Ġì£¼ ìĿ¸
ëĮĢ íķĻ
ĠíıĲ ìĩĦ
Ġêµ ´
Ġë³´ ëĭĪê¹Į
íķľíħĮ ëıĦ
Ġìĺ¬ ë¦¬ê³ł
Ġ M
ìĸ´ë ²Ļ
ĠìłķëıĦ ë©´
ìķĪ ë³´
Ġê°Ģ ê¹Į
Ġìĸ´ ì§Ģ
Ġìŀħ ë§Ľ
ĠêµŃê°Ģ ìĹĲìĦľ
ê·¸ëŁ¬ ëĭĪê¹Į
Ġì²Ń ìĨĮ
ì³Ĳ ìķ¼
ëĤĺ ìģľ
Ġë³´ íĹĺ
Ġ L
Ġíı °
ķ ħ
ëĵľ ë§Į
ĠìĽĥ ê¸°ëĬĶ
ìĥī íŀĪ
Ġë°ĿíĺĢ ëĿ¼
ìķ¼ ëĭ¹
ìĹĨ ëĭ¤ê³ł
ìĦ¸ë ģ¼
ĠìłĦ êµŃë¯¼
ĠíħĮ ëŁ¬
Ġì¶ľ ë§Ī
Ġì¶Ķ ì§Ħ
ì§ģ ìĽĲ
ĠìĿ´ë ¥¼
Ġìŀħ íķĻ
ĠìĿ´ìļ© íķ´
ĠìķĮ ìķĦëĿ¼
ëĤ¬ ëĦ¤
ìľł ëĿ¼
ĠëıĦìĻĢ ì£¼
ĠëĬ¥ëł¥ ìĿ´
ë¬¸ìŀ¬ìķĻ ìĿ´
Ġëª¨ ìĹ¬
ĠíĸĪ ëĬĶì§Ģ
¸ ëĵľ
ì£¼ ìĤ¬íĮĮ
ĠëĴ Ī
¨¸ ëĭĪ
Ġì§Ħ ìŀĳ
ëª© ìĤ¬
ëŁ Ń
ë§Ĳ ìĹĲ
íķ´ë ²Ħ
ëª» íķĺê³ł
ĠìĤ´ ëĭ¤
ĠìķĬ ìĿĦê¹Į
Ġëªħ ë¶Ħ
ë¯¸ ìĤ¬ìĿ¼
Ġì§ĳ íĸī
ĠëĪĦ êµ¬ëĤĺ
Ġëħ¼ ëŀĢ
Ġë°ĺëĮĢ íķĺëĬĶ
Ġìĭ¤ ìĹħ
ìĿ¸ê°Ħ ëĵ¤
Ġë¹Ħ íķµíĻĶ
ĠìľĦ ê¸°
ĠëĲľ ëĭ¤ëĬĶ
ì¤Ħ ìĿ´
í ĮĢ
Ġë§Ī ëł¨
íĥĦ ìĨĮëħĦ
Ġ +
ĠêµĲ ìĤ¬
ìŀĲ ìĹĲ
ê°Ĳ ìĹ¼
íĨ ±
ëįĶ ëŁ¬ìļ´
ëĭµ ëĭĪëĭ¤
Ġìłģ íĻĶ
ì¯¤ ëĲĺë©´
Ġê·¸ ëĵ¤ìĿ´
Ġì¶ľ ìĤ°
Ġë¶Ħ ëĵ¤ìĿ´
ìĹĪ ëĬĶì§Ģ
ìĪľ ê°Ħ
ì¿ł ìĭľë§Ī
ìĦ± ìĹĲ
ĠíĺĦ ê¸Ī
ìĭľ ìľĦ
Ġê·¼ ë³¸
ëıĻ ë§¹
Ġì» ¨
Ġë ŀ
Ġë§Ŀ ìĭł
Ġìĺ Ģ
Ġê° Ŀ
í ī¤
ëĿ¼ ë©°
ë§Ĳ ëıĦ
ĠìķĦ ëŀĺ
ëĭĺ ìĿĦ
Ġë² ¼
Ġê±´ ìĦ¤
ë³´ë ĥĲ
ëĭµ ëĭ¤
ì¦Ŀ ê±°
Ġìĭ« ìĿĢ
ì§± ê°ľ
ê°ķ ëĤ¨
ê·¸ëŁ¬ ê²Į
Ġìĺ¤ ë¥¸
ëĤ´ ìļ©
ê°ķ ê°Ħ
Ġìłľ ê°Ģ
ê²© ìĿĦ
Ġì¡´ ì¤ĳ
Ġê²Ģì°° ìĿĦ
ĠëĮĢ ìĥģ
ìķŀ ìĹĲìĦľ
Ġìľ¤ ìĦĿëł¬
ĠìĿ¼ ê´Ģ
ê°Ģ ë©´ìĦľ
ãħħ ãĦ²
Ġë§Ĳ ìĿ¸ê°Ģ
Ġê·¸ ê²ĥìĿ´
ĠëĭĪ ëĵ¤ëıĦ
Ġíĥľ ìĸĳ
ĠìĤ¬ìĭ¤ ìĿ´
íķĺ ëħ¸
Ġë§Ī ëķħ
ĠìĿ´ë£ ¨ìĸ´
ìĤ´ ìĿ´
Ġë»Ķë»Ķ íķľ
íıŃ ë§Ŀ
Ġë°© íķ´
ĠìĹ¬ ìŀĲëĬĶ
Ġëıħë¦½ ìļ´ëıĻ
íĢ´ë ²ĮëłĪ
ì¶Ķ ê³ł
ìĤ¬ ëª¨
Ġì°Į ì§Ī
Ġíļ ¡
ìķĦ íĶĦ
ī ĺ
Ġì°¨ ëł¤ëĿ¼
ĠìĹĨìĸ´ ìł¸ìķ¼
ìŀĪ ëĭ¤ê³ł
ĠíĺĦìĭ¤ ìĿĦ
Ġì°į ìĿĢ
Ġë¶ģíķľ ìĿĦ
Ġë¬¸ìŀ¬ìķĻ ìĿĢ
Ġë¶ģíķľ ê³¼
Ġë°Ľ ìķĦìĦľ
ĠëŃĲ íķĺëĤĺ
íĥĦìĨĮëħĦ ëĭ¨
Ġì§Ħìĭ¬ ìľ¼ë¡ľ
ê°Ģ ë¥´
Ġíķł ìĿ¼
Ġê°ľ ë¬´ìĭľ
Ġëĭ¨ ìĸ´
ëĨ Ĵ
Ġíŀĺëĵ¤ ëĭ¤
íķĺëĬĶê±° ëĭ¤
ëıĦ ìĨĮ
ê° ĵ
ĠíĥĪ ë¶ģ
Ġë§Ĳ ëĿ¼ê³ł
ìĹĨ ìĸ´ìĦľ
ĠíĸīëıĻ ìĿĦ
ĠëĤł ëĽ°
íıī ëĵ±
Ġíķĺ ëįĺëį°
ìłĢ ê±°
ë¬¸ íĻĶ
ĠìłĦ êµĲì¡°
ì§ĳ ê¶Į
ĠìĨĮ ì¤ĳ
ìĸ¸ ì£¼
ëĮĢ ìĥģ
ì§Ħ ìĿ´
ìĸĺ ê¸°
ĠëĤĺ ê°ĢìĦľ
ìĭľ ëĦ¤
Ġíĥ Ĳ
íıŃ íĥĦ
íķ´ìķ¼ íķł
ĠëĮĢ ë¹Ħ
ìĦ± ëıĦ
ĠìĿ¸ ì§Ģ
Ġê·¸ ëĵ¤ìĿĺ
ê°ľ ëħĲ
ĠëĤĺ ê°Ħ
Ġíķľ ê°Ģ
ì¹ĺ ë£Į
í ĩ
ĠĠ ĠĠ
Ġë°ĺ ëĮĢë¡ľ
ëĵ£ ê³ł
Ġìķŀ ëĴ¤
ì§Ģë§Ĳ ìŀĲ
Ġíķ© ë²ķ
ĠìĿ´ íķĺ
ë°ķ ìłķíĿ¬
Ġì£½ ìĸ´ëıĦ
ìµľ ìłĢ
Ġëĺ¥ ê¼¬
ĠíĦ ¸ë
ìŀĲ ìĹĲê²Į
Ġê·¸ë Ķ´
ĠìĨĮ ìĨį
ĠìĿĺ ëıĦ
ĠëĤĺìĺ¤ ê³ł
Ġìĭ¤ ìłľë¡ľ
ĠìĬ µ
Ġì£Ħ ìĨ¡
ìĿ´ ìĻĢ
ĠìĦľë¯¼ ëĵ¤
ë¬¼ ìĹĲ
Ġìŀĳ ìŀĳ
ë»Ķ ë»Ķ
ĠëĤł ìĿ´
ĠìĪĺ ì²ľ
ìĿ´ëĤĺ ëĿ¼
ĠìĦ¸ê¸Ī ìĿ´
ĠìĿĢ íĸī
Ġíķľ ìĤ¬ëŀĮ
ëĲĺ ê²Į
Ġìĭ« ìľ¼ë©´
Ġëĳ Ķ
Ġì°į ìĸ´
ì§Ģ ê¸°
ĠìľĦ ë¡ľ
Ġëĭ¤ ë¦Ħ
íĮĮ ìķħ
ĠìķĪíĥĢ ê¹Ŀëĭ¤
Ġìĺ¬ ë¦°
ëĤ Ģ
Ġëĭ¤ ë§Į
Ġìĭ¤ ëł¥
ĠíıĲ ëł´
ìŀĲ ëĭ¤
ë§Ī ëĭĪ
ìĪľ ìĭł
Ġíĺĳ ì¡°
ìķĪ ëĲĺëĬĶ
ĠëĮĢíķľë¯¼êµŃ ìĹĲìĦľ
Ġì§Ģëĵ¤ ëģ¼ë¦¬
Ġê±°ì§ĵë§Ĳ ìĿĦ
ìĥĪëģ¼ ê°Ģ
ĠëĦĪ ëĤĺ
Ġê¼¼ ìĪĺ
ìķł ëĵ¤ìĿĢ
íĳ ¸
Ġì¢ĭ ìķĺ
ĠëĮĢ ë¶ģ
Ġë¬´ë ¦
ĠìĿ´ ìĽĥ
ì¢ Ĩ
Ġëª¨ë¥´ ê²ł
Ġëª¨ëĵł ê²Į
Ġê° ±
Ġëĵľ ëĿ¼
ì§Ģ ê¸ĭ
ìĭľì¼ľ ìĦľ
ëªħ ìĿĢ
Ġì¤ĺ ìķ¼
ëĤ´ë ħĦ
ĠìłĢ ëĬĶ
íģ ´ë
ĠìŀĲëıĻ ì°¨
ë¶Ģ ìŀ¥ê´Ģ
ĠëĤĺëĿ¼ ëĭ¤
Ġëĥ ħ
ìĿ´ëĿ¼ ë©°
ëª¨ ë¥´
ìĪĺ íĺ¸
ê¼¬ ëĿ¼ì§Ģ
ê²łì§Ģ ìļĶ
Ġëĭ¤ë¥¸ë ĤĺëĿ¼
ëĭ¤ ëħĢ
ìĥģ ê³µ
ìĭŃ ëĭĪê¹Į
ìĹ¬ ëıĦ
Ġê±´ ì§Ģ
ĠëĮĢ ì¶©
ìĿ´ëĿ¼ ëĬĶê²Į
Ġìŀ¥ íķĻê¸Ī
ĠìĨĲ ìĦĿíĿ¬
ĠìĿ´ ìĤ¬
Ġìĺ¨ ëĿ¼ìĿ¸
íķ´ë³ ¸
ìĤ¬ ê³¼
Ġë§Ĳ íķĺê³ł
ê²Ģì°° ìĿ´
Ġìĺ¹íĺ¸ íķĺëĬĶ
Ġë§Ĳ íķł
ìłľ íķľ
ìķĦ ìĿ´ê³ł
Ġê·¸ë ¶Ħ
ĠìŀĲ êµŃ
1 1
ĠëıĦ ìĭľ
Ġìĭ¶ ìľ¼ë©´
ìĤ¬ ìĹĲ
Ġ D
ĠëĤĺëĿ¼ ë¡ľ
ì¢ħ ìĦĿ
ĠìĿ´ ê²ĥìĿ´
ë¦¬ ì¦ĺ
ê³µ ë¶Ģ
ê°Ģ ëĥĲ
ìĿ¸ ê±¸
ëĦĪ ëıĦ
Ġíĭ° ë¹Ħ
ê°ĳ ëĭĪëĭ¤
ìĿ¸ ê³¼
ìĿ´ëŀĢ ëĭ¤
Ġëªĩ ëħĦ
ìĦľ ë¥¼
ĠìĨĮë¦¬ ê°Ģ
Ġë´ī ìĩĦ
ĠìĦ± ë§¤ë§¤
r e
Ġë°ĺ ë³µ
ìłķ ë³´
ìĸ´ë ´ĲëĿ¼
Ġê±° íĴĪ
ì²Ń ë¬¸íļĮ
ê´ĳ ì£¼
Ġë°Ķ ë¥¸
ìĿĺ ëıĦ
Ġê²½ ê³ł
ĠìĹ¼ ë³ĳ
âĿ ¤
Ġíķľ ëĤĺëĿ¼
ê¶Į ìĿ´
Ġë§Į ë§Į
Ġê ¶
Ġì§Ħ ëĭ¨
Ġëģ Ķ
Ġëĵ¤ìĸ´ ìĺ¤
Ġê³¼ íķĻ
Ġë¨¸ ìłĢë¦¬
ĠìłĢì§Ģ ë¥¸
Ġ X
Ġê²°ê³¼ ê°Ģ
ìĿĺ íĺ¹
ĠìĪĺ ê³ł
!!!!!!!! !!!!!!!!
Ġìĥģ ìĬ¹
ëŀľ ëĵľ
Ġê°ľ ìĿ¸ìĿĺ
ĠìĭľíĤ¤ ëĬĶ
ĠìĿ´ëŁ° ê²Į
ĠìķĪëĲĺ ë©´
ëĥ ĦìĥĪ
ë¶Ģ ëŁ¬
ĠìķĮ ê³łìŀĪ
Ġê±´ ê°Ģ
Ġì»¤ ëħķ
ìĪĺì¤Ģ ìĿ´
ì¹ ¼
ĠìłķìĿĺ ë¥¼
ĠìĤ¬ëŀĮ ëĵ¤ìĿĦ
Ġìĸ´ë §Ī
ë° Ŀ
ê·¸ëŁ¬ ë©´
ĠìĿ¸ë į°
ë¶Ģ ëıĻìĤ°
ì¤ĳ ìĿ´
Ġê³µìĤ° íĻĶ
ĠìĹĨ ëĦ¤ìļĶ
Ġëģ¼ ë¦¬
ìķĦë²Ħ ì§Ģ
ì§ķ ìĹŃ
Ġìĵ° ë©´
ĠìĿ¸ê°Ħ ìķĦ
ë° ĸ
Ġìŀ¬ ë¯¸
Ġê°ĢëĬ¥ íķľ
Ġí į
Ġì£½ ìĿ¸
Ġìľł íķĻ
ëª» íķľ
Ġê·¸ëłĩ ëĭ¤
Ġì§ĳ êµ¬ìĦĿ
ê·¸ ëıĻìķĪ
Ġíķĺ ëł¤
ĠìĤ¬ ëĿ¼ì§Ģ
ìłĪ ëĮĢ
ëħ¸ ëıĻ
ĠãħĪ ãĦ´
;; ;;
ĠíĮĮ íĥĦ
ĠìķĬ ê²Į
ĠëģĿ ìĿ´
ĠìĥĿê°ģ íķ´
íķĺ êµ¬
ì§Ħ íĥľ
ĠëĨĪ ìĿĢ
ìŀĲ ìĻĢ
ë¯¼ ìĿ´
Ġë¯¼ ìĭĿìĿ´
Ġëªĩ ìĭŃ
Ġê± Ķ
ì¤ĳ ëĮĢ
Ġë§Ī ìĿ¸ëĵľ
ê¹ ¡
ìĸĳ ìķĦì¹ĺ
íķĺ ê²łëĥĲ
Ġê¸°ìĹħ ìĿ´
íĬ Ģ
Ġê°Ģì¡± ìĿ´
Ġì¹´ ëĵľ
ĠëıĻ ëĤ¨ìķĦ
íıŃ ëł¥
Ġ g
ĠìĿ´ ëĭĪ
Ġìĺ¤ ì§Ģê²Į
ë° į
ê²ĥ ì²ĺëŁ¼
ìĦ± ê³µ
ìłķìĿĢ ìĿ´
ĠìķĬ ìķĺëĭ¤
ĠëįĶëŁ½ ê²Į
Ġê°Ĳ ìĭľ
ìķĦ ëĤĺ
ìĤ¬ ë¡ľ
ìľ Ī
Ġìłľ ì£¼ëıĦ
ĠíķĺëĬĺ ìĿĦ
ĠìĤ¬ëŀĮ ìĿĺ
Ġë¬¸ìŀ¬ìĿ¸ ìĿĺ
ĠìĹŃëĮĢ ê¸ī
ì² ¨
Ġê²ĥ ìĿ´ê³ł
êµŃ ìĿĢ
ĠìķĪ íķ´
Ġê·¸ëŁ¬ ê³ł
Ġê°Ī ëĵ±
ĠìķĪ íķł
ĠíĮĮ ìĹħ
ìĹ¬ê¸° ìĦľ
ĠíĬ¸ëŁ¼íĶĦ ê°Ģ
ĠìĥģíĻ© ìĹĲ
Ġë¶Ģëª¨ ëĭĺ
Ġíģ° ìĨĮë¦¬
ĠìĿĺ íķ´
Ġë§Ŀ íķľëĭ¤
ĠìĿ´ ê¸¸
Ġë§ŀ ëĦ¤
Ġë°° ìļ´
ĠìĹŃìĤ¬ ë¥¼
ëĭ¤ ëĵ¤
ĠìĤ ¥
ìĹĪ ìĿĦ
Ġì« ĵ
ëķĮ ê°Ģ
ë³´ëĭ¤ ëıĦ
ë¡ ¤
ë§¤êµŃ ëħ¸
ĠëŃĲ ì§Ģ
íĽĦ ë³´
ĠìĦ ¹
Ĩ ¨
ì§Ģë§Ī ìĦ¸ìļĶ
ìłķ ìĹĲ
ì¤ĳêµŃ ìĿ¸
Ġìĭ¬ê°ģ íķľ
ĠìĥĪëģ¼ ê°Ģ
ĠìĦľ ë¹ĦìĬ¤
Ġê³ł íĸ¥
Ġë³´ê³ł ëıĦ
ĠìĥģíĻ© ìĹĲìĦľ
ë¥´ë ĥĲ
ë§Į íķĺë©´
Ġìłľ íķľ
ë° ĳ
Ġì¤ĳêµŃ ê³¼
ìĸ´ë ¹ł
Ġê¹Ģ ìĸ´ì¤Ģ
ìĿ´ ì½Ķ
ê·¸ëŁ¬ ëĭĪ
Ġê°ĲìĦ± íĮĶìĿ´
Ġë¬¸ìłľ ë¥¼
ìĺ¬ ëĿ¼
ëĳ¬ ëĿ¼
ĠìĽĥ ê³ł
ĠëĵľëĿ¼ ë§Ī
Ġê±¸ ê³ł
Ġì§Ħ ìĺģ
¸ë ²ķ
ĠíĶ¼ ìĿĺ
ìĤ´ ìĿ¸
ëĮ Ħ
Ġë¶Ħëªħ íŀĪ
ŀ Ļ
ì§Ģ ìĺ¤
ì¡° ìĽĲ
Ġìĸ¸ë¡ł ìĹĲ
ëĭ¤ëĭĪ ëĬĶ
Ġì§ľ íĮĮêµ¬ë¦¬
¥´ ìĭł
Ġê³µ ì§ģ
Ġëħ Ģ
ê¹ ľ
íķĺê²ł ëĭ¤ê³ł
ìĦ¸ ê¸°
ë§Ī ìŀĲ
ê±° ëŀĺ
ì£¼ ê¸°
Ġê¸Ģ ìĿĦ
Ġë°Ľ ìķĦëĿ¼
ë³´ ê¸°
ìĿĺ ë¡ľ
Ġë²Ĺ ìĸ´ëĤĺ
Ġì¡° íıŃ
ĠìĽĥ ê¸´
ì¤ĺ ìķ¼ì§Ģ
ìĤ¬íļĮ ì£¼ìĿĺ
ĠìŀĲ íĻĶìŀĲì°¬
Â ·
ĠìĿ´ìľł ë¡ľ
Ġëª» íķĺë©´ìĦľ
íķľìĭ¬ íķľ
Ġíķľ ëį°
ìĹŃ ëĮĢ
ĠëĭĪëĦ¤ ê°Ģ
Ġëĭ¨ ìĨį
ìļ© ìľ¼ë¡ľ
ì§ĢëıĦ ìķĬ
ìĩ ł
íĸĪëĭ¤ ë©´
ĠìķĦ ë¶Ģ
ê²ł ëĬĶê°Ģ
ĠìĽ ¬
ĠìļĶ ì²Ń
íļĮ ê²¬
Ġë§ī ê³ł
Ġìķł ê°Ģ
ëĤ «
Ġëıħ ìĿ¼
Ġëª» ìĤ´
Ġë¯¸ëŀĺ ë¥¼
ì´Ŀìŀ¥ ëĭĺ
ëĤĺ ìĿ´
Ġìĺ ¥
ê²ł êµ¬ëĤĺ
ìĸ´ ì§Ħ
ë²ķ ìĽĲ
ëĤĺ ëĭĪ
ĠìĿ´ëŁ° ìĭĿìľ¼ë¡ľ
Ġëį ¤
Ġì£½ ëĬĶ
ĠìłĢ ê±´
Ġê¼ ´ë
ë§ ģ
Ġíķĺ ëĬĶê±°ì§Ģ
Ġìĺ¤ ìĹ¼
Ġê°Ĳìĺ¥ ìĹĲ
ê±¸ ê¹Į
Ġëª© íĳľ
ëŀ ´
Ġìļ°ë¦¬ëĤĺëĿ¼ ìĹĲ
Ġì§Ģ ëĵ¤ìĿĢ
Ġë¹¨ ê°Ħ
Ġê¹Ģ íķĻìĿĺ
Ġì¶Ķ ìŀ¡
Ġìĺ¤ëĬĺ ëıĦ
Ġë³´ëĤ´ ê³ł
ë¶Ī ë§¤
ĠëĦĺ ê²Į
ì¶ ¤
Ġì´ ī
Ġíķĺ ìĪĺ
ĠìŀĪ ìĹĪëĭ¤
Ġë§Ĳ íķĺë©´
ë°ĺ ìĿ¼
Ġê·¸ë Ħ¤
ĠìłĦ íĮĮ
ìĿ´ ìĭľ
ëŀĳ ìĬ¤
ĠìŀĲìľł ëĮĢíķľë¯¼êµŃ
ì¦ ī
ĠìĿ´ë²Ī ìĹĶ
Ġì§Ģê¸Ī ìĿ´ëĿ¼ëıĦ
ĠëģĶ ì°į
ëł¤ ëıĦ
ĠìĬ¤ íĥĢ
ĠíĪ¬ ëªħ
Ġì²ĺ ëĭ¨
ë¬¼ ìĿ´
ĠíıŃ ëĵ±
Ġíĳľì°½ ìŀ¥
íĻĺ ê²½
ì§Ģì§Ģ ìľ¨
Ġë¹ Ľ
Ġì¡°ê¸Ī ë§Į
ĠìĹĲ ìĿ´
n s
ĠëŃĲ íķĺëŁ¬
Ġëĭ¬ ëĿ¼ê³ł
ĠëĮĵê¸Ģ ìĿ´
Ġì¢Į íĳľ
ĠëģĿ ëĤ¬
ë¯¼ ëħ¸ì´Ŀ
ë°Ľ ìķĺ
ĠìĤ´ ê²Į
Ġê´Ģ ì¢ħ
ìĥĿ ê¸´
ëĦ¤ ãħĭãħĭ
ĠëĤĺë¨¸ ì§Ģ
ìĿ¸ë §Į
ìĿ´ëŀĢ ê²Į
ì ª¼
Ġìĵ° ì§Ģ
Ġìłķê¶Į ìĹĲ
Ġìĥī íŀĪ
ìĤ¬ ë²ķ
Ġë¯¼ ëĤ¯
ĠìĹĨ ìĹĪëĭ¤
ĠìĿ¼ë³¸ë ĨĪ
ìĽĲ ë´ī
Ġëĸ¨ìĸ´ ì§Ħ
Ġë¬´ìĦľ ìĽĮ
Ġìķħ ìĿĺ
ìĻĶ ëĭ¤
Ġë°ĺ ìĿĳ
Ġê·¼ ë¡ľ
ê²Ł ëĭ¤
ì» ¨
Ġê°Ī ìĪĺë¡Ŀ
ìĪĺ ëĭ¹
Ġë§Ĳ ìĿ´ìķ¼
Ġ1 4
ëģ¼ ê³ł
ĠêµŃë¯¼ ìĹ°ê¸Ī
ë¯ ¸ëŀĺ
Ġêµ¬ ë¦°
ìį¨ ëĿ¼
Ġë°© íĸ¥
ë¯ Ģë¡ľ
Ġëªħ ëł¹
ĠìĿ´ëŁ° ëį°
Ġë³´ ìŀ¥
Ġìĭłì²ľì§Ģ ê°Ģ
Ġê°ľ ê°ĻìĿĢ
ìĸ´ ì£½
ìŀĲ ëĵ¤ìĿĺ
Ġê°Ģ ê´Ģ
± ĥ
ĠìĿ¼ ìĥģ
ĠëĤ Ńë¹Ħ
ìłķìĭł ë³ĳ
ìĭľ ê¸ī
Ġì¡° ì¹ĺ
Ġì§ľ ê³ł
ĠìĿ´ìĿµ ìĿĦ
íķ´ë ´¤
ëĮĢë³Ģ ìĿ¸
ĠìķĦëĭĻ ëĭĪê¹Į
ĠëĮĵê¸Ģ ìĿĦ
Ġê°ľ ìĦł
ê²½ìłľ ê°Ģ
ĠíĹĪ êµ¬
ĠëĦĺ ì³Ĳ
ì§Ģ ëĭ¤
ìĸ´ ì°Į
ĠëĦ¤ ê°Ģ
ìĿ´ëŁ¬ ëĭĪ
Ġëª¨ìĬµ ìĿĦ
Ġíķł ê²ĥ
Ġìĺģ ìĹħ
êµŃ ìĹĲìĦľ
Ġëĳĺ ìĿ´
Ġ2 1
ìĭ¬ ìľ¼ë¡ľ
íķ´ìķ¼ íķ¨
ê±´ë ¹Ħ
ì¿ ¨
ìľ¼ ìħ¨
ĠëĦĪíĿ¬ ëĵ¤ìĿ´
Ĳľ ëĭ¤
ìĿ´ êµ¬ë§Į
Ġì¤Ħ ìĸ´
ìĭł ê³ł
Ġìĭłê²½ ìĵ°
ìľ¼ë¡ľ ìį¨
Ġìłķë¶Ģ ìĹĲ
ĠìķĦëĭĮ ê±°
Ġëªĩ ëªħ
ìĸ´ëĶĶ ìĦľ
ĠëŃĲ ëĵł
Ġë¹ł ëĬĶ
ìĦľ ìļ¸ëĮĢ
ìĤ¬ ëıĦ
ĠìĿ´ëª¨ ìĸĳ
ì¡° ì¹ĺ
ĠëĤĺëĿ¼ ëıĦ
ëĵ Ń
Ġìĸĳ ìĭ¬ìĿ´
ĠìŃ ī
ëĨĪ ìķĦ
ĠìĹ ´ë©´
ìł ĵ
Ĩ Ķ
ìłĦ ìŀĲ
Ġê³Ħ ìķ½
Ġëĵ¤ ìĸ´ìĦľ
Ġíķ´ ìĦĿ
ĠìĹŃê²¨ ìļ´
êº¼ ìķ¼
ì½ ľ
ëĵ¤ ë¡ľ
ìĦ °
Ġë°Ģ ìĸ´ë
ëħ ģ
ĠìĪľ ìĪĺ
Ġëª¨ ì§Ģë¦¬
ĠëĮĵê¸Ģ ì¡°ìŀĳ
ĠëĤĺ ëŀı
ìĥģ ìłķ
Ġë°° ìĥģ
ĠìĪĺ ìĦĿ
½ ìĿ´
Ĳ ëĭ¤
ë¹ Ľ
ëĭ¤ëĭĪ ìĹĺ
Ġê²ĥ ì²ĺëŁ¼
ê³µ ìłķ
Ġëħ¸ ìĿ¸ëĦ¤
Ġì§ĢìĹŃ êµ¬
Ġì²ĺìĿĮ ë¶ĢíĦ°
ì§Ī ìĿĢ
Ġíķł ë°°
ĠíĥĪ íĥĪ
ê²¨ ëĿ¼
ĠëĮĢ íķĻìĥĿ
ìĸ´ë ¡ľ
ëŀ Ń
íķľ ë§ĪëĶĶ
ĠìłĦ ëĿ¼
ë¦¬ ëĭĪ
Ġì´ĿìĦł ëķĮ
ëĲľ ê±°
ëĤ¨ íİ¸
Ġê²Į ëĭ¤ê°Ģ
ëĬĶê±° ì£ł
Ġìĭľì¼ľ ìķ¼
Ġê¸° ìĸ´
íķł ì¤Ħ
Ġì½Ķë¡ľëĤĺ ë¡ľ
ìļ´ ìĺģ
ë°Ķ ëĿ¼
° Ķ
íİ Ļ
ĠëĮĢê°Ģë¦¬ ê°Ģ
ìŀĲ ìĭł
Ġë° Ł
Ġì¤ĳêµŃ ìĿĦ
,, ,,,
Ġë²Ħ ëĭĿìį¬
ì¹´ íİĺ
Ġíģ´ëĿ¼ ìĬ¤
Ġìķł ê¸°
Ġë§Ĳ ìķĦëĿ¼
Ġìĸ´ëĬĲ ìłķëıĦ
ëĭ¹ íķĺëĬĶ
ìłĦ ëĳĲíĻĺ
ĠìĹĨ êµ¬ëĤĺ
ĠìķĬ ìĿĮ
Ġê³ł ìľł
Ġì½ĶìĬ¤ íĶĦëłĪ
ê¸° ìľĦíķ´
Ġ O
Ġì§Ħ ìĥģ
Ġëĸ¨ìĸ´ ì§Ģ
ë¥ł ìĿ´
ĠìŀĪìĹĪ ëĬĶëį°
ëĬĶ ê²ĥëıĦ
Ġìĺ¤ ë§Į
Ġëıħ ëıĦ
ë¶Ī ìĮį
ëĵł ëĭ¤
Ġíĳ ¸
íķĺ ìŀĲëĬĶ
Ġìĭ¤ íĹĺ
íķľ ìĤ¬ëŀĮ
ëħĦ ë§ĮìĹĲ
Ġë ¥¼
ĠìĿ¼ë²ł ì¶©
ĠëĮĢ íĺķ
ä ¸
Ġëĵł ëĭ¤
Ġê°Ħ ìĭł
ĠìĿ´ìļ© íķ´ìĦľ
ãħĩ ãħĩ
ì¢Į ì¢Ģ
ĠìĥģíĻ© ìĿĦ
íĿ Ĳ
ìłģ ëıĦ
ĠìĪĺ ëł¹
Ġêµ ½
íĸī ìĿĦ
Ġëªĩ ë²Ī
ìŀ¥ ëĭĺ
Ġê¹Ģ ê²½ìĪĺ
Ġë¨¹ ìĹ¬
ĠìŀĲìľł ë¥¼
Ġëª¨ìĬµ ìĿ´
ë¦¬ ëĬĶëį°
ĠìķĦë¬´ë §Ĳ
Ġê°Ģ ëł¤
ê°ľ ìĿ¸
ĠìĿ´ëģ Į
Ġê·¸ë ĮĢ
Ġ N
ë²ķ ìľ¼ë¡ľ
Ġë§¤ ë²Ī
ĠíĪ¬ ìŁģ
ĠìĻľ ìĿ´ë¦¬
Ġìŀħ ê³ł
Ġíĸī ìłķ
Ġê²Ģì°° ìĿĺ
ðŁĺ ±
Ġê¸° ìŀĲê°Ģ
Ġìĺ¤ ì£½
Ġíĺĳ ìĥģ
Ġìĭł ì²Ń
ìļ ¸ë¦¬
ĠìĿĺ ìĭĿ
ì£¼ ë³Ģ
Ġ i
ĠìĿ´ìľł ë¥¼
ê·¸ëŀ ¨
ĠìķĦ ëĵ¤ìĿ´
ĠìĹĨìķł ê³ł
ìĺĢ ëįĺ
Ġê°Ĳ ëĭ¹
Ġì§Ģê¸Ī ìĿ´
M F
Ġë°° ëł¤
Ġê¹Ģ ìłľëıĻ
íķľê±° ìķ¼
ëį° ë¡ľ
Ġë§ŀ ì¶°
Ġê¶Į ë¦¬
Ġëĭ¹ìĭł ëĵ¤ìĿ´
íķĺ ëĬĲëĿ¼
Ġì¦Ŀê±° ê°Ģ
ĠìłĦíĺķ ìłģìĿ¸
Ġì§Ģ ìĨĮë¯¸ìķĦ
ĠìŀĲ ìłľ
ëķĮ ë¶ĢíĦ°
ĠëĤ¨ ìĿ´
ìĤ´ ëĭ¤
Ġë°Ģ ìĸ´
ë§ĮìĽĲ ìĶ©
Ġëĵ¤ ìĹ¬
ĠìĭĿë¯¼ ì§Ģ
íĥľ ê·¹ê¸°
ê²¨ ëłĪ
ë°Ľ ìķĦìķ¼
Ġ n
ë» ¥
Ġìĸ´ëĶĶ ìĹĲ
ĠìŀĲìĭĿ ìĿ´
ĠìĹ¬ ê²½
Ġìľł ëªħ
ìĿ¼ ë¡ľ
ìĦľ ë¡ľ
Ġëĵ¤ ìĿĢ
ĠìĤ¼ ìĦ±ìĿ´
ĠíĹ¬ ì¡°ìĦł
ê¹Įì§Ģ ëĬĶ
Ġë½ĳ ìķĺ
ë¬´ë ¥¼
Ġë¬´ìĹĩ ìĿĦ
Ġê³µ íı¬
ê°Ħ ìĿ´
ĠíķĺìĹ¬ íĬ¼
ìĹ ¿
ĠìŀĲ ê·¹
ĠìĨĮ ìĭł
ĠìĿ¼ë³¸ ìĹĲìĦľ
Ġëª» íķ´ìĦľ
ìĺĢ ìĿĮ
ĠíĻį ë³´
Ġíħ Ĳ
ìķĦíĮĮ íĬ¸
Ġì¦Ŀ ê°Ģ
ì¡° ì¤ĳëıĻ
Ġê¸¸ ê±°ë¦¬
!!!! !!!
ëª° ìĿ´
ê²½ ìĺģ
¬ ¸
ê² ¸
Ġë¹ĦìĬ· íķľ
Ġëª¨ ìļķ
ĠíĿ ¡
íķł íħĲëį°
ì§Ī ëŁ¬
ĠìĨĮ ìĨ¡
ðŁĺ ¡
x x
ĠìŀĲ ë°ľ
Ġë¶Ħ ìľĦê¸°
ĠìĽĲ ìĪŃ
ĠíĿ ł
OOO ëĵ¤
ĠìĹĲ ìĦľ
ìĿ´ìłľ ëĬĶ
Ġê¼ ´ë³´
í Ī
Ġëĭ¹ íķľ
ĠìĨĮë¦¬ íķĺê³ł
ê°ľ ìŀħ
ëıĪ ìĿĦ
ĠìĤ¬ ìĦľ
Ġë¬´ëĬ¥ ëł¥
ĠìłĦ ê´ĳíĽĪ
Ġìłģ ìĿ´
-- -
ìĽĢ ìĿĦ
Ġê°ķ ìłľë¡ľ
ë¶Ģ ëģĦ
Ġ p
Ġê± ¸ëłĪ
Ġìĭľë¯¼ ëĭ¨ì²´
ìŀĪ ìľ¼ëĭĪ
Ġê·¸ ìª½
ëĦ¤ ê°Ģ
ìĭ ¹
ĠìĹĨ ì§Ģë§Į
Ġìŀħ ìĿĦ
ĠíķĺëĬĶì§ĵ ìĿ´
íŀĮ ëĭ¤
ë¶Ħ ëĵ¤ìĿ´
ĠëıĻ ìĸĳ
ĠìĪĺ íĺ¸
ìŀĲ ë§Į
ìĦ¸ìĥģ ìĹĲ
ì§Ģ ëĵ¤ìĿ´
ĠìĤ ´ë©´
ĠìŀĲê°Ģ ê²©ë¦¬
ìķĪ ëĲĺ
Ġëľ ¬
ê·¸ ê±´
Ġë ł
ĠìĥĪ ëĪĦë¦¬
ìķł ì´ĪìĹĲ
ëľ ©
ê¸° ë¶Ģ
Ġê² ł
Ġìĥģ ìĥģ
Ġê³µ ìŀĳ
ëĤĻ ìĹ°
ê±°ì§ĵ ë§Ĳ
Ġê²½ ê¸°ëıĦ
ë¬¸ íĨµ
Ġìĸµ ì§Ģ
ëĶ ±ìĿ´
íİ Ģëĵľ
ë° ı
ĠìŀĪëĬĶ ê°Ģ
ëĵ¤ ìĹ¬
Ġì¢Į ìļ°
ìłĢ ëłĩê²Į
ĠìĤ´ ì§Ģ
Ġì°¨ ì§Ģ
ĠìĦľ ì´Ī
ê³ §
ëĵľ ëł¤
íķ´ìķ¼ íķ©ëĭĪëĭ¤
Ġë§Ĳ ìĹĲ
Ġë¹Ħ ë¡¯
Ġëħ¸ ëĭµ
ĠìĤ´ìķĦ ìŀĪëĬĶ
ĠìĦłê±° ë²ķ
ë¹ł ì§Ħ
ì°¨ ëĬĶ
Ġìĸ´ëĬĲ ëĤĺëĿ¼
Ġì¹¨ ëŀµ
ìłĢ ëŁ¬
ĠìĿ´ ëĭ¨
ê²½ íĻĶ
Ġëħ¸ ìĿ¸
ĠëĴ¤ ë¡ľ
íķĺê²ł ëĭ¤ëĬĶ
Ġëª° ëŀĺ
Ġë³´ëĤ ´ë
ĠëıĻ ìĿ¼
Ġëļ «
ìĤ¬ ëĥ¥
Ġë§¤ ëĭ¬
ëªħ ìĿĺ
ĠëĮĢ ëĭµ
ìĿĦ ì§Ģ
ĠìĥĿê°ģ ì¢Ģ
Ġë³´ëĤ ´ëĿ¼
ĠìłĦ ìŀĲ
ĠãĦ· ãĦ·
ë° Ń
ĠíĬ¹ ìłķ
íķ´ ì¤Ģ
Ġìĸ´ëĸ ¨
ĠëĮĢ ê°Ī
Ġíķł ë§ĲìĿ´
ëĵľ ëŁ¬
Ġê°Ļ ìľ¼ëĭĪ
íķĺëĬĶ ê²ĥëıĦ
ĠìĬ Ī
ê°Ĵ ìĿĦ
Ġë©´ ìĥģ
Ġë°ķ ìĪĺ
ê´Ģ ê´ĳ
ê²ģ ëĭĪê¹Į
íķĺê³ł ìĭ¶
Ġë§Ĳ ìķĦìķ¼
Ġë¶Ī êµ¬
Ġìķł ìĵ´ëĭ¤
ĠíĥĪ ì¶ľ
Ġë¶Ģ ë¶Ģ
Ġê¹ Ĭ
ìŀĸ ìĸ´
ëª» íķ´
ìķĪ íĥĢ
ìĦł ìĥĿ
Ġë¶Ģëĵ¤ ë¶Ģëĵ¤
ĠìĤ ´ë©´ìĦľ
íĥľ ìļ°
ìłķë¶Ģ ìĿĺ
ìĸ´ë §Ī
Ġìĭ¶ ìĸ´ìĦľ
ĠìķĪëĲľ ëĭ¤ê³ł
¸ëĵľ íı°
ðŁĳ ı
ìĤ° ëĭ¤
ëĭĪ ëĵ¤ìĿĢ
1 6
ìķ¼ ë§Ĳë¡ľ
ìĦ± íĥľ
Ġêµ¬ ìŀħ
ĠëĪĦêµ¬ ë¥¼
ìĸĳ ìĭ¬
ĠíĽĦ ì§ĦêµŃ
ê°Ļ ëĦ¤
ĠìĹ¬ ìłĦíŀĪ
ĠëĳĲ ëĳĶ
ìĹ° ìĺĪ
Ġêµ° ìĿ¸
ê·¸ë ķĮ
ĠìĹ° ê²°
ìĿ¼ ëĵ¯
ìĪĺ ìłĢ
Ġìłľ ê±°
ëĨĪ ëĵ¤ìķĦ
ĠìĿ¸ ê¸°
Ġë§Ī êµ¬
Ġíĥ ģ
Ġë°Ľ ìľ¼ë©´
ì§ĳ ìĹĲìĦľ
Ġë°ķ ë©¸
Ġê±¸ë¦¬ ë©´
ĠìĤ¬ ë¦¬
Ġê¸° ì¡´
Ġíİ¸ íķĺê²Į
Ġëĭ¹ ìĤ¬
ì¡° ì§ģ
ìŀĲ ëĵ¤ìĿĦ
ĠìŀĶ ìĿ¸
ĠëĮĢëĭ¤ ìĪĺ
ì¤Ģ ë¹Ħ
Ġë¬´ìĦľ ìĽĮìĦľ
ìĻ ¸ë
Ġì§ĢëĤĺ ê°ĢëĬĶ
ë¯ ¸ë¡ľ
Ġë°© ìľĦ
Ġë¬´ë £Į
ì¯ Ķ
Ġëĸ¨ìĸ´ ì§ĢëĬĶ
ĠìĻĶ ëĭ¤
ëĭ¹ ìŀ¥
ĠìłĦ ìĹ¼
ì¡°êµŃ ìĿĢ
ðŁ Ķ
ĠëıĮ ëĮĢê°Ģë¦¬
Ġê·¸ ìłķëıĦ
ê³¼ ê±°
ĠìĿ¸ ìĭĿ
ë° Į
Ġìłģ ìŀĲ
Ġíķĺì§Ģ ìķĬ
íķĺ ìŀĸìķĦ
ìĿ¼ ë³¸ë
ëĤ´ ìŀĲ
ĠíĸĪ ëĤĺ
Ġë°© ë¬¸
ĠìĭĿ ìľ¼ë¡ľ
ìłĲ ìĹĲ
Ġê·¸ ìĹĲ
Ġê¹ į
Ġë¹ł ì§Ħ
Ġì£½ ê³ł
ĠìŀĲë¦¬ ìĹĲ
ê°ĢëĬĶ êµ¬ëĤĺ
ĠíĽĪ ëł¨
Ġ1 3
ëıĦ ëĳĳ
ĠìĺĨ ìĹĲ
íķŃ ê³µ
ìĽ ¨ìĿ´
ĠìŀĪ ëĦ¤ìļĶ
Ġìĺ¬ íķ´
ë¦ ĩ
ĠìĻ¸ ì¹ĺëĬĶ
Ġë°Ķ ë¥¸ë
ìĿ´ íĽĦ
ĠìĹŃ ê²¹
ĠìķĦëĭ ¥
ĠíĥĦ ìķķ
ìĿ´ëªħ ë°ķ
ì²ĺ ìĿĮ
Ġì¹ĺ ìļ°
ê±° ë¶Ģ
ë¦¬ ëĬĶê²Į
Ġìŀ¥ ìŀĲìĹ°
Ġì¡°êµŃ ìĿĺ
Ġì¢Į ìĿµ
íļĮ ëĭ´
Ġì§Ģ ëĬĶ
Ġìŀħ ìĭľ
íķł ëŀĺ
Ġëĭ¹ ëĮĢíĳľ
Ġêµ¬ ìĹŃì§Ī
Ġëª¨ë¥´ ê²łëĦ¤
ĠëĪĦêµ° ê°Ģ
Ġì½ ľ
ìĬ¤ íĦ°
ĠíĮĮ ë©´
Ġì´Ī ê¸°
Ġê³µ ìĭĿ
Ġë°ĶëĢĮ ë©´
ĠìķĦ íĶĪ
Ġë§Ŀ íķ´
ì¶Ķ ë¯¸ìķł
Ġê¸° ë¦Ħ
Ġê·¸ëŁ¬ ë©´ìĦľ
ëĭ¨ ìĿĦ
Ĥ ľ
ĠìłĦ ìĪĺ
ìĹĪ ìľ¼ëĭĪ
Ġì£¼ë³Ģ ìĹĲ
ì£Ħ ë¥¼
ìķĮ ìķĦ
ĠãĦ¹ ãħĩ
ìĨĮ ê°Ģ
Ġìĺ¤ ëĬĶ
Ġë© ¸
íķĺ ëıĦë¡Ŀ
Ġíķľ ì°¸
ê°ľ ë¥¼
êµ° ëĮĢ
Ġëĭ¤ ê°ĻìĿ´
ê¹Į ë¦¬
ĠìĿ¼ìľ¼ íĤ¤
ê¼ Ī
Ġìĭľê°Ħ ìĹĲ
ëĿ¼ ëĬĶê²Į
ĠíĤ¤ ìĽĮ
ê³ł ê¸°
ëıħ ë¦½
Ġë§ŀ ê²Į
Ġì¤ĳêµŃ ìľ¼ë¡ľ
ĠíĸĪ ëĦ¤
Ġíĺĳ ëł¥
Ġìĸ¸ë¡ł ìĤ¬
Ġë§Įëĵ¤ ìĸ´ìķ¼
Ġì§Ģ ê²½
ĠëķĮ ê°Ģ
Ġíķľëĭ¤ ë©´
Ġìĸ¸ìłľ ë¶ĢíĦ°
íŀĺ ëĵ¤
ìĤ¬ëŀĮ ìĿĦ
Ġê¼¬ ëĿ¼
ĠíĽĦ ì¿łìĭľë§Ī
ĠìŀĲìĺģìĹħ ìŀĲ
ĠìĤ¬ ëĬĶê²Į
Ġìł ¸
ì§Ģ ëĤľ
Ġìĸ´ ìĦľ
Ġìŀĺ ëĤľ
Ġì§Ģì§Ģ ìŀĲëĵ¤
ĮĢ íĳľ
Ġë³´ë ĥĪ
Ġëªħ ë°±
Ġë©į ë©į
ëĤĺ ëĭ¤
ĠëıĪ ë§Į
ìľ¤ ë¯¸íĸ¥
Ġë§ŀ ëĭ¤ê³ł
Ġì¢ħ ìĭĿ
Ġê³µ ëıĻ
ë¬¼ ìĿĦ
ìľ¼ë¡ľ ë§Į
ĠëĤĺ ëĪĦ
ë© ĺ
ĠìķĪ ë¨¹
íķľê±° ëĥĲ
ìĿ´ ìĿµ
ĠíĬ¹ ìĪĺ
ĠíĥĢ ìĿ´
ìĿ´ì§Ģ ìļĶ
ĠëĨĢ ëŀį
ë¡ľ ë§Į
ĠíĨł ë¡ł
Ġ //
Ġì¤ĳ ê°Ħ
Ġë²ł ëĦ¤ìĪĺìĹĺëĿ¼
ĠìĪĺ ìŀĳ
Ġê³µ ê¸°
Ġë¹Ħ ìĦľ
Ġëĵ¤ìĸ´ ê°Ħ
Ġíį¼ ëľ¨
ĠìĤ´ ìŀĲ
ì£Ħ ê°Ģ
ĠìĹ° ëĿ½
ĠìĻ¸ë ©´
Ġì¤ĺ ëĿ¼
Ġë¬¼ ê°Ģ
Ġë¯¸êµŃ ê³¼
ëĭ¹ìĹ° íŀĪ
ìĦ± ê³¼
íķĺê³łìŀĪ ëĦ¤
ĠìĦľ ìĦľ
ì¤ĳêµŃ ìĿĢ
ìĺģ ìĦł
ê·¸ë Ĥĺ
ê²° íĺ¼
Ġë¬ ¶
Ġëı ķ
Ġê·¸ëŁ° ê°Ģ
ìĿ´ ìļ©
ìłľ ìĽĲ
Ġìľł ìĬ¹ë¯¼
Ġë³´ìĹ¬ ì£¼ëĬĶ
ìĿ¸ëį° ëıĦ
ë³´ ìĿ´
ĠëĤ¨ ìŀĲëĵ¤
ĠíĽĦ ìĽĲ
ì¤ĳ ìĿ¸
Ġì§ĵ ìĿ´
ãħ Ĩ
ìĽĲ ìĪŃìĿ´
ĠìĦł ìĪĺ
ì§ĢìĽĲ ê¸Ī
íķľ ë¯¸êµ°
Ġ1 7
Ġìĺ¬ ë°Ķë¥¸
ëĬ Ļ
ë¹Ħ ìļ©
Ġëĭµ ë³Ģ
Ġì£¼ ëıĦ
Ġìĸ´ëĶ ľ
Ġë¹Ħ ìĹ´
ĠìĦ¸ê¸Ī ìĿĢ
Ġì²ľ ìķĪíķ¨
Ġë¬¼ ìĸ´ë³´
Ġì½Ķ ë¯¸ëĶĶ
Ġê°Ģíķ´ ìŀĲ
ë³Ģ íĺ¸ìĤ¬
Ġ1 6
Ġë¬¸ì£Ħ ìķĻ
ì¥ ¬
Ġê³ ±
Ġê¹ Ŀ
Ġë°ľ ëª©
Ġì§Ī ì§Ī
Ġìķł ë¥¼
Ġì¹ĺ ëĬĶ
ìĤ¬ê¸° ê¾¼
ìĸ´ë¹ł ì§Ħ
Ġê¸°íļĮ ìĹĲ
5 18
Ġë§ŀ ëĬĶëį°
ĠëĮĢ êµŃë¯¼
Ġêµ¬ ëĤĺ
ĠìĿĺ ë¬¸
Ġëĵ¤ ë¨¹
íĨµíķ© ëĭ¹
Ġìłľ ê³µ
ĠìĿ¸ìłķ íķĺê³ł
Ġëĭ¥ ì¹ĺê³ł
íķĺ êµ¬ëĤĺ
íķ Ģ
ĠìĹ İ
ìĹĪ ìĬµëĭĪëĭ¤
ì°¨ ë¥¼
Ġ d
Ġíķł ê±°
ĠìĥĪëģ¼ ëĵ¤ìĿ´
ì§ķ ê¸Ģ
ĠìĥģìĭĿ ìłģìľ¼ë¡ľ
Ġë¸Ķ ëŀĻ
ëł ī
Ġê°ķëł¥ íķľ
ì¢ĥ ìĦł
ĠëĮĢíĨµëł¹ ìĿĺ
íĭ° ë¹Ħ
Ġë¶Ī ë§Į
ìĤ¬ íĺķ
Ġë°ķ íĥĪ
ĠìķĦ ëħĢ
ê±¸ ìĿ´
ìĹĲê²Į ëıĦ
ĠìķĮìķĺ ëĬĶëį°
Ġìĭľ ê¸°
Ġê°ķ íķľ
Ġìłķìĭł ìĿĦ
ĠëĤĺëĿ¼ ë§Ŀ
Ġë¨¹ ìĿĢ
ĠìłķíĻķ íŀĪ
ìĺĪ ìĤ°
Ġìľł íĪ¬
ĠìĹ¬ íĥľ
ë²Ħ ë¦°
ê±¸ë ł¤
Ġíķł ëł¤ê³ł
Ġíķľ íĳľ
ĠìĿ´ìłķëıĦ ë©´
íĬ¸ë ŀĻ
ĠíķŃ ìĿĺ
. ?
ëĬ ¦
Ġëĺĳ ê°Ļëĭ¤
ĠìĪĺ ìĭľ
ĠëģĿ ëĤł
ĠìĽĥ ê¸´ëĭ¤
ë¯¿ ê³ł
ìĿ´ íĶĦ
Ġë¬¼ ëł¤
Ġê³µìĤ° êµŃê°Ģ
Ġì°¨ ê³ł
ë¯¸êµŃ ìĿ´
ë´ ħëĭĪëĭ¤
Ġê²¬ ìłľ
ĠìľĦìĦł ìŀĲ
Ġë¶ĢëģĦ ëŁ¬
íĮĲ ê²°
ì²ĺ êµ¬
2 00
ìłķ íķĺê³ł
Ġì¤ĳ ëĭ¨
ìļ° ë¦¬ëĬĶ
ëĤĺëĿ¼ ëıĦ
ìĸµ ìĿ´
Ġë¬´ë¦ İ
~~ !!
ì£¼ ë¥¼
Ġìµľ ê·¼
ĠìĤ¬ ìĭľ
ê³łìŀĪ ëĬĶëį°
ê³ł ë§Į
Ġê¶ ¤
ê ¶Ī
ì§ľ íĶ¼
ê²ł êµ¬ë§Į
Ġì°¨ ìĿ´
ĠìĪĺ ìĿµ
ë³´ ìĹ¬
Ġìĸ¸ìłľ ëĤĺ
ĠìķĦëĭĪ ëĦ¤
íĨł ì°©
ĠíĻĺ ìĺģ
ĠìĿ´ê¸° ìłģìĿ¸
Ġê·¸ ëĵ¤ìĿĢ
Ġì§ĢìĽĲ ê¸Ī
Ġë¶Ģ ëĶĶ
Ġìŀĺëª» ìĿ´
ìŀĲ ê¾¸
ĠëĲĺ ìĹĪëĭ¤
Ġíľ´ ê°Ģ
ìļ° ìĦł
ìĤ¬ëŀĮ ëıĦ
¬ ´
ĠìĪĺ ìĹħ
ë§ŀ ìķĦ
ĠíķĻìĥĿ ëĵ¤
Ġë°Ķ ëĭ¤
ìĨĲ íĺľìĽĲ
íĻį ì¤Ģíĳľ
Ġë§ĪìĿĮ ëĮĢë¡ľ
ë¯¸ë ¥¼
Ġì¤ĳ ë¦½
ĠëĬ ¬
Ġë¹Ħ íĺ¸
Ġì§Ģíķĺ ì²ł
ìĦł ìĸ¸
Ġë¨¸ë¦¬ ìĹĲ
íĸĪ ìĸ´ìļĶ
ë° ¤
ĠëĶ¸ ìĿ´
ìĤ¬ ìĥģ
ìķ¼ ìĿ´
ë¿Ĳ ìĿ´ëĭ¤
ĠëįĶëŁ½ ê³ł
ĠìĿ µ
ë¦¬ ìĬ¤íĬ¸
Ġë ±ī
ĠìĿ´ì§Ģ ê²½
ìĦ ¹
ĠíĮĮ ê´´
Ġëª» ë°Ľ
Ġë¹Ħ íķĺë©´
ĠìĿ´ë£ ¨
Ġê²ĥ ìĿ¸ê°Ģ
Ġ b
Ġìłľ ìĭľ
ë¯¼ì£¼ ëĭ¹ìĿĢ
Ġê°Ŀ ê´Ģ
1 7
ë¦¬ ëıĦ
ĠëĮĢíĨµëł¹ ëıĦ
Ġì¡°ìĦł ìĭľëĮĢ
ë´¤ ëĭ¤
ĠìĿĮì£¼ ìļ´ìłĦ
Ġëį ©
Ġëª¨ ìĹ¬ìĦľ
ê» į
Ġê°ķ íķĺê²Į
ĠëĲł ê¹Į
ì¹ĺ ê²Į
ìĥģ ê´Ģ
íĹ Ľ
ë¶Ħ ìĿĢ
Ġì§ §
Ġë¶Ģ ëĮĢ
Ġë¹Ħ íķĺ
Ġê°Ģì¡± ëĵ¤
ì²ľ ë§Į
???? ??
ĠëĤĺìĺ¤ ëĦ¤
ĠìĤ´ìĿ¸ë §Ī
ê³³ ìĹĲìĦľ
Ġìĸ´ë¦° ìĿ´
ĠìĿ¸ ê°Ģ
ĠêµŃë¯¼ ëĵ¤ëıĦ
ĠëĮĢíĨµëł¹ ìľ¼ë¡ľ
ëŁī ìĿ´
ĠìĿ¼ ì£¼
ëĦĺ ìĿ´
Ġì¤ĳêµŃ ìĿ¸ëĵ¤
Ġëĭ¤ë¥¼ ê²Į
Ġë°° ìĽł
ĠìĤ¬íļĮ ìĹĲ
íķĺëĬĶ ê°Ģ
íıī ìĥĿ
ìĻ Ī
Ġë°ľìķħ ìĿĦ
Ġëĺĳê°Ļ ëĦ¤
ĠìĦĿ ë°©
ê°Ī ëĵ±
ĠíĶ¼ ëĪĪë¬¼
ê¾ ¸ëĿ¼
ë¶ģíķľ ìĿ´
Ġë¶ĢëģĦëŁ½ ëĭ¤
íģ Ĳ
ĠìĹĨìķł ëĿ¼
Ġì² ´ë
ìĹ¬ ëĭ¹
Ġìłķë¶Ģ ìĻĢ
Ġë§Ŀ ìĸ¸
ìĺĢ ìĸ´
ìľ¼ ëł¤ëĬĶ
ìłĲ ìĹĲìĦľ
ĠìĤ¬ ìľł
Ġê·¸ ìŀĲë¦¬
Ġì§Ģ ë°°
Ġë§Ī ëħĢ
Ġë§Ĳ ëĮĢë¡ľ
ìłĲ ìĿĢ
Ġë°ĳ ìĹĲ
Ġì» ´
Ġë§ī ìķĦìķ¼
ëĤ´ë ĮĢíĳľ
ê±° ë¦¬ê³ł
Ġìĸ¼êµ´ ìĹĲ
Ġíľĺ ëĳĺ
íħĮ ê³ł
ëģ¼ ëĬĶ
ĠìŀĪìĹĪ ëįĺ
Ġìĺģ íĺ¼
íĽł íĽł
ĠëŃĲ ê³ł
ëĮĢ ì±ħ
Ġìŀĳ ìĹħ
ë¦ ¿
Ġë¹ł ìł¸ëĤĺ
ëĬĶê±° ëĦ¤
ì½ §
ìĹ ½
Ġìľł ê°Ģì¡±
ê¸° ìķ¼
ĠìĹ¬ ìķ¼
ëıĻ ìĽĲ
ìļķ ìĿĦ
Ġì°© íķľ
ĠìĿ´ëĤĺëĿ¼ ê°Ģ
ìĤ¬ ë¬´
Ġìłķìĭł ì¢Ģ
Ġì°¨ ê¸°
Ġë²ķ ìłģ
ĠëıĦ ìłĢíŀĪ
ë§Į íķ´ëıĦ
ëĦĪ ìĬ¤
ĠìĤ¬ë§Ŀ ìŀĲ
Ġê·¹ íĺĲ
Ġë¬¸ìŀ¬ìĿ¸ë ĮĢíĨµëł¹
ĠêµĲ ëıĦìĨĮ
ĠìĻ Ī
ìĨĮ ëĤĺ
ë²Į ëłĪ
Ġíķľë§ĪëĶĶ ë¡ľ
ê³µíĻĶ êµŃ
Ġìłľ ëıĦ
© ´ë
ĠìķĦ ëıĻ
ĠìĿ¸ê°Ħ ìĿĺ
ĠìĿ´ëŁ ´ëķĮ
ĠìĿ´ íĥĪ
ĠíĪ¬ ìŀħ
Ġë¬¸ ëĭ«
íĪ¬ ìŀĲ
íķł êº¼
Ġê´ĳ ìĭłëıĦ
Ġ18 0
íķľêµŃ ëĭ¹ìĿĢ
Ġãħĩ ãħĩ
Ġê¸Ī ë°©
Ġëĭ¤ ì£½
ĠëĦ ĵ
ìĺĢ ê³ł
ì¡Į ìľ¼ë©´
ìŀĲíķľëĭ¹ ìĿĢ
Ġíķľ ìª½
ĠìŀĲê¸° ëĵ¤ìĿ´
Ġìĸĳ ë³´
ĠìķĪëĲĺ ëĤĺ
ëª¨ ìĬµ
........ ..
íķľ ê²ĥëıĦ
ì²ľ ìĽĲ
ê¶Į ìĿĢ
ðŁĳį ðŁĳį
ĠìĥĿê°ģ íķ´ë³´
ĠëıĻ ìĥĿ
ë¨¹ ìĿĦ
Ġãħ Ĭ
ê¸° ì¤Ģ
ĠêµŃë¯¼ ìĦ¸ê¸Ī
ĠëĤ´ ìĿ¼
Ġê¸° ì´Ī
ì¡° ë¥¼
ìı ĺ
ì£¼ ëĳ¥
ëĬĶê²ĥ ìĿĢ
Ġì²ŃìĻĢëĮĢ ê°Ģ
ìļ° ì§Ģ
ìķł ê°Ģ
ëĭ¹ìĭł ìĿ´
Ġë§İ ìĿĮ
ĠìķĦë¬´ë Ĥĺ
Ġìŀ¡ ìķĦìĦľ
Ġê³ł ìĬ¤
ĠìĿ¸ê°Ħ ìĿĦ
ĠìķĦëĭĪ ìŀĸìķĦ
íķ´ë³ ´ë©´
ĠìķĪ ê°Ħëĭ¤
ìĦ¸ ëĬĶ
Ġì¢ĭ ê²łìĬµëĭĪëĭ¤
ì¶© ìĿ´
ì¼ ĵ
ë°° ëĬĶ
Ġëª° ëĿ¼ìĦľ
ìļ°ë¦¬ ëıĦ
ĠìĭľëĮĢ ìĹĲ
Ġê°ģ ìĺ¤
Ġê± ¸ë¡ľ
ìĸĳ ìĿ´
ìĭ« ëĭ¤
' '
ë¯¸ íĨµ
Ġì¢ĭ ê²Į
Ġê³µìłķ íķľ
´ëĮĢ íı°
ĠêµŃë¯¼ ì²ŃìĽĲ
Ġê·¸ëŁ¬ ì§Ģ
ìĿ¸ ìĹĲ
ìłķìĭł ì°¨
e r
ê°Ģ ê²©
íĬ ¸ë¡
Ġê²°êµŃ ìĿĢ
ĠìķĦ ìĭľìķĦ
Ġëĭ¤ ëĬĶ
Ġìłķ ìĪĺ
Ġíĺ Ģ
ê²ĥ ëĵ¤ìķĦ
Ġì¢ĭ ê³ł
Ġìĭľ ëıĦ
ê³µ ìŀ¥
Ġì³Ĳ ëĭ¤
ìĭľ íĹĺ
Ġìŀĺ íķ´
ìĦ± ëħĦ
ìĿ¸ë ©¸
ĠìķĪëĲĺ ëĬĶëį°
Ġíİ ¼
Ġë§ĪìĿĮ ìĹĲ
ìľł ì¹ĺ
ĠìĦ¸ ìĽĮ
íĺĦ ìŀ¬
ĠìĥĿ ìĥī
ìĪĺìŀĪ ëĭ¤
ìĦľ ê°Ģ
ĠëįĶ ëĵ¬
ìŀĲ ë¦¬ê°Ģ
ĠìĿ´ë ķĮ
ëĦ ¨
ĠìĻľ ëĥĲ
ĠìĿ¼ë³¸ íķľíħĮ
ĠëıĻ ìĦ±ìķł
ìłģ ìĿ´ì§Ģ
ĠìĤ¬ìĭ¤ ìĥģ
ĠìĤ¬ ë¬´
ê´Ģ ìĭ¬
Ġì§Ī ë³ĳ
ĠíĭĢëĶ± ëĵ¤
ìĸ´ë¯¼ì£¼ ëĭ¹
íħ ħ
ìĿ´ ëĵľ
ìĶ Į
ì²ľ ë§ĮìĽĲ
Ġ v
ĠìĤ´ìķĦ ëĤ¨
ê³µìĤ° ì£¼ìĿĺ
ĠìĿĺ ìłĦ
Ġë¹¼ ìķĹ
ìľ¼ ìĭľ
ĠëĶ ´ë
ì¦ Į
ĠìĹĦ ë²Į
ê·ľ ëª¨
ìĿ´ ê±¸
ãħ Ĺ
ë²Ī ìĹĲ
Ġê·¸ëŁ¬ ëĭ¤
í ī
ĠëģĿ ëĤĺë©´
Ġê·¹ ë³µ
ê°Ļ ìķĦ
ë¶Ģ ìĤ°
ëħ¸ë ¦ĩ
ĠìĿ´ ìĪľìĭł
Ġê± ¸ëł¸
ĠìĤ¬íļĮ ê°Ģ
Ġìļ¸ ìĤ°
ĠìĿ¼ ìĤ¼
ĠìĤ¬ ë¡Ģ
Ġë¯¸êµŃ ìĹĲìĦľ
Ġìĭ«ìĸ´ íķĺëĬĶ
ĠìķĪ íķ´ëıĦ
ĠëĤ´ëł¤ ìĻĢëĿ¼
ê²½ ìļ±
Ġë¹Ħ ìĥģ
Ġê³łë§Ļ ëĭ¤
Ġëĭ¤ ìĬ¤
Ġê³³ ìĿ´
Ġíķł ëĵ¯
ìŀ¥ ìĤ¬
íĥ ±ìĿ´
ëĵľ ë£¨íĤ¹
ìļ°ë¦¬ëĤĺëĿ¼ ëĬĶ
Ł ê°ĢëĿ½
ĠëĦĺìĸ´ ê°Ģ
ì¹´ ëĵľ
Ġíķ´ìĻ¸ ìĹ¬íĸī
ĠìĹĨ ìĸ´ëıĦ
ê¸ į
Ġì£½ ìĿ´ëĬĶ
ĠìłĦ ìłķê¶Į
Ġìĭ¸ ì§Ģ
íķĺê¸° ëıĦ
Ġê¶Įëł¥ ìĹĲ
ë¦¬ ìĺ¤
ëĤĺ ì§Ģ
ë³¸ ìĿ¸
ê°Ļ ìľ¼ë©´
ìĨį ìľ¼ë¡ľ
³ ĳ
ìĺ Ĩ
ìļ° ë³ĳ
Ġìĸ´ëĸ ¡
Ġë§¤ ëħĦ
Ġë³´ ëĭ¤ëĬĶ
ĠëĲľ ìŀ¥
ĠìĿ´ìŀ¬ ìļ©
Ġìļ° ë¡±
ë¹Ħ ë¡Ģ
Ġìłģ ìĿĢ
íĻĺ ìŀĲ
êµŃ ëĭ¹
Ġê¶Į íķľ
ĠêµŃíļĮìĿĺìĽĲ ìĿ´
íĨµ ìĹĲ
ë©Ķ ëĶĶ
ìŀħ ê³ł
Ġê¹Ģ ì¹ĺ
ê¿ Ķ
ĠìĽĥ ìĿĮ
@ @
ĠíĨµíķ© ëĭ¹
Ġëķ ľìĹĲ
ìł ĬìĿĢ
ì§Ģê¸Ī ìĿĢ
ĠìŀĲ ëĵ¤ìĿ´
Ġë§Ĳ íķ´
ë¦¬ ë©°
Ġìķŀìľ¼ë¡ľ ëıĦ
ĠêµŃë¯¼ ê³¼
ê·¸ ê±¸
Ń Ĳ
Ġìłķ ì²´
Ġë§ī ìĿĦ
ìĪĺ ë°ĸìĹĲ
Ġë§ŀëĬĶ ë§Ĳ
Ġê²Ģì°° ì´Ŀìŀ¥
íķĺìĹ¬ ê°Ħ
ĠëĤĺ ë©´
ĠìľĦ ìŀ¥
© ĶëĿ¼
ë¦¬ ëĬĶê±°
ìŀĲ ê²©
° Ľ
ìľĦ íķ´ìĦľ
Ġìļ°ë¦¬ ë¥¼
Ġìłķê¶Į ìŀ¡
Ġíĺ¸ë Ĥ¨
Ġìĺ¬ ë¦¬ëĬĶ
ì§ĢìķĬ ìĿĢ
ðŁĺ± ðŁĺ±
ĠìĹĨ ëĬĶê±°
Ġë²Ķ ë²ķ
Ġë§Ŀ ì¹ĺ
Ġíĳľ ë¥¼
Ġë¬´ìĹĩ ìĿ´
? .
Ġë¹ ½
ê¶ Ĳ
ĠìĹŃ ìłģ
ê²Į ìŀĦ
ĠíķĦìļĶ ìĹĨëĭ¤
ë¦¬ ì¹´
Ġì« Ĵ
ë¬´ëĬ¥ íķľ
íļ¨ ê³¼
ĠìĤ¬ ë©´
Ġì³Ĳ ëĦ£
Ġíıī ìĨĮ
Ġ9 9
ìĹĲìĦľ ë§Į
Ġê°ķ íĸī
ĠëĮĵê¸Ģ ìĹĲ
ëĤ Ħ
Ġíĸī ìľĦ
Ġë²ķ ìķĪ
ĠìĪĺ ìŀ¥
ëıĦ ìĹĨëĬĶ
ĠëĦĺ ëĬĶ
ĠìłľëĮĢë¡ľ ëĲľ
ĠìĤ¶ ìĿĦ
Ġìĭľ ì²´
Ġì¢ĭ ì§Ģ
Ġëĭ¤ ìĿ´
Ġìłľ ì¡°
ë¯¸ ì³¤
Ġê°ľëı¼ì§Ģ ëĵ¤ìĿ´
ĠìĭĿ ëĭ¹
Ġì¹¨ ë¬µ
Ġì¢ĭ ê²łëĦ¤ìļĶ
ë§Ī ìłĢ
Ġì° ¸ëĤĺ
ĠìŀĪ ëıĦë¡Ŀ
ì¤ĳêµŃ ìĿ´
Ġë¶Ħ ë¦¬
ì ĮĢ
Ġíķĺë£¨ ë¹¨ë¦¬
êµŃ ëĤ´
Ġìĸ¼ ë¥¸
Ġìļ° ë°©
ê°ľ ëĬĶ
ĠìķĦìĿ´ ëĵ¤ìĿ´
ĳ ¥
ëĤ¨ ìĿĺ
Ġì£¼ëĳ¥ ìķĦë¦¬
ĠëįĶ ëįĶ
ìŁ ¤
ĠíıŃ íĥĦ
Ġíĥľìĸĳ ê´ĳ
ìĹĪ ëĭ¤ëĬĶ
ĠëĴ¤ ì§Ģ
ĠëĥĦìĥĪ ê°Ģ
Ġë§Ĳ ìŀ¥ëĤľ
Ġíİ ¸ë²ķ
ì°į ê³ł
ĠëĶ° ì§Ģ
Ġìķī ìķĦìĦľ
ë¬¸ ìĦľ
ĠëĭĪ ëĬĶ
Ġì° Ĳ
êº Ħ
ĠëıĦ ìŀħ
Ġì¢Ģ ëįĶ
ĠìķĪ ë°Ľ
Ġê° ĵ
Ġì·¨ ìŀ¬
Ġë¦¬ ëįĶ
Ġìĸ´ë ¥´ìĭł
Ġëª¨ë¥´ ê²łì§Ģë§Į
ìĤ ½
ë² ħ
íķĺê³ł ëıĦ
ëĮĢíĨµëł¹ ëĭĺ
ĠëĤĺ ë§Į
Ġìłķì¹ĺ ëĬĶ
Ġëĭ ´ë
ĠìĪĺ ìĪł
Ġìĭľ ë¹Ħ
Ġì¡°êµŃ ê³¼
Ġê¸Ī ìľµ
Ġë¹Ħíĸī ê¸°
Ġê±° ëįľ
ĠíĸĪ ìľ¼ëĭĪ
ĠëĬĺ ìĸ´
ĠìĿĮ ëª¨
ĠìĿ¸ ê±´ë¹Ħ
ìłķìĪĺ ìĦĿ
ê¸ ¸ë
Ġì¹¨ ëª°
ë§ŀëĬĶ ë§Ĳ
t bc
ĠëĤ ¯
Ġìĭ¸ ê·¸ë¦¬
ë¶Ī ë²ķ
Ġìŀ¥ê´Ģ ìĿ´
ìŀ ĥ
ĠìķĪ ë¯¿
ĠìĿĺë¯¸ ê°Ģ
ì§Ī ìĹĲ
ëİ ħ
ĠìĥĿ ê²¨
Ġì£¼ ë²Ķ
ìĦ¸ ìĽĶ
ĠìĿ¼ ìĸ´ëĤľ
Ġë¦¬ ìĸ¼ë¯¸íĦ°
Ġê¼´ ìĿ´
Ġë°Ķ íĢ´ë²ĮëłĪ
ĠìķĦ ê¹Į
ì¡Į ëĬĶëį°
ë§ ¥
ĠëĤ® ìĿĢ
ĠìŀĪ ìŀĸìķĦ
Ġëª¨ë¥´ ì§Ģ
Ġì¡ Į
ì£¼ ëĥĲ
ìĵ ¸ë
Ġìĸ´ëĶ ¨
ãĨį ãĨį
ĠíĸīëıĻ ìĿ´
íĮĮ íĥĦ
Ġìŀĳ ëħĦ
Ġì¢ĭ ìķĦìĦľ
ĠíĮ į
ĠìĥĪ ë²½
ĠìĬ¬ íĶĦ
ë©´ íĶ¼
ĠëĤ« ì§Ģ
Ġíĥľê·¹ê¸° ë¶ĢëĮĢ
Ġê¸°ìŀĲ íļĮê²¬
ìĽĲ ëĵ¤
ĠëģĿ ëĤľ
Ġíıī ê·ł
íĨµ ìĿĦ
ëĤ ´ë©´
ĠìŀĲ ì§Ħ
Ġìĭ« ìĸ´ìĦľ
ìŀĲ ëĿ¼
ìĽĶ ê¸ī
ĠìķĪ ë³´ê³ł
ĠëĲ ¬
Ġìĸ´ ì¨
ìŀĦ ëªħ
ì§Ħ ìĭ¤
ê¹Įì§Ģ ëıĦ
ìĹĲ ìĿ´
Ġìĸ´ì©Į êµ¬
Ġëª©ìĪ¨ ìĿĦ
Ġê·¸ë ¦¼
ëħĦ ëĵ¤
Ġê¼¬ ë¦¬
Ġì²ľ ì§Ģ
ìĸ´ ìłľ
ìĭľ ì§Ħíķĳ
ĠëĮĢ ë§Į
Ġì§Ģ ê¸ĭ
Ġëĭ¹ìĹ° íķľê±°
ëĮĢ ê°Ī
ĠëĤ´ëł¤ ìĺ¤
ĠìĤ¬ ìĦ¸ìļĶ
ĠìĿ¸ë ¥ĺ
ë¬¸ìŀ¬ ìĿ¸ë
ë³´ íĺ¸
êµ¬ ëł¤
Ġê°Ģ ìŀħ
ĠìłĦ ìĦ¸
Ġëª¨ëĵł ê±¸
ê²Ł ì§Ģ
ìĺ ¹
Ġíķ´ ìļĶ
íķł ê±°ëĭ¤
ìĻĶ ëĬĶëį°
ëĭ¬ì°½ ëĵ¤
Ġìŀĺ ëĿ¼
ìķĺ ëĥĲ
Ġë§Ĳ ìĿ´ëĥĲ
Ġê¸°ëłĪê¸° ëĵ¤
ãħħ ãħĤ
ë§Ļ ìĭľëĭ¤
ê°Ħ íŀĪ
Ġë¹Ħ ìĽĥ
ë¬¸ìłľ ëĬĶ
Ġê°ĢëĬ¥ ìĦ±ìĿ´
ĠëĿ¼ ëıĦ
ĠìķĦ ìī½
ĠìĨĲ ìŀ¡ê³ł
ìŀĲ ë£Į
ĠíķĻ ë¶Ģëª¨
ê±´ ê°ķ
Ġìłľ ì¶ľ
ĠëĮĢ ìłĳ
íĨł ë¡Ŀ
ĠìķĦëĭĪ ëĿ¼ëĬĶ
ìĥģ ìĹĲìĦľ
Ġë¶ģ ì¡°ìĦł
ê°Ģ ë§Į
Ġ j
ĠìĹħ ë¬´
Ġíķ´ ì¤Ħ
Ġë°Ľ ì§Ģ
! ?
ê°Ģ ì§Ħ
Ġê·Ģ ì¡±
ëıĪ ìĿĢ
Ġëĥ Ħ
ìµľìłĢ ìŀĦê¸Ī
Ġëĭ¨ ì§Ģ
ë§ĺ ëĮĢë¡ľ
íķľêµŃ ìĿĢ
ìħĶ ìļĶ
ľ ¨
8 6
ĠìĹĨ ëĬĶê²Į
Ġíķľ ê±´
Ġìĥ Ģ
Ġê°Ī ëĿ¼
Ġë¶ģ ìĹĲ
Ġìłķì¹ĺ ìĿ¸ìĿ´
Ġë³´ ê²Į
ìľł ëŁ½
Ġë¶Ī ê°Ģ
Ġìĵ° ëŁ¬
Ġê´´ë ¬¼
Ġë¯¸êµŃ ëıĦ
Ġë°¥ ë¨¹
Ġíķľ ë°©
ìº ¬
ĠìĹī ëļ±
ìķł ë¹Ħ
Ġì§ĳ ìĿĦ
ĠìŀĲìĭł ëĵ¤ìĿĺ
² ¨
ìĹ° íķ©
Ġêº ¼ì§Ģ
ĠìĿ¼ ë°©
ê²ĥ ê°Ļëĭ¤
Ġì£¼ ì§Ģ
Ġìĭ¸ ìĿ´ì½Ķ
ĠìĤ° ë¶Ī
ìķĺ ëĭ¤ê³ł
Ġë§Ŀ ì³Ĳ
ìĻĦ ìļ©
Ġì¡°ìĤ¬ íķ´ìĦľ
ëį° ì²´
Ġìŀĺ íķľ
ĠìłķìĿĺ ê°Ģ
ëĸ¨ìĸ´ ì§Ħ
ĠìĹħ ì²´
Ġê¸°ìĹħ ëĵ¤
ê±°ëĵł ìļĶ
Ġíķĺ ëıĦ
Ġì§Ģ ìĨį
Ġëĥ Ī
ìĦł ìĪĺ
ì¯§ ì¯§
ĠìĿ¼ë³¸ ëıĦ
ĠìŀĪëĭ¤ ê°Ģ
ëķ ¡
ê²ĥ ëĦ¤
Ġ æ
Ġìļ° ëįľ
Ġê°Ĳ ë¹µ
ĠíĸĪ ìĿĦ
ìĿ´ ìļĶ
ĠìĿ´ë Ħĺ
ìĬ¤ëŁ½ ê³ł
ê¸° ê°Ħ
ìĤ¬ ë¦¬
ìłĢ ë¶Ħ
Ġë¹Ħ ìłķìĥģ
ê±¸ë ¦°
Ġë§ ¨
ĠìķĦ ë¦Ħ
Ġêµ¬ ê²½
ì¹ĺ ëıĦ
ë§ ¨ëĤł
ĠìķĦëĭĪ ëĭĪ
Ġê±°ê¸° ëĭ¤
Ġì¶ľ ê·¼
ê°ĸ ê³ł
ĠìłĦ ë©´
ê·¸ë Ŀ¼
ĠìŀĲìĭł ìĿĦ
Ġë§Įëĵ¤ ìĸ´ëĿ¼
ëĬĶ ê±¸
ĠíļĮ ë³µ
Ġì½Ķë¡ľëĤĺ ê°Ģ
Ġë°± ìĪĺ
íķ´ ì§Ħ
ĠìĪĺ ê¼´
ĠìĽĲ ìĿ¸
ìĭľíĤ¤ ë©´
ĠìķĮ ê²łëĭ¤
ĠìłĪ ëĿ¼ëıĦ
ĠìŀĪ ê²łì§Ģ
Ġìĭľ ëĮĢê°Ģ
Ġìłķì¹ĺ íķĺëĬĶ
ĠìĪĺ ëĭ¨
ĠíĻķì§Ħ ìŀĲê°Ģ
ìĨĮ ë¥¼
ĠìĨĮ ë°©
ĠìĿ¸ë¬¼ ìĿ´
ìĿ¸ ìłķ
ìŀĲ ëĿ¼ê³ł
ìĸ »
ĠìĬ¤ ë§ĪíĬ¸
Ġì³Ĳ ë¨¹ê³ł
ĠìĥĪëģ¼ ìķ¼
ì§ĢìķĬ ëĤĺ
ìĸ´ë´Ĳ ìķ¼
ìĿ´ ëĤĻìĹ°
Ġíķ ¸ëĵľíı°
ĠëĴ¤ íĨµìĪĺ
ĠìķĬ ëĤĺìļĶ
Ġë°ĺìĿ¼ ê°Ĳìłķ
ìĤ´ë ¦¬
ĠìķĪ íķĺ
Ġìŀĺ íĸĪëĭ¤ê³ł
ëĭ¬ ê³ł
ĠìĹŃìĤ¬ ìĹĲ
ĠìķĪ íķľ
ĠìĨĲ íķ´
ĠìĨĮ ë¦´
ĠëıĮìķĦ ê°ĢëĬĶ
ë´¤ ìŀĲ
ì¾ Į
£ ¹
Ġë¶Ģ ìĿ¸
ĠëĤł ëł¤
ĠíĻķìĭ¤ íķĺê²Į
ì£¼ ë¡ľ
Ġì§Ģ ì§Ħ
ìĿ´ íģ¬
ĠìĿ´ëŀĺ ëıĦ
ĠìĽĥê¸° ëĦ¤
ëį ¸
ìĸµ ìĶ©
ĠëĤĺìĺ¤ ëĥĲ
Ġë©Ģ ë¦¬
ĠëıĦ ë°ľ
ìĭł ë¶Ħ
ĠíĸĪ ê³ł
ĠìķĦ ìī¬
ĠëĮĵê¸Ģ ë¶ĢëĮĢ
Ġë§Ĳë¡ľ ë§Į
Ġì»¤ íĶ¼
Ġì£¼ìŀ¥ íķĺëĬĶ
ë ĩ
ëıĦ ìĻĢ
íĶĦ ëłĪìŀĦ
ìłĦ ë¶Ģ
Ġë§Ĳ ìĿ´ì§Ģ
ìĨį ìĹĲìĦľ
Ġìłķì¹ĺ ê°Ģ
ĠìĥĪ ë¡ľ
Ġëĭ¹ëĭ¹ íķĺê²Į
Ġìķł íĶĮ
Ġì§ĳ ìĸ´
ĠOOO ìķĦ
į ¤
ĠìĿ´ëŁ° ê±¸
Ġë¹Ħ ê²ģ
ĠêµŃíļĮ ìĹĲìĦľ
ëĵ¤ìĿ´ ê³ł
ĠëĲĺ ëĭĪ
ìģ ¨
Ġìłķ ì§ģ
ì§ĳ ìķĪ
ê¾ ¸ë¡ľ
ìķĦ ëŀĺ
Ġê¹¨ëģĹ íķľ
Ġì¡¸ ìĹħ
Ġìį¨ ìķ¼
Ġëĭ¹ íķĺëĬĶ
íĦ° ë¦¬
ĠìłķëıĦ ëĬĶ
ìĿ¼ ìŀĲë¦¬
Ġì¢ĭ ìľ¼ë©´
íķ´ì£¼ ë©´
ĠìľĦíĹĺ íķľ
ì²ĺ ë¨¹ê³ł
Ġë³´ê³ł ìĭ¶
ëĦ ¹
Ġëª» íķ¨
Ġëª» íķĺëĥĲ
ìĹ° êµ¬
Ġì¡° ìĦ¼ì§ķ
~~~~ ~~
ĠìĨĮëĵĿ ì£¼ëıĦ
Ġê±¸ëł¤ ìĦľ
ìļ° ê¸°
ìŀĲìľł íķľêµŃëĭ¹
Ġìłķì¹ĺ ê¶Į
ĠìķĦ ê¹Ŀ
Ġìŀ¬ ë°Į
ĠìĤ¬ ëĥĲ
ìĿ¸ë ¬¼
ĠëĤĺ ë¹ł
ĠíĹĪ ìļ©
ëĶ° ìľĦ
ë° Ł
ìĹĪ ì§Ģë§Į
Ġë§Ī ëĥ¥
ĠíķĻ ìĤ´
Ġë§ĪìĬ¤íģ¬ ë¥¼
íģ´ë Ł½
ê¸° ìĥĿì¶©
ĠìŀĪ ìľ¼ëĭĪê¹Į
ìĨĮ ëĮĢê°Ģë¦¬
ĠìĹ° íķ©
ĠìŀĲ ì¹Ń
ĠìĹ¬ìŀĲ ëĵ¤ìĿ´
ê± ·
ì§Ħ ìĭ¬
íĪ¬ ìŁģ
Ġë°ľ ìĤ¬
ìķĦ ë§Ī
ĠìķĪ ëĵ¤ìĸ´
íĭ ´
ë¬ ¸ëĮĢíĨµëł¹
Ġìŀĺ ëıĦ
ê°Ļ ìĿĮ
Ġë¶Ī ë¥ľ
ìĹĨ ìľ¼ëĭĪ
Ġë²ķ ìĿĢ
Ġëª© íı¬
ìĥĪëģ¼ ëĬĶ
ĠìĿ¼ë³¸ ìĿ¸
Ġíĺģ ìĭł
ê»ĺ ìļĶ
íķĺê²ł ìĬµëĭĪëĭ¤
Ġì¡° ê±´
ê³ł ë¡ľ
ê·ľ ìłľ
Ġê°Ģ ìķ¼ì§Ģ
ĠìĹ¬ ê¸°ìĹĲ
ë°ľ ìĸ¸
Ġê³ł ìĿ¸ìĿĺ
Ġê¸Ģ ë¡ľ
ê¸° ìĻĢ
ĠíĺĦ ìłķê¶Į
ê²ł ìĿĮ
ĠíķĺëĤĺ ìļĶ
Ġíį¼ ì£¼ê³ł
ë¥ Ļ
Ġëĭµëĭµ íķĺëĭ¤
ëŁī íķľ
ë¥´ ì§Ģ
ĠíĻ©êµĲìķĪ ìĿ´
Ġë°©ë²ķ ìĿ´
Ġë¶Ģ íĻľ
Ġê°Ģ ì¦Ŀ
Ġíķľ ê¸Ģ
ìĦľ ìĹĲ
ëĮĢ êµŃ
Ġë²ķ ìĽĲ
ĠíķĻ ìĽĲ
ĠíĸĪ ëĭ¤ëĬĶ
ĠìĿ½ ê³ł
ìĤ¬ìĿ´ ë¹Ħ
Ġêµ¬ ê±¸
Ġì¢ĮíĮĮ ê°Ģ
ĠëĮĢíķ´ìĦľ ëĬĶ
ëĵ± ê¸ī
ìłĦ ìĦ¸ê³Ħ
ĠìķĦëĭĪëĿ¼ ë©´
ìĬ¤íĬ¸ íĬ¸ëŀĻ
Ġì£½ ìĿĦëķĮ
Ġíķĺ ëĵł
Ġíķĺ ëĭ¤ëĭĪ
ìĥĿ ê²¼
ë²ķ ë¬´ë¶Ģ
ì§ĵ ìĿĢ
Ġë¶Ģíĥģ ëĵľë¦½ëĭĪëĭ¤
ĠìĿ´ ê°Ħ
ĠíĪ¬ê¸° ê¾¼
ê¸Ī ìĿ´
Ġë³´ìĪĺ ëĬĶ
ìłķ ìľ¼ë¡ľ
ê·¼ ìĦ±
ìķĦë¨¹ ëĬĶ
Ġì¢ ģ
Ġë§Ŀ íķĺëĬĶ
ìŀĲ ëŀĳ
ĠìłĦ ë²Ķ
Ġãħ ı
Ġë§¤ ì¶ľ
íķĺ ìĭ¤
Ġëª» ë¯¿
µ Ī
ìĺĢ ëĤĺ
ĠëıĻ ì¡°
Ġìĸĳìĭ¬ ëıĦ
Ġê³µì§ľ ë¡ľ
ĠìĿ¸ê°Ħ ëĵ¤ìķĦ
Ġìŀ¬ìķĻ ìķĦ
ëĮĢê¹¨ë¬¸ ëĵ¤
ĠëĮĵê¸Ģ ëĵ¤
Ġëħ ¸ë¦¬
ĠíĮĮ íĹ¤
íĤ¤ ëĵ¤
Ġìĭ¤ ì²ľ
ìŀ¥ ìķł
Ġìĺ¤ ë©´
Ġë²ķ ìľ¼ë¡ľ
ì´ī ìĥĪ
ìĶ ¹
Ġê°Ħ ëĭ¨
Ġì¡°ìĤ¬ íķ´ëĿ¼
Ġê² ¸
Ġê¸´ ê¸ī
ì£¼ ìŀĲ
ĠìłĦ ìĽĲ
Ġíİ¸ ìĿĺ
ì§Ħ ëĭ¹
Ġìĸ´ ìļ¸ë¦¬
ĠíĻķìĭ¤ íķľ
íĻķ ì§Ħ
ìłĦ ìĿ´
ìĹĨ ìķł
íĿ Ķ
Ġê·¼ íĺľ
ìĦ ¬
ëĤĺ ìĺ¨
Ġìŀ¡ íĺĢ
ĠëĳĲ ëłµ
Ġë§ĪìĿĮ ìĿĦ
ê²½ ìļ°
ĠìŀĪ ìĸ´ìķ¼ì§Ģ
ĠíĻ §
Ġìĸ´ë¦¬ ìĦĿìĿĢ
ê°Ģ ë¡ľ
ĠìĺĪ ìłĦìĹĲ
Ġê¹Į ê³ł
íĸĪ ìĿĦê¹Į
Ġë§¤ ìŀ¥
ĠëįĶë¶Ī ëĭ¹
Ġì¡° ìĥģ
Ġ B
ìķĪ ì²łìĪĺ
ê²Ģì°° ìĿĢ
ëĵľ ëĦ¤
Ġê¸Ī ìķ¡
Ġëĵ¤ìĸ´ ê°Ķ
Ġìĺ¨ íĨµ
Ġìķ¼ ëĭ¹ìĿ´
Ġ J
Ġê²Ģì°° ìĹĲ
ëģĿ ê¹Įì§Ģ
ĠëĪ Į
Ġìĸ´ëĶĶ ê¹Įì§Ģ
ë¦¬ ë©´ìĦľ
Ġëĭ¤ ëĭĮ
Ġìĸ´ë§Ī ìĸ´ë§Ī
Ġíķĺ ëįĶëĿ¼
íķ´ ìĻ¸
ĠëĤ´ë ŀĢ
íķľ ì¤Ħ
ìĿ¸ì§Ģ ëıĦ
ĠëĦĪíĿ¬ ëĵ¤ìĿĢ
Ġë°° ê¸ī
Ġì¡°ê¸Ī ìĿ´ëĿ¼ëıĦ
ĠíĮĶ ê³ł
ìĸ´ ì©
Ġìĭ¸ ê²Į
ĠìĥģëĮĢ ë°©
³ ´ë©´
ì§ĢìķĬ ëĬĶ
Ġê±¸ë Ł¬
Ġê½ ģ
ëŀį ìĭľê³ł
ĠìĿ´ë ¤Ħ
ìĿ¼ íħĲëį°
ê³³ ìĿĢ
ĠìĦ± ìłģ
ĠìĤ¬ ëĬĶëį°
Ġì¢ĮíĮĮ ëĬĶ
Ġìĸ´ì© ľ
ë²ł íĬ¸ëĤ¨
ĠìĨĲ ìĿĦ
Ġíķĺ ëĿ½
ìĪĺ íķĺê³ł
Ġëª» íķĺì§Ģ
ĠëĲĺ ëĬĶì§Ģ
ìľĦ ë°ĺ
Ħ £
ê³ł ê°Ģ
ë¬¸ ìĶ¨
ĠêµŃê°Ģ ìĹĲ
ĠìĦ¤ ëĵĿ
êµŃ ìłķ
Ġìı ´
Ġê²ĥ ë§Į
ĠëĤ´ ìķ¼
ì¶ľ ìĤ°
ĠìĤŃ ìłľ
Ġì£½ ìľ¼ë©´
ë²Ī ì§¸
Ġê°ĳ ëĭĪëĭ¤
ĠëĦĺ ìĿ´
Ġê·¸ë Ĥł
Ġê´Ģ ìĭ¬ìĿ´
ĠìļĶì¦ĺ ìĿĢ
ĠìĿ´ëĤĺ ëĿ¼ëĬĶ
ĠíĶĦ ëŀĳìĬ¤
ĠëĤĺ ë°ľ
ëĭĺ ëıĦ
Ġíķłë¨¸ëĭĪ ëĵ¤
Ġë§ĪìĿ´ ëĦĪìĬ¤
Ġíķ´ ìĻ¸ë¡ľ
ìĦ¸ íĽĪ
ìľ¼ ëł¤ë©´
Ġë¯¼ì£¼ëĭ¹ ê³¼
Ġë§ŀ ëĤĺ
ĠìķĶ íĬ¼
ĠëĤĺ ë¦Ħ
Ġë°© ì¹ĺ
ëĦĪ ëĦ¤
ĠíĬ¹ ê¶Į
ĠìķĦìĿ´ ë¥¼
Ġêµ¬ ë©į
į ĶëĿ¼
Ġë§İ ìķĺ
Ġë¨¼ìłĢ ëĭ¤
ìĺ¬ ë¦¼íĶ½
ĠíĺĪ ìĦ¸
ĠìĿ¼ìłľ ìĭľëĮĢ
ë©´ëĲĺ ì§Ģ
Ġì¶Ķ ëĿ½
Ġì¶© ê²©
ìĭ ¸ë
ĠìĹ´ ëĵ±
íĿ ¡
Ġëĭ¤ë¥¸ë į°
ĠìŀĲ ì²´ë¥¼
ìĹĨ ëĤĺ
ì°¨ ê³ł
Ġì°Į ê·¸ëŁ¬
ì§ĵ ìĿ´
ĠëĤĺìĺ¤ ëĬĶëį°
ĠëķĮ ëıĦ
ê¼ ´ë
ì¸µ ìĿ´
Ġ P
Ġëĭµ ëĭ¤
ìĹĨ ëĥĲ
ìĨĮ ìĹĲìĦľ
Ġìķŀ ìŀ¡ìĿ´
? )
íķĺ ìĿĺ
Ġê²¬ ì°°
ëıĻ ìĿ´
ê±´ë §Į
ľ ¯
Ġìł Ĭ
Ġë¬´ê¸° ì§ķìĹŃ
íķĺìĹ¬ íĬ¼
Ġê³µ ìľł
ìĿ¼ ìĿ´ëĭ¤
ìĹĲ ëĤĺ
ìĪĺ ìŀĳ
ĠìķĪ ìĤ¬
ì ·
Ġë¬¸ ì²ľì§Ģ
Ġì£¼ íĥĿ
ĠíķľêµŃ ëĭ¹ìĿ´
Ġëĵ¤ìĸ´ ê°ĢìĦľ
Ġë² ¤
ìĥĪëģ¼ ìķ¼
ìłĢ ëŀĺ
Ġíĥ ĳ
Ġìŀ¬ ìĿ¸ìĿ´
Ġë²ķ ì¹ĺ
ë°° ê°Ģ
ìłĪ íķľ
ìĿ´ëŀĢ ê±¸
ĠìłĢ ê±¸
ĠìľĦ ëĮĢíķľ
ë³´ ìľł
ĠíķľêµŃ ìĿ¸ìĿ´
Ġ !!!!
ìĹ° íŀĪ
h e
ë©´ë Ĳ
ëĦĪ ê°ĻìĿĢ
ĠëĮĢêµ¬ ê²½ë¶ģ
ê°Ĳ ìĤ¬
Ġê±´ ëĵ¤
íĸ¥ ìĿ´
ĠíĿĺ ëŁ¬
ĠìĿ¸ ì²ľ
Ġê¹ ½
ª »
ìŀ¬ ëĤľ
ìľĦ ìĦł
Ġì£½ ìĸ´ìķ¼
ëĿ¼ êµ¬
Ġì²ĺë²Į ìĿĦ
ĠìĦł ê´Ģ
ìłķìĿĺ ëĭ¹
ĠìŀĲë¹ł ì¡Į
ĠìŀĪëĬĶ ê²ĥ
ĠëĤĺ ìĿĢ
ĠI MF
ĠìķĪ ë§ŀ
ëĵ¤ ëģ¼ë¦¬
ìĭ¤ íķľ
íķľ íħĲ
ì¿ Ħ
ëıĻ ë¬¼
Ġìĸµ ì§Ģë¡ľ
íķĺ ì§Ħ
ìĨĮë¦¬ ë¥¼
ĠOOO ëĵ¤ìķĦ
± Ģ
Ġ å
ìķĦ ì¹¨
ê°Ħ ëĭ¤ê³ł
Ġì¡° ë¯¼
Ġë³¸ ìĿ¸ìĿĺ
ĠìķĪ ëĤ¨
Ġíİ¸ ê°Ģë¥´
ë°Ķ ëŀĮ
ëª» ì°¨
ĠìĿ¼ë³¸ ìĹ¬íĸī
ĠìłĢëĬ¥ ìķĦ
Ĥ ´ë
ĠìĨĮ ìļ©
ĠíĬ¸ ì§ĳ
ìĤ¬ íķŃ
Ġë¬´ ìŀ¥
Ġëª¨ìŀĲ ëĿ¼
Ġìĸ¸ë¡ł ìĿĢ
ìķĦ ì¤Įë§Ī
ìłķ ê·ľì§ģ
ĠìĤ¬ëŀĮ ë§Į
ìĤ¬ ê´Ģ
ê·¹ ìļ°
ìĿ¸ ê±°ì§Ģ
íķ´ ì§Ī
Ġë³´ìĿ´ ëĬĶëį°
ìĿ´ëŀĺ ëıĦ
ìľ¼ë¡ľ ëıĦ
ìĻĢ ëıĦ
Ġs ns
ìŀĲ ìĺģìĹħ
ĠíĶ¼íķ´ ìŀĲê°Ģ
ìľł ì´Ŀ
ì§Ī ë¡ľ
ĠëĬ¥ëł¥ ëıĦ
ĠìĹĨ ìľ¼ë©´ìĦľ
ìĺĢ ì§Ģ
ĠíĺĦ ìŀ¥
íĴĢ ìĿ´
ê¸ ¸ë°Ķ
Ġìĸ´ ì²ĺêµ¬
ë¯¼ì£¼ ëĭ¹ìĿ´
íķł ê²ĥìĿ´ëĭ¤
ìłĦ ìĿĦ
ë§ī ê³ł
Ġì°¨ ëŁī
ĠëĨĵ ìĿĢ
ëĦĪ ëĤĺ
Ġë§ŀ ìĿĮ
¹ ¨
Ġë°Ľ ê²Į
ĠëģĿ ëĤĺê³ł
ĠìŀĪ ê¸´
ìĦ¸ ìĹĲ
ĠìĪĺ ìĥģ
Ġ2 4
ê´ ľ
Ġê²ĥ ìŀĦ
ĠìķĦ ìłĢìĶ¨
ë¯¸êµŃ ìĿĢ
¸ë¹ ¨
ĵ ¨
ìĿ´ êµ¬
ì¡° ìĭ¬
ĠíĮ ½
ĠìłĦ êµŃë¯¼ìĿ´
¸ëł ¨
ĠíĶ¼ íķ´ë³´
ĠìĿ¸ íĦ´
ì¤ĳ ìļĶ
ĠìĥĿê°ģ íķĺì§Ģ
Ġìŀĺëª» íķľ
ĠëĮĢê°Ģë¦¬ ìĹĲ
ĠìĿ´ìĭľ êµŃìĹĲ
Ġìł ĵ
Ġìķŀ ìĦ¸
ĠëĤł ìķĦ
ĠìĿ¸ íķľ
Ġë§İ ìķĦìļĶ
Ġë¨¸ ê°Ģ
ìŀĲ ë¹ł
ìĽ ¨
ìĺ¬ ëł¤
Ġë¹¼ ëıĮ
ãħĤ ãĦ·
Ġë £¨
ìķ µ
Ġê³ ¤
ìłĦ ë¬¸ê°Ģ
ëĮĢ ìĦł
ðŁ Į
Ġê²°ê³¼ ëĬĶ
ĠìłĢ ê²ĥëĵ¤
ĠìĤ¬ëŀĮ ìĹĲê²Į
ĠíĽĮë¥Ń íķľ
ëĭ ī
ĠìķĪ ì¢ĭìĿĢ
Ġê¹Į ëĬĶ
Ġê¸° ìĥĿ
² ł
íĶĮ ëłĪìĿ´
ìĭľ ìĽĲ
Ġë²ķ ëĮĢë¡ľ
Ġì°¨ ìĿ´ê°Ģ
ë³´ë Ĥĺ
u n
í ĵ°
ëł¸ ëĬĶëį°
ĠëĲĲ ëĭ¤
Ġìį© ìĿĦ
5 00
ë°© íĥĦìĨĮëħĦëĭ¨
ĠìļĶ ìĥĪ
ìĿ´ ìłķëıĦë©´
Ġëª© ìłģ
Ġì§Ģê¸ĭ ì§Ģê¸ĭ
Ġìĥ ¤
Ġìĭł ëħĲ
Ġì ĳ¤
Ġì¢ĮíĮĮ ëĵ¤ìĿ´
Ġì§Ħìĭ¤ ìĿ´
a l
Ġíķĺ ê²łëĥĲ
ĠìľĦ ìĽĲ
ĠëĤĺ íĮĶ
ëĨĢ ìĿ´
Ġê¸° ìĸ´ëĤĺ
Ġì¦ī ê°ģ
Ġì¡° ì°¨
Ġëĵ¤ìĸ´ ê°ĢëĬĶ
ì§Ħ ìĺģ
ìĵ°ëłĪê¸° ëĵ¤
ì¢ĭ ëĭ¤
ìŀĲ ë³¸
ĠìĤ¬ëŀĮ ëĵ¤ìĿĺ
ëªħ ëĭ¨
Ġì§Ħì§ľ ë¡ľ
êµŃ ìłľ
Ġê¸° íļį
ĠìĨĮ íĨµ
ëĤ´ ì§Ģ
ê¶ģ ì°½
ĠìĻĦ ë²½
t v
ĠëıĻ ê¸ī
Ġì²łìłĢ íķĺê²Į
ĠìĿ´ë ĮĢë¡ľ
Ġë§Į ìĽĲ
Ġë§ŀ ëĥĲ
ĠëĶ¸ ìĿĢ
Ġìłķ ìľłëĿ¼
Ġëªħ ìĭ¬
ìľł ì§Ģ
Ġì±Ħ ìļ©
h o
ê³ł ë°ľ
êµŃê°Ģ ê°Ģ
ë¡ľ ëĤ¨ë¶Ī
Ġê±° ê³ł
íķľêµŃ ëĭ¹ìĿ´
ë¦¬ ìĹĲ
ë°ķ ìĽĲìĪľ
ì²Ń êµ¬
Ġì¶Ķ ìķħíķľ
ĠëĤĺ ê°Ī
ì£¼ ëĭĪ
ĠëĮĢ ìķĪ
Ġë§Ī ìĭľ
ëĨĪ ìĿĦ
Ġíķĺê³ł ëĬĶ
íı¬ ê¸°
ĠíĿ¬ë§Ŀ ìĿ´
ì§Ģ ë¶Ģ
ìĿ¸ ìĸĳ
ìŀĲëĵ¤ ìĹĲê²Į
ĠëĤł ëĿ¼
Ġì²´ íı¬
íĸ Ĳ
ìĨį ìĿ´
ĠìĤ¬ ëª¨
êµ¬ ì¡°
ĠìĽĲ ëĤ´ëĮĢíĳľ
ìŀ¬ ê°Ģ
Ġëĵ¤ìĸ´ ê°Ī
ëıĦ ëįķ
ĠìĿ¸ ì¢ħ
ĠíĹĪ ê°Ģ
ĠìĿ ¸ëł¥
Ġë§Įëĵ¤ ì§Ģ
ìŀħ ìŀ¥
ĠíķĺëĬĶ ê°Ģ
Ġìľł íı¬
ĠëĲł ëĵ¯
1 3
íĺģ ëªħ
ê·¸ë Ł´
a r
Ġë© ĺ
ĠìĥĿê²¼ ëĦ¤
Ġìĸ´ ìļ©
ìłĦ íĺķ
â ľ
Ġê´Ģìĭ¬ ëıĦ
Ġìŀ¡ ëĬĶ
ĠìĪĺ ìļ©
Ġìĭ¶ ëĦ¤
Ġì²ŃìĻĢëĮĢ ìĹĲ
Ġê¸°ëĭ¤ ëł¤
Ġë¯¿ ìĸ´
ĠíıĲ ê°Ħ
Ġëĭ¤ìĿĮ ìĹĲ
Ġë³¸ ìĿ¸ëĵ¤
ëĺĲ ëĿ¼ìĿ´
Ġê½ Ĥ
Ġë§Į ì¡±
ĠëĦĪíĿ¬ ê°Ģ
ìĿ´íķ´ ì°¬
Ġìŀħìŀ¥ ìĹĲìĦľ
Ġë©Ģì©¡ íķľ
ĠìľłìĿ¼ íķľ
ê³µ ì§ģ
Ġë°ľ ê²¬
Ġë»Ķ íŀĪ
ĠëĮĢ ë¡ľ
Ġëĸ¨ìĸ´ ì§Ī
ëĭ¬ ëŁ¬
Ġë¯¼ì£¼ì£¼ìĿĺ ë¥¼
íĸĪ ëĭ¤ê°Ģ
ë°ķ íķľ
Ġìŀ¥ êµ°
Ġë§Ī ëĭ¹ìĹĲ
Ġì¤Ģ ëĭ¤
ìĺµ ëĭĪëĭ¤
ëĮĢ íķ´
Ġë¬¸ìŀ¬ìķĻ ê³¼
ìħ¨ ëĦ¤
ë¬¸ ìĿĦ
Ġëª¨ ë¦Ħ
Ġê±° ìŀĦ
ëįĺ ê±°
Ġê·¼ ì²ĺ
ĠíĽĦ ìĹĲ
ìĹ° ëĮĢ
íİ ĳ
ê²½ìłľ ëĬĶ
Ġìŀĺ íķ´ëĿ¼
Ġëĺ¥ ê°ľ
Ġë´¤ ëĬĶëį°
ë ī´
ìĪĺ ìĹĲ
ĠìĤ´ë §Į
Ġëª¨ ìŀĦ
Ġê¹Į ë°ľ
Ġë¬´ ìĨĮ
Ġê¸°ëłĪê¸° ìķ¼
ìĤ¶ ìĿĢ
Ġê¹ İ
ê°Ħ ìĿĺ
ìĿ¼ ìłľ
ìĿ´ ëĵ¤ìĿĢ
ë°Ķ ë³´
Ġë¡ ¯
ìķĦ ìĽĥ
Ġíĥľ íĴį
ê¿ Ī
ĠìĤ¬ëĿ¼ ìł¸ìķ¼
Ġëªĩ ë°±
ĠìŀĪ ê¸°
ìĿ´ ì°¸ìĹĲ
Ġë¶Ģ íĴĪ
Ġê³ł ë§Į
ê³łìĭ¶ ìĿĢ
ëĲĺ ìĹĪëĭ¤
Ġëĵ£ ëĬĶ
Ġëĵ¤ ìķĦ
Ġê¸°ìĤ¬ ë¡ľ
Ġíıī ë²Ķ
ĠìĬ¬ ìĬ¬
Ġëª¨ ëıħ
ĠìĿ¼ íķĺê³ł
ìĥĿ ìĤ°
ĠìĹ° ê´Ģ
âĻ¥ âĻ¥
ĠëĮĢ ê¶Į
ë²Ħ ëł¤
ĠíĮĮëł´ ì¹ĺíķľ
§ ¤
ĠìĨĮ ìĥģê³µ
Ġì§Ģ íĤ¬
Ġì¢ĮíĮĮ ëĵ¤ìĿĢ
ĠìķĦ ìļ°
ìŀħ íķĻ
¸ë §Ŀ
Ġê· ł
ë¶ ĵ
Ġëĭ¤ ëħĶ
Ġë²Ķì£Ħ ë¥¼
ì¢ħ ìĿ¼
ĠìĿ´ìļ© íķĺëĬĶ
ì¤Ģ ìĺģ
ĠìķĦìĿ´ ëĶĶ
ì¹ĺ ëĭ¤
Ġë¶Ħ ìĦĿ
Ġë¶Ħ ëĵ¤ìĿĢ
ĠìĻĢ ì¤ĳìĹĲ
Ġëĭ¤ ìĸĳ
Ġìĭ¶ ëĦ¤ìļĶ
Ġìļ°ë¦¬ëĤĺëĿ¼ ë¥¼
Ġê·¸ ìĿĺ
ìŀ £
ìĬ¤ ë¥¼
ĠìĹ° ìŀ¥
ĠìłķíĻķ íķľ
ĠíķĺëĤĺ ë¡ľ
Ġìŀĺ íķ´ìĦľ
Ġì¤ĳìķĻ ìĿ¼ë³´
Ġëĵľ ë¦½
ĠìķĦìĿ´ íı°
ìµľ ìķħ
Ġë¬¸ìłľ ìķ¼
Ġíĺ¹ ìĿĢ
í ĵ¨
Ġìĥģ ìľĦ
Ġì¤Ģ ëĭ¤ê³ł
ĠìĿ´ ìĤ¬ëŀĮ
ĠëĤ¨ ìŀĲëĬĶ
Ġë§ĲìķĦ ë¨¹ê³ł
ë¬´ ì¡°ê±´
ë³¸ ìĿ¸ìĿ´
ĠìĺĪ ìĿĺ
Ġìľł ì¡±
Ġë°ĺ ëĤ©
ĠìĿ´ë ķħ
Ġëľ» ìĿĦ
ĠìķĦëĭĪ ì£ł
ëĵ± ìĭł
ĠìłĲ ëł¹
ìĿ´ ìŀĸìķĦ
ëł ·
Ġì£¼ ëĮķ
ĠìĪ ¨ìĸ´
ìĥ ¤
Ġë¶Ļ ìĸ´
êµ° ëį°
Ġì°į ê³ł
Ġê¸° ê°ģ
Ġìľł ìĤ¬
Ġëľ¯ ìĸ´
Ġë§Ī íĬ¸
Ġê°Ļ ìľ¼ë©´
ìħ ľ
Ġë¶ĢëģĦëŁ¬ìļ´ ì¤Ħ
Ġìµľ ëĮĢíķľ
ëªħ ëıĦ
Ġë§Įëĵ¤ ë©´
ëĬĲ ê·¸
Ġìĸ´ì©Į ëĿ¼ê³ł
ĠìķĪ ì¤ĳìĹĲëıĦ
Ġë¨¸ ê°Ģë¦¬
ĠíĨµ íĻĶ
Ġë©° ì¹ł
Ġ l
ìĤ¬ ìŀ¥
ë§Į ìķ½
ëĵľ ëĥĲ
ĠíķĺëĤĺ ë§Į
ĠëıĪ ì£¼ê³ł
Ġìĸ ¹
Ġãħ Ĺ
Ġì£Ħ ìĿ¸
ìĥĪëģ¼ ëĵ¤ìĿ´
ìĬ¤ ëĬĶ
ìĿĮ ìĿĦ
Ġíľ ´ëĮĢíı°
s e
ĠìĪ Łê°ĢëĿ½
ĠT V
íĹ ¬
Ġê·¸ë Ł
ëĭµ ëĭµ
Ġë§İ ìĬµëĭĪëĭ¤
. "
ĠìĿĺ íķľ
Ġìĺ¤ ì§ĢëĦ¤
ëĮĢíĨµëł¹ ìĿĢ
ìŀĲ ìĤ´
Ġìŀĺ íĸĪëĭ¤
Ġìĭ¬íĮĲ ìĿĦ
Ġìĩ ł
Ġ W
ìĹĲ ëĮĢíķľ
Ġìł ĸ
ëĳĲ ë£©
Ġë°Ģ ê³ł
Ġìĸ´ëĶĶ ê°Ķ
Ġë¬´ëĬ¥ íķĺê³ł
êµ¬ ëĬĶ
ê²Į ìĿ´íĬ¸
Ġë¬¼ ìĸ´
Ġê³µ íķŃ
ëĭ ·
ìľĦ ë³ĳ
ĠìĿ´ëŁ° ê±´
Ġë§ĪëħĢ ìĤ¬ëĥ¥
ëŁ½ ê³ł
¸ëĿ¼ ê³ł
ĠìĪĺêµ¬ ê¼´íĨµ
ì§ ¤
Ġì£¼ íķľë¯¸êµ°
Ġë¬¸ë¹ł ëĵ¤
Ġë§ŀ ì¶Ķ
Ġì½ ĺ
Ġë²ł ëĮĵ
ĠëĤĻ íĥľ
íĸĪ ê²łì§Ģ
Ġì£¼ ìŀĳ
Ġê²½ íĺ¸
Ġì°¨ ìĿ´ëĤĺ
ì£½ ìĿĢ
ìŀħêµŃ ê¸Īì§Ģ
Ġíİ¸ íĮĮ
ìĤ¬ ëĵ¤
ìĤ¬ ëĥĲ
Ġ ,,
Ġì±ħìŀĦ ìĿĢ
Ġí Ī
ĠëıĦ ë°°
ì§ķ ìļ©
íĵ° ë¦¬ì¦ĺ
ë¦° ëĭ¤ê³ł
ĠìĤ¬ëŀĮ ìĿ´ëĭ¤
Ġë¬¼ëŁ¬ ëĤĺ
ĠìĿ´ìĬ¹ ë§Į
Ġê°Ģ ì¹ĺê°Ģ
ê·¸ë ĨĪ
ë¦¬ ìĸ¼ë¯¸íĦ°
ìĬ¤ ìĬ¤ë¡ľ
Ġìĺģ êµŃ
ë§Į ëĵł
ĠìĤ´ ìķĦìĦľ
Ġë ĩ¬
Ġë¹¨ê°±ìĿ´ ê°Ģ
Ġëļ ľ
Ġëª ¬
Ġê³µ ìķĪ
ë¬´ìĭĿ íķľ
Ġìłķë§Ĳ ë¡ľ
Ġíķĺìĭľ ëĬĶ
ãħ į
ìķĪ íķľ
ĠëĪĦêµ° ì§Ģ
Ġë°Ľ ëĬĶëĭ¤
ĠëĤĺëĿ¼ê¼´ ìĿ´
Ġë ·
ìĸ´ìķ¼ íķľëĭ¤
Ġëĭ¤ëĭĪ ê³ł
ëª¨ ìĸĳ
ìłľ ìŀ¬
Ġìłķìĭł ìĬ¹ë¦¬
ëĴ¤ ìĹĲ
ì´Ŀ ìŀ¥ìĿ´
ìłķë¶Ģ íĮ¨
Ġì§ķ ê¸Ģ
ĠìŀĪ ì£ł
ĠìĤ´ ê¸¸
Ġìłķë¶Ģ íĥĵ
ê±° ëĭĪ
ĠìĿ´ë Ħ¤
ìĭ¤ íĮ¨
ëª¨ ë¥´ëĬĶ
ĠìĿ¼ ë§Į
ë ®
ĠìĥĪëģ¼ ëĵ¤ìĿĢ
ĠìĤ¬ê³ł ë¥¼
ĠëĮĢ ëĮĢ
Ġìĭľ ë°ľ
ãĦ ´ë
ĠíķĺëĬĶê±° ìķ¼
ĠêµŃ ìłģ
ìķħ ë§Ī
ëıĻ ìĿĦ
Ġìĭł ë¶Ħ
Ġìĺģ ìĸ´
Ġìķ Ļ
ìķĦ ë¹ł
ëĨĪ ëıĦ
Ġë¨¹ê³ł ìĤ´
íķĺ ê¸°ëĬĶ
ëĤ ©ëĭĪëĭ¤
ĠíķľëĳĲ ë²Ī
íķ´ ê²°
Ġë³¸ ìĿ¸ìĿĢ
Ġìļķ íķł
Ġ F
Ġë°© êµ¬ìĦĿ
íķĺëįĺ ê°Ģ
ĠìĤ¬ ìķħíķľ
ĠìķĪ ì°į
Ġìĭ¸ ê°Ģì§Ģ
ĠìķĦ ìŀĳ
ĠìłĢ íĿ¬
ìĹĪ êµ¬ëĤĺ
íĻĶ ë¬¸ìĹĲ
íĸī ìĿ´
ê±°ë¦¬ ê°Ģ
íĻĶ ìĿ´íĮħ
Ġíķĺ ëįĺê°Ģ
Ġê°Ģ ìĦ¸ìļĶ
Ġìĭľ íĤ¬
Ġìī¬ ìļ´
Ġë¯¼ ìłķìĪĺìĦĿ
ĠìĹĨ ëįĺ
ìķĪ íķĺë©´
ĠëĮĵê¸Ģ ìĿĢ
ĠìŀĲ ê¸Ī
Ġëĵ± ë¡Ŀ
Ġëĵľ ëĬĶ
ĠêµŃê°Ģ ìĻĢ
Ġìľł ì£Ħ
ĠëĤ´ë³´ë Ĥ´
ë§Į ëĵ¤ìĸ´
Ġë¹Ħ ë°Ģ
Ġíķ© ê²©
ìĭľíĤ¤ ìŀĲ
ìĿ´ë²Ī ìĹĲ
Ġëĭ¤ ëĭĲ
íĺķ ìĿ´
ĠìŀĲ ìĦ¸
Ġì²ĺ ë¨¹ê³ł
ĠìĹĦ ì¤ĳ
ëĭ¹ ìľ¼ë¡ľ
Ġë¹¨ê°±ìĿ´ ëĵ¤ìĿ´
Ġìĸ´ì©Į ëĭ¤
Ġ w
Ġê²ĥ ìĿ´ì§Ģ
Ġê³ł ì³Ĳ
ĠìĿ´ ê²ĥëĵ¤ìĿĢ
ëĪĪ ì¹ĺ
ìľĦ ìķĪë¶Ģ
ĠëĦĪëĦ¤ ê°Ģ
ê¹Į ì§Ħ
ĠêµŃë¯¼ëĵ¤ íķľíħĮ
Ġì§ĢëıĦ ìŀĲ
ĠëĤĺ ê°Ķ
ë¯¼ ëĵ¤
Ġìĭľ ê¸°ìĹĲ
ë¦ ħëĭĪëĭ¤
Ġì£¼ ë¨¸ëĭĪ
íĽ ¼ìĨĲ
ìĦ± ìľ¼ë¡ľ
Ġê³³ ìĹĲ
ìĿ¼ ê°Ģ
ìľĦ ì¡°
Ġì£½ ê²Į
ëª¨ ë¡ľ
ìĽĶ ìĹĲ
Ġì© Ķ
ì į¼
ìŀħ ë§Į
ì²´ íģ¬
ê°Ģ ëĭĪ
ĠíĮĮ ê¸°
Ġë¡¯ ëį°
ëģ¼ ìķ¼
Ġë¹Ħ ë¦¬ê°Ģ
Ġëĭ¨ ì²´ë¡ľ
ĠìĬĪ íį¼
ĠìĥĿê°ģ íķ´ë´ĲëĿ¼
ìĹ´ ìĭ¬íŀĪ
9 0
ëĮĢ ê¸°ìĹħ
ĠìŀĪ ê²łëĥĲ
ĠìķĪ ìĹĲ
ìĤ° ìĿ´
Ġì²ŃìĻĢëĮĢ ìĹĲìĦľ
Ġì¢ĭ ìĿĦ
ë°© ìĭĿ
Ġë¯¿ ì§Ģ
ìĭł êµĲ
íķ´ìķ¼ ëĲľëĭ¤
Ġëĭ¤ë¥´ ëĭ¤
ĠëĤĺ ëª°
ĠìĨĮ íĻĺ
) ,
Ġë°ķê·¼íĺľ ëĬĶ
Ġê¸¸ ìĿĦ
ĠêµĲ ì²´
ĠíĥĪ ìĿĦ
íŀĺ ëĤ´
Ġì¦ī ìĭľ
ê³µ ê²©
ì¢ĥ ëĭ¹
Ġë¯¸ íĪ¬
Ġìĥģ íĴĪ
Ġë¹¨ ê³ł
ĠìĶ ģ
ĠìłĦë¶Ģ ëĭ¤
Ġì§ĢìĹŃ ê°Ĳìłķ
Ġê³µë¬´ìĽĲ ëĵ¤
ĠíķĦ ë¦¬
ĠìĿ´ëĿ¼ ëĬĶ
Ġë°Ķê¿ ĶëĿ¼
ë³´ë©´ ìĦľ
Ġê±¸ ìĸ´
Ġê²ĥ ìĹĲ
ëħ¸ ìĺĪ
ìĪĺ ì¶ľ
Ġë§¤ ëıĦ
ĠìĿ´ëŁ¬ ëĭ¤
ë§Į ëĵ¤ê³ł
ĠëĦĺ ëĵ¤ìĿ´
Ġìĭ« ê³ł
ĠìĦ ¼
Ġìłķì±ħ ìĿ´
Ġê°Ģ ê¹Įìļ´
Ġëª» íķĺëĭĪ
ì°¨ ë¡Ģ
Ġë§Įëĵ¤ ëł¤ê³ł
ĠìľĦ íķĺëĬĶ
Ġë¬´ìĭľ íķĺëĬĶ
ëĦĺ ìĸ´
ë¹Ħ ëıĦ
ĠëŃĲ íķĺê³ł
ëŀĺ ìļĶ
ë¶Ģ ì¡±
Ġìľł ì¶ľ
Ġê½ ¤
íĮ ½
íĥĦ ìķķ
Ġëĭ ¦
ìŀ¥ êµ°
Ġíķľë§ĪëĶĶ ëıĦ
ìĪĺ êµ¬
ìłķ ìĹĲìĦľ
Ġìľł íķĻìĥĿ
ĠìĹ° ìķł
ê¸°ìĤ¬ ë¥¼
Ġìłķìĭłì°¨ ëł¤
ĠìĪĺëıĦ ê¶Į
êµĲ íĨµ
ĠìĹ¬ ìľł
Ġìŀ¥ ëª¨
íķľ ë¯¼êµŃ
ĠìłĢ ëħģ
Ġëī´ìĬ¤ ìĹĲ
ëĤ Ńë¹Ħ
Ġë²Ħ ëł¤
Ġìĭ¶ìĿĢ ëį°
ĠêµĲ ì£¼
Ġê¸°ê°Ģ ë§ī
Ġê° ¤
ë¬´ ìĦľ
Ġê°ģ ìŀĲ
Ġëªħ íĻķ
ĠìķĦ ìĭľ
ĠíĶ¼íķ´ ê°Ģ
Ġíķľ ëħĢ
ëĲĺ ëĦ¤
ë°° ë¡ľ
ĠíĶ¼ ê³¤
ĠëķĮëł¤ ìŀ¡
ĠìĨĲ íķ´ë
êº¼ ë©´
Ġë¬¼ìĸ´ë ľ¯
Ġ f
Ġì§Ģ ìłķ
ê²ĥ ì§Ģ
ìĸ´ë ł¤
Ġìļ°ë¦¬ëĤĺëĿ¼ ìĹĲìĦľ
ĠìĤ¬ê³¼ ë¥¼
ĠíĺĦìĭ¤ ìĿ´
ĠìĤ¬íļĮ ìĹĲìĦľ
Ġê°ľíĺģ ìĿĦ
ë§Į ëªħìĿ´
Ġì½Ķ ë©ĶëĶĶ
Ġê°Ļ ê³ł
ìĭľ ëıĦ
ĠíĮĮ ëĬĶ
¥ ´ë
ëıĻ ìĥĿ
ìĹ¬ ìŀĲê°Ģ
ĠìķĦë§Ī ëıĦ
Ġíķ´ë ´¤
ĠìŀĲê¸° ëĦ¤
íĬľ ë²Ħ
ĠìĿ´ëŁ¬ ë©´
ĠëĮĢ ê¹¨
ĠìĪĺ ëĳĲë£©
¶ Ļ
Ġë¹Ħ íķ´
ì¢Įë¹¨ ëĵ¤
ê¶ģ ê¸Ī
ĠìŀĪ ëĬĶê±°ì§Ģ
ë¹Ħ ìĹĲ
ë¥´ë ¥´
ë» Ĳ
ì« Į
ĠìĨĮ ë¦¬ëĬĶ
ëĶĶ ìĸ¸
ìĸ´ë²Ħ ë¦¬ê³ł
Ġì²ł ë©´íĶ¼
ìł¸ë ²Ħ
Ġìĭľ ëĤĺ
ĠíĽ Ķ
Ġë¶Ģ ìĹŃ
ëĪ Į
Ġê¸ī ìĹ¬
Ġëª° ëĿ½
Ġì²ľ êµŃ
ĠíķŃ ê³µ
ì§Ģ ë°©
Ġë§ĪìĬ¤íģ¬ ëıĦ
ìĪľ ìľĦ
Ġíŀĺëĵ¤ ê³ł
ìĦ±ê³µ ëĭ¨
ĠìŀĪ ìľ¼
Ġìĸ´ëł¤ ìĽĮ
Ġê¸ į
ìĤ Ĳ
ë³´ ëĭĪê¹Į
Ġíį¼ íĬ¸ë¦¬
Ġìĺ Ľ
Ġë§Ĳ ëĵł
Ġë§Į ëĤĺìĦľ
ëł¥ ìĿĢ
ëĮĢ ì§Ģ
ĠìĿ´ë łĩ
Ġë°©ë²ķ ìĿĦ
íķ´ë ĮĢ
Ġëªĩ ê°ľ
Ġëį® ìĸ´
ì§ĳ ìĿĢ
ìĸµ ìĽĲ
ĠìĥĿê°ģ íķ¨
ê·¸ ê±°
êµ¬ ëħķ
ĠíĽ ł
ìłķìĭł ëĤĺê°Ħ
ìĿ´ ëĵ¤ìķĦ
ë¯¼ ëĭ¹
ìĿ´ ê²łì§Ģ
ĠìĦłê±° ìĹĲ
Ġì¦Ŀê±° ìĿ¸ë©¸
íĮĲ ìĿĦ
ĠìĪĺì¤Ģ ìĿĺ
Ġê·¸ë Ķ°
Ġë°Ķ ë³´ë¡ľ
Ġì²Ń ìĨĮëħĦ
¦° ëĭ¤
Ġê°ķëł¥ íķĺê²Į
Ġì£¼ ìľĦ
. !
Ġíķĺ ìĭł
Ġê°ľ ê²Ģ
ĠíķĺëĤĺ ëĬĶ
Ġì£½ ëĬĶëĭ¤
Ġíį ¼ì§Ģ
íĽĪ ëł¨
ì§Ģê¸Ī ëıĦ
ìĿ¼ ë§Į
Ġì£¼ ì°¨
Ġìĵ°ëłĪê¸° ëĵ¤ìĿ´
Ġë²Ħ ë¦°
Ġëĵ¤ íĨµ
ĠìķĦ íĶĶ
ĠëĲľ ê±°
Ġìŀ¡ ìĿĦ
ĠëĲĺ ìĦľ
Ġê³Ħ ìĭľ
Ġìŀħ ìĽĲ
Ġì°įìĨĮë¦¬ ëıĦ
Ġëĸł ëĤĺëĿ¼
ì ĳ¤
Ġ3 1
ëĤĺ ìĺ¬
ëĤ´ë Ĥ´
Ġì²ł íļĮ
Ġëķ Ĳ
íķľ ëĵ¯
Ġíķľ ê°ķ
Ġê°ľ ëıħ
ë¬´ ì§Ģ
ĠìĽĲ ìŀĲ
ĠëĮĵê¸Ģ ìķĮë°Ķ
ĠíĸĪ ì§Ģë§Į
ĠëĪĦêµ¬ ëĥĲ
Ġê²Ģ íĨł
ĠëĪĪ ê¹Ķ
Ġë¬´ ìĥģ
Ġëĭ¹ìĭł ìĿĦ
ĠìĥĿê°ģ íķ´ìĦľ
ìĵ° ë©´
ĠìķĪ íķ¨
íĬ¸ ê°Ģ
Ġíķ© ëĭĪê¹Į
ĠìķĪëĲĺ ëĭĪ
ĠìĦłëıĻ ìĹĲ
ë¶Ģ ëıĦ
Ġìŀħ ìĿ´
Ġë°± ìĦ±
ĠìµľìĨĮíķľ ìĿĺ
ĠìĿ´ ëıĻ
ìŀĪ ìĿĦ
Ġë©ĭ ì§Ħ
íĺĳ íļĮ
Ġê¹Ģìłķ ìĪĻ
ìĿ´ ê²ĥëıĦ
Ġëª½ ëĳ¥
ìĿ´ ìĺ¤
ìĭ¬ ìĿĢ
ĠìĦ ŀ
ĠìŀĲ ìĬ¥
´ë¦¬ ëĬĶ
ê°Ģ ëįĺ
íħ ¨
ë¶ĢíĦ° ê°Ģ
Ġìĭ¤ ì§Ī
ìĺ ³
Ġìļ ´ë
ĠìĮ Ī
ĠìŀĦëĮĢ ë£Į
Ġìĵ¸ëį° ìĹĨëĬĶ
Ġìª½ ë¹łë¦¬
Ġê¸° ìŀĲëĵ¤
ë³´ëĤ´ ê³ł
ìŀĪ ìĸ´ìĦľ
ĠíıŃ ëĿ½
Ġìµľ ì´Ī
Ġê·¹ ëĭ¨
ìĿ¸ ëĭ¹
Ġëª¨ë¥´ ëĭĪ
Ġë³´ ìĿ´ëĥĲ
Ġìĭ¶ ì§Ģ
ê¸°íļĮ ìĹĲ
íĵ¨ íĦ°
ì¡ ĭ
Ġìĭ¸ ìĽĮ
ĠìĿ¸ ê²©
ĠëıĻ ìĺģìĥģ
Ġë¬´ ì±ħìŀĦ
ë°Ľ ìķĦìĦľ
Ġíİ¸ íĸ¥
Ġêµ ¿
Ġê°ľ ìłķ
Ġë§ŀ ëĬĶê±°
ĠëĦĺ ê²¨
ĠëĮĢë¶Ģë¶Ħ ìĿ´
ĠíĽĦ ìĺĪ
íĥ Ĳ
ì§Ģê¸Ī ê¹Įì§Ģ
íķĺëįĺ ì§Ģ
Ġë²ķ ìĿĺ
Ġê³Ħ ìĭł
Ġëĺĺ ëĺĺ
ĠìĪ« ìŀĲ
ë¡ľ ë¶ĢíĦ°
Ġëĭ¬ ë¦¬
Ġë ®
íķĺëĬĶ ê±¸
íģ ´
Ġì°¨ ë¦¬
ĠìĬ¤ íİĻ
ìłĪ íŀĪ
ìĭľëĮĢ ìĹĲ
ĠíĺĦìĭ¤ ìĿĢ
ì²ĺ ë¶Ħ
Ġì¶Ķ êµ¬
Ġìŀ¬ìķĻ ìĿ´ê°Ģ
ìĹ ´ë©´
ĠìĹ Ķ
ĠëĤĺê²½ìĽĲ ìĿ´
§ ¹
ĠìĿ¼ ìĹĲ
Ġê¸° ëħĲ
íĸĪ êµ¬ëĤĺ
íķ´ìĦľ ëĬĶ
ĠìłĢëŁ° ê²Į
ĠìĤ¬ê±´ ìĿĦ
Ġë¯¸ ìĦ±ëħĦ
Ġ5 2
íĪ¬ ë¦¬
ê³Ħ ëĬĶ
ë» ĺ
ĠìĿ´ ê¼´
ĠìķĮìķĦ ìķ¼ì§Ģ
Ġë¬´ ê³ł
Ġíķĺ ìĭľê³ł
Ġë¬´ íķľ
¸ë¬ ¸
ĠìłĦ ê³¼
ê²½ìłľ ë¥¼
ĠíĦ° ì§Ħ
Ġë³ĳ ìĹŃ
ìĨĮ íķľ
ëĲĺ ëĬĶê²Į
ìļ¸ë ķĮ
ìĪĺ ìĹĨëĬĶ
Ġê³ł ëĮĢ
ê»Ģ ëį°
ìłķë¶Ģ ìĹĲìĦľ
Ġê´Ģê´ĳ ê°Ŀ
ìĿ´ ìĹĪëĭ¤
Ġëª» ë°°
Ġì§Ģì§Ģ íķľëĭ¤
ĠìĿ´ë¦Ħ ìľ¼ë¡ľ
ê³µ ìŀĳ
ê·¸ë ŀ¬
ĠëĤĺ ê°ĢëĬĶ
ĠìĿ¼ ê°ľ
ĠíĹĪ ëĿ½
êµŃ ê°ľ
Ġì§ľì¦Ŀ ëĤľëĭ¤
ì§Ģ ëĥĲ
ë¬ ¸ëĮĢ
Ġê·¸ëŁ¬ ê³łëıĦ
Ġìĸ» ìĸ´
ê²ĥ ìĿ´ê³ł
ìŀĪ ëĬĶì§Ģ
ìłķê¶Į ìĹĲ
ĠëģĮìĸ´ëĤ ´ëł¤
ê¹Į ê³ł
ĠëĪĦê°Ģ ë´ĲëıĦ
ê¸° ìłĦ
Ġìĭ¤ ì²´
ĺ ¥
ĠìĥĿê°ģ íķĺëĥĲ
ĠíķĺëĤĺ ê°Ģ
ĠìļĶ ê¸Ī
ê²Ł ëĦ¤
¸ Į
Ġê·¸ë ķĲ
ì¤Ģ ìļ©
Ġìĸ´ë ķĮ
ëª© ìĪ¨
ëįĶ ëŁ¬
Ġëĵ± êµĲ
Ġíİ ĳ
íķĺ ëĵ¯
Ġëª¨ ë²Ķ
ìłķê¶Į ìĿĦ
Ġê°ľëı¼ì§Ģ ëĵ¤ìĿĢ
ĠëĶ°ëĿ¼ ìĦľ
Ġê·¸ë °
Ġëĵ± ìĹĲ
ìĺ ĽëĤł
Ġëĭ¬ ëŁ¬
Ġì´ĿìĦł ìĹĲ
ĠìĤ¬íĥľ ê°Ģ
íķĺëĬĶ ê²ĥìĿ´
ìķĪ ëĲľëĭ¤
ëŀ ©
ì£¼ ìłľìĹĲ
ë£ °
ĠìŀĪëĬĶ ê±´
Ġì´Ŀ ìĤ´
ìĦ¸ ìĹ¬
Ġìĸ´ë ¨¸ëĭĪ
Ġê·¸ëķĮ ëĬĶ
ê±° ìļ´
ì¤ĳ ìĿ¸ëį°
Ġìĸĳ ìĦ±
ĠìĿ´ ê²ĥëĵ¤
ë¹ ļ
ìĤ¬ ëĤĺ
íĻ© êµĲíĻľ
Ġíķ´ìķ¼ íķł
ĠëĵĿ ìĭ¤
Ġë¶Īêµ¬ íķĺê³ł
Ġíķĺ ëł¤ë©´
ĠìĪĺ ìļĶ
ê¶Į ë¶Ħ
Ġëħ¸ ì¶ľ
Ġê½ ī
ìĿ´ êµ°
Ġê°Ļ ì§Ģ
ĠìĦ¸ ìļ°
ëĵľ ëĭĪ
Ġë°ĺ ìĹŃ
ì§Ģ ì¼ľ
ĠìłĢ íķŃ
Ŀ ½
ê³ł ëĮĢ
Ġë°Ķ ê¾¸ë
ëĵľ ë¦½
Ġìļ°ë¦¬ëĤĺëĿ¼ ëıĦ
ãĦ¹ ãħĩ
ìĸ´ë²Ħ ë¦°
ìļĶ ê¸Ī
ìĥģ ìĬ¹
Ġì§Ģê¸Ī ì²ĺëŁ¼
ê¸ī íķľ
Ġì¤Ħ ì¤ĦìĿ´
Ġê¹Į ë¶Ī
ê¼ ½
ĠíıŃ ë°ľ
ĠìĿ¼ë³¸ ìłľíĴĪ
Ġìŀħ ëĭ¤
ëĤ¨ ìļ©
ëĭ¹ìĭł ìĿĢ
ìĿ´ ì¯¤ëĲĺë©´
ìĬ¤ ëŁ¬ìĽĮ
ĠìĨĮ ìľł
Ġíķĺ ëĬĲ
Ġë´ ħìĭľëĭ¤
ĠìłķìĿĺ ë¡Ń
ĠìĶ »
ĠìĿ´ ìģĺ
ĠëĨĴ ìķĦ
Ġëĭ¤ ë¬¼
ĠëĪĪ ìĿĦ
ĠìĤ¬ê±´ ìĿ´
, .
ìľ Ĺ
ĠìĿ¸ìĥĿ ìĿĦ
§ ī
ì§ĳ íĸī
Ġíķľ ìŀĲë¦¬
ìª½ ìĹĲ
Ġêµ¬ìĨį ìĪĺìĤ¬
ìľł ëĭĪíģ´ë¡ľ
Ġíķ´ë °©
ĠìĪ¨ ê¸°ê³ł
ĠìĹ¬ ê¸°ëĬĶ
ëĦĺ ìĿĢ
ìŀĲíķľëĭ¹ ìĿ´
ĠìķĦ ëĵ¤ìĿĢ
Ġë°© ìĸ´
ìķĦë²ł ê°Ģ
ĠìŀĲ ëĬĶ
ì¦Ŀ ìĥģ
Ġì§ĢíĤ¤ ê³ł
ê½ ĥ
ê°Ģ ë¦¬ê³ł
Ġë§Ŀ ì¹ĺê³ł
Ġìĸ¸ë¡ł ìĿĺ
Ġê³łíĨµ ìĿĦ
ê³ł ë¯¼
ĠëĦĪ ë¥¼
Ġíķ´ ì£¼ê³ł
Ġë§Ŀ íķĺê³ł
ĠìłĦìŁģ ìĿĦ
Ġì§Ħìŀĳ ìĹĲ
Ġë¯¼ì£¼ëĭ¹ ìĹĲ
Ġê¸°íļĮ ë¥¼
ë¹¨ê°±ìĿ´ ëĵ¤
Ġíķł íħĲëį°
ĠíĹ ĺ
ë§Ĳ ë§Į
ĠìĪĺ ëĬĶ
Ġê³± ê²Į
ĠëĳĲëł¤ ìĽĮ
ëĭ Ļ
ì¢ĮíĮĮ ëĵ¤
Ġìĥģ ìĨį
ë¬¸ ìĬ¬ëŀĮ
ĠìĿĺ ëıĦê°Ģ
ĠëĮĢíĨµëł¹ ê³¼
ì¿ ¡
ë¶Ħ ìĿĺ
Ġí ī
Ġìĭľ ê°ģ
ìĪľ ìĿ´
ëĵ¤ë§Į ìĿĺ
ë§¤ ëıĦ
Ġë§Ŀ ì¹ĺëĬĶ
Ġê¹¨ ì§Ħ
ðŁĺ Ĥ
Ġë¬¸ì£Ħ ìĿ¸ìĿ´
ëĳĲ ë©´
Ġëĺ¥ ìĿĦ
ĠëŃĺ ê¹Į
Ġìŀĳ ìłĦ
ĠíĻ Ģ
ìłķëıĦ ëĬĶ
ê°Ĳ ìĿĢ
ĠìĦ¸ë ģ¼
Ġëª¨ ìĿ¸
ĠìĤ¬ëŀĮ ìľ¼ë¡ľ
ĠíĥĦ ìĥĿ
Ġê¾ ¸ë
ìĦ ¯
Ġìª½ ë°ľìĿ´
........ ...
ìĽĲ ìľ¼ë¡ľ
ĠìłķìĿĺ ìĹ°
ìĭł ìĿĢ
ĠíĻķ ë³´
Ġë³´ìĿ´ ì½§
íķĺ ëįĶë§Į
ìĿ´ íĥĪ
ĠìĪ¨ ê¸°
ë³´ ìĿ¸ëĭ¤
ĠìĪ Ń
íķľê±° ê³ł
Ġê¶Įëł¥ ìĿĺ
Ġë¨¹ ìľ¼ë©´
íķłëķĮ ëĬĶ
Ġê°ľ ê±°íĴĪ
ëĲĺ ê¸¸
ìĻĢ ì¤ĳìĹĲ
Ġì±ħìŀĦ ì§Ģê³ł
Ġíŀĺëĵł ëį°
ë¦ Ń
ëŃĲ ëĥĲ
ë°ĶëĢĮ ë©´
íĻį ìĸ´
ĠëįĶëŁ½ ëĭ¤
ìŀ¬ìķĻ ìķĦ
ĠìĪĺ ìĪĺ
Ġê°ľ ìĿ¸ìĿ´
ì¢Ģ ë¹Ħ
Ġë¹ł ë¥¸
ĠìĽĥ ê²¨
Ġì¶ľ ìĹ°
ĠìĿ´ëĤĺëĿ¼ ë¥¼
ĠìķħíĶĮ ëŁ¬
ëĭ¨ ê³Ħ
ĠìĤ¬ê³ł ê°Ģ
ĠìķĦ ëĬĶê²Į
Ġë¬¼ëŁ¬ ëĤĺëĿ¼
ëĮĢ ê¸°
ĠìĨĮ ìĪĺ
ĠìķĦëĭĮ ê²ĥ
ĠëĤĺìĻĢ ëıĦ
ëŁ ¿
ê²½ ê¸°
Ġë°Ķ ìģľ
íĺ¹ ìĭľ
Ġì±ħìŀĦ ìĿ´
ì§Ī íķĺëĬĶ
Ġìı Ļ
³´ ê³ł
Ġë³Ģ íĥľ
ĠìķĪíĥĢ ê¹Į
ĠìĿ¼ ìĸ´ëĤł
ìĨĮ ìĦľ
Ġìĥģ ìĭĿìĿ´
ĠëĤ¨ ëĵ¤
ì¶Ķ ìĸ´
ĠìĿĺíĺ¹ ìĿ´
Ġìŀ¡ ìľ¼ë©´
ĠãħĤ ãĦ·
Ġìľ¤ ì´Ŀìŀ¥
Ġìĭ ±
Ġëª» ìŀ¡
ĠìĹ¬ ëĭ¹ìĿ´
ëĤĺëĿ¼ ìĹĲ
ìĿ´ìľł ê°Ģ
Ġê·¸ ê±¸ë¡ľ
Ġì§Ħ ìĪł
Ġì§Ģì¼ľ ìķ¼
ĠêµŃë¯¼ ëıĦ
ĠëĮĢ ë¦¬
ĠìĨĮë¦¬ íķĺëĦ¤
íĳľ ê°Ģ
Ġì¶Ķ ëª¨
Ġíİĺë¯¸ ëĭĪ
ĠëĮ ķ
ì¡Į ëĭ¤ê³ł
Ġëª°ëŀĲ ëĭ¤
ìĥĪëģ¼ ëĵ¤ìĿĢ
Ġìłķì¹ĺ ìĿ¸ëĵ¤ìĿ´
ëĮĢ ì¶ľ
Ġíĳ ¼
Ġë²ķ ìłģìľ¼ë¡ľ
ë¬¸ìłľ ìĿ¸
ãħĤ ãħħ
ĠìĿĢ íıĲ
Ġëª» ëĤľ
ê³µ íķŃ
Ġê°Ģ ëĬĶëį°
Ġì¹´ë ©ĶëĿ¼
Ġìĺ¤ ë°Ķ
ìłĢ ëĬĶ
ëįĶ êµ°ìļĶ
ë¬¼ ë¡ł
ìĥī ìĿ´
ê´ĳ íĻĶë¬¸
íĺľ íĥĿ
ëĴ ·
ìķĦ ìķ¼ì§Ģ
Ġìľł íĨµ
ìķł êµŃ
ë§Ŀ ìĿ´
Ġë²Ħ ë¦¬
Ġì¶ ¤
ĠëĶ° ì§Ģë©´
Ġìķħ ëŀĦ
ì°¨ ë¡ľ
ĠìĦ¸ê¸Ī ë§Į
Ġë¯¼ì£¼íĻĶ ìļ´ëıĻ
Ġëª¨ë¥´ë©´ ìĦľ
Ġë¯¼ì£¼ëĭ¹ ìĿĦ
ĠíĥĦíķµ ìĿ´
Ġê¶¤ ë³Ģ
ĠìĹĨ ìŀĸìķĦ
ëĲĺ ìķ¼
Ġê³ł ë¬¸
ë³¸ë į°
ìĿ¸ ìĺģ
Ġê³ł ê°ľ
ì¤ĳêµŃ ìĹĲ
ĠìĹĨìķł ìķ¼
ëĭĪ ëĬĶ
Ġìŀĳ ìĦ±
ìĺģ ìĤ¼
Ġê³µ ìĿµ
ìĿĳ ìĽĲíķ©ëĭĪëĭ¤
Ġê¹ľ ë°©
Ġë°° ê°Ģ
Ġë¯¸êµŃ ìĿĦ
ĠìĨ Ķì§ģ
ê°Ģ ëĬĶê±°
ĠìĿ´ ìŀĲ
ĠìĤ¬ê³¼ íķĺê³ł
ìŀĲ ë§ĪìŀĲ
íıĲ ê¸°
Ġë§İ ìľ¼ëĭĪ
Ġì£½ ìĹĪëĭ¤
ì°¬ ëĭ¤
ĠìĪľ ì§Ħ
ìĤ¬ ìļ©
ĠíĤ¤ ìļ°ëĬĶ
ìŀĪ ëĬĶê±°
ĠíıīíĻĶ ë¥¼
íĳľ ì°½
ëĿ ł
ĠìĦľì´Ī ëıĻ
ĠìĬ¤ë§ĪíĬ¸ íı°
Ġëª «
Ġìĸĳ ìĤ°
Ġëĸ¨ ê±°ì§Ģ
Ġê³ł ê°Ŀ
ĠìĦł ìĸ¸
Ġê¼¬ëĿ¼ ì§Ģê°Ģ
íĥ ĳ
Ġìĭľ ê¶ģì°½
Ġì£Ħ ìĿ¸ìĿ´
íİ¸ ìĿ´
ìĿ´ìŀ¬ ëªħ
íķĺê¸° ìłĦìĹĲ
ĠìĤ´ íķ´
ìķĦ ìĿ´ê°Ģ
ë´Ĳ ìĦľ
Ġë¬´ë į¤
íį¼ ìĦ¼
ìļ ±ìĿ´
ë²Ħ ëĬĶ
Ġë¶ģíķľ ìĹĲìĦľ
ĠìķĬ ì§Ģë§Į
íĿ ĳ
ë²Ħ ëł¤ëĿ¼
ê°Ĳ ìĿ´ëĭ¤
ĠìĦ± ë³Ħ
Ġìłľìłķìĭł ìĿ´
ëĶĶ ìĺ¤
Ġëĵ£ ì§Ģ
ĠK BS
ìĿ¼ ëķĮ
ĠìłķëıĦ ê»ı
ëł¸ ìľ¼ë©´
ĠìĥĿ ëªħìĿĦ
ë¶Ħ ëĵ¤ìĿĢ
ĠëĤ´ìļ© ìĿ´
ĠíķľêµŃ ëĭ¹ìĿĢ
ëĭ¤ëĭĪ ê³ł
Ġìĸ¸ìłľ ê³ł
Ġëª©ìĪ¨ ê±¸ê³ł
ëĵ¤ ìĸ´ìĦľ
ë²Ķì£Ħ ìŀĲ
ĠìĤ¬íĥľ ë¥¼
ĠëįĶ ë¸Ķ
ë°ĺ íķĺ
Ġìµľ ìĦłìĿĦ
ĠíĨµ ìĭł
1 4
ëĤ¬ ëĬĶëį°
ë°° ìļ°
ĠìĽĥ ê²łëĭ¤
ëĿ¼ ëĬĶëį°
ĠëıĪ ìĹĲ
ĠìĹĦë§Ī ê°Ģ
Ġê³µ íĻĶ
ĠìĦ¸ê³Ħ ê°Ģ
ìľ¤ ìĦĿëł¬
Ġê¶ģê¸Ī íķĺëĦ¤
Ġì İĦ
íĮĶ ìķĦ
ë§Ĳ ì¢ħ
Ġ50 3
Ġê³µ ìĨĮ
ìĨį ëıĦë¡ľ
Ġëĭ¹ìĭł ëıĦ
íķ´ ì¤ĺìķ¼
~~ ^^
ëį° ëıĦ
Ġëª» íķĺëĦ¤
ì° ¸ë
ĠíļĮ ëĭ´
ìĿ¼ ëĭ¹
Ġìĺģ ìŀ¥
ĠêµŃ ë¬´
íĬ¸ë¡ ¤
Ġì¢ĭ ê²łëĦ¤
ĠíĸĪ ìĿĮ
Ġë¬´ë ł¥
Ġë¬¸ ìĸ´ë²Ļ
ĠìĤ¬ëŀĮëĵ¤ ìĹĲê²Į
ë³´ë ©°
Ġê³µ ì¤ĳ
ĠìĤ¬ëŀĳ íķĺëĬĶ
ĠìĿ¸ë¯¼ ìŀ¬íĮĲ
Ġëª ¸ë
ìĿ¸ ìĥģ
ĠìķĮë©´ìĦľ ëıĦ
íķĺê³ł ìŀĪëĭ¤
Ġê·¸ë§Į ì¢Ģ
Ġìŀħë§Ľ ìĹĲ
Ġìŀħ ìĹĲìĦľ
Ġëª¨ë¥´ ê²Į
Ġì¤Ħ ìĿ´ê³ł
ë°Ķ ê¾¸
Ġíģ¬ ëĭ¤
ì¤¬ ìľ¼ë©´
Ġê°Ļ ìķĦìĦľ
Ġìĭ¤ íĸī
ĠìĿ´ë¦Ħ ìĿĦ
Ġìłķ ê·ľì§ģ
ê¸° ë³¸
ë°Ķëĭ¥ ìľ¼ë¡ľ
íĹĪ íĹĪ
ĠìľłíĪ¬ ë¸Į
Ġìĺ¨ ëĭ¤
ĠëĽ° ìĸ´
§ ŀ
ê¸¸ ìĿ´
ĠìķĮë°Ķ ëĵ¤
ĠìķĪëĲĺ ëĥĲ
Ġê¸¸ ìĿ´
Ġì£¼ ìłľ
Ġì¢ĭ ëĥĲ
ĠëģĿ íĮĲ
Ġìĸµìļ¸ íķľ
ħ ¼
íĨµ ìłľ
ìĤ¬ ìĿĺ
ìł¸ ìķ¼ì§Ģ
ìļ°íķľ íıĲëł´
Ġë¨ ¸ë
ľ ìĭľ
ê°Ģ ëĬĶê²Į
ë§Į íķĺëĬĶ
Ġì¦ Ī
Ġìļ° ê¸°
Ġìŀĺëª» ìĿĢ
Ġìĸ´ëĶĶ ëĭ¤
Ġìĺ³ ê³ł
ĠìĤ¬ ìŀ¬
ĠìĤ¬ ìĥĿíĻľ
Ġë§İ ìĿĦ
Ġìĭľì¼ľ ìĦľ
Ġì§ĵ ìĿĢ
ĠìĦłê±° ëķĮ
Ġìĭľ ìĦ¤
Ġ2 000
ĠìĽĥ ìĿĦ
Ġíİ¸ íŀĪ
ĠëĴ· íĨµìĪĺ
Ġì¹´ íİĺ
ìĤ´ ìĿ¸ë
Ġë³´ëĤ ¼
Ġë¬´ëĦĪ ëľ¨
ĠìĥĿê¸° ë©´
ëĭ ´ë
ĠëĪĦêµ¬ ëĬĶ
ëĦĪ ê°Ģ
ĠëıĮìķĦ ê°Ħëĭ¤
Ġê³µ ë²Ķ
ìĦ¸ëł¥ ìĿ´
íķ´ë³ ¼
ĠìĥĿê°ģ ëĤĺëĦ¤
Ġë¯¸ì¹ľ ê±°
Ġìĸ¼êµ´ ìĿ´
ðŁĳı ðŁĳı
ëį° íĥĢ
ĠìĦł ì§Ħ
ì¤į ìĭľëĭ¤
ĠìĿ´ìłľ ìķ¼
ê²ĥ ëĥĲ
ĠìķĬ ìķĦìļĶ
Ġë³¸ ìĿ¸ëĵ¤ìĿ´
o u
ëıĦ íķľ
ĠëĲĺ ëĬĶê²Į
ëĩ ¨
Ġê°ľ ëıĦ
ĠëĺĲ ëĿ¼
ì¹ľ ì¤ĳ
Ġëĵ± ìŀ¥
ĠìłĦìĦ¸ê³Ħ ê°Ģ
ëĤĺ ë´Ĳ
ĠìĹĨ ìķ
ĠìĦł ë¬¼
ëĦĺ ëĵ¤ìĿ´
ĠëĤ¨ ì¡°ìĦł
ĠíĸĪ ìĿĦê¹Į
ĠìĥĪ íĢ´
Ġë²Į ìĿĦ
ìĥĿê°ģ ìĿ´
Ġíĩ´ ì§ģ
ĠìŀĪ ëĭ¤ëĬĶê²Į
ĠìĿ¼ ì°į
ìĻĢ ëĬĶ
ì§Ģ ëĬĶëį°
ëł¤ êµ¬
íĹĮ ëĤł
ìłĦ ë¶ĢíĦ°
Ġê³µìĤ° ëĭ¹ìĿ´
Ġê¸Ģ ê³ł
ì·¨ ìĨĮ
o r
ë ±ħ
Ġìľł ìłĦ
Ġê²° ì½Ķ
Ġìħ ĭ
ë¬» ìĿĢ
Ġì§Ģ ìĿĢ
ëĮ Ī
ìĸ´ë Ħ£
Ġê³ °
íķ´ë³´ ì§Ģ
Ġê·¸ë ¦ĩ
ĠìłĦ íĻĺ
ëĵ¤ íķĺê³ł
Ġíķľ ìĪ¨
Ġë¶Ģ ë¥ĺ
Ġë¶Ģ ì±Ħ
Ġìĺ¤ ëŀľ
Ġëģ¼ë¦¬ ëģ¼ë¦¬
ì£¼ ìĹĲ
ĠìĨĲ ìĹĲ
Ġë¶Ģ ì¹¸
íķĺ ëĬĺ
ĠëĬ ł
ì£½ ìĿ¼
Ġ [
ê¼ ¼
ëĦ£ ê³ł
Ġìŀł ìĭľ
ĠìĦ¸ìĽĶ íĺ¸ë
Ġëĸ µ
ìĭ¬ ìĹĲ
Ġë§Ī ë¬´ë¦¬
ë²ķ ëıĦ
ê²ĥ ìŀħëĭĪëĭ¤
Ġê²½ìłľ ëıĦ
ĠíĮį íĮį
Ġìłķìĭł ëª»ì°¨
ĠìĤ¬ìĿ´ ì½Ķ
ĠìłĢì§Ī ëŁ¬
ĠìķĮ ë©´
íĺ¸ ê°Ģ
ĠëĶ° ëľ»
ĠìķĪ ëĲĲ
ĠíĥĢ ê²©
Ġ6 25
Ġê°Ģê¹Į ìĿ´
ĠëĪĪ ê°Ĳ
ë¬¸ìłľ ê°Ģ
Ġìķ¼ ë¹Ħ
ìĤ¬ íķľ
ìĭľ ë¦¬
ëĬĶì§Ģ ëıĦ
ê¶Įë¶Ħ ë¦½
ìĿ¸ íĦ°
Ġìĸ¼ êµ´ë
ê²Į ìļĶ
Ġëĵ± ìĿĦ
Ġë ±ĥ
Ġë³´ë ĥ
a t
ĠìłĢ ëŁ´
ĠìĹ° ìĦ¤
ĠíķĺëĬĶê±° ëĭ¤
įĶ ëĭĪ
Ġìłľ ê¸°
ë¶Ħ ê°Ħ
ëł¥ ìľ¼ë¡ľ
Ġìĭ« ìĸ´ìļĶ
Ġê³łë§Ī ìĽĮ
ë¶Ģ ìĿ¸
ìĦ± íĸ¥
ĠìłĦìĪĺ ì¡°ìĤ¬
Ġë¬¸ìŀ¬ìĿ¸ ëıĦ
ì£¼ ëĿ¼
ìĸµ ìĿĦ
Ġìĸĺ ê¸°ë¥¼
ìłĦ íĻĶ
ì§ĳ ìĿ´
íķľ ê±´ëį°
ê°Ī ìĿ´
íĮĮ ëĬĶ
ìŀħ ìľ¼ë¡ľ
ĠìĥĿê°ģ íķĺëĭĪ
Ġíķĺ ëįĺì§Ģ
ĠêµŃë¯¼ ìĦ¸ê¸Īìľ¼ë¡ľ
ĠëĲĺ ëıĦ
ĠìķĪ íĸĪ
Ġë»Ķë»Ķ íķĺê²Į
ìĿį ëĭĪëĭ¤
ĠìĤ¬íĩ´ íķ´ëĿ¼
ĠìµľìłĢ ìĭľê¸ī
Ġë§Ī ëĭ¤
ĠìĦ¸ ìĬµ
íŀĪ ë©´
Ġìį© ìĸ´ë¹łì§Ħ
ì£¼ ëĤĺ
ĠìĹĨ ê²Į
H O
ìĿ´ ëĬĶëį°
ê±´ë ª¨
Ġë³´ëĤ´ ìķ¼
ĠìłĦ ëĭ¬
ìĹĪ ìĿĦê¹Į
íĬ¸ë Ŀ¼
Ġê¸Ģë¡ľ ë²Į
ìłĦ íĻĺ
ìĸ´ë ´¤
Ġìŀĺ ìĤ¬ëĬĶ
Ġê°Ĳ ì¶Ķ
ĠíĮĶ ìķĦìĦľ
ĠìłĢ ëł´
Ġë§ĲìĿ´ ëĲĺëĥĲ
Ġìį¨ ìĦľ
íħĮ ëĭĪê¹Į
ĠíĸĪ ëįĶëĭĪ
ĠíĪ Ń
ĠìķĪíĥĢ ê¹Įìļ´
Ġë°ĳ ìĹĲìĦľ
Ġê¸°ìĤ¬ íĻĶ
íĺĲ ìĿĺ
Ġíı Ħ
ëĤ´ ê¸°
ëĮĢíķľë¯¼êµŃ ìĿĢ
Ġíķľ ê±¸ëłĪ
ì¹ĺ ìĹĲ
ìĨĲ ìĦĿíĿ¬
Ġíķ©ë¦¬ ìłģ
ê¸° ìŀĲê°Ģ
íķł ëķĲ
ì¹ĺ ëĬĶëį°
ìĨĮ ìĪĺ
ìĭ¤ íĹĺ
Ġì¶ķ êµ¬
ì¹ĺ ëĥĲ
Ġì£¼ ëĳĶ
Ġê¹Ģ ì¢ħ
ĠëĮĵê¸Ģ ë¡ľ
ìĿ´ë§Į íĿ¬
Ġê²ĥ ê³¼
ĠìĨĮ ìŀ¬
Ġì¤ĳ ìŀ¬
Ġë° ī
ìĦ¸ ìĥģìĿ´
ì°¨ ìĿ´
ë³´ë Ŀ¼ê³ł
Ġì¢ħ íĬ¹
ĠìĥĿê²¼ ëĭ¤
Ġìŀĺ ë¨¹ê³ł
ë¶ģíķľ ìĹĲ
ë¬¸ìŀ¬ìķĻ ìĿĢ
ìłľ ìĿ¼
ì° Ķ
ìĿ¸ìĿ´ ëĿ¼ê³ł
Ġëĵľ ëĶĶìĸ´
Ġëŀ Ħ
Ġì²ŃìĻĢëĮĢ ëĬĶ
3 00
Ġíķľ ê²ĥ
ìĿ´ ë©´ìĦľ
ìĭ« ìĸ´
ìķĦ ë¬´ë
Ġê°Ĳ ìĪĺ
Ġ )
ìŁ Ī
Ġê³µ ê¸°ìĹħ
Ġë°©ìľĦ ë¹Ħ
ĠëĤĺ ìĺ´
ĠìĽ ħ
Ġê°Ħ ìĦŃ
Ġëĸ¨ ê³ł
ìĹħìŀĲ ëĵĿ
Ġê°ĢìĬ´ ìĿ´
Ġë īĺ
ê±° ê¸°
Ġì¤ĳêµŃ íķľíħĮ
ĠëıĦ ëį°ì²´
ìĽĢ ìĿ´
ë² ¨
ĠëĲĺ ê²Į
ĠëĤ¨íİ¸ ìĿ´
ĠìłķìĿĺ ëĬĶ
íķĺìĭľ ëĦ¤
Ġê°Ĳ ëıĻ
Ġì±ħìŀĦ ì§Ī
Ġê²°ê³¼ ë¥¼
Ġìħ Ģ
ìĹĨ ê²Į
Ġìĺ¤ ë¦¬
ëĲł ëĵ¯
Ġë¯¸ëŀĺ ëĬĶ
ĠìĪĻ ì²Ń
ë¦¬ ìĬ¤
ë¬´ ìĦŃ
ĠëĤĺëĿ¼ ìĻĢ
Ġê²½ìłľ ìłģ
Ġì¹ĺ íĤ¨
ë³Ħ ë¡ľ
Ġìļ´ë ªħ
į ķ
ĠìķłêµŃ ìŀĲ
Ġíķľ ëĮĢ
ĠìĿ¸ê°Ħ ëıĦ
Ġì¢ĮíĮĮ ìĿĺ
Ġëª© ìĿĦ
ê°ľ íĳľ
Ġìĭ¤ ì»·
ëĭµ ìĭľê³ł
ĠíļĮ ìĤ¬ê°Ģ
¬ ìĺģ
ĠìķĪ ìĵ°ê³ł
ĠìŀĲ ëĿ¼
ĠìĤ¬ëŀĮ íķľíħĮ
Ġì²ł ê±°
ë°ķ ê·¸ëĦ¤
Ġì¢ĮíĮĮ ëĵ¤ìĿĺ
ĠëĮĢì±ħ ìĿĦ
Ġì¤Ħ ìĦľ
ë¦¬ ë¡ľ
Ġë§İ ì§Ģ
ì°¸ ìľ¼ë¡ľ
Ġì«ĵ ìķĦ
ìĭĿ ìĿĢ
ê´Ģ ìĿĦ
Ġë½ Ģ
ëĬĶê²ĥ ëĵ¤ìĿ´
íķł ìĪĺëıĦ
ìĭĿ ìĿĺ
ĠìĥĿê°ģ ë§Į
Ġìĸ´ ì§ľíĶ¼
íĸī ìĤ¬
Ġê±´ë ĦĪ
ëıĦ ìĹĨê³ł
ĠìĹ¬ ê¸°ê°Ģ
ìķħ íĶĮ
ê°Ģ ë¶Ģ
ëĤĺëĿ¼ ìĹĲìĦľ
ìĦł íĥĿ
ëĤĺìĺ¤ ëĦ¤
ëı ĭ
Ġê°ľëı¼ì§Ģ ëĵ¤ìķĦ
Ġê·¸ ëĵ¤
ĠìĤ¬íļĮ ë¥¼
ëıĦ ìĭľ
íķłìĪĺ ìŀĪëĬĶ
Ġì§ĢíĤ¤ ëĬĶ
Ġíķł ì§Ģ
Ġíķĺ ëł¤ëĬĶ
ĠìķĪ ë½ĳ
Ġëĵ¤ ìĿĦ
Ġì§ĳ íķ©
ê¸° ëıħêµĲ
ê³¼ ìĹ°
ĠìĿ´ëŁ¬ ê³ł
Ġëĺĳëĺĳ íķľ
ê¸Ī ìľ¼ë¡ľ
Ġìĭ¬ íķľ
ìŀĺ íķľëĭ¤
ãĦ¹ ãĦ±
ìŀĲ ëıĻ
ìĿ´ëŁ° ê²Į
Ġë³Ħ ê±°
ĠëĦ£ ê³ł
Ġãħģ ãħĬ
Ġíıī ìĸĳ
ĠêµŃ ë¡ł
ì¡° ëĬĶ
ìŀĦ ìĿ´
ë§¤ íķľ
ĠìĻ¸ë ¶Ģ
ëĤ Į
ëĵľ ëĤĺ
ëª¨ ë¥´ê³ł
Ġë¶Ģ ìłķë¶ĢíĮ¨
ĠëĲĺ ëĭĪê¹Į
Ġì±Ļ ê¸°ëĬĶ
Ġë¯¸ ìĽĮ
Ġë§Ī ëĭĪ
ĠíĮĲ ìĤ¬ê°Ģ
Ġëª¨ë¥´ ì§Ģë§Į
Ġëĵľ ëŁ½ê²Į
Ġì¶ľ ëıĻ
íķ´ ì§Ģê³ł
Ġê³µ íĨµ
Ġë¶Ħ ìĸĳ
Ġë¬¸íĨµ ìĿ´
Ġì§Ħìĭ¤ ìĿĢ
Ġìķī íĺĢ
Ġê²½ìļ° ê°Ģ
Ġìĵ° ëĥĲ
Ġ20 19
ì¹´ ìĺ¤
Ġìļ© ê¸°
ëı ł
Ġì£¼ ì²´
ĠíĮ¨ ìĬ¤
Ġë¹Ħ ìľ¨
ĠìĿ¸ ê³µ
ìķĪ íķĺëĬĶ
Ġì¡° ì¹´
íķ´ìķ¼ ì£ł
ĠìĦľ ë¥ĺ
ĠìĪĺì¤Ģ ìĿĦ
Ġê¸° ìĹ¬
ìķĪ ë¬´
ĠìŀĪëĭ¤ ëĭĪ
ĠëĤ© ëĵĿ
ê¸° ëķĮë¬¸ìĹĲ
Ġìłķê¶Į ìĹĲìĦľ
ë©´ë Ĳľëĭ¤
ìĿ¸ êµ¬
Ġê¹Ģ ì§Ħíĥľ
Ġì¡°ìĤ¬ ë¥¼
Ġì§ķê¸Ģ ì§ķê¸Ģ
ĠãħĤãĦ· ãħĤãĦ·
ĠëĮĢ ë²ķìĽĲ
ĠìķĪ ìĭ¬
ì° ¸ëĤĺ
ĠëĤ´ë Ŀ¼
Ġëĭ¤ íķĺê³ł
ĠêµĲ ë¬ĺ
Ġë°ĽìķĦ ìķ¼ì§Ģ
ĠìĪĺì¤Ģ ìľ¼ë¡ľ
Ġëĵ¤ìĸ´ ìĺ¨
ë¬´ ìĦ±
Ġë§ŀ ìĿĦ
ê¹Ģ ìĸ´ì¤Ģ
Ġê¹¨ ëĭ¬
Ġìłķìĭłì°¨ ë¦¬ê³ł
,,,, ,,,,
ĠìķĪ ëĿ½
ë¹ ¤
ĠëĲĺ ìĸ´ìĦľ
ĠìĿĢ íĩ´
ê¹ Ł
ëĮĢ ìĭł
ëªħ ì§Ħ
T BC
² Ķ
ê°Ļ ì§ĢëıĦ
ìĸ´ë ľ¨
ãħ¡ãħ¡ ãħ¡
ĠëĲĺ ìķ¼
ĠìĿ´ëŁ° ìĿ¼ìĿ´
ë¹ł ëĬĶ
Ġì±Ħ ëĦĲ
Ġìļ¸ë ĤĺëĿ¼
Ġê°ľ ê³łìĥĿ
Ġíķĺ ìŀĲê³ł
Ġìłķ íĻ©
ĠìĻĢ ìĿ´íĶĦ
ĠíĻĶìŀ¥ ìĭ¤
Ġíķĺ ëįĶëĿ¼ëıĦ
Ġë§ĺ ì¶©
íķľ ìĿ¼
Ġì§Ģ ëĤ´
Ġ ;
Ġê·¸ë ŀ
Ġë³´ ìĿ´ëĦ¤
ĠíĶ¼ íķ´ë
Ġë¯¼ì£¼ëĭ¹ ìĿĺ
ĠëĪĦêµ¬ ëıĦ
ì§ ¸ë¡ľ
Ġê°Ģ ë¦¬
¦ ´ëķĮ
ëģ¼ ê°Ģ
Ġëªħ íĴĪ
Ġì´Ľë¶Ī ì§ĳíļĮ
Ġ1 50
ĠìĨĮ ì£¼
Ġì£Ħ ìĹĨëĬĶ
ìłĢ ê±´
Ġê³ ¡
Ġíķĺë£¨ ìĹĲ
Ġì§Ģì§Ģ íķĺê³ł
ìĽĥ ê¸°ëĦ¤
Ġìľł ê³µ
ëł¥ ëıĦ
ĠìĤ¬ê±´ ìĿĢ
Ġë² Ļ
íŀĪ ì§Ģ
Ġë³Ģ íĻĶ
Ġëª¨ë¥´ë Ħ¤
ë£ ¡
ë²Ī ë°©
Ġë¯¿ ìĿĮ
Ġìŀĳ íĴĪ
° Ģ
ĠìŀĲ ëĵ¤
ëĵ¤ìĿ´ ëĥĲ
Ġëĭ¹ ìĿ´
ĠìĽĲ ë§Ŀ
ĠëĤ¨ ìķĺ
ĠìĦłê±° ìĹĲìĦľ
Ġê°ĲìĹ¼ ìŀĲ
ìĿ´ëĿ¼ ëĬĶëį°
ìķĪ íķĺëĥĲ
ĠìĭľëĤĺ ë¦¬ìĺ¤
ê±° ëĦ¤
Ġìŀł ê¹Ĳ
ĠíĸĪ ìĸ´ìķ¼ì§Ģ
ĠíĭĢ ëĶ±ìĿ´
ðŁ¤ £
ĠëģĮìĸ´ëĤ ´ë¦¬
íļĮ ìĿĺ
ĠìĤ¬ëĿ¼ ì§Ī
ĠìĪĺ ìĬµ
ĠìĥĪ ê¸°
Ġìĭ¶ ëĥĲ
ĠëıĻ ìĭľìĹĲ
ĠìĦłëıĻ íķĺëĬĶ
ĠëĦĪíĿ¬ ëĬĶ
Ġì§ĢëĤĺ ë©´
Ġì§Ģ ìŀĲì²´
Ġì·¨ ì§ģ
ĠêµŃë¯¼ íĺĪ
Ġëĭ´ ëĭ¹
ìłĦ ë¬¸
ĠìĿ´ìĥģ íķĺê²Į
ĠìĪ¨ ê²¨
ĠíķĻìĥĿ ëĵ¤ìĿ´
ĠíıĲ ìĹħ
Ġê·¸ë ł¤
ëĭ¹ ìĹĲìĦľ
ðŁ ı
ĠìĹŃìĤ¬ ìĿĺ
Ġ y
ë¦½ ìĭľëĭ¤
Ġë§Ī ê·Ģ
Ġê°Ģê²© ìĿ´
Ġëĺĺ ë§ĪëĭĪ
Ġíķ´ ì³Ĳë¨¹
ĠíĮ¨ ìĬ¤íĬ¸íĬ¸ëŀĻ
ë¦¬ ëĵ¤
ìĤ¬ ìĺ¤
ì¡° ê¸°
ëĶ ¸ë
íķŃ ìĥģ
ĠëĪĪë¬¼ ìĿ´
ìķĪ íķ´
Ġëĭ¤ë¥´ ê²Į
Ġìĺ¬ ëł¤ìĦľ
Ġëĸł ìĺ¤
ĠëıĮìķĦ ìĺ¤
Ġìĸ´ì¨ Į
ë¬´ ê°Ģ
Ġìĸ¸ íĶĮ
ìĥĿê°ģ ìĿĦ
ĠëĮĢ ê¸°
ĠìĿ¸ ìĽĲ
ĠìĹŃ ìĤ¬ê°Ģ
ì¢ħ ìŀĲ
Ġìĭľ ê³Ħ
ëĳĺ ìĿ´
Ġìŀł ìŀ¬
Ġê´Ģëł¨ ëĲľ
ë©įì²Ń íķľ
ìļĶ ìĿ¼
íĤ µ
ìŀĸ ìĿĢ
ĠìĽĮ ëĤĻ
Ġë°ĶëĢ Ĳ
ĠìŀĲìľł ê°Ģ
ìĿ¸ íķ´
ìĤ¬ ëĿ¼
ĠìĿ¼ë³¸ ìĹĲê²Į
Ġëĭ¤ìĿĮ ìĿĢ
ì¤Ħ ëıĦ
ĠìĽĥ ëĬĶëĭ¤
ë§Į ê°ľ
ĠìķĪ ë´ĲëıĦ
ìĦł ìĹĲìĦľ
íĻį ì½©
© ëĭĪê¹Į
ìķĦëĭĪ ìķ¼
ì£½ ìĿ´ê³ł
ī ìŀ¥
Ġíķĺ ëĤĺëĿ¼ëıĦ
ĠëĤĺ ì¤ĳ
ìĿ¸ ìĹĲê²Į
ĠëĿ¼ ë©´
ëį ´
íĺĦ ëĮĢ
Ġê°Ģ ëģĶ
Ġìłķì¹ĺ íĮĲ
Ġê´ĳ íĻĶë¬¸ìĹĲ
Ġìĭ« ì§Ģë§Į
Ġê³¨ ë¡ľ
íĬ¹ íŀĪ
ĠìķĦíĶĦ ë¦¬ì¹´
ìķĪ ìĹĲìĦľ
ĠìĦ± ìĹŃ
ĠìķĪëĤĺ ìĺ¨ëĭ¤
Ġë§Ĳ ê³¼
Ġê¸°ìŀĲ ìķ¼
ĠëĨĢ ëĿ¼
ĠìĿ´ëĶ° ìľĦ
Ġìłľ ìķķ
Ġê³µê°ľ íķ´ëĿ¼
ê¸° ì°¨
ĠëķĮ ê¹Įì§Ģ
ëĭ¤ ëĭĮ
ìĿ´ëŁ° ê±°
ìį© ìĿĢ
Ġìłľ ë¡ľ
ĠìĿ´ë²Ī ìĹĲëĬĶ
ĠìĦ¸ê³Ħ ìĹĲìĦľ
Ġíķµ ìĿĦ
Ġë© ¸ë§Ŀ
Ġì´Īëĵ± íķĻìĥĿ
ìĶ¨ ëıĦ
Ġêµ½ ìĭł
Ġìĵ°ëłĪê¸° ê°Ģ
íķłê±° ë©´
ì§Ħ ìłķíķľ
Ġë§ŀ ìĬµëĭĪëĭ¤
Ġëª© ìłģìĿ´
Ġíĥľ ìĸ´ëĤľ
ĠíĺĲ íķľ
íī ģ
ĩ ê³ł
Ġë¬» ê³ł
Ġëļ Ŀ
¼ ãħĭãħĭ
ĠìĤ´ë ¦¼
ê³µ ëıĻ
ìĿ¸ëį° ìļĶ
ê°ĻìĿĢ ìĨĮë¦¬
ĠíĨł ëĤĺìĺ¨ëĭ¤
Ġê·¸ ê²ĥìĿĦ
ĠìķĦ ìĿ´ê³ł
ëł¤ ëĭĪ
ì¡° ìļ©
ĠìłķëıĦ ê°Ģ
Ġì¤ĳêµŃ ëıĦ
Ġë§Ĳ íķĺëĬĶê±°
êµĲ ìĤ¬
Ġìłĳ ì´ī
ĠêµŃ êµ°
ë¶ģíķľ ìĿĢ
5 2
ĠíıŃ ë¡ľ
Ġìłķì¹ĺ ê²Ģì°°
íķ¨ ìĹĲ
ĠíķĺëĤĺ ìĶ©
ĠíĻķ ëĮĢ
Ġìĭ¤ íĺĦ
ĠëıĻìĸĳ ëĮĢ
ĠìĿ¸ ìĦ±ìĿ´
Ġêµ° ëĮĢê°Ģ
Ġì¦Ŀê±° ë¥¼
ìĸ¸ë¡ł ìĿ´
ìŃ Ī
ĠìĿ´íĥĪ ë¦¬ìķĦ
Ġíķĺ ê²łëĭ¤ê³ł
ĠìĥĿ ì¡´
Ġê°ķ ìķĦì§Ģ
ĠìĻľ ì¼Ģ
ëĵ£ ëĬĶ
ĠêµŃíļĮìĿĺìĽĲ ëĵ¤
Ġëĸł ëĵľëĬĶ
ĠëĤ´ ìĪĺ
ĠëĨĪ ëĵ¤ìķĦ
ë¯¼ì£¼ íĻĶ
íķĺê²ł ì§Ģë§Į
íķĺì§Ģ ëĬĶ
ë°ķê·¼íĺľ ê°Ģ
ĠL G
Ġíķľ ê³Ħ
Ġë¹Ħ ë¦¬ë¥¼
ĠìĤ¬ ì£¼
ëĺĲ íķľ
Ġê±· ìĸ´
ĠìĿ´ê°Ħ ì§Ī
ê²½ ìŁģ
Ġíľĺ ëĳĲ
ìĺĢ ëĭ¤ê³ł
Ġìłķìĭł ëĵ¤
Ġì¢ħë¶ģ ì¢ĮíĮĮ
ĠìĹ ł
íĸĪ ìĸ´ìķ¼
ê²Į ìĿ´
ëĬĶê²ĥ ëĵ¤
ĠìĿĺ ì§Ģ
ĠìĦĿ íĥĦ
íķĺëĭĪ ê¹Ĳ
T V
Ġë§ī ìĥģ
Ġíķľ íĨµ
Ġê°ľ ê·¸
Ġë¶Ī íĸī
ëķ Ģ
Ġìĭľë¯¼ ëĵ¤
ëĦ¤ ëĬĶ
ĠìĤ´ íİ
ðŁĩ °
´ë ł¤ê³ł
ĠëĤ¨ìŀĲ ëĵ¤ìĿ´
ìĥģ ìĿĺ
Ġìĭľ ê³¨
ĠíĸĪ ëĭ¤ë©´
Ġë°Ķë¥¸ë §Ĳ
.. !
ëĦĺ ê²Į
Ġì¡° ê³µ
Ġë§Ĳ íķ´ëĿ¼
ëĿ¼ ìĹĺ
ìĤ¬ ë§Ŀ
Ġë³´ ëĬĶëį°
Ġì§Ģì§Ģ ë¥¼
ì°¬ ìĦ±
ĠìłĢëŁ¬ ê³ł
ĠìĨį ìĿ´ê³ł
ĠíĸīëıĻ ìĿĢ
Ġì§ĳê°Ĵ ìĿ´
ëªħ ìľ¼ë¡ľ
ĠëŃĲ ëĿ¼ëıĦ
ìĺģ ë°©ìĨ¡
Ġê¿Ī ê¾¸
Ġëª» íķĺëĤĺ
ë¶Īë§¤ ìļ´ëıĻ
Ġë§ º
ëĭ¹ íķ´ìĦľ
Ġê°ľ ëĺ¥
ĠìłĦ ëĿ½
Ġê·¸ëĨĪ ìĿĺ
ìĸ´ëĤ ¸
Ġê¸° ê°Ħ
ìĨĮ ë¦´
Ġíķ´ ê³¨
Ġìĭł ì¤ĳ
Ġë¦¬ ìĸ¼
???????? ????????
Ġì£½ìĿĦëķĮ ê¹Įì§Ģ
ĠëĤ ļ
Ġë³´ ìŀħëĭĪëĭ¤
Ġë´Ĳ ì£¼
Ġëħ¸ëıĻ ìŀĲ
ĠìķĬ ìĿĦê¹ĮìļĶ
ĠíĳľíĺĦ ìĿĺ
ĠëıĮ ë¦¬
Ġë¬´ë ĮĢ
ĠëĬĲëĤĮ ìĿ´
Ġìłķ ê²½
êµ¬ ë¥¼
Ġì¤ĳêµŃ ë°ľ
íĮ¨ ê±°ë¦¬
ĠëĤ´ìļ© ìĿĦ
ê°ľ ë¡ľ
íİ ¸ë
ìŀ¥ ë©´
íķľìĭ¬ íķĺëĭ¤
ĠíĨµ íķ´ìĦľ
ìĿ´ ìĦ±
ëŀĦ ê¹Įë´Ĳ
ĠìĿ´ ëĵ¤ìĿ´
ìĭľ ëĦ¤ìļĶ
ëĲĺ ëıĦ
ðŁĩ° ðŁĩ
ĠìĺģìĽĲ íķľ
ĠëįĶë¶Ī ìĸ´ë¯¼ì£¼ëĭ¹
ìĿ¼ ê¹ĮìļĶ
Ġëħ¸ë §Ŀ
ëıĮ ëł¤
ëļ ľ
Ġìŀĺ ë§Į
ĠìłĢëŁ° ê±°
ìĿ´ ëŁ´
ê±° ëĬĺ
ìķĪ ëĭ¤
ĠìĦ± ìĿ¸
ë³ĳ ìĿ´
ìĹĨ ìĸ´ìļĶ
ìĦ¤ ë§Ī
ìħ ĭ
Ġê°ĢìĬ´ ìĹĲ
Ġì§Ģ ìłĢë¶Ħ
Ġë¬¸ìŀ¬ìĿ¸ ìłķë¶Ģ
Ġë³´ìĪĺ ìĿĺ
Ġìķ ¡
Ġê³Ħ ìĹĦ
ĠìłķìĪĺ ê¸°
ĠìĿ´ ìĻĦìļ©
ê·¸ë ¡ľ
ìľĦ ìĿĺ
Ġì²ĺ íĺķ
Ġì§ķ ê³Ħ
ìķĦ ê°Ģë¦¬
ĠìĿ´ë §Ĳ
ĠíĮĲ ìĹĲ
ĠëŃĺ ë¡ľ
Ġì²Ļ ê²°
íķł ìĪĺê°Ģ
Ġì¤ĳêµŃ ìĤ°
Ġì²ľ ë§ī
ĠíĺľíĥĿ ìĿĦ
ĠìĹĨ ìľ¼ëĭĪê¹Į
Ġëª¨ ìķĦìĦľ
Ġëĺ¥ ë§Į
Ġëĭ« ê³ł
Ġíķĺ ê²łëĭ¤ëĬĶ
ì¾ ħ
°° ìĥģ
ê¹ ĥ
Ġíķľ ê²¨ëłĪ
Ġì¢ħ ìŀĲëĵ¤
ìĿ¸ì§Ģ ëĬĶ
ĠëĤ´ëł¤ ìĻĢ
ĠëįĶëįĶ ìļ±
Ġì§ĢëŀĦ ìĿĦ
ĠëĤ´ëħĦ ìĹĲ
Ġë§Ĳ íķĺì§Ģ
íķł ê±¸
ìĿ¸ë ĮĢ
ëĵľ ë¡ľ
Ġíı¬ íĵ°ë¦¬ì¦ĺ
ĠìĹĺ ì§Ģ
Ġìĭłìĥģ ê³µê°ľ
ëĵ¤ ê°ĳ
Ġê°ľ ìłķìĿĢ
ê·¸ë ĮĢë¡ľ
ì²Ń ëħĦ
ĠíĽ ¼ìĨĲ
ĠìĹŃìĭľ ëĤĺ
ĠíķĺëĬĺ ìĿ´
ĠëĮĢê¹¨ë¬¸ ëĵ¤ìĿĢ
ì¹ĺ ìķĬ
ĠìĥĿ ê¸¸
ĠëķĮ ë¦¬ê³ł
Ġë¶Ħ ìķ¼
Ġìĺ¬ ë¦¬ì§Ģ
Ġìĺ¤ ë¥¼
Ġëª¨ë¥¼ ê¹Į
ĠíħĲ ëį°
ìį¨ ìĦľ
¦ ¿
Ġìķķ ëıĦ
Ġëª¨ìŀĲ ëŀĢ
Ġ ......
Ġìĺ¤ ë¥´ê³ł
Ġë´Ĳ ìķ¼ì§Ģ
Ġì¦Ŀ ìĸ¸
ìłķìĭł ìĿ´
Ġì¹´ íĨ¡
ĠìĿ´ íķ´ë¥¼
ëĳĲ ê¸°
Ġë³´ë Ĥĺ
ìĨĮ ìĦ¤
ĠìĿĺê²¬ ìĿĦ
ĠìĦłìĥĿ ëĭĺ
ìľł íĬľë¸Į
ĠìķĮ ìĪĺ
Ġìłĳ ê·¼
ĠìķĪíĥĢê¹Ŀ ëĦ¤ìļĶ
Ġ *
ëł¤ ëĭ¤
ĠìĦ¤ ëłĪ
ê·¸ ê²ĥëıĦ
Ġëħ¸ íĽĦ
ĠìĿ¼ìľ¼ íĤ¨
íĮĮ ìĿ´
ĠìĹ¬ìŀĲ ë¥¼
Ġì ³¤
ê°Ģ ìķ¼ì§Ģ
ëĬĶê±° ëŀĳ
ê·¼ ë¬´
ĠíĶĦë¡ľ ê·¸ëŀ¨
ĠìĤ¬ìłĦ íĪ¬íĳľ
ĠìĿĺ íķĻ
ëĤĺ ë³´ëĭ¤
Ġíķĺ ëĿ¼ëĬĶ
ĠìĿ¼ë³¸ ê°ĢìĦľ
íĺ¸ êµ¬
Ġê³ł ìłķ
Ġëĭ¬ ìķĦ
ĠìĨĲ ìłĪ
ĠëĮ ģ
ĠìĽĥ ê¸°ê³ł
ĠêµĲìľ¡ ìĿĦ
ìĭľ ìĬ¤íħľ
ëĤĺëĿ¼ ë¡ľ
ì²ľ ëªħ
ëĮĢ ë©´
ĠìĦ ¸ë¹Ħ
ë°© ìĹŃ
Ġêµ¬ ë³Ħ
ĠëĦĺ ìĿĢ
Ġìĵ°ëłĪê¸° ê°ĻìĿĢ
íĶ¼ ìħľ
ĠíĻį ìľĦë³ĳ
Ġê²ĥ ëĵ¤ìķĦ
ëĮĢ ëĭ¤
ë¹Ħ íĮĲ
ë¬´ë Ŀ¼
ê°Ģ íķ´
Ġë¹ ħ
ìĿ¸ê°Ħ ìĿĢ
ìĿ´ ëĶ´
ëıĮ ìĿ´
ìĬ¤ ì¿¨
ìłĦ íķľ
ëª» íķĺê²Į
Ġë¬¸ìłľ ì§Ģë§Į
ĠìłķìĿĢ ìĿ´ê°Ģ
ĠëĬĲ ê¼Ī
Ġìĵ¸ë ª¨
ìĿĢ íĸī
ë¦ ī
Ġê°ľ íĥĦ
ĠìĹīëļ± íķľ
ĠìķĪëĲľ ëĭ¤ëĬĶ
Ġì¸¡ ê·¼
Ġëĵ¤ìĸ´ ìĻĢìĦľ
Ġë²ķ ì¡°
ĠìĤ´ìķĦ ìĺ¨
ĠìĿ´ê²ĥ ëĵ¤ìķĦ
ĠìĤ¬ íĳľ
ĠìĥĿê°ģ íķĺëĤĺ
Ġìŀħ ë²ķ
Ġê±¸ë ¦´
Ġë¹¤ ìĬ¤
ĠíĻĶ ìĽ¨ìĿ´
íĹĽ ìĨĮë¦¬
Ġíŀĺ ìľ¼ë¡ľ
ìĭľíĤ¤ ëĵ¤
Ġì§ģ ë¬´
o m
ĠìľĦ íķĺìĹ¬
Ġê±°ì§Ģ ê°ĻìĿĢ
ðŁ İ
Ġì§ģ ê¶Į
ĠìĹĦì²Ń ëĤĺê²Į
Ġëĭ¤ íķ´
ì§Ħ ê²Į
íĨ ¤
Ġë¬ ĺ
Ġë¶Ģ ëŁ¬
ĠìĻľ ëĨĪ
ĠìĥĿê°ģ ìľ¼ë¡ľ
íĩ ´ë
Ġìª¼ ê°ľ
Ġìĭ ¸ë
Ġìķł ëĵ¤ëıĦ
ĠìķĦì§ģ ê¹Įì§Ģ
Ġë¹Į ë¶Ļ
ëĦ¤ ëĵ¤ìĿĢ
Ġìĺ¤ ì¤Į
! ~
ì§Ģ ìĿĢ
ĠìķĪ ì¢ĭìķĦ
ëħĢ ê°Ģ
Ġìŀĺ ëıĮìķĦ
ìķĪ íķľëĭ¤
ë§¤ ìĿ¼
ê·¸ ëĭĪê¹Į
ĠìĿ¸ìĥĿ ìĿ´
ìļ° ìĻĢ
Ġìķł ë¯¸
ë£Į ë¥¼
ëĵ¯ íķľ
N S
Ġìŀĺ íķľëĭ¤ê³ł
ĠìĤ¬íļĮ ìķħ
ìĿ¸ ì¦Ŀ
ĠêµŃ íĨł
ĠìĥĿê°ģ íķ´ëĿ¼
ĠìĤ´ ìĪĺ
íĳľ íĺĦ
Ġìµľ íĽĦ
Ġëĭ¹ìĭł ëĵ¤ìĿĢ
ĠëģĿíĮĲ ìĻķ
Ġëª¨ ê°Ģì§Ģ
Ġìĺģ ìŀħ
Ġê¸° ìļ¸
ĠëĴ¤ ì§Ī
ĠìĦłëıĻ íķĺê³ł
ëıĦ ìĹĲ
ĠëĤ´ë ¦°
Ġãħ¡ ãħ¡ãħ¡
ëĲĲ ëĦ¤
ëł Į
Ġìĸ´ì©Į ëĥĲ
ãĦ± ãĦ±
ĠëĤĺëª° ëĿ¼ëĿ¼
íĺ ¸ë¡ľ
Ġíķľ ë°©ìĹĲ
Ġì»´ íĵ¨íĦ°
ĠìĦ± íĸ¥
Ġê³Ħ ì¢Į
Ġê²Į ìĿ´
íĨµ ìĿĢ
Ġì§ģìĽĲ ëĵ¤
ĠëĥĦ ë¹Ħ
ìĦ± íĻĶ
Ġìŀħ ì¦Ŀ
Ġê´Ģ ìĹ¬
ìķħ ì§Ī
Ġë½ĳ ìķĦìĦľ
Ġì£½ìĹ¬ ìķ¼
Ġíİĳ íİĳ
ì§Ģ ëĿ¼
Ġìļ° ìĿµ
Ġë§Ĳ ì¢ħ
ĠìĿ´ëłĩê²Į ê¹Įì§Ģ
ĠíıīíĻĶ ê°Ģ
ĠìĦ¸ê¸Ī ëıĦ
êµŃê°Ģ ìĹĲìĦľ
Ġê²½ì°° ìĿĢ
Ġê±±ìłķ ìĿ´ëĭ¤
ĠíķĺëĬĶê±° ëĥĲ
ë§Į íķĺëĭ¤
Ġê°ľìĨĮë¦¬ ë¥¼
Ġíķĺìĭľ ê¸¸
ëĭ¤ ë©°
Ġì¢ĭ ê²łìĸ´ìļĶ
Ġìĺģ êµ¬
ê¸° ë¡Ŀ
Ġë°Ķê¿ Ģ
ĠëĬ¦ ê²Į
ĠìĿĺ ì¡´
Ġê¸°ìĤ¬ ëĿ¼ê³ł
Ġê¼´ë³´ ê¸°
ìŀ¬ ìĿ¸
ëĲľ ëĭ¤ëĬĶ
ĠìŀĦ ìĺģìĽħ
Ġìĭľê°Ħ ìĿĦ
ĠëĦĺ ìĸ´ìĦľ
ìĭ¤ ìŀ¥
Ġìĭłì²ľì§Ģ ëĬĶ
ĠìŀĲ ìĤ°
ê²½ ìĿĦ
ëĭ¬ ëĿ¼ëĬĶ
ìħ¨ ëĤĺ
Ġì½© ë°¥
ĠëĤ Ħ
Ġë¬¸ìłľ ëĥĲ
Ġë©ĭ ëĮĢë¡ľ
ëįĶ ëĿ¼ê³ł
Ġìĥī ê¹Ķ
Ġì© Į
ê¸° ëĥĲ
ë°Ľ ìķĦëĿ¼
Ġì°¨ ë¦¬ê³ł
Ġì¡ ´ë
ĠêµŃíļĮ ìĹĲ
ĠëĤĺìĻĢ ìķ¼
ê³ł ìŀĪëĬĶ
ĠìĻľ ìĿ´ëłĩê²Į
Ġë°° ìĽĮ
ê°Ģ ìĹĲ
ĠìŀĪ ëįĺëį°
Ġì§Ħ ëıĻ
ìĭľíĤ¤ ì§Ģ
° ľ
ìĪĺ ìŀħ
ë²ķ ìĹĲ
ê¹ ½
ĠìĻ¸ë ª¨
ĠìĦłìłĦ ìĦłëıĻ
ë ¤Ħ
ìĸ´ ì£¼ê³ł
Ġê¹ ¨ìĸ´
ëĮĢíķľë¯¼êµŃ ìĿĺ
ĠìĿ¼ë°ĺ ìĿ¸
ê°ľ ëıĦ
ĠëŃĶ ì§ĢëıĦ
ìª½ ìĿĢ
ëĬĶê²ĥ ìĿĦ
Ġìį© ìĸ´
ëĤĺ ìĻĢìĦľ
Ġìłģ ê²Į
Ġì§ĳëĭ¨ ìĿ´
ĠìĦľìļ¸ ìĭľ
Ġë ī´
Ġíķ´ ì¤ĺìķ¼
ìľĦìĽĲ íļĮ
ĠìĤ¬ëŀĮ ìĿ¸ëį°
ì¼Ģ ìĿ´
ê°ķ ìĤ°
ê´ĳ ê³ł
ª °
ëħĦ ë§Į
ĠíĥĢ ëĭ¤
ĠìĿ´ ê²ĥëĵ¤ìĿ´
ëĵ¤ìĹĲê²Į ëĬĶ
íķ´ ëĭ¬ëĿ¼ê³ł
ìķĺ ì§Ģ
Ġìłķë¶Ģ ëıĦ
Ġê°ķ ì¡°
ìĬ¹ ì¤Ģ
Ġìķ½ êµŃ
ëª° ëĿ¼
ĠëĲĺ ê¸¸
Ġë°Ľ ìľ¼
ĠìĹ° íıī
ĠìĹ¬ ë¦Ħ
Ġë§Įëĵ¤ ìĸ´ëĨĵê³ł
Ġìľł íĸī
ë¨¸ë¦¬ ê°Ģ
Ġê°ķ ìĹ°
ê¹Ģ ëĮĢì¤ĳ
ëĭ¤ ëĭĲ
ëĤĺìĺ¤ ë©´
ĠëıĻìĽĲ íķ´ìĦľ
Ġë £
Ġëĸł ëĵ¤ê³ł
ĠìĤ¬ë²ķ ê°ľíĺģ
íķĺ ìĭŃëĭĪëĭ¤
ìľĦ ìĹĲìĦľ
ĠëĶ° ë¥¸
Ġë ¿
Ġê¸° íĥĢ
ĠíĻľ ìļ©
ë§Ī ëĤĺ
ĠìĻĦ ìĦ±
íķ´ë³´ ê³ł
Ġíķĺ ìĭ¤
ê±´ë ĦĪ
Ġëħ¼ ë¦¬ê°Ģ
Ġì£Ħ ê°Ĵ
ìŀĶ ì¹ĺ
ìĿ´ íķĺ
ìķĦ ìĿ´ëĵ¤
ëĭ¹ íķł
Ġê³¨ ëĿ¼
Ġìŀĳ ìĤ´ë
Ġë°ĿíŀĪ ê³ł
ìĿ¼ ìľ¼
Ġë¯¿ ëĬĶëĭ¤
ìĿĺ ë¯¸
ĠìĦ¤ ì³Ĳ
Ġë¹Ħ ìķĦ
ĠêµŃìłķ ìĽĲ
ëĭ¨ íŀĪ
Ġê³ł ê¸ī
íĿ¬ ë¡±
ìª½ íĮĶ
Ġê¶Įëł¥ ìĿ´
Ġëħ¸ë ²¨
ìĹ İ
ìĬ¤ëŁ½ ëĦ¤
Ġê°ľíĺģ ìĿ´
ĠíĺĦìĭ¤ ìĿ´ëĭ¤
Ġk bs
Ġê²ĥ ìĿ¸ì§Ģ
ĠíĦ¸ ìĸ´ìĦľ
( ?)
ë¡ľ ëĭ¹
íķ¨ ê»ĺ
ìĺ¤ ê²Į
Ġìµľ ìĦł
íĬ¹ ê²Ģ
ĠìŃ Ī
Ġê·¸ë §Ĳ
ĠìŀĲìĭĿ ìĿĢ
ë§İ ëĭ¤
ĠíĹĮ ê¸Ī
ìĨĮ ëĬĶ
ĠíĥĿ ë°°
ĠìĤ¬ëª¨ íİĢëĵľ
ĠíķĺëĬĶ ê±´ì§Ģ
Ġê·¸ ëıĪ
ê°ķ ëĭ¤ëĭĪìĹĺ
Ġìłķìĭłì°¨ ë¦¬
ĠìĪĺì¤Ģ ìĿ´ëĭ¤
Ġì¤ĳ ëıħ
Ġê³ł ìĤ¬
Ġìļ°ë¦¬ ìĹĲê²Į
Ġë½ĳ ëĬĶ
Ġíĺ¸ ëıĦ
íĺ¸ ìĭĿ
Ġê·¸ëłĩ ëĭ¤ë©´
ĠìłģíĻĶ íĨµìĿ¼
ĠìķĪ íķĺì§Ģ
ëįĶëĿ¼ êµ¬ìļĶ
íļĮ ìŀ¥
ì§Ī ë§Į
Ġê·¸ë¦¬ ëıĦ
ë¶Ģìłķ ìĦłê±°
Ġë¯¿ ìĿĮìĿ´
Ġë²Ħ ë¦¬ëĬĶ
ĠìķĦë²ł ëĬĶ
ĠìĽĶ ìĦ¸
ĠìĶĮ ìļ°
ì²ł ìĪĺê°Ģ
Ġëĭ¤íĸī ìĿ´ëĭ¤
ì¤ĳìķĻ ìĿ¼ë³´
Ġìĺ¬ ë¦¬ë©´
ì£¼ ëĬĶê²Į
ĠìĨĮë¦¬ ë§Į
ëĤĺìĺ¤ ëĬĶ
ĠìĹ ĳ
ĠìĿ¸ìłķ íķĺëĬĶ
Ġë§Ľ ìĿ´
Ġê±° ê¾¸ë¡ľ
ĠëıĦ ì¿Ħ
íĮĲ ëĭ¨
Ġë°ĺìĦ± íķĺê³ł
ëŃĶ ê°Ģ
ìĻ ĵ
Ġ5 000
íķľë²Ī ëıĦ
ĠìķĪ íĨµ
Ġë°° ë¶Ģ
ĠìķĪ íķĺëĤĺ
íı ´
ĠìķĬ ëĬĶëį°
Ġìŀ¥ ìłľìĽĲ
ë²Ħ ëł¤ìķ¼
ĠìŀĦ ìĭł
Ġì§Ģ ë¡¤
ê²ł ê³ł
²Ħ ëł¤
Ġì²Ń íĥģ
Ġìĥī ì¶ľ
ĠìĿ´ ìłķë¶Ģ
ĠìĥĪëģ¼ ëĬĶ
Ġì°¸ê³ł ë¡ľ
Ġë¬¸ ìŀĲ
ĠíĮĲ ìĿĦ
ĠìĥĪëģ¼ ëĵ¤ìķĦ
ìĥĪ íĢ´
Ġê±´ ê°ĢìļĶ
Ġìĸ´ëĶĶ ê°Ģ
ëŀ ĸ
ì°¨ ìĹĲ
Ġìļ´ìłĦ ìŀĲ
Ġê° ĩ
Ġëĭ¹ íķł
ì¤Ģ ê±°
ìĻľ ëŀĢ
ĠìĪĺ ëĬ¥
êµŃ ìĿ¸
ë³´ ê°Ģ
ê²ĥ ìŀĦ
Ġìŀħ ìĿĢ
Ġì¤Ħ ìĸ´ëĵ¤
Ġìŀ¡ ìĿĢ
Ġê³¼ê±° ìĹĲ
ĠëĲł ê²ĥìĿ´ëĭ¤
Ġë°ĺìĦ± íķ´ëĿ¼
ëĮĢ íĻĶ
Ġìłķì¹ĺ ê¾¼
ĠìķĪ ë§ī
ê°ľ íĮĲ
ĠìĹ¬ìŀĲ ëĵ¤ìĿĢ
ë¶Ģ ë¶Ģ
ëĬ¥ ëł¥ìĿ´
Ġë³´ ìŀĦ
ë³µ ì§Ģ
Ġê°ĳ ìĭľëĭ¤
ìĹ ł
ë¬´ ìŀ¥
ĠíļĮ ìĿĺ
ëį© ìĿ´
ê³ł ì§ĳ
ëħ ¸ë¬´
Ġëģ Ī
ĠëĮĵê¸Ģ ëĭ¬
ĠìĨį ìķĦ
ê°Ģ ìŀ¥
ĠìĿ´ë ħĦ
Ġë¯¼ ìĭ¬ìĿĦ
Ġìĭ¸ ê³ł
Ġë¬´ìĹĩ ìĿ¸ì§Ģ
Ġëª¨ ìĪľ
ì§Ī ìĿ´ëĤĺ
ĠëĤľ ë¯¼
Ġëªĩ ëªĩ
Ġìĸ´ëłµ ê²Į
ê½ Ī
ìĿ´ ëįĺ
íķ© ìĿĺ
Ġëĵł ëĵł
Ī Ī
Ġìĵ´ ëĭ¤
~~ !
Ġë¹Ħ ìłķê·ľì§ģ
ĠìłĢ ìłķëıĦ
ëĤĺëĿ¼ ëĬĶ
Ġë°ķ ì¥Ĳ
ĠíļĮ ìŀ¥
Ġëĸ¨ìĸ´ ì§Ģê³ł
Ġëħ¸ë ŀĢ
Ġë²ķ ëıĦ
ĠíĮĮ ìĿ´íĮħ
Ġv s
ì§Ī íķĺê³ł
Ġìĭł ìĨį
Ġê¹Ģ ìĽĲë´ī
Ġìļķ ëıĦ
ĠìĦ¸ìĥģ ìĹĲìĦľ
Ġìĩ Ħ
ê¸° ìĤ¬ê°Ģ
ĠëĤĺ ë¥¼
ĠëįĶ ëŁ¬ìĽĮ
ĠíķĦ ìĪĺ
ĠìŀĲìĭĿ ëĵ¤ìĿ´
Ġê¸°ìŀĲ ëĭĺ
s t
ë¬´ ìĥĪ
Ġë§Ĳíķľ ë§ĪëĶĶ
ìĸ´ë ©´
íķł ë°°
ë¦° ê±°
Ġì¡° ìĶ¨
Ġìĭ¸ ìļ°ê³ł
íķĻ ê·ľ
ì» ´
ëĵ¤ ìŀĦ
Ġê³ł ìĿĺ
Ġê·¸ëŁ¬ ëĬĶ
ìĦ¤ ì¹ĺ
ë©´ ìłľ
Ġìµľ ì¢ħ
ĠìĨĲ ëĭĺ
ĠìŀĲíķľëĭ¹ ê³¼
ëĮ ģ
â ĸ
ĠëĤĺ ìĿĺ
Ġë§İ ìľ¼ë©´
ĠìŀĲìĭĿ ìĿĦ
Ġë§Įëĵ¤ ìĹĪ
ìĹ¬ë¡ł ì¡°ìĤ¬
ëįķ ìĹĲ
Ġìŀ¬ ìłķ
Ġë°° ìĽĮëĿ¼
Ġê¼¬ ë°ķ
ĠíķĺëĤĺ íķĺëĤĺ
Ġì±Ļ íĶ¼
ìĸĺ ëĬĶ
~~ !!!
ĠìĥĿê°ģ ìĹĨìĿ´
Ġì¹ĺ ì¡¸
ĠìĿ´ ëĬĶ
Ġê°ľ ë°ķ
Ġë¸ ħ
ë¬¸ìŀ¬ìĿ¸ ê³¼
Ġì³Ĳ ë°ķ
Ġì±Ħ ìĽĮ
Ġì§Ģ ê²¨
ì¤ĳ ìĿĺ
Ġìĸ¸ë¡ł ìĹĲìĦľ
ìķĦëĭĮ ê°ĢìļĶ
Ġíıīë²Ķ íķľ
Ġíķĺ ê²łëĦ¤
ê°ĻìĿĢ ê±°
Ġë¯¸êµŃ ìľ¼ë¡ľ
Ġëħ¸ ëĬĶ
Ġëħ¸ ìĿ¸ëĵ¤
Ġì¢ĥ êµŃ
ĠìķĦ ê¹Įìļ´
ĠëĶ° ê¹Įë¦¬
Ġêµ° ë¦¼
ìĿ¸ ê±°ìķ¼
Ġê¼¬ ë´ī
ë¸Ķ ë¦¿
Ġì°¢ ìĸ´
Ġê²ĥ ìĿ¸ëį°
Ġì¡°êµŃ ëĶ¸
ìĨĮë¦¬ ê°Ģ
ë¶Ī ê°Ģ
ĠëĲĺ ëĬĶê±°ì§Ģ
ĠìĿĺ ìĭ¬ìĿ´
ĠíĤ ¹
ë² Ļ
Ġë¶Ģ ë¥¼
Ġìĭ¤ ìĹħìŀĲ
Ġë°° ë¶Ī
ĠìłķëıĦ ìĿĺ
Ġëº ¨
Ġì²ľë²Į ìĿĦ
Ġê³¨ íĶĦ
Ġê³łìľł ìłķ
ëĭ¹ ëıĦ
Ġì³Ĳ ë§ŀ
ĠìĺĪ ë°©
ĠëģĿ ëĤ´
Ġìķ¼ ëıĻ
Ġìĥģê´Ģ ìĹĨìĿ´
ĠíĬĢ ìĸ´ëĤĺ
íķĻ ìĽĲ
íķĺìĭľ ë©´
ĠìĿ´ìļ© íķ´ë¨¹
Ġì°¸ë ª¨
íĸĪ ìŀĸìķĦ
Ġë¹Ħ ìľł
Ġê°ľ ìĦ±ê³µëĭ¨
ìĿĺìĽĲ ëĭĺ
Ġëħ¼ë¦¬ ë¡ľ
Ġì¡´ê²½ íķ©ëĭĪëĭ¤
Ġê¸° ê³Ħ
Ġëª» ìĤ¬
ìĺ¤ ëĭĪ
ë¦¬ íĬ¸
ĠëĮĢ ìĥģìĿ´
ĠíĻķ ìłķ
m f
ëŃĲ ìķ¼
ĠëĪĮ ëŁ¬
ĠëĪĦêµ¬ íķľíħĮ
ĠìŀĲë¦¬ ìĹĲìĦľ
Ġì©Ŀì©Ŀ ìĿ´
§ ¥
Ġë¹Ħ ì°¸
Ġìĭłë¢° ê°Ģ
Ġìľł ëıĦ
ê°Ģì¡± ìĿ´
Ġìķŀ ìĦľ
ìĸ´ë³ ¸
Ġìļ° ìļ¸
ê²½ ìĿĢ
íķ´ë³´ ìŀĲ
Ġíķĺë£¨ ì¢ħìĿ¼
ĠíĺĦ ëªħ
ìĿ¼ë³¸ ìĹĲ
ê³ł ëĵ±
ĠìłĦ ì²´ê°Ģ
íĤ ´
Ġë²Ħ íħ¨
ĠìŀĪìĹĪ ìľ¼ë©´
Ġë³´ìĹ¬ì£¼ ê¸°
ê°Ģ ë³´ëĦ¤
ìĤ¬ ìľł
ĠíķľêµŃ ìĿ¸ëĵ¤
Ġì¹ĺ ë°Ģ
íķ´ ì¤ĺ
Ġê°Ģ ìĭľ
Ġì£¼ ìļĶ
ìŀ¥ ìķħ
ĠìĤ¬ëŀĮ ìĿ´ëĥĲ
ëĮĢ ë¹Ħ
ëį° ê¸°
ĠìŀĪ ê²łì§Ģë§Į
ìĺ¤ ëŀĺ
Ġë§İ ëĭ¤ê³ł
ëĪ Ķ
íķĺëĥĲ ê³ł
Ġë²Ħ ë¦ĩ
ĠìĿ¸ê¶Į ìĿĦ
ĠìĿĢ ê·¼
Ġê°ľìĨĮë¦¬ ìķ¼
ëĥ ī
ĠíĸĪ ìĸ´ìķ¼
Ġìķķ ìĪĺ
Ġì¶ķ ìĨĮ
ĠíĹĪìľĦ ìĤ¬ìĭ¤
ĠìķĦëĭĪ ê²łì§Ģ
ĠìĹĨëĭ¤ ë©´
íķĺê¸° ë¥¼
ĠëĤĺìģľ ëĨĪ
Ġë¹Į ëł¤
Ġíķĺëĭ¤ íķĺëĭ¤
Ġíķ´ë´Ĳ ìķ¼
ëĤĺ ì¤ĳìĹĲ
ĠìĨĮ ëıħ
Ġë¶Ģ ìĹī
ëħĦ ìłĦìĹĲ
ì±Ħ ë¡ľ
Ġë°ĶëĢ Ķ
íĸĪ ìĿĦëķĮ
Ġì°¨ ë¡Ģ
íıī ê°Ģ
ì§ĢìķĬ ìķĦ
Ġë©´ íĹĪ
Ġë°Ķê¿Ķ ìķ¼
íķł ìĿ¼
íķ¨ ìĿĢ
ìŀĸ ëĥĲ
íı¬ ì¸ł
Ġ Y
ĠìĦľìļ¸ ìĭľìŀ¥
ë´¤ ëĬĶëį°
ë§Ĳ ìķĦ
ĠìĦľë¯¼ ëĵ¤ìĿĢ
ĠìķĦëĭĲ ê¹ĮìļĶ
ìĭľë¯¼ ëĵ¤
Ġì¶Ķ íķĺëĭ¤
ìĺĢ ëĥĲ
ìłĦ ê´ĳíĽĪ
Ġì°¨ ëł¤
Ġíķĺì§Ģ ëıĦ
Ġëģ¼ ê³ł
ĠìĪľ ìĭ¤ìĿ´
íķĺëĭ¤ ë©´
ëĲł ê¹Į
Ġëįĺ ìł¸
Ġì ¾
ì±ħ ìĿĦ
Ġíĺ¸ ìĨĮ
Ġíķľ ë¯¼ì¡±
Ġì¢ħ ë¡ľ
ĠëĤ´ íİ¸
Ġë°ķ ìĤ¬ëª¨
ìĿ´ ê²ĥìĿ´
ì£¼ ìĭĿ
ëĤ¬ ëĭ¤ê³ł
Ġì¶ľ ìŀħ
íķľë§ĪëĶĶ ë¡ľ
ĠëĤĺë°ľ ìĿ´ê³ł
2 1
ĠëıĦìĽĢ ìĿĦ
Ġê¹Ķ ëģĶ
Ġì²ľ ìŀ¬
ĠêµŃìĤ° íĻĶ
Ġìľ¤ ì§Ģìĺ¤
Ġë¶Ģëª¨ ëĬĶ
l e
ê¸°ìĹħ ìĿ´
Ġí ĩ
ë§Ī ìĭľê³ł
ĠëĮĢë¶Ģë¶Ħ ìĿĺ
ĠíĺĦ íĺ¹
ì§Ģ ì§Ħ
ê·¸ ìłĢ
ìŀ¡ ëĬĶ
Ġì°½ ì¶ľ
ĠëįĶë¶Īìĸ´ ê³µìĤ°ëĭ¹
ìĤ´ë ł¤
Ġë°ķìĤ´ë Ĥ´
ëĵ¤ ë©´
ĠìĦ± ê²©
Ġëª¸ ìĹĲ
Ġê°ľ ìĪĺìŀĳ
Ġìłķ ë³´ë¥¼
êµ¬ ìŀ¥
Ġëªĩ ëĭ¬
Ġìŀ¬ìķĻ ìĿ´ëĭ¤
ĠíķłìĪĺ ìŀĪëĬĶ
Ġê°Ģ ëĬĶê²Į
Ġêµ¬ ì²´
Ġë²Ħ ëĬĶ
íĸĪ ìĸ´ìķ¼ì§Ģ
ĠìĥĪ ìĤ¼
ĠìĿĮ ìĦ±
ĠìĿ´ ìĸ¸ì£¼
ì¿ µ
ëĲľ ê²Į
ĠëģĿ ëĤ¬ëĭ¤
Ġë³´ ìĿ´ê³ł
´ëĿ¼ ê³ł
ĠìĹĲ íļ¨
ìĿ´ ëŁ
ĠìłĦ íĪ¬
Ġìĭľ ìĦł
Ġëĸ¨ìĸ´ ìł¸
ì·¨ ìĹħ
Ġëĭ¤ë¥´ ì§Ģ
ìŀĪ ìĬµëĭĪëĭ¤
ì§ľ ì¦Ŀ
ëĤľ ë¦¬
ë³´ ê²Į
Ġíĺķ íıī
ĠêµĲíĻľ íķľ
Ġë²ķ ê³¼
íŀĺ ëĵł
ë¯¼ ìĭĿìĿ´
Ġì¹ľ ë°ķ
ĠìłģíıĲ ë¡ľ
Ġíĭ Ī
ĠëģĿ ìŀ¥
ìĿĺìĽĲ ìĿ´
ĠìĤ¬íļĮ ìĿĺ
Ġëª¨ìŀĲ ëŀĦ
Ġê·¸ë ¦½
Ġê°ľ ë§Ŀìĭł
ê·¸ëĤĺ ë§Ī
ĠíĭĢ ë¦¼
ĠìĿ´ëŁ° ê¸°ìĤ¬
Ġê·¸ëŁ° ë§Ĳ
ì°Į ëĿ¼ìĭľ
ìłķ ê²½ìĭ¬
ìĪĺ ìĦĿ
ĠìķĪ ìĿ¼
Ġíĺĳ ìĿĺ
ìĸ¸ìłľ ê¹Įì§Ģ
íķĺ ìĤ°
ĠìĿ´ ìłķê¶Į
Ġìłľ ì£¼
Ġìĺ¤ íĶĪ
ĠìĿ´ë²Ī ìĹĲëıĦ
Ġì§ľì¦Ŀ ëĤĺ
Ġëĭ¤ ë¦¬
ĠìĦł ëŁīíķľ
ĠìĹ¬ëŁ¬ ê°Ģì§Ģ
ĠëĤĺíĮĶ ìĪĺ
ë³ į
ëŁ¬ ìĭľìķĦ
ìĤ° ë¬¼
ĠëĤ¨ ê²¨
Ġìį ª
ì¤Ħ ê»ĺ
Ġê±°ì§ĵ ìľ¼ë¡ľ
ìķĦ íĶĪ
ë¡ľ ìį¨
ĠëĮĢ íıŃ
ĠíķľêµŃ ëıĦ
Ġì¹ĺ ê°Ģ
ëĨ ĶëĿ¼
Ġê³¨ ëĿ¼ìĦľ
âĸ ¶
ĠìĤ¬ ëĮĢ
Ġì£¼ ë¬¸
ë°© ìĤ¬ëĬ¥
Ġìļ°ë¦¬ëĤĺëĿ¼ ìĿĺ
Ġì¢Įë¹¨ ëĵ¤ìĿĢ
Ġëľ¬ ê¸Ī
ëĪĦ êµ°
ĠìĹĲ ê²Į
ĠOOO ìĿ´
ìŀĲ ëĵ¤ëıĦ
Ġìŀĥ ìĿĢ
ĠìĦľìĦľ íŀĪ
ìŀ¬ ìĪĺ
ê°ľ ëĤĺ
Ġì¢Įë¹¨ ëĵ¤ìĿ´
ĠëĤ´ë Ĥ´
ìĺĪ ìłĦ
íĺķ ìĿĦ
ì§Ģ ëĬĶê²Į
ìŀĦ ìĺģìĽħ
ìļ° ëĭĪ
ê°Ĳ ëıĦ
Ġë°ľ ìĥģ
Ġëĭ¤ë¥¸ ê²Į
ĠìĤ¬ ìķĪ
ë¯¼ ìĦĿ
ëĬĶê±´ ê°ĢìļĶ
Ġë§ĪìĿĮ ìľ¼ë¡ľ
ìŀĲ ìķ¼
íĶĦë¡ľ ê°Ģ
ëĬĶê±° ëĬĶ
ĠêµŃë¯¼ëĵ¤ ë§Į
Ġëķ Ģ
Ġë³´ ìĿ¼
ì¤ĳ ëıħ
ì¶ľ ë§Ī
íŀĺëĤ´ ìĦ¸ìļĶ
Ġìľł íĬľë²Ħ
ì¢ĭ ê²Į
ëĤ¨ ë¶ģ
Ġìĵ°ëłĪê¸° ëĵ¤ìķĦ
ĠìĤ¬ íĥĦ
Ġì¡° ìłķ
ë°Ľ ì§Ģ
ëĿ¼ëĬĶ ê±¸
ģ ëĭĪëĭ¤
Ġëª» ìĤ¬ëĬĶ
Ġë§Įëĵľ ëĦ¤
ĠìķĪ íķĺëĬĶëį°
Ġê³µìĪĺì²ĺ ê°Ģ
? ....
Ġë§ī ìŀ¥
ëĭ ¦
Ġë¹¨ ê°ľ
ĠìķĬ ëĦ¤
ë°Ľ ëĬĶëĭ¤
ĠíĭĢ ëĭĪ
???? ???
ĠìĪľ ìĭ¤
ê²½ì°° ìĿ´
ë³´ ìŀ¡
ĠìłĢ ì£¼
ĠëĲĺ ìŀĸìķĦ
Ġíĺ¸êµ¬ ë¡ľ
ë§Ĳ ëĵł
ìļ´ ìļ´
ìķĦëĭĮ ëį°
ĠëĤĺê°Ģ ëĿ¼
Ġêµ īìŀ¥
Ġê´ľì°® ìĿĢ
ðŁĴĻðŁĴĻ ðŁĴĻðŁĴĻ
Ġíķł ê²Į
Ġê°ķ ê²½
Ġìļķ íķĺë©´
Ġìŀ¡ ìķĦìķ¼
íķľêµŃ ìĿ´
Ġê°ķìłľ ì§ķìļ©
ĠìĿ´ì¤ĳ ìĦ±
ĠêµŃë¯¼ ìĹĲ
ìĸ´ë §Į
Ġë¬¼ ë¦¬
Ġìĩ¼ ë¥¼
ĠìĺĨ ìĹĲìĦľ
N A
ê¹Ģ ìłľëıĻ
Ġê²½ìłľ ìĹĲ
Ġíķł ë§¤
Ġë¶Ī íĨµ
ëº ı
Ġëª» íķĺëĬĶëį°
ìĹĨ ìĬµëĭĪëĭ¤
íķ´ ì§ĢëĬĶ
ðŁĺ¡ ðŁĺ¡
Ġë¶ģíķľ ëıĦ
Ġíĺ¸ ëĵ¤ê°ĳ
ëıĦ ëª»
ĠìĦ Ń
ê°Ĵ ìĿ´
Ġ ðŁĲ
ìĺ¤ ëĥĲ
Ġë¯¼ì£¼ ëħ¸ì´Ŀ
Ġíĺ¸ ì£¼
ĠìŀĪìĹĪ ëĤĺ
ĠìķĬìķĺ ëĤĺ
Ġê°ĢëĤľ íķľ
ë īĺ
Ġìĭł ì¢ħ
Ġëĳĺ ëŁ¬
ĠìĹ¬ë¡ł ìĿ´
ìľĦ íĦ°
ìĭ¤ ìĹĲ
ìĪ «
ĠëĶ° ìľĦ
ĠìĿ´ ëĵ¤ìĿĢ
ĠëĤ ´ë©´
ìĹ° ê¸°
Ġì¤ĳìļĶ íķľê²Į
ĠìĿ¼ì£¼ ìĿ¼
íķ´ ì§Ħëĭ¤
Ġìĵ° ëĤĺ
Ġë¬¸ìłľ ë¡ľ
Ġìĭ¤ ê²Ģ
Ġê·Ģ ì°®
ĠìĿĺìĽĲ ëĵ¤
Ġë¶Ģì¡± íķľ
Ġì§Ģ íĤ¨
ë¬´ ì£Ħ
ìĭ¬ íĮĲ
Ġìĭ¤ íĻĶ
Ġìłķëĭ¹ íķľ
Ġìµľ ê°ķ
Ġë¶Ħ ìľĦ
ìĸ´ ìĿ´ê°Ģ
ĠëĪĪ ìĹĲëĬĶ
ĠëĮĢ ìĥģìľ¼ë¡ľ
ĠìķĪ ê°Ģê³ł
íĨµ ê³Ħ
ë°© ìĹĲìĦľ
ê¼´ ìĿ´
ĠìĹŃìĤ¬ ìĥģ
ëĵ¤ìĿ´ ëĿ¼
ê²½ ìĥģëıĦ
ĠìĤ´ë įĺ
Ġëī´ìĬ¤ ë¥¼
Ġìĸ´ëłµ ëĭ¤
ĠìŀĪ ëĬĶê±°ëĭ¤
ìłķì¹ĺ ìĿ¸
ĠëıĻ ìķĦ
Ġì¦Ŀ ìĺ¤
Ġì¤ĺ ëıĦ
ĠìĿ´ê¸° ì£¼ìĿĺ
§ ¨
ë¶Ħ ìĿĦ
Ġë°Ķê¾¸ ê³ł
ĠìĤ¥ ëľ¯
ħ Ģ
ìĿ´ ê¸´
ì°¾ ìķĦ
Ġìķł ëıĦ
ĠìĤ¬ëĿ¼ ìł¸ëĿ¼
ê¶Į ëıĦ
ĠìŀĪìľ¼ë©´ ìĦľ
ĠìĹĨìĹĪ ìľ¼ë©´
Ġìľł íĿ¥
íķĻ ëħĦ
Ġë³´ë ©°
Ġë¶ģ íķµ
ĠëıĪ ë°Ľê³ł
Ġ3 6
ëĵ¤ìĸ´ ê°Ģ
ëĬĻ ìĿĢ
ìĭľ ìłģ
ê³µ ì§Ģìĺģ
ĠìĭľìĽĲ íķĺê²Į
ĠëĺĲ ëĭ¤ìĭľ
ĠìĿ´ë ŀ¬
Ġê³µ ìłģ
ë°© ìľĦ
ìĪĺ ì§Ģ
Ġê°Ĳ ëıħ
Ġë¯¼ì£¼ëĭ¹ ë§Į
íķĺëĬĶ ê±´ëį°
Ġëĭ¤ ë£¨
ê·¸ë Ł½
ĠìĤ´ë ł¤ê³ł
ĠëĤĺ ìĿ´ê°Ģ
ĠìķĪ ê°Ħ
ĠëĤ´ë Ĩĵê³ł
Ġìĭ¬ íķĺê²Į
ĠìłķíĻķ íķĺê²Į
Ġê¸°ì¤Ģ ìĿ´
ì£¼ ëĦ¤
¡ ëĭĪê¹Į
Ġì§ĳ ì°©
Ġì¹ľ ë¬¸
ê³ł ë¥¼
Ġì´ Į
Ġê°Ĳ ìĨĮ
Ġì°¸ ê°Ģ
íļ ¡
ìłĢ ëĤĺ
Ġê´ĳ ìļ°ë³ĳ
Ġê¸°ì¤Ģ ìľ¼ë¡ľ
Ġìŀ ī
Ġê°Ģ ë²¼
ë§Ĳ ìĶĢ
ëĳĺ ëĭ¤
ĠìĹ¬ ìłģ
ĠìĦ¸ìĥģ ìĿĢ
ĠëĮĢíĳľ ê°Ģ
ê¹Į ëĬĶ
Ġê±° ëĿ¼ê³ł
ĠíĿ¬ ëĮĢìĿĺ
Ġì§Ŀ ìĿ´
Ġì§Ģ íľĺ
Ġìĸ´ë ²Ļ
ĠìłĦ ì§ģ
Ġë¹Ħìĭ¸ ê²Į
ĠíĹĪêµ¬ íĹĮëĤł
ĠíĻ§ íĮħ
íķĺ ëįĶëĿ¼ëıĦ
Ġë§ĪìĬ¤íģ¬ ëĬĶ
Ġë§ĲëıĦ ìķĪëĲĺëĬĶ
ĠíķĦë¦¬ íķĢ
Ġëĭ¤ ìĪĺ
Ġìĵ° ëŀĺê¸°
Ġê¹Ģ íĺĦ
ĠìŀĲê¸° ëĬĶ
ĠìķĮê³ł ëĤĺ
Ġê³µë¬´ìĽĲ ìĿ´
ë²Ħ ìĬ¤
ëħ¸ë ¥¼
ë³´ ìĿ´ëĬĶ
Ġê²½ ìľł
Ġìĺ¬ ìĿ¸
Ġê¸°ìĸµ ìĿ´
Ġìľ¤ìĦĿìĹ´ ìĿ´
ëĵ¤ ìĿ¸ëį°
ëĮĢíķľë¯¼êµŃ ìĿ´
Ġë§Įëĵł ëĭ¤
ĠìĿ´ëĨĪ ìĿĺ
ĠìŀĪìĿĦ ëķĮ
Ġê°Ģë¥´ ì¹ĺ
ì£¼ ìĿ¸
Ġìłķë¶Ģ ìķ¼
ĠíĿĲ ë¦Ħ
ìŀĲ ëħĢ
ëĲĺ ìĸ´ìĦľ
ĠìĹ¬ë¡ł ìĿĦ
Ġê°ľëĤĺ ìĨĮëĤĺ
ê²ĥ ìĿ¸ê°Ģ
íģ¬ ëŀ©
ĠíĨł ìĻľ
ĠìĹ´ ìĿ¼
ìĭ¸ ê³ł
Ġì°Įê·¸ëŁ¬ ìł¸
ë ±ī
ì ³
ì§Ħ ê±°
ìŀ¬ ë¯¼
ĠìĿ¸ ìĭł
ë°Ķ ê¿Ķ
Ġë°ĽìķĦ ëĵ¤
Ġëĸ¨ ìĸ´ëľ¨
ĠëĨĢìķĦ ëĤĺëĬĶ
ĠëĦĪë¬´ë §İ
ĠìŀĦ ì¢ħìĦĿ
Ġë§ĪìĬ¤íģ¬ ê°Ģ
ê°Ķ ëĬĶëį°
Ġíĺķ ìĤ¬
Ġìĺģíĸ¥ ìĿĦ
Ġí Ģ
ë¯ ¸ëĤĺ
Ġê·¸ ëĵ¤ìĿĦ
ìľłì¹ĺ ìĽĲ
ëĭ¹ ê»ĺ
ì¤ĳ ê³µ
ìľĦ íĹĺ
Ġìľł ì°©
ĠëĤ¯ ì§Ŀ
ëĭ¤ êµ¬
Ġë§Ĳ ìŀħëĭĪëĭ¤
Ġëĭ¨ ëıħ
ìħ¨ ìľ¼ë©´
Ġíĸ¥ íķ´
Ġì²Ń ëł´
ĠêµŃê°Ģ ëĬĶ
ĠìĹ¬ìŀĲ ëıĦ
ê¸° ê¹Įì§Ģ
Ġê°ľ ëĪĦë¦¬
ëł¸ ëĭ¤ê³ł
Ġìłģ ìĻĢëĮĢ
ìĺ¬ ë¦¬ê³ł
ìĿ´ ìĤ¬ëŀĮ
ìª½ ìĹĲìĦľ
ĠìĤ¬ìĭ¤ ìĿĢ
Ġë°ķ ìĺģìĦł
ĠíķĦìļĶ íķ©ëĭĪëĭ¤
Ġì°į ìĿĦ
ĠëĮĢ ëŁī
ĠìĦ ¸ë¬´
Ġê¸° ëĬ¥
íĥ ±
Ġê¸°ìĤ¬ ëıĦ
ëħĦ ìķĦ
Ġìķħ íĻĶ
ëĿ¼ ë©´ìĦľ
ìĿ¸ ëĭ¤ê³ł
íķ´ ì¤¬
íĬ¸ ëĬĶ
Ġìĸ¸ìłł ê°Ģ
ìķĺ ëįĺ
ë¸ Ĳ
Ġì° °
Ġê·¸ ì¹ĺ
Ġë°° ì¹ĺ
Ġìĸ´ëĶ ĺ
ê·¸ëłĩ ì§Ģ
ĠìĤ´ìķĦ ê°ĢëĬĶ
Ġê³³ ìĹĲìĦľ
Ġë¶Ļ ìĹ¬
ĠìłĢì§Ģ ë¥´ê³ł
ëĮĢ ìłĦ
ĠìĹĨ ì£ł
ëħĦ íĽĦ
ĠìĿ į
ë¶Ģ ëŀŃ
êµ° ìĤ¬
Ġê¸°ë³¸ ìłģìĿ¸
ë°° ë¥¼
ĠãĦ· ãħħ
ìĿ´ ê·¸
Ġëĵ£ ê¸°
ë¶Ģ ìĹĲ
Ġìłľ ìŀĳ
ë°ĺ ìĦ±
ĠëĨĪ ìĿĦ
ĠíĻĶ ëł¥
Ġì§Ī ë³¸
ĠìĿ´ ìłĦìĹĲ
Ġëģ ĵ
Ġë§ŀ ì§Ģë§Į
ì§ĳ ìĿĦ
ìĿ´ìķ¼ ê¸°
Ġê¹¨ ëĭ«
ìŀĲ ìľĦ
ĠíĻ Ī
ĠìĿ¼ ê°Ģ
Ġìļ°ë¦¬ êµŃë¯¼
ĠìĿ¼ë³¸ ìĿ´ëŀĳ
ê±°ë¦¬ ë©°
ĠìŀĪìĿĦê¹Į ìļĶ
Ġ ^
ĺ Ĳ
Ġíķł ê²ĥìĿ´ëĭ¤
Ġìļķ ë§Į
ìĺĢ êµ¬ëĤĺ
ĠìĿĺë£Į ë³´íĹĺ
Ġë¨ ¸ëĥĲ
** *
ĠíĶ¼íķ´ ëĬĶ
ĠìŀĲ ëĵ¤ìĿĢ
ĠíĶ¼ ê°Ģ
ĠìĹĨìĸ´ ì§Ī
ĠìĦľìļ¸ ìĹĲ
ë¯ ¸ë¦¬
ëª «
ì¡°êµŃ ìĿĦ
ĠìķĪ ìĹĲìĦľ
ìļ° ë¦°
Ġëĵ¤ ìĸ´ëĿ¼
ì¹ľ ë¶ģ
ì¦Ŀ ìĿ´
ĠíĺĪ ìķĪìĿ´
ë¡ľ ëıĦ
ë°Ľ ìľ¼ë©´
Ġë³´ë Ŀ¼
Ġê±±ìłķ ëĲľëĭ¤
Ġì±Ļ ê¸°ê³ł
Ġì´Īëĵ± íķĻêµĲ
ë°Ķ ëĭ¤
ĠëĤ´ë ±ī
ìłĦ êµŃ
ê±´ë ¬¼
Ġëªĩ ìĿ¼
Ġë§İ ëĥĲ
ìĹĦ ì²Ń
Ġíŀĺ ìĹĨëĬĶ
Ġë§¤ íģ¬ë¡ľ
ĠìĨį ìĹĲ
ìŀĲë¦¬ ìĹĲ
ĠêµŃ ê²©
Ġíĥľ ê·¹
¸ë° Ľ
Ġì§¤ ëĿ¼
ìĿ¸ë ¶Ħ
ĠìĨĮë¦Ħ ëģ¼
Ġë°Ģìĸ´ë ¶Ļ
Ġìĸ´ ìļ¸ë
Ġë¿Ĳ ë§Į
ì§Ģ ìĺ¥
ĠìŀĪ êµ¬ë§Į
ìľ¼ ëĿ¼ëĬĶ
... !
ĠìŀĪ ëĭĪ
ìļ© ìĦĿ
ìķĺ ìĸ´
ĠìĹ¬ë¡ł ëª°ìĿ´
Ġë³´ëĤ´ ëĬĶ
Ġê¼´ ìĿĦ
ĠíĦ° ì§Ī
ì§Ģ ê¸¸
ĠìĿĳ ì§ķ
ê°ľ íķĻ
Ġì£¼ ê°Ģ
Ġì¡°êµŃ ëıĦ
ë¿Ĳ ë§Į
ĠìµľìĪľìĭ¤ ìĿ´
Ġìłķìĭłì°¨ ë¦¬ì§Ģ
ìħĶìķ¼ ì£ł
ëĬ ¬
Ġì°Ĳ ëĶ°
ðŁĺĤ ðŁĺĤ
Ġê·¸ ëĭ¤ìĿĮ
ìłĢ ìŀĲ
Ġëªħë°± íķľ
Ġíķł ìķĦë²Ħì§Ģ
Ġì§ĸ ìĸ´ëĮĢ
ĠìĹŃíķł ìĿĦ
Ġìĸ´ëĸł íķľ
ìĥģ ê¶Į
íķ© ë¦¬
ì¦ Ĳ
ëıĪ ëıĦ
ìĥī ìĿĦ
Ġìĸĺ ê¸°ê°Ģ
Ġëıħìŀ¬ ë¥¼
ĠëĦ£ ìĸ´
© Ķ
Ġìĸ´ì©Į ë©´
Ġë¶Ħëħ¸ ê°Ģ
ìĿį ìĭľëĭ¤
Ġìĭľ êµŃ
Ġë°ĺ ìĺģ
Ġê°Ģì¡± ìĿĦ
Ġëĭ¤ëĭĪ ë©´ìĦľ
ĠíĮ© íĬ¸ë¥¼
ĠìķĦëĭĪ ëŀĢ
ĠìĨĮ ìĭĿ
Ġìĭł ìĿĺ
Ġì¤ĳêµŃ ìĿ¸ìĿ´
ĠìķĦ ëĤ´
ìĦ¸ ìĹ°
Ġë¯¸ íĻĶ
ì¢ħ ìĿ´
Ġê´ ´
ĠíĴį ëħĦ
ĠìķĦ ëŀ«
ëª ¬
Ġ ,,,
íķľ ëĭ¤ëĬĶê²Į
ì§Ħ ìłķ
ëĭĪê¹Į ìļĶ
ĠìķĦë²Ħ ì§Ģê°Ģ
Ġë¬´ì§Ģ íķľ
Ġìļ° ëıĻ
Ġìľł ëıħ
ëŁī ìĿĦ
ĠëĲł ê±°
Ġíķľ íĳ¼
ë°© ìłľ
ìķĦëĭĪ ì§Ģ
íı¬ íķ¨
ìŀĲ ëĦĪ
ìķĦ ëĭĻ
ë©Ķ ë¥´ìĬ¤
Ġê³µìłķ íķĺê²Į
Ġê²½ ê³Ħ
ìĸµ ì§ľë¦¬
Ġ4 00
ë¶Ģëª¨ ê°Ģ
ìĹĪ ìĸ´ìļĶ
ëŁ¬ ëĭĪ
........ ....
Ġíĺ¸ íħĶ
ìķĦ íľ´
ê¼¬ ë¦¬
Ġì´Ŀìŀ¥ ëĭĺ
ì§Ħ ìĻľëŀĢ
ëĲĺ ëĬĶì§Ģ
ë¦ ´ëķĮ
Ġìŀł ìŀł
ĠëĤĺê°Ģ ë©´
ĠëĮĢ ë§Ī
Ġìľł ê¶Į
Ġì¹¼ ìĿĦ
Ġ ~~~~
ĠìĿ´ ê²ĥìĿĢ
íķ´ìķ¼ íķĺëĬĶ
ĠíĸĪ ìĬµëĭĪëĭ¤
Ġìĭ¤ ìĭľ
ĠëŃī ê°Ģ
ìĿ´ ë¶Ħ
ê°Ļ ì§Ģ
ìĿ´ëĿ¼ ë©´ìĦľ
ìķħ ìĿĦ
e n
Ġì Ĵ
ĠìĹŃ íĴį
ëı¼ ìĦľ
ê³ł ìļĶ
Ġíķ´ ì¤Ģ
Ġê¹Ģ ê²½
Ġë§Ŀ ì¹ľ
Ġãħħ ãħĭ
Ġì°¾ ìķĦìĦľ
ĠìĤ¬ íķŃ
Ġëª» íķĺê²ł
ëĤ´ë Ĥĺ
ĠìĪĺ íĸī
ĠëıĦìĭľ ëĿ½
ĠìĤ´ ëĭ¤ê°Ģ
Ġë¸Į ëŀľëĵľ
ëĵ± ìĿĦ
Ġë°ĿíĺĢ ìķ¼
ðŁĴ ľ
Ġë¹ĦìĹ´ íķľ
Ġ2 2
Ġë´¤ ëĭ¤
Ġì¥Ĳ ìĸ´
ĠíĦ¸ ìĸ´
ëıĦ ìķĦëĭĪê³ł
ëĭ¨ ì²´ê°Ģ
ìł ¤
ĠìķĪ ê·¸ëŀĺëıĦ
ĠíķĺëĤĺ ìĿĺ
ĠìŀĬ ì§Ģ
Ġíķĺê³łìĭ¶ ìĿĢ
ĠíĽĦ ìķĪë¬´
Ġìĸ¸ íĸī
Ġì¡°ìĤ¬ íķĺê³ł
ê±° ì£ł
ê¸Ī ìĿĢ
ìķ¼ì§Ģ ìļĶ
ìĺĢ ëĭ¤ë©´
ĠìĦł ì¡°
Ġêµ¬ ìĦ±
ëıĦ ìĹĨìĿ´
ìķĦ ë¹Ħ
íĻ Ģ
ĠìĿĺ ìĤ¬ê°Ģ
Ġê°Ħ ìłĪíŀĪ
ĠìĨĮì¤ĳ íķľ
íķĺì§Ģë§Ī ìĦ¸ìļĶ
Ġì§Ģ ê²¹
íĮĶ ê³ł
ĠíļĮ ê³Ħ
ë¥´ë Ĥĺ
Ġë°ĺ ë°ľ
Ġìĭ« ëĭ¤ê³ł
ĠìľĦ ë²ķ
Ġë°ľìĸ¸ ìĿĦ
ĠìķĦëĭĪ ìĹĲìļĶ
Ġëª¨ë¥´ ëĬĶëį°
ëĥ Ħ
ìĿ´ ìĹĲìļĶ
Ġë¶ģ ëı¼ì§Ģ
Ġìĸĺ ê¸°ëĬĶ
ìĬ¤ëŁ½ ìĬµëĭĪëĭ¤
ĠêµŃìłľ ìĤ¬íļĮ
ðŁ¤ ¬
Ġì§ĵê±°ë¦¬ ë¥¼
ĠëĬĲëģ¼ ëĬĶ
ë°Ľ ê²Į
ëİ Į
Ġë¶Ģ ëŁ½
ĠëĲĺ ëĤĺìļĶ
Ġ20 20
ĠëĶ¸ë ħĦ
Ġíİ¸ê°Ģë¥´ ê¸°
ëĤ´ ìļĶ
ìĺģ ìŀ¥
ĠìĺĪ ì¸¡
ìĿ´ëĿ¼ ê³¤
ĠìĹŃ ìĤ¬ëĬĶ
Ġìĭ¬ ìĥģìłķ
ĠìĿĺìĭ¬ ìĬ¤ëŁ½ëĭ¤
íĺĲ ìĺ¤
ä º
Ġë§Įëĵ¤ ìŀĲ
Ġìķ½ íķľ
ìĹĲ ëĭ¤ê°Ģ
Ġê¸ ¸ë¡ľ
ê¾¸ëĿ¼ ì§Ģ
ìľł ìĬ¹ë¯¼
ìĻľ ê³¡
ìĦ¸ ëĭ¤
Ġê¸° ë°ĺ
íķĺìĭľ ìĺ¤
ĠìĤ¬íĩ´ íķĺê³ł
Ġì¡° íĺĦ
ëĭ¨ ë§Ĳ
ì´Ī ëĵ±
ĠìĦ¤ëłĪ ë°ľ
ĠìĿ´ìĥģ íķĺëĭ¤
ìĬ¹ íĥľ
ëĮĢíĳľ ëĭĺ
ĠìĿ¼ ìŀĲë¦¬ê°Ģ
Ġìĥģ ëĭ¹íŀĪ
Ġê¸° ë¶ĦìĿ´
ë¥´ ê¸°
Ġê²½ìłľ ë³´ë³µ
Ġíĺķ ìłľ
ìĭłì²ľì§Ģ ê°Ģ
ĠìŀĲ ì¤ĳ
Ġì§Ħ ë£Į
ĠìķĪ ê³ł
ë¬¸ ìłķë¶Ģ
Ġ5 4
íķĺê¸° ê°Ģ
ĠëĪĪì¹ĺ ë³´
ĠëĮĵ ê°Ģë¥¼
ĠìĿ¼ ëĵ±
Ġê°ľ ë¥¼
ë°ľ íĳľ
ĠìĺĪ ë¹Ħ
ì¢ĭ ê²łëĭ¤
Ġë¹Ħ ë°©
ìķĺ ìľ¼ëĭĪ
ĠìĤ¼ ê°Ģ
ëĥ ħìĭľëĭ¤
Ġê°ľ ìĭłêµĲ
ŀĺ ëıĦ
ìĿ´ìķ¼ ë§Ĳë¡ľ
ëĵ¤ ë³´ëĭ¤
Ġìłķ ì²´ê°Ģ
ìĪĺ ê³ł
ĠìĿ¼ ìĸ´ëĤ¬
ĠìĨĮ ê°ģ
ĠìĦł ìĭ¬
ìħ §
Ġê¸°ìĹħ ìĿĦ
Ġëĺ¥ ìĿ¸ì§Ģ
íĭĢ ëŁ¬
ì¹ĺ ìŀĲ
ë§Ĳ ëĮĢë¡ľ
ĠëĨ ¨
Ġëªħ ìłĪ
ë´ ĩ
Ġíį¼ ì¤Ħ
ĠìĪ¨ ìī¬
ĠìľĦíķ´ìĦľ ëĬĶ
Ġë°Ķ ê°Ģì§Ģ
ì§ģ ìĿĦ
ĠëıĮ ë¦¬ê³ł
ĠëĲł ìĪĺ
ĠìŁ ģ
Ġì¡° ìĦ±
ê³Ħ ìķ½
ëĤĺ ëĦ¤ìļĶ
íĦ° ì§Ħ
Ġìķķ ìĬ¹
Ġíİ¸ìĿĺ ìłĲ
Ġì¤ į
Ġë¶Ģ ìŀĳ
ìĸµ ìļ¸
Ġë¨¸ë¦¬ ë¥¼
Ġë°ĶìĿ´ëŁ¬ìĬ¤ ê°Ģ
Ġê²¨ ìļ¸
ìľł ìĺĪ
Ġë°Ķ ê¾¼
Ġìĺ¬ ëł¤ëĿ¼
ìĵ° ëĦ¤
ĠìĿ´ìĥģ íĻ©
Ġê¸ ģ
ë°° ëĭ¬
íĬ¸ëŁ¼íĶĦ ê°Ģ
Ġë¹¡ ëĮĢê°Ģë¦¬
ìĭ¤ ìĿĦ
ĠíĤ¤ ìļ´
Ġê°Ģ ëıĦ
ìĭ¤ ìĹĲìĦľ
Ġìŀĳ ìłķ
Ġëª¨ë¥¸ ì²Ļ
ĠíĨłì°©ìĻľêµ¬ ëĵ¤
ĠëĮĢì±ħ ìĿ´
ī ìĿĢ
ê°Ģ ë£¨
ĠëĲľ ëĭ¤ë©´
Ġë°ķê·¼íĺľ ëķĮ
ëļ ¤
Ġíħ ħ
âľ Ķ
ãħ ĵ
Ġëĵ¤ ìĸ´ìķ¼
ë²Į ìį¨
ê¼¬ ë°ķ
Ġë°Ķë³´ ê°Ģ
Ġê·¸ ëĭ¹ìĭľ
ê¸Ģ ìĿĦ
êº¼ ëĥĲ
ĠêµŃë¯¼ ìĦ±
ĠìĿ´ìłľ ë¶ĢíĦ°
ĠìĨį ì§Ģ
Ġì¤ĳìļĶ íķĺì§Ģ
íķĺ ê³¤
Ġê°ľëı¼ì§Ģ ê°Ģ
ë¯¼ì£¼ëĭ¹ ë§Į
~~~~~~~~ ~~~~~~~~
Ġë¯¼ ìĭ¬ìĿ´
ĠëıĦ ë°ķ
ĠêµĲ ìĪĺê°Ģ
ìłģ ëĭ¹íŀĪ
ĠìĪĺìĪĺ ë£Į
Ġê³µ ì§Ģìĺģ
Ġìľł ìĹĶ
ìĥĪ ê¸°ëĵ¤
íĥľ ìĦŃ
íĭ° ë¸Į
¡ Ģ
ë¶ģ ê´´
Ġë§ī ëĬĶ
Ġê²Ģì°°ê°ľíĺģ ìĿĦ
ìĿ¸ ê²©
êµĲ ì²´
Ġíļ¡ ëł¹
ìĸ´ë ĳĲ
Ġì²ĺë²Į íķ´ìķ¼
ê¸´ë į°
ê¸ī ìĿ´
ĠìŀĦëªħ íķľ
ĠìķĪ íĿ¬
Ġê·¸ëŁ° ê²Į
Ġíĳľ ìłķ
Ġë§Ĳê³ł ëĬĶ
ìĸ´ë³´ ê³ł
ìĦł ìĹĲ
ëįĶ ìĿ´ìĥģ
ĠìĿ¼ìľ¼ ì¼ľ
ëĿ¼ ëĤĺ
ë¦¬ ì§Ģë§Ĳê³ł
ĠìŀĲì£¼ êµŃë°©
Ġë¯¼ ì¢ĥëĭ¹
ĠíĥĿìĭľ ê¸°ìĤ¬
ĠëªħìĺĪ íĽ¼ìĨĲ
ëĮĦ ëĭ¤
í ľ
ëĭ¨ ì²´ë
ĠëĦĺ ê¸°
Ġëĵľ ëŁ¬ìļ´
ìĽĥ ê¸°
ĠëĬĲëĤ Ģëĭ¤
íĬ¸ë §Į
ëĤĺëĿ¼ ëĥĲ
ĠíĻķ ìĭł
Ġê°ľ íĳľ
ìĿ¸ë Ĳĺ
Ġíĺ¸ ìĿĺ
Ġë°ĸ ìĹĲìĦľ
.. ,
íķł ê¹ĮìļĶ
ĠëĤ´ ì§Ģ
Ġìķħ ìļ©
íķ´ë³´ ìĦ¸ìļĶ
ìĸ´ë³´ ìŀĲ
Ġê²°ë¡ł ìĿĢ
ìľ¼ë¡ľ ë¶ĢíĦ°
ìĤ´ ê³ł
êµŃê°Ģ ë¡ľ
Ġê°Ģìł¸ ëĭ¤
ê¸° ìĤ¬ëĬĶ
ë²Ħ ë¦¬ëĬĶ
ĠìĻ¸ ì¶ľ
ìłķì¹ĺ ë¥¼
ĠëĤĺìĻĶ ëĬĶëį°
Ġì¡°êµŃ ìĪĺíĺ¸
ê°Ī ëķĮ
Ġê°ľìĿ¸ ìłģìľ¼ë¡ľ
Ġëĭ¹ ìĿĦ
ë§Ĳ íķĺëĬĶ
ĠëĶ¸ë ŀĳ
u t
Ġìŀĺ íķĺë©´
ĠìķĬ ëıĦë¡Ŀ
ë§Ŀ ìłķ
Ġìĭľë¯¼ ëĵ¤ìĿ´
Ġê³³ ìĿĢ
ì§Ģë§Ĳ ëĿ¼ê³ł
Ġìĺ¨ êµŃë¯¼ìĿ´
Ġì£¼ ìłģ
ìłĢ ì§Ģ
ìĭľê°Ħ ìĿ´
ê¸°ìŀĲ ìķ¼
ìĬ¤ ëıĦ
ĠìķĦëĭĪ ëŀĦê¹Įë´Ĳ
ë°ĺ ëĵľìĭľ
ĠìĤ¬íĩ´ íķĺëĿ¼
Ġìłģê·¹ ìłģìľ¼ë¡ľ
ê²° ë¡ł
Ġê²Ģì°° ìĪĺìĤ¬
ĠíĶĦ ë¦¬
ĠíĬ¸ëŁ¼íĶĦ ëĬĶ
Ġìľłìĭľë¯¼ ìĿ´
Ġë½ ķ
ê·¸ë £¹
ê°ĳ ìŀĲê¸°
ë¬´ ìĤ¬
Ġë¶ĢëģĦëŁ½ ì§Ģ
c tv
ĠìŀĲ ìĨĲ
ìľł íķĻ
Ġìĺģ ê°Ĳ
ĠìĨĲ ìľ¼ë¡ľ
ê° ļ
ĠëĦĪ ê·¸
Ġë§İìĿĢ ì§Ģ
ĠëĤľë¦¬ ë¥¼
Ġëĭ¤ ë¥´ëĥĲ
ìĭľì¼ľ ìķ¼íķľëĭ¤
íĦ ¸ë
ĠìĨĮ ìľĦ
ì¤Ģ ìĦĿ
Ġì£½ ìĸ´ìĦľ
Ġìłķì±ħ ìĿĢ
Ġ --
íĸĪ ëĭĪ
Ġìłģ ë°ĺíķĺ
ìĶ© ìĿ´ëĤĺ
íĶ¼íķ´ ìŀĲ
ĠíĦ¸ ê³ł
ìĹĨ ëĭ¤ëĬĶ
Ġìĺ¤ ìĦ¸íĽĪ
Ġì§ĵ ë°Ł
ìĹ¬ ìŀĲëĬĶ
íĸĪ ëįĶëĭĪ
íĨł ë¡ł
íĤ¤ ëĬĶ
Ġê¹Ģ ìĦ±íĥľ
Ġìĭ¤ ëªħ
íķľ ëĤĺëĿ¼
Ġì§Ģ ê³ł
ë¶Ģ íĥģ
ìŀĦ ëĮĢ
Ġë¯¼ ê²½ìļ±
Ġê¸Ī ìĪĺìłĢ
Ġìī½ ì§Ģ
ĠíĺĲ ìĿĺ
Ġê±° ì£¼
Ġë¶ģíķľ êµ°
ðŁ ĸ
ĠíķĻ ëĮĢ
Ġëķħ ìĹĲ
Ġìŀĺ íķĺìĦ¸ìļĶ
Ġê²½ìłľ íıŃë§Ŀ
ìĿĦ ëĿ¼ê³ł
Ġíķľ ë§Īë¦¬
Ġëĭ¤ë¥¸ ìĤ¬ëŀĮ
ĠíĸīëıĻ ìľ¼ë¡ľ
Ġê±° ë¦¬ëĬĶ
Ġê²Ģ ìĤ¬ê°Ģ
ĠëĬĺ ëł¤
ĠìłĢ ìĨĮëĵĿ
Ġì§Ģê¸Ī ê»ı
Ġë°ķ ì§ĢìĽĲ
ìĺĪ ìĪĺ
Ġëıħìŀ¬ ìłķê¶Į
ĠìĻ¸êµŃ ìĹĲìĦľ
ëŀĢ íŀĪ
ê²Ħ ëĭ¤
Ī Ħ
ĠìķĦ ê¸°
ìĭľ ìŀ¥ìĿ´
ĠìĿ´ ìĬ¤
Ġê±° ìłĪ
Ġíıī ìĨĮìĹĲ
ĠìłĦëĿ¼ëıĦ ëĬĶ
ë³ ¶
Ġë¬¸ìłľ ìŀĦ
ĠìĹ¬ê¸° ê¹Įì§Ģ
íļĮ ì°¬
Ġì¤ĳ ìĤ°
Ġì£¼ ìĿĺ
Ġëĭ¤ëĭĪ ëĥĲ
Ġëįķ ìĹĲ
ìĭł ì²Ń
ĠìĥĿê°ģ íķ´ëıĦ
Ġê±° ë¡ł
ĠíĸĪ ìĸ´
Ġê°ķ ëıĦ
Ġì¶Ķ íķľ
Ġê¸į ìłķ
ì¼Ģ íĮħ
Ġìĸ´ìĿ´ ìĹĨëĭ¤
ĠëĤĺë¨¸ ì§ĢëĬĶ
ëĵľ ë¦¬
Ġë¯¼ì£¼ëĭ¹ ëıĦ
Ġìĭ¶ ìĬµëĭĪëĭ¤
ìľ ½
ĠìĿ´ë¦Ħ ìĿ´
êµ¬ ëıĦ
ĠëĨĪ ìķĦ
Ġê°Ħ íĺ¸ìĤ¬
íĺĢ ëĿ¼
Ġíķµ ë¬´ê¸°
Ġìŀ¥ìķł ìĿ¸
ìłķ íķĺê²Į
ì¹ĺ ë©´ìĦľ
ì¡° ë§Įê°Ħ
ëķĮë¬¸ ìĿ´ëĭ¤
ë¯¸ ëĬĶ
ëĤ¨ ìĿ´
ê·¸ëŁ¬ ëĥĲ
ìķĺ ê³ł
ĠìĻ¸ ì¹ĺê³ł
íĻķ ìĿ¸
Ġë¨¹ê³ł ìĤ¬ëĬĶ
íķ´ ì²´
ê°Ĳ ëıħ
ë²Ī íĺ¸
Ġë²Ħ ëł¤ëĿ¼
Ġê¹Į ëĿ¼
2 2
Ġìļ ±
Ġíķ´ ê³ł
ìķĺ ìĿĮ
ĠëĬĲê·¸ ëĵ¤
ĠìŀĲë°ľ ìłģìľ¼ë¡ľ
ì¹ĺ ë¡ľ
íķłê¹Į ë´Ĳ
ë°Ķ ìĿ´
ĠìĻĦ ìŀ¥
ĠìķĦìĿ´ ëĵ¤ìĿĦ
ĠìĤ¶ ìĿ´
Ġì²´ íģ¬
ĠìłĢì§Ī ëłĢ
Ġë§Ĳ íĪ¬
ëĵ± ìĿ´
Ġì§Ģì¼ľ ë³´ê³ł
3 1
Ķ ¸
ì¹ĺ ëĬĶê±°
ê³ł ë§Ī
ìŀĲ ë¦¬ëĬĶ
ĠìŀĲ ìĹħìŀĲëĵĿ
Ġìĵ¸ ìĸ´ë²Ħ
ì´ĿìĦł ìĹĲìĦľ
Ġê²½íĹĺ íķĺì§Ģ
ìķ½ íķľ
íķ´ ì¤ĺëĿ¼
Ġê¹Ķ ìķĦ
Ġë· Ķ
ĠìŀĲìĺģìĹħ ìŀĲëĵ¤
íķĺëĬĶ ê²ĥìĿĢ
íĨµ ê³¼
ĠíĸĪ ê²łì§Ģ
Ġë°° ìļ°ê³ł
Ġëĸ¨ìĸ´ ì§Ħëĭ¤
Ġì¿ µ
ë°ĺ ìĹĲ
ðŁ Ļ
Ġì£Ħ ëĬĶ
Ġëĵ¤ìĸ´ ê°Ģë©´
êº¼ ë¦¬
íķĻìĥĿ ëĵ¤
³´ë £Į
ëĭ¤ ëĤĺ
Ġë¬´ ê°ľëħĲ
Ġìĺ¬ëĿ¼ ê°Ģ
ĠìķĪ ìĨį
íĨł ë§ī
ĠìĿ¸êµ¬ ê°Ģ
Ġêµ¶ ìĸ´ì£½
ĠíķĺìĪĺ ìĿ¸
ìĸ ¸ë
Ġë§Ĳ ì¢Ģ
Ġë³´ ê±´
ĠíĽĦ ë³´ìŀĲ
Ġìı ł
Ġê³ł ê¸°
ĠëĮĢíķĻ êµĲ
ĠìķĪ ì£½
Ġê°Ģ ë³į
ĠìĽĲ íĿī
Ġë¬¸ìŀ¬ìķĻ ìĿĦ
¯ ¸ëŀĺ
ĠìķĪ íķ´ìĦľ
ì£¼ ëĬĶëį°
ëĬĶê²ĥ ìĿ´ëĭ¤
Ġíķĺ ëįĶë§Į
ê°Ĳ ìĹĲ
ĠìĿĺìĽĲ ëĭĺ
ĠìĹĨ ëĬĶì§Ģ
Ġêµ¬ ìłľ
ìŀ¥ ìĿĺ
Ġê±° ìĭľê¸°
ĠìĻķ ì°½
ĠêµŃìĿµ ìĿĦ
ìĸ´ ëĬĶ
ĠìķĪ ëĭ¤ê³ł
Ġê°Ģ ëĥĲ
Ġê·¸ ëıĪìľ¼ë¡ľ
ĠìĨĮë¦¬ ëĥĲ
Ġë³µ ê·Ģ
Ġì±Ħ ìļ°
ĠëĨĶ ëĳĲ
Ġìĭł ë°ľ
Ġëĸ¨ìĸ´ ì¡Į
Ġë§¹ ëª©
ĠìĨĲíķ´ë °°ìĥģ
ìĭľ ëĿ¼
ëıĻ ìĿĺ
Ĳ ł
Ġë µĪ
ĠëĭĪ ëıĦ
ëĵľ ëĶĶìĸ´
ê°Ĳ ìľ¼ë¡ľ
ìĻĶ ëĦ¤
íĩ´ ê·¼
Ġíķľ ìľłì´Ŀ
ìŀ¬ ëĭ¨
ĠìĦ¸ ì¢ħ
ëŁ° ì§Ģ
ìĺ¤ëĬĺ ëıĦ
Ġíķł ë§ĲìĿĢ
ë¶Ħ ëªħ
ìķĦëĭĪ ëĿ¼ê³ł
Ġë¶Ģë¥´ ì§ĸ
Ġê·¸ëŀĺ ëĨĵê³ł
ĠëĪĪ ë¨¼
Ġì¤Ħ ìĹ¬
Ġìłľë°ľ ì¢Ģ
Ġê¸°ìĹħ ìĿĢ
Ġê¸°ëĭ¤ ë¦¬ê³ł
Ġìŀĳ ê°Ģ
ê¹ĢìłķìĿĢ ìĿ´
ìĭľ ë¥¼
Ġìłķ ëĭ¹ìĿ´
ìŀĪ ìĸ´ìļĶ
ĠíĬ ¼
Ġì°į ëĬĶ
ĠìĿ´ëŁ¬ íķľ
ĠíĪ¬ëªħ íķĺê²Į
êµ¬ ìķ¼
Ġë½ĳ ìķĦìķ¼
Ġë¿Į ëł¤
Ġìĵ°ëłĪê¸° ìķ¼
ìĿ´ ê±°ëĤĺ
íĻĶ ë¡ľ
ĠìĹĦ íķľ
ëĩĮ ê°Ģ
Ġì¾ Į
ĠìķŀëĴ¤ ê°Ģ
Ġë§Ĳ ëĿ¼ëĬĶ
ĠìĪĺ ë°ĸìĹĲ
Ġë² ½
ìŀĳ ìĹħ
ëª© ìľ¼ë¡ľ
ë¬¸ìŀ¬ìĿ¸ ìĿĺ
íķ´ ìł¸
ìĿ´ëĿ¼ê³ł ëĬĶ
Ġëĸł ëĦĺ
ëĸ µ
Ġê¹¨ ìĸ´ëĤĺ
Ġíİ Ģëĵľ
ê°Ħ ìĿĦ
Ġê°Ĳë°© ìĹĲ
ìĦł ìĿĢ
ĠìķĬìķĺ ëĬĶëį°
Ġ ðŁĺ
ìĽĲ ìĪĺ
ìĨĮ ë¦°
Ġëĭ¨ íķ©
Ġê´Ģìĭ¬ ìĿĦ
Ġê°Ģ ìĪĺ
ëĭ¨ ìĭĿ
Ġë²ķ ìĹĲ
Ġë¶Ģ ìłģ
Ġì§ĳ ìĿ´
Ġê·¸ëŁ° ì§Ģ
Ġì´Ŀ ìķĮ
ì§ĢìķĬ ê²Į
ĠìķĬ ì§Ģ
Ġê°ķ ìĿĺ
Ġì¹ĺ ìĤ¬
ê°ķ ëıĦ
ĠìķĦìĿ´ ëıĮ
Ġíİ ľ
Ġì ¥
ìĻ ł
ê¼ °ëĮĢ
ë§Į ëĤĺ
ìĽĲ ì¹Ļ
ì¤ĳ ìĿ´ëĭ¤
ĠìŀĦ ë§Ī
~ .
ìĿĢ íĺľ
Ġê°Ģ ë¡ľ
ìĿ¸ë ĶĶ
Ġãħĩ ãħĪãĦ¹
ë§Ĳ ìķĦë¨¹
ĠíĮĲëĭ¨ ìĿĦ
ĠêµĲ ê³¼
ìŀĲìľł ëĭ¹
ë¯¸ ê°ľ
ìĹ° ë´ī
ë²Ħ ëł¸
¡ ł
Ġë§İ êµ¬ëĤĺ
ëĵ± ìĹĲ
Ġê³µìĤ°ì£¼ìĿĺ ìŀĲ
ê²ĥ ìĹĲ
ìĦĿ ìĿĦ
Ġíį¼ íĬ¸ë
ë§Ī ìķ½
ĠíĶ¼ ë¥¼
Ġë³´ìĪĺ ë¥¼
ĠìĦ¸ëł¥ ìĿ´
ë³´ëĤ ¸
ĠíĹ ·
Ġãħłãħł ãħł
ĠëĲĺ ê²łëĭ¤
Ġìłľ ëªħ
Ġ2 6
ĠìĦ± íĿ¬ë¡±
Ġê²Ģì°° ê³¼
Ġë½ĳìķĦ ì¤Ģ
Ġëĳ ¬
ĠìĪĺìĤ¬ íķ´ëĿ¼
ë³´ ëĵľ
ìķĪ ìłĦ
ìłĢ ê²ĥ
ìª½ ìĿ´
ë°© íķ´
ì ±
ìłķ ìĪĻ
êµ¬ ê¸°
Ġëĭ¤ ì£¼íĥĿ
Ġê°Ĳìĭ¸ ê³ł
ìķ ±
ĠëĤĺ ê³ł
ĠìĮĵ ìķĦ
ìķĪíĥĢ ê¹Ŀ
Ġë¨¹ ìĸ´ëĿ¼
Ġëĺ¥ ì¤Ħ
ëľ¨ ê³ł
ĠíĮĲê²° ìĿĦ
ĠëĤ´ë¦¬ ê³ł
Ġíį¼ì£¼ ê¸°
Ĩ ĶëĿ¼
ĠìķĮ ê²łì§Ģ
ì½Ķ ìĬ¤
o o
ĠíķĻêµĲ ìĹĲìĦľ
ìĿ¼ ìĪĺëıĦ
ĠS NS
ìłķ íĻķ
ìĪĺ íķľ
Ġë°ĺ ë©´
ĠëĤ¨ ë°ľ
Ġê²¸ ìĨĲ
ĠìĿ´ ì¯¤ëĲĺë©´
Ġê¸° ìŀĲëĬĶ
Ġìŀĺ íķľê±°
Ġë¬¸ìŀ¬ìķĻ ìĿĺ
Ġë²¤ ì¸ł
Ġì£¼ ë§Ĳ
ìłķì±ħ ìĿĦ
ìĿ´ ìĸ¸ì£¼
ëħĦ ìĥĿ
Ġê°ľ ëĬĶ
ĠìĪĺìĤ¬ ëĬĶ
Ġì²´ ìłľ
ĠìłĢëŁ° ê±¸
ë§Įìľ¼ë¡ľ ëıĦ
ĠìŀĲìĭĿ ëĵ¤ìĿĢ
ë§İ ëĦ¤
ĠëĮĢíĨµëł¹ ìĿ´ëĿ¼ê³ł
Ġë¶ģíķľ ë§Į
Ġ3 5
ĠëĨĪ ìĿĺ
ĠìĪĺìĤ¬ ê¶Į
Ġíĺķ íİ¸
ì²ľ ìĸµ
Ġë°ķ ìĪĺë¥¼
ìĿ´ íĭĢ
êµ ½
Ġíķĺ ìĿ´
íĻĶ ëĬĶ
Ġëĭ¨ ëĭ¨íŀĪ
Ġëĵ¤ìĸ´ ëıĦ
Ġê¾¸ ì¤Ģ
ëĭ ´ë°°
ĠìĹĨ ëĤĺìļĶ
ë§ŀ ëĭ¤
ĠìŀĲìĭł ëĵ¤ìĿ´
ê´Ģê³Ħ ë¥¼
ìĨĮë¦¬ ìķ¼
Ġë§ī ìķĦëĿ¼
ĠíĨµ ìĪĺ
ĠìķĦë²ł íķľíħĮ
Ġíķľëªħ ëıĦ
ĠìłĦ ìŀ¬ìĤ°
ìĶ¨ ë¥¼
ĠìĤ¬ëŀĮëĵ¤ ë§Į
ĠíĻ© ìłľ
Ġë»Ķ íķľ
Ġë¬ ¸ë¹¨
ìĻĢ ìĿĺ
ĠíĿ Ļ
ìĸ´ ì§¸
Ġìĵ° ëĦ¤
Ġëĭ¹ìĭł ê°ĻìĿĢ
Ġêµ ´ë¦¬
ë²Ħ ëĭĿìį¬
Ġêµ°ëĮĢ ëıĦ
Ġíķĺ íķĦ
ì£Ħ ëĬĶ
ìłĦ ê¹Įì§Ģ
Ġìĸ´ ê±°ì§Ģ
ëŀĺ ëıĦ
ĠëĮĵê¸Ģ ëĭ¤ëĬĶ
Ġì£½ ìĹĪëĬĶëį°
Ġì¢ĭìķĦ íķĺëĦ¤
Ġj tbc
Ġëı ĭ
ìĸ´ë Ĩ¨
ìļ© ì§Ģ
ĠìķĮ ê²łëĦ¤
ìŀħ ìĿĢ
ĠëĤĻ ìĦł
ê·¸ëĨĪ ìĿĺ
ĠìĥĿê°ģ íĸĪëĬĶëį°
Ġì§ķ ìļ©
Ġì¶Ķì¢ħ íķĺëĬĶ
ëĮĢ ë°ķ
ĠíĦ° ì§Ģ
Ġí Ĩ
Ġë¯¿ ìĬµëĭĪëĭ¤
ìĨĲ ìĨĲ
íķĺëĬĶ ê±´ì§Ģ
ĠìķĦë¬´ íĬ¼
Ġëį© ìĸ´ë¦¬
Ġë¨¸ë¦¬ ëĬĶ
ëļ Ŀ
¦ Ń
ë§Į ë´ĲëıĦ
ĠìĪĺ íķĻ
ìĿ´ìĹĪ ìľ¼ë©´
ìĥģ íĴĪ
ìłĦ êµĲì¡°
ì²Ń êµĲìľ¡
Ġì°¨ ê°Ģ
ìĿ´ëĿ¼ëĬĶ ê±¸
Ġë°ĽìķĦ ëĵ¤ìĿ´
Ġëĸ¡ ê²Ģ
Ġë³´ ìĿ´ëĤĺ
Ġë§ŀ ìĦľ
ì¸µ ìĿĢ
ĠìŀĲ ë¦¬ê°Ģ
Ġë§Ĳ ìķĪ
íĸĪ ìĸ´ëıĦ
Ġíķĺë£¨ íķĺë£¨
ĠëĤ´ë ł¸
ê·¸ëŀĺ ìķ¼
Ġë°ĺìĿ¼ ìĦłëıĻ
ĠëĲł ê²ĥ
Ġì¡° ì¹ĺë¥¼
ì²´ ìłľ
ì©Ŀì©Ŀ ìĿ´
ëĭ¹ íķ´
ĠëĮĢê¹¨ë¬¸ ëĵ¤ìķĦ
ëĮĢíĳľ ê°Ģ
Ġì ĳ¥
ìĿ´ ëħĲ
ëĮĢ íĨµ
Ġë³´ ì¢Į
ĠìĪĺ ìĨĮ
Ġìłģ ìľ¼ë¡ľ
Ġë¯¿ ëĥĲ
Ġë¹Ħë¡¯ íķľ
ë°ľ ê´ĳ
Ġìĵ° ëĿ¼ê³ł
Ġê°Ĳ ì°°
Ġë¨¹ ìĸ´
Ġë°° ê³ł
ìŀĲ ê¸°ê°Ģ
ĠëĤ¨ ìĹĲê²Į
ĠëĶĶ ì§Ģ
ĠëĤĺìĻĶ ëĭ¤
íķľ ë§Ĳ
ĠìĻľ ëĵ¤
Ġê²ĢìĤ¬ ë¥¼
Ġìĸ´ ìĦ¤
Ġìļ° ìĥģ
Ġì£½ ìĹĪ
Ġë© ´ë
Ġê°ĢëĬ¥ ìĦ±
Ġì´Ľë¶Ī ìĿĦ
ìĸ´ëĨĵ ìĿĢ
ìŀĲ íķľ
ìĭľ ëĤĺìļĶ
ĠìĿ´ ìĬ¬ëŀĮ
Ġíķ´ ì£¼ëĬĶ
ĠìĻ¸êµĲ ë¥¼
Ġëħ¸ì¡° ê°Ģ
ĠìĬ¤ íĨł
ĠìĦ¸ê³Ħ ìłģìľ¼ë¡ľ
ĠëŃ ¡ëĭĪê¹Į
ìĭ¬ ê°ģ
ëĳĲ ê°ģ
Ġìķķ ëł¥
ë³¸ë ¶Ģ
ĠìŀĶ ëľ©
ë¬¸ ìĪĺ
Ġë§ŀ ìĿĢ
Ġìĥģ ìĭ¤
íİ¸ íĸ¥
ê¹Ģ ê²½ìĪĺ
Ġê²½íĹĺ íķ´ë³´ì§Ģ
Ġë©Ī ì¶Ķ
Ġêµīìŀ¥ íŀĪ
Ġê²½ ëĤ¨
Ġìłķì±ħ ìľ¼ë¡ľ
Ġìłķìĥģ ìĿ´
ĠìĿĺ ìĽĲìĿ´
ĠìĹĦ ê²©
Ġëĭ¤ìĭľ íķľë²Ī
Ġê´ĳíĻĶë¬¸ ìĹĲìĦľ
Ġëĭ¤ ìĭł
ìĦ¸ íı¬
ĠëĳĲê³ł ë³´ìŀĲ
Ġìłľì¡° ìĹħ
ìĿĮ ìĭĿ
ĠëĤĺìĺ¤ ëĤĺ
Ġë°©ë²ķ ìĿĢ
Ġì¶Ķ ìķħ
ìĿ¼ë³¸ ìĿĺ
Ġëĭ¨ìĪľ íŀĪ
Ġì§ĳ ìĸ´ëĦ£
ëĦĪ ë¬´ë
ìĨĲ ìľ¼ë¡ľ
Ġíĩ´ ì§Ħ
Ġê°Ģ ëĳ¬
Ġì²ľ ë§Į
Ġì±ħìŀĦ ì§Ģ
ìĥĿê°ģ ìĿĢ
Ġíĩ´ ê·¼
ì´Ī ë¶ĢíĦ°
Ġëĸ¨ìĸ´ ì§Ģë©´
Ġê·¸ë° ¥
ĠëĤĺ íķľíħĮ
ëģ Ĭ
Ġê³ł ë¡ľ
ĠìķĪëĲĺ ëĦ¤
ĠëĬĲëĤ Ģ
ĠìķĪ ìĺ¤
íĻĺ ìĿ´
Ġë³´ ëĭ¨
Ġë³´ ëĬĶê²Į
ìĿ´ëĥĲ ê³ł
ëĦĺ ëĵ¤ìĿĢ
Ġë°± ë²Ī
Ġëĭ¹ ëĭ¹íŀĪ
ĠëĺĲ ëĭ¤ë¥¸
Ġê¹Ģ ìĺģìĤ¼
Ġë©´ ìłľ
Ġìĸ´ì²ĺêµ¬ ëĭĪ
ì§Ģ êµ¬
Ġì¤ĳ ìĭ¬
ê¸ī ìĹ¬
Ġë³´ìĹ¬ ì£¼ê³ł
ĠëĤ¨ìŀĲ ëĵ¤ìĿĢ
êµŃ ìłģ
ĠìŀĲ íıŃ
Ġë¶Ī ìĿĺ
ê³Ħ ìĹĲ
íĹĮ ë²ķ
Ġë¶ģíķľ íķľíħĮ
Ġì°½ ê¶Ĳ
Ġìĺ® ê²¨
³ ¸
ĠìĿ¼ íķł
Ġê°ľ êµ¬ë¦¬
ëħĦ ì§¸
ĠìĿ´ìļ© íķľ
ĠìŀĪ ëĬĶê±°ìķ¼
ĠìĺĪ ìłķ
Ġë§İ ëĭ¤ëĬĶ
íķĺê²ł ëĤĺ
ĠìĻ¸ë ħ¸
Ġíķľë¯¸ ëıĻë§¹
íĭĢëĶ± ëĵ¤
Ġ U
ĠìķĪ ëĤ´
íĽĦ ìĨĲ
ĠëĭĪëĦ¤ ëĵ¤
.. !!
ĠìĿ¸ê°Ħ ìĿ´ëĭ¤
Ġì»¨ íĬ¸ë¡¤
ê· Ħ
Ġê°ķ ëĭ¤ëĭĪìĹĺ
Ġë³¸ ì§ĪìĿĦ
ë¦´ ê¹Į
Ġìłķìĭłë³ĳ ìŀĲëĵ¤
ìłķ ìŀĳ
Ġíķľ ìłĦ
ĠìĿ´ë ĥĲ
íĻĶ ëĲľ
íĥľ ê²½
ìĿ¸ê°Ħ ëĵ¤ìĿ´
êµ ³
ì²Ń ìłķ
Ġë³¸ ì§Ī
ĠìĶ¨ ë¥¼
ì§Ī ìķĬ
ĠëĲł íħĲëį°
Ġë©Ķ ê°Ī
ëĿ¼ ëĬĶê±°
ëĮĢ ë§Į
ĠìĤ¬ ì§Ģ
Ġì¡° ë¡ľëĤ¨ë¶Ī
Ġì§ĢìĽĲ ìĿĦ
ĠêµĲíĨµ ìĤ¬ê³ł
ì¡° ìŀ¥
Ġíı ¼
ĠìĥĿê°ģ íķ´ë´Ĳ
Ġì§ĳ ìĤ¬
Ġíķĺ ìŀĸìķĦ
ĠìĨį ëıĦ
Ġìĭ¸ ìļ°ëĬĶ
ĠìĤ¬ ìłķ
ìĿ¼ ì§Ģ
Ġê²Į ìĿ´íĬ¸
Ġê°Ģ ëĬĶêµ¬ëĤĺ
Ġê°ľ ë¯¸
ìĥĪëģ¼ ëĵ¤ìķĦ
ëĮĢ ìĻķ
Ġì§Ģ ëĵ¤ëıĦ
ĠìŀĲ ë¦¬ë¥¼
Ġë°©ìĨ¡ ìĹĲìĦľ
ĠíĻ©êµĲìķĪ ìĿĢ
ĠêµŃ ë½ķ
Ġë¶Ģ ë¥´ëĬĶ
Ġíķ´ìķ¼ íķ©ëĭĪëĭ¤
Ġë³¸ìĿ¸ ëıĦ
ĠëıĦëĳĳ ì§Ī
Ġë°© ìĭĿ
ë¯¸íĨµ ëĭ¹
íķĺ ëĭ¨
ê°Ģ ë´Ĳ
Ġë¯ ¸ëł¨
Ġëĵ¤ìĸ´ ìĺ¤ëĬĶ
Ġìļ¸ ê³ł
ìŀĲ ìĭĿìĿ´
ëĵľ ëĬĶëį°
Ġìĥģ ì§ķ
ĠìľłìĿ¼ íķĺê²Į
ê³ł ëĬĶ
ĠìķĪ íĮĶ
ĠìĦ± ê²½
Ġê·Ģ ê±¸ìĿ´
ĠìĪ¨ ìĸ´ìĦľ
ìĦľ ë¹ĦìĬ¤
ìĦ± íıŃíĸī
íķĺìħ¨ ìĬµëĭĪëĭ¤
ĠíķĺëĬĶ ê²ĥëıĦ
Ġíķĺê³ł ìŀĪëĦ¤
ĠíĺĦ ìĥģ
ĠìĽĲ ì¡°
ìĿĦ ê±¸
ĠìĿ¼ íķ´ìĦľ
íıŃ ëıĻ
== ==
ìŀĪ ëįĺ
Ġê±° ì£ł
Ġë¶ģíķľ ìĿ´ëŀĳ
Ġìĭ¤ ìĭľê°Ħ
ë¹¨ ê°Ħ
Ġëĭ¨ ìĸ´ë¥¼
ìļ´ëıĻ ê¶Į
ĠìĿ´ìķ¼ ê¸°ë¥¼
Ġëľ» ìĿ´
Ĳ ì§Ģ
íĿ ł
Ġê·¸ëŁ° ê±´
Ġëĭµ ìĹĨëĭ¤
Ġê¸¸ ê²Į
íķĺê³ł ìŀĪëĬĶ
Ġìŀĺ ëĵ¤
ë¹Ħ ìķĦ
ëŀĳ ìĿĢ
Ġë°ľ ëģĪ
Ġìľł ë°ľ
Ġìĸ¸ë¡ł ê³¼
Ġë¶ĪëŁ¬ ìĦľ
ĠíĿ¥ ë¶Ħ
êµ ¿
ĠìĿ¼ ìĿ¸ëį°
Ġë°Ķ ëŀĦ
ê°Ĳ ìĺ¥
ĠíķĺëĤĺ ëĭĺìĿ´
ĠëĤĻ íķĺìĤ°
Ġíı¬ê¸° íķĺê³ł
ë ±Ģ
ê²łëĭ¤ ëĬĶëį°
ĠìĭľíĤ¤ ë©´
ìľĦìĽĲ ìŀ¥
Ġê·¹ ì¹ĺ
ĠëĩĮ íĶ¼ìħľ
ìĿĺ ê²¸
Ġíķľ ê°Ģì§Ģ
ĠìĤ¬ìĭ¤ ìĿ´ëĿ¼ë©´
Ġìĺ¤ì£½ íķĺë©´
ëĤĺ ê°ĢëĬĶ
Ġ15 00
ìĤ¬ ìĹĲìĦľ
ĠìĮį ìļķ
Ġê³µê°ľ íķĺê³ł
ê²Ł ëĥĲ
ìĸ´ë³ ´ë©´
ðŁĸ ķ
ë¦¬ ìĸ´
ë² ¤
ĠìĿ´ë §Ī
Ġê¸° ìĽĲíķ©ëĭĪëĭ¤
ĠëĲĺ ê²łëĥĲ
íķ¨ ê³¼
Ġìłķ ì¤Ģìĺģ
ĠëĴ¤ ë¡ľëĬĶ
ĠìķĮ ê²łëĬĶëį°
ĠíĺĦ ëªħíķľ
ìĺģ íĳľ
ìŁ İ
ëħ¼ ë¬¸
ðŁĩ°ðŁĩ ·
Ĺ ëĤł
Ġìļ°ë¦¬ íķľíħĮ
ìł¸ ìķ¼íķľëĭ¤
Ġë³´ íĥľ
ĠìłĢ ì©Į
ë¬¼ ë¡ľ
ĠìłĢ ëŀ¬
ìĭľ ê²Į
ê°Ļ ìľ¼ëĭĪ
Ġì¹ľêµ¬ ê°Ģ
Ġì´ī ìĥĪ
ê±´ ìĦ¤
Ġëĭ¹ íķ´ëıĦ
Ġê·¸ëŀĺ ìļĶ
ĠìķĦë¬´ë łĩ
Ġì§ĢëĬ¥ ìĿ´
ĠìĤ¬ ìĿ´ëĭ¤
ĠìĦ¸ ìļ´
Ġê·¸ëŁ°ëį° ëıĦ
Ġì²łìłĢ íķľ
ë¯¸ ëĭ¬
Ġë³µ ìĪĺ
// //
ìĿ´ ëĨĪ
ë²ķ ìķĪ
ĠìĿ¸ê°Ħ ë§Ĳì¢ħ
Ġì¤Ħ ìĿ´
ëª¨ ëıħ
Ġìĵ°ëłĪê¸° ëĬĶ
Ġìĸ¸ë¡ł ìĿĦ
ëį° ìļĶ
Ġíĥľ êµŃ
Ġì§± ê»ĺ
Ġíı¬ê¸° íķľ
ĠëĲľìŀ¥ ìĿ¸ì§Ģ
ì¤Ħ ìĿĢ
ĠìķĪëĲĺ ìĦľ
Ġë°± íį¼
ĠíķĺëĤĺëĭĺ ìĿĺ
ìłķìĭłë³ĳ ìŀĲ
ëĲĺ ëĭĪê¹Į
Ġì¤ĳìļĶ íķĺëĭ¤
Ġê³¨ ìĪĺ
ëĤĺ ëĬĶëį°
Ġëª» ëĵ¤ìĸ´
Ġë¯¸ìĦ¸ë¨¼ì§Ģ ê°Ģ
ë¬¸ì£Ħ ìķĻ
Ġì°Ķ ëŁ¬
Ġê°Ģê´Ģ ìĿ´ëĭ¤
Ġê³ł ë¦½
íħĮ íĥĢ
Ġìĥģ ì¢ħ
ê´Ģê³Ħ ê°Ģ
ĠìĿ¼ë³¸ë ³´ëĭ¤
Ġë¬´ ìĤ¬
ĠìĤ´ ìĸ´
ëĭ¤ëĭĪ ë©´ìĦľ
Ġìŀ ĸ
ĠìĤ¬ ë¦½
Ġê¼ ½
ĠíĨµ ì¹ĺ
Ġì§ģ ìĭľ
Ġì¢ħ ìŀĲ
ëĵ¤íķľíħĮ ëĬĶ
ìŁģ ìĿ´ëĵ¤
íıī ìĸĳ
ĠìŀĲê²© ëıĦ
ìŀ Ĭ
ĠìĨĮ ëħĦ
ĠìĺĪ ë¥¼
Ġì¶Ķìŀ¡ íķľ
Ġê°Ģ ì¤ĳ
ĠìĨį ìĿĢ
íķľ ëĤ¨
Ġìĸ ¸ë
ë§ĮìĽĲ ìĿ´
ĠìĻĢ ëĿ¼
ĠìĮ Ķ
9 9
Ġê¼¬ íĪ¬ë¦¬
Ġëº ĳ
ĠëĤ ©ëĭĪëĭ¤
ĠëĶ° ë¥´ëĬĶ
ê¸°ìŀĲ ëĭĺ
Ġìľłë¦¬ íķľ
Ġìĺ¤ ë²Ħ
Ġë°ķ ìĤ¬
ìĺ¤ ì¤Į
Ġë¶ĢëģĦëŁ½ ì§ĢëıĦ
ĠëĲł ì§Ģ
ëĲĲ ëĭ¤ê³ł
ë§Ī ëĪĦëĿ¼
ì¢ĮíĮĮ ëĵ¤ìĿĢ
ë¹¨ ê°±
ìĿ¸ ê±°ëĭ¤
Ġëĭ¨ ê¸°
ë¦´ ìĪĺ
ëł ¸ëĤĺ
ĠìĿ´ìłľ ìĦľìķ¼
ë²Ĺ ê³ł
ê²Į íķĺê³ł
Ġì¡°êµŃ ìŀ¥ê´Ģ
íĴ ī
íĸĪ êµ¬ë§Į
ĠìĿ¸ê°Ħ ìĿ´ëĥĲ
Ġì¶Ķ ìłģ
ĠìķĦìĿ´ ëŁ¬ëĭĪ
ĠìĨĮë¦¬ ëĤĺ
Ġíķľìĭ¬ íķĺê³ł
ĠëĭŃ ê·¸ëĦ¤
ìľ¼ ëĥĲ
Ġë¬´ ê´Ģ
íļĮ ìĹĲ
ì§ģ ìĹħ
ëĦĪ ì§Ģ
ĠìĨį ìľ¼ë¡ľ
Ġë¶Ģëª¨ ëıĦ
Ġìĸ¼êµ´ ìĿĦ
ĠìłĦìĦ¸ê³Ħ ìĹĲ
ì±Ļ ê¸°
íķĳ ê³Ħ
Ġìĸ´ë¦¬ ìĦĿ
Ġíķ´ìķ¼ íķ¨
ì« Ħ
ë¦¬ ëĭĪê¹Į
íķ´ìķ¼ íķĺëĬĶëį°
Ġê²Ģ ìĿĢ
Ġë°± ìĭł
Ġê°ģ ìĦ±
Ġê¸°ë¶Ģ ê¸Ī
Ġë§Ĳ ìĿ´ëĤĺ
Ġìĺ¤ ë¥ĺ
ĠëĮĢê¹¨ë¬¸ ëĵ¤ìĿ´
ĠìĿ¸ê¶Į ìĿ´
ĠëĶ ľ
Ġì¶Ķ ì¸¡
ĠìĤ¬ìĿ´ íĬ¸
Ġìłķì¹ĺìĿ¸ ëĵ¤ìĿĢ
ª ©
ë¹ ½
ê³µ ìķ½
Ġì¤Ħ ìĦľìĦľ
íĪ¬ ìĤ¬
ĠíĮĮëł´ ì¹ĺ
ëĭ¹ íķĺê²Į
íķł ê±´
íķĺ êµ¬ë§Į
ëĲĺ ê¸°
Ġíĥ ķ
Ġê±°ì§ĵë§Ĳ ë¡ľ
ĠëĬĲëĤ Ħ
ĠìŀĪ ëĬĶê±°ëĥĲ
Ġëĵ¤ìĸ´ ìĻĢ
ĠìķĪëĵ¤ ë©´
ì²Ń ëıĦ
Ġë¶ĪìĮį íĥĢ
Ġìĸ´ëł¤ ìĽĢ
ĠìĹ¬ ê¶Į
ìĭ¤ íķĺê²Į
Ġì§ĳ ìľ¼ë¡ľ
ì¡± ìĿĦ
Ġì¹ĺ ë©´
ìŀ¡ ìķĦìĦľ
ĠìĤ¬ ëĥ¥
ìĺģ íĺ¸
Ġìŀĺëª» íķĺë©´
ĠìŀĪìĿĦ íħĲëį°
Ġë»ĺ ì§ĵ
ĠìĿ´ ê±°ì§Ģ
ì» µ
Ġìĺ¤ ê³ł
ìĹ° íķľ
íĭĢ ë¦°
ìĥģ íķľ
ĠëĦĪ ë§Į
Ġ2 3
Ġìº ¬
Ġíĳ ¹
Ġìłķ ìĭľ
ìĿ¼ ìĪĺ
ìĺ¤ íŀĪëł¤
ĠìĦ¤ ì¹ĺëĬĶ
ĠëĭĪëĵ¤ ëģ¼ë¦¬
ëĮĵê¸Ģ ëĵ¤
ĠìĤ¼ìĦ± ìĿĢ
½ ìĥģëıĦ
ĠëĮĢ ê³ł
ĠìĨĮ ë¦°
ĠíķľêµŃ ìĤ¬ëŀĮ
Ġê°Ħì²© ìĿ´
ìŃ ī
ë ¤
ĠìĿ´ ìģľ
ìĺĢ ìĬµëĭĪëĭ¤
Ġëĳĺ ì§¸
ìļ°ë¦¬ëĤĺëĿ¼ ê°Ģ
ĠëĤĺë¶Ī ëĮĢ
Ġì¡° ì¢ħ
ĠêµŃë¯¼ ë§Į
Ġë§Įëĵ¤ ê¸°
ĠëĴ¤ ìł¸ëĿ¼
Ġìį¨ ë¨¹
Ġì§Ħë³´ ê°Ģ
Ġê°Ģë¥´ ì³Ĳ
íıĲ ì§Ģ
# #
ê³¼ íķĻ
ëķĮ ëł¤
ìĿĦê¹Į ë´Ĳ
ĠëĤł ì¡°
ê¸° ì´Ŀ
ĠìĹ¬ êµ°
Ġë¯¸êµŃ íķľíħĮ
ĠãĦ· ãĦ·ãĦ·
ìŀ ¼
ë¶Ģ ì§Ģ
ĠìĥĿ ê¸°ëĬĶ
ĠíĽ ħ
Ġì£¼ëĳ¥ ìĿ´ë¡ľ
ĠìĿ¸ì¢ħ ì°¨ë³Ħ
Ġëª» ê°Ģ
ĠìĿ´ëŁ° ë§Ĳ
ĠìĭĿ êµ¬
Ġê·ľ ëª¨
ĠìķĪëĿ½ ìĤ¬
Ġí ĮĢ
ĠêµŃë¯¼ íķľíħĮ
Ġëıħ ìłĲ
Ġì·¨ ìŀĦ
ĠëĦĺìĸ´ ê°Ī
ëł ¸ë
íķĺëĬĶ ì§ĵ
ĠìłĢ ê²ĥëĵ¤ìĿĢ
Ġê·Ģ ë¥¼
ĠìĹī íĦ°ë¦¬
ì£½ ì°½
ĠìĪĺì¤Ģ ìĹĲ
ì§ľ ê³ł
Ġê±°ì§ĵ ê³¼
Ġë°± ë°°
Ġìłķìĥģ ìĿ´ëĥĲ
ĠìķĪìłĦ ìĿĦ
ĠìķĮ ê²łëĥĲ
ê¸ī ìľ¼ë¡ľ
Ġì³Ĳ ëĵ¤ìĸ´
ĠíĻ© êµĲ
ìŀ¬ ìĿ¸ìĿ´
ĠëĴ· ë¶ģ
ìķĪ ëı¼
Ġì¢ĭ ì§Ģë§Į
íķĺëĬĶê±° ìŀĦ
Ġìĸµìļ¸ íķĺê²Į
ĠìĤ´ìĿ¸ ìŀĲ
Ġë¬´ë¦İ ê¿
íĥĢ ëĬĶ
Ġì§Ģì§Ģìľ¨ ìĿĢ
Ġë¯¼ì£¼ì£¼ìĿĺ ê°Ģ
ìļ´ ìĦľ
ì°¨ ê¸°
Ġê·¸ëŀ¬ ëĥĲ
ëĩĮ ë¬¼
ĠìŀĲíķľëĭ¹ ìĿĦ
ĠíĹĮ ìĭł
ĠíĬ¸ ìľĦíĦ°
ëĤ´ ìĹĲ
ë´ ħìĭľëĭ¤
ìĽĥ ê¸°ëĬĶ
Ġë¯¸ì¹ľ ëĵ¯ìĿ´
ê¸°ìĤ¬ ìĹĲ
Ġë¬¸íĻĶ ìŀ¬
êµ¬ ìĹĲ
Ġê°Ħ ëĭ¤ê³ł
ĠìĨį êµŃ
Ġê·ľ ìłķ
ì¹ĺ ë©°
ĠìĹ¬ ê¸´
ĠëıĮìķĦ ê°Ī
ì³¤ ëĭ¤
ĠìĿĢ íĺľ
Ġì°¬ìĸĳ íķĺëĬĶ
ìľł ê³µ
ĠìĨĮ ëĤĺ
ĠëĤ³ ê³ł
ĠìķĬ ìķĦëıĦ
Ġì¡°ê¸Ī ìĶ©
Ġê³µ ê¶Įëł¥
Ġëª¨ë¥´ ìĩł
ĠëĦ¤ ìĿ¼ë²ł
Ġë³¼ ìĪĺ
Ġì«Ĵ ìķĦ
ĸ ĩ
ìĭł ê²½
Ġê¸¸ ìĿ´ëĭ¤
Ġë³ĳìĽĲ ìĹĲ
Ġê³łëĵ± íķĻìĥĿ
ë³´ ìķĪ
Ġë§Ŀ íķľ
ĠOOO ìķ¼
ë§İ ê³ł
Ġëį° ìĿ´íĦ°
ĠìķĮ ì§ĢëıĦ
ĠëĤ´ë ĨĶ
ĠìĺĪ ìķ½
Ġë²Ħ ëł¤ìķ¼
Ġê³¨ ë¹Ī
ĠìłĢëŁ¬ ëĭĪ
ëĮĢ ì²ĺ
Ġë²ķ ìĿ¸
ê¹Ģ ì¢ħ
Ġì§ ł
Ġì§Ħ ìķķ
ĠíķľêµŃ ìľ¼ë¡ľ
Ġë¬¸ìŀ¬ìĿ¸ ìĿ´ê°Ģ
ĠëĳĲ ëĵ¤
Ġê» Į
Ġê³łìľĦ ê³µì§ģ
Ġë¨ ¸ëĿ¼
ì¡°ì°¨ ëıĦ
ê°Ģ ìĬ´
Ġìŀ¥ ë¡Ģ
ĠëĤĺìĺ¤ ëĭĪ
íı¬ ë¡ľ
Ġë¶Īë²ķ ìĿĦ
Ġíķ©ë¦¬ ìłģìĿ¸
ìĤ´ ìķĦëĿ¼
ìħ¨ ìĸ´ìļĶ
Ġê¸°ìĹħ ëĵ¤ìĿ´
ìĽĲ ìĿĺ
íĸĪ ëĦ¤ìļĶ
Ġë¹¨ ëĮĢ
ĠíĥĢ íĺĳ
Ġìļ© ëıĪ
ĠìĤ¬ ì¼Ģ
Ġìĭ¬ê°ģ íķĺëĭ¤
ìĤ¬ ëĬĶëį°
Ġìĭľìŀĳ íķ´ìĦľ
Ġì¶ķ ìłľ
Ġì£¼ ëĬĶê²Į
Ġë¬» ìĿĢ
ë¹Ħ êµĲ
ëĭĺ ê»ĺ
ĠíĹĪ ìłĳ
Ġê´ ĺ
ĠìĿ¼ ìĿ´ëĤĺ
ĠìĿ´ëŁ° ìĿ¼
Ġíķĺê³ł ìŀĪ
Ġì¢ħ ë£Į
Ġì§Ģê»Ħ ìĿ´ëĬĶ
Ġë¸ĶëŀĻ ë¦¬ìĬ¤íĬ¸
Ġì°¨ ë¥¼
Ġë¹¼ ë©´
íķĺ ìķ¼
ìĦĿ ê¸°
Ġìµľ ìļ°ìĦł
ìĿ´ëŁ° ê±¸
~~~~ ~~~
Ġìĸµ ìķķ
ĠìĤ¬ìŀ¬ ê¸°
ëĬĶ ëĮĢ
ê°Ģ ê¸°
Ġì´Ī ê¸°ìĹĲ
ĠìĿ´ë¦¬ ëıĦ
ë¯¼ ìĿĢ
ëª¨ ìĿĮ
Ġë°ľ ë¡ľ
ìĵ° ëĥĲ
ĠëĮĵê¸Ģ ëıĦ
Ġìĭ¬ ìĭ¬
ëĵ¤ìĹĲ ê²Ĳ
Ġx x
ìłĦ ëŀµ
ê°Ĳ ìĦ±
ĠìķĦë²ł ìĿĺ
Ġë¹ĦíĮĲ íķĺëĬĶ
Ġê¹¨ëģĹ íķľì²Ļ
ìĿĮ ì£¼
Ġìĸ¼ ë§Į
Ġìĸ¼ë§Ī ëĵłì§Ģ
ĠìĿ´ìĬ¤ ëĿ¼ìĹĺ
ĠìłĦ ì²´ë¥¼
íķĺìĭľ ëĦ¤ìļĶ
ĠìĦłê±° ìļ´ëıĻ
Ġë°ĺëĮĢ ë¥¼
ëĮĢëĭ¨ íķĺëĭ¤
Ġë°Ķ ëŀĺ
ë¹¨ ìķĦ
ĠìŀĲê¸° íİ¸
ĠíĻĶ ë¥¼
Ġë§Į ëĤł
ìŀĺ íķĺê³ł
Ġê´ľì°® ê³ł
ìĤ´ ìĿĦ
Ġê²½ìłľ ìĦ±ìŀ¥
ìĿĦ ê²ĥìĿ´ëĭ¤
Ġê¸° ë°Ģ
íĥĪ ìĽĲìłĦ
ĠíĮ©íĬ¸ ì²´íģ¬
ëŁŃ ìĭľ
ìĹĲ íļ¨
ìĹ¬ ìŀĲëĵ¤
ìĹŃ ìĿĦ
ĠëıĻ ë£Į
Ġëĳ ¥
Ġë§Ŀ íķĺë©´
Ġë¹ł ë¥´ê²Į
ë§Įíģ¼ ìĿĢ
ëĤ¸ ëĭ¤
Ġìĸ¸ìłł ê°ĢëĬĶ
Ġíļ¨ê³¼ ê°Ģ
Ġë¬´ìĨĮ ë¶Ī
Ġë§Į ëĤľ
ĠëĲł ê±°ëĭ¤
ëĮĢê°Ģë¦¬ ê°Ģ
Ġë³´ê¸° ìĹĶ
Ġì¢Įì¢Ģ ëĵ¤
ê³ł ìĹĲ
Ġíķĺ ì£ł
ìłĦ ëĿ¼
íĮĮ ê°Ģ
Ġêµ¬ ê¸Ģ
ì¶ķ íķĺ
,,,, ,,
Ġê¹ľ ì§Ŀ
Ġíķľë¯¸ ìĿ¼
Ġë§ ĳ
Ġë°° ìłľ
ê¹Ģ íķĻìĿĺ
íķĺìĭľ ì£ł
ĠìķĮê³ł ëıĦ
Ġíİ ´
Ġë°¥ ìĿĢ
ìĿĢê±° ëĥĲ
ìĿĺ ê²¬
Ġê²Į ìĭľ
ĠìĿ´ë²Ī ê¸°íļĮìĹĲ
Ġê¸° ë§Į
Ġì¦Ŀ ë§Ĳ
Ġì²ł ëıĦ
ìļĶì¦ĺ ìĿĢ
ë¬¸ìŀ¬ìĿ¸ë ĮĢíĨµëł¹
ì°¨ ëĭ¨
íķľëĭ¤ ëĬĶëį°
ĠìĭľíĤ¤ ëĵ¤
íĦ ±
íķľ ë°ĺëıĦ
Ġìĭł ìĿ´
Ġê¸Ģ êµ¬
Ġì£½ì°½ ëĵ¤ê³ł
ĠìĿ¼ ìĤ°
ìħĶ ëıĦ
ê½ ģ
Ġíķĳê³Ħ ë¡ľ
ĠìķĪ íķľëĭ¤ê³ł
ĠìĿ´ë ¹¨
ĠìĻ¸ ìĭł
Ġì¡°ìĤ¬ íķ´ìķ¼
Ġì£ Ĺ
Ġê·¸ ê°Ħ
Ġë¶Ģìłķ íķĺëĬĶ
Ġëĵ¤ ìĹĪ
ê°ķ ìłľ
ë¦¬ ë§Į
ĠìķĬ ìľ¼ëĭĪ
Ġì§Ģì§Ģ ìŀĲëĵ¤ìĿ´
ìľł ëĿ¼ëĬĶ
ĠëĨĪ ëĵ¤ìĿ´ëĭ¤
ĠëĦĪë¬´ íķĺëĦ¤
ĠìĿ´ìĥģ ìĿ´
Ġíĳľ ë³¸
ĠìĿĺíĺ¹ ìĿĦ
ĠëĤ¨ ìķĺëĭ¤
Ġ6 00
Ġë°ķìłķíĿ¬ ê°Ģ
ìłĦ ê±°
ìĸ´ë Ķ
ì¦Ŀ ëªħ
Ġë»Ķ íķĺëĭ¤
Ġíĸīë³µ íķĺê²Į
Ġì´ĿìĦł ìĿĢ
ĠìĿ´ëĤĺëĿ¼ ìĿĺ
Ġìĺ¤ì§Ģ ëŀĸ
Ġìķł ëĬĶ
Ġìº ł
ëĤĺ ë¶Ī
ĠëĮĢ ê·ľëª¨
ĠíĺĪ ìĦ¸ë¡ľ
ĠìķĦì¹¨ ë¶ĢíĦ°
ìĪĺ ìĪł
Ġì³Ĳ ëıĦ
ĠìĿ´íķ´ë ¶Ī
ìķĪ ëĲ¨
in g
ëį° ìĿ´
Ġë¹Ħ ê·¹
ê¸¸ ìĿĦ
Ġë§ĺ ì¹´íİĺ
ì§Ģ ì²ĺ
Ġìļ© ê°Ĳ
Ġë¶ĢìĹī ìĿ´
ìķĦ ëħĢ
ìĤ¬ ìłĦ
ì§ĢìķĬ ëĬĶëĭ¤
ëĮĢ ìĹĲìĦľ
Ġëĭ¹ ìĽĲ
ĠëĨĪ ìĿ´ëĭ¤
ĠíĥĦíķµ ìĿĦ
ĠíĦ ¸ë¦¬
Ġëª» ë°Ľê³ł
ìĥĿ ëĵ¤
íĨł íĻĶ
Ġì§Ģ ë¶Ī
ĠìķĪ íĸĪëĭ¤
ì°¨ ëıĦ
Ġê°ĻìĿĢ ê±°
ëĮĢíĨµëł¹ ìĿĦ
Ġë¯¸ë £¨
ĠìĿ´ ìĹĲ
Ġìĸ į
ê±´ ìĿ´
ë¶Ħ ë³Ħ
Ġë°Ľ ìľ¼ë©´ìĦľ
ĠìĤ¬íļĮ ìĥĿíĻľ
íķ´ì£¼ ì§Ģ
ëĵ± ë¡Ŀ
ëį ®
ì£¼ êµĲ
ĠëĤ¨ íķľíħĮ
íĮĶ ìķĦë¨¹
ìłĦ ìľ¼ë¡ľ
ìĹ° ìĿ´
ìĿ¸ê°Ģ ë³´ëĦ¤
Ġíĥľ ìĽĮ
íı ¼
ê´Ģ ìĿĢ
ìķł ëĬĶ
ĠìŀħêµŃ ìĿĦ
ê²½ íĹĺ
ĠìŀĪëĬĶ ëĵ¯
Ġë§ī ìķĺ
ì£½ ìĿĦ
Ġì²ŃìĻĢëĮĢ ìĻĢ
Ĳĺ ê³ł
Ġìŀĥ ê³ł
ì§ģ ìĹĲ
ìĸµ ìĿĢ
Ġì¢ħ ì¡±
ĠìĪĺ ìłķ
ìĹħ ìĨĮ
ãħĭãħĭ ãĦ±
íĸī ìłķ
ë©´ìĦľ ëıĦ
íį¼ìĦ¼ íĬ¸
Ġíķ´ ì¤¬
ìĽĮ ìļĶ
ĠìĪĺìĤ¬ íķ´ìĦľ
ë©Ķ ëĭ¬
Ġìĭ¬ íŀĪ
Ġì¢ĮíĮĮ ìłķê¶Į
Ġëĭµëĭµ íķľ
Ġê´Ģê³Ħ ê°Ģ
ĠëŃĶ ê°ĢìļĶ
ĠìĽĢì§ģ ìĿ´ëĬĶ
´Ĳ ìķ¼
©´ ìĦľ
Ġë§Įëĵ¤ ìĹĪëĭ¤
ĠìĪĺìĤ¬ ê°Ģ
Ġìŀł ìĪĺ
Ġìŀ¥ëĤľ íķĺëĥĲ
Ġì¦Ĳ ê¸°
âĿ¤ ï¸ı
íķľ ìłģ
ĠìķĦëĭĪ ìĹĪ
Ġìĵ° ëĬĶëį°
ĠëįĶëĵ¬ ìĸ´
ëĭ¹ ì´Ī
ìĪĺ ëĭ¤
Ġê¸°ìĤ¬ ë§Į
ìĤ¬ìĭ¤ ìĿĦ
Ġìĵ° ìĦ¸ìļĶ
Ġë°ķ íĨµ
Ġìĸ¸ë¡ł ëĵ¤
Ġë°± ëĤł
Ġìį¨ ëıĦ
íĤµ ìĭľëĭ¤
ëĨĢ ê³ł
íķ´ë ´
Ġíĥ ±
Ġìĺģ íĨł
Ġì¢ĭìĿĢ ê±°
ëĭ¤ ë¥´
Ġìłķ ìľ¼ëĭĪ
ĠìĿ¼ë³¸ ìĤ°
Ġê´Ģ ëĮĢ
Ġêº¼ ëĤ´
Ġ V
íĤ¤ ë¡ľ
Ġë³´ë ĥĲ
Ġìī °
Ġë§ĪìĿĮ ìĿĢ
Ġíķľ ê²°
ê²ĥ ìľ¼ë¡ľ
ĠìłĢ ëĵ¤ìĿ´
íħĮ ëŁ¬
ĠìĨĮë¦¬ ì§Ģ
Ġë¯¼ì¡± ìĿĺ
ĠíķľëĤĺëĿ¼ ëĭ¹
ĠìľĦ ì¹ĺ
íĤ¤ íĬ¸
ëĶ© ìĿ´
Ġíļ į
ë¦´ë ł¤ê³ł
íķ´ë Ĩĵ
Ġíķł ëŀĺ
Ġë´Ĳ ìĦľ
ë¶Ģ ì±Ħ
ĠìłĢ ëĨĪ
ëĬĶê±° ìŀĸìķĦ
Ġì¤Ħ ëıĦ
Ġê·Ģ ìĭł
Ġì¹¨ íķ´
Ġíķ´ë³´ ìŀĲ
Ġëª¨ë¥´ê²ł ê³ł
ìĿ¸ ìĿ´ëĭ¤
Ġíķĺ ìŀĲëĬĶ
ìĥĿ ìĿĦ
Ġê±° ìŀĸìķĦ
Ġê·¸ëŁ° ëĭ¤ê³ł
ìĿµ ìĿĦ
Ġì¯ Ķ
Ġíĺģ ëªħ
Ġì¿ł ëį°íĥĢ
ëĵ¤ìĿ´ ìĹ¬
ë¶Ī ëŁ¬
Ġê²Ģì°° ì¡°ìĤ¬
Ġíī ·
ëĭĺ ê»ĺìĦľ
ìĿ¼ë¿Ĳ ìĿ´ëĭ¤
Ġ ç
ê¸° ìĨĮ
ĠíĽĦ ëł¤
ë§ŀ ìķĦìļĶ
ĠìķĬ ìķĦìĦľ
ìłķë¶Ģ ë¥¼
ë¹Ħë¡Ģ ëĮĢíĳľ
Ġë¨¸ë ¦¿
Ġë§Ĳ ëįĺ
ĠíĹĪ ìĪĺ
.. ??
ìĤ¬ ìŀĲ
ìŀ¬ ëĬĶ
Ġì¢ħ ìłĦ
ê³Ħ íļį
Ġê°ķ ìĽĲëıĦ
ìĺ¨ ê°ĸ
ëıħ íķľ
Ĥ ¸
íķ´ ìĤ°
ìĭ¬ ëıĦ
ê°Ģì§Ģ ê°Ģì§Ģ
Ġìĸ´ì§Ģ ê°ĦíŀĪ
ê¹ į
Ġíķł ìĿ¼ìĿ´
ĠíĻķ ë¥ł
ê°ĳ ìĭľëĭ¤
ĠëĦĪëĦ¤ ëĬĶ
l l
Ġë§ ģ
ĠìĹ¬ ìĦ±ìĿ´
ì¡ ´ëĤĺ
ĠëıĮ ìķĦìĦľ
ĠìĪĺì¤Ģ íķĺê³łëĬĶ
ĠìķĬìĿĢ ê°Ģ
ìĨį ê¹Įì§Ģ
íĤ¤ ìķ¼
ë©ĭ ëĮĢë¡ľ
ì§Ģ íķĺ
ĠìŀĲ ë¥¼
ê°ľ ìĿĺ
ëĤ¨ íķľ
Ġíŀĺ ëĵľ
Ġë°° íĽĦ
Ġìŀĺëª» íķľê±°
ë°© ë²ķ
ëĮ Ķ
Ġê³łëĵ± íķĻêµĲ
ìĿ¸íĦ° ëĦ·
ëĭĪ ê½Ī
ê¸° ëĿ¼ëıĦ
ê±° ê°ĻìĿĢëį°
ĠìŀĪ ìĬµëĭĪê¹Į
ĠìŀĪ ê²łëĤĺ
Ġëĭ¤ ë¬¼ê³ł
ì°¸ ìĹ¬
Ġë¶ĢëģĦ ëŁ¬ìĽĮ
Ġëĭ¤ë¥¼ ë°Ķ
Ġë¯¼ìĭĿìĿ´ ë²ķ
Ł Ń
Ġãħ į
ĠíĮ©íĬ¸ ëĬĶ
ìŀĪ ìĸ´ìķ¼
Ġíĺ¼ìŀĲ ìĦľ
Ġë§Ŀ íķ´ëıĦ
ĠëĮĢêµ¬ ìĭľìŀ¥
ĠìĿ¸ê¶Į ìĿĢ
ĠìĤŃ ê°Ĳ
ê¸°ìĭ« ëĭ¤
ì¤Ħ ê²Į
Ġê¹Ģ ìĶ¨
Ġìĭ¸ ìļ¸
ëįľ ìĿ´
Ġë°Ķ ë¯¸
ĠìĿ´íĽĦ ë¡ľ
ĠìłĦ íĨµ
Ġíķ´ ì£¼ë©´
ĠìķĮ ê¶Į
ì§ĵ ê³ł
ĠìŀĪëĬĶëį° ëıĦ
§Ī ìĬ¤íģ¬
Ġë¡ľ ëĺĲ
Ġë¯¸êµ° ì²łìĪĺ
ĠìłĦ ìĭľ
ĠìĹĲ ìĸ´
Ġìµľê³ł ëĭ¤
ëĵŃ ëĭĪëĭ¤
Ġìł ł
ìĿ¼ ìĸ´ëĤĺ
Ġë¶Ģ ëŁ½ëĭ¤
ì°¨ ìĽĲìĹĲìĦľ
ê¼¬ ëĿ¼
ĠëıĮìķĦê°Ģ ìĭł
ĠìŀĲ ìĽĲ
ìĤ´ ê¸°
ìĿ´ ìĥĪëģ¼
ê²ĥ ëĵ¤ìĿĦ
Ġëª¨ ëį¸
ìĨĮ ë¦Ħ
ĨĪ ëĵ¤
ìł¸ ìļĶ
Ġê¸°ê´Ģ ì´Ŀ
ĠìĿĺìłĦ ìĽĲ
íķľ ëĮĢ
ĠìŀĲ ì²ĺ
ĠíķĺëĬĶ ê²ĥìĿ´
Ġëª° íĳľ
Ġìķ ±
Ġìłķê¶Į ìĿ´ëĭ¤
Ġë¯¿ ìĿĦìĪĺ
ĠìĤ¬ íķĻ
Ġì§Ģ íĺľ
Ġì´ ¬ìĺģ
Ġìļķ ìĿĢ
ķĮ ë¬¸ìĹĲ
Ġê±° ëĵ¤
Ġì²ĺ ëĦ£
ĠìĤ¬ìĭ¤ ìĿ´ëĭ¤
ëĭ¥ ì¹ĺê³ł
ĠìķĪ ê°ĢëĬĶ
ì¤Ħ ê¹Į
ìĿĺìĽĲ ëĵ¤
ĠëĤĺìĻĢ ëĿ¼
įĺ ê°Ģ
Ġìŀħëĭ¤ ë¬¼ê³ł
ìŀĪ ìĸ´ëĿ¼
ĠìĥĿê°ģ ë³´ëĭ¤
êµĲìľ¡ ìĿĦ
Ġì£½ìĿĮ ìĿĦ
ë¦° ê²Į
ĠíĦ° ì§Ģë©´
K BS
ĠìĦł ì¶ľ
ìĿ¸ ëĵ¤ìĿĺ
Ġë¶Ģ ë¶ĦìĿ´
ĠìŀĪìĹĪ ëĦ¤
ĠìĿ´ íĥľ
ĠëĭĪ ëĵ¤ìĿĺ
ìĻĶ ëįĺ
Ġìĸ´ìĿ´ ìĹĨëĬĶ
ĠëĤĺ ê°Ģê³ł
ê¶Į ëł¥ìĿĦ
ëħĦ ìĿ´ìĥģ
ĠìĽĲ ìĿ¸ìĿ´
Ġê³łìĥĿ ìĿ´
Ġêµ´ ìļķ
Ġì¹ĺ ìŀĲ
ĠìĿ´ìĥģ ìĿĢ
Ġë¶Īë¦¬ íķĺë©´
ê°Ģ ìĦ¸ìļĶ
Ġê°ľ íķľë¯¼êµŃ
Ġë¬¸ìŀ¬ìĿ¸ ìĶ¨
ĠíĨµ ì§¸ë¡ľ
Ġë²Į ë²Į
Ġêµ´ë Ł¬
êµŃ ì£¼ìĿĺ
ëĭ¨ ìĹĲ
ìĿĮ ìĹĲ
Ġìľł ëªħíķľ
ê°Ĳ íŀĪ
ĠëĮĢ ê°Ģ
ë¶Ģ íĮ¨
ë¶Ģ ëĭ´
Ġë¶Ģ ì²ĺ
ìĥĿ ëªħ
ĠìĿ´ìłľ ëĿ¼ëıĦ
ĦĪ ë¬´
Ġì°© ì·¨
ë²ķë¬´ë¶Ģ ìŀ¥ê´Ģ
íķ´ ì§Ģë©´
Ġëī´ìĬ¤ ê°Ģ
Ġì¡±ìĨį ëĵ¤
Ĵ ¤
ĠìĿ´ ì£¼
Ġíķľ íİ¸
Ġê±° ëĬĶ
Ġê³µíıī íķĺê²Į
ì§Ī ëıĦ
ìĭ¶ ìĿĢ
ĠìĪĺìĤ¬ íķĺëĿ¼
ĠãħĨ ãĦ¹ãĦ±
ê³µ íıī
ê¾ ¹
Ġìłķê¶Į ë°ĶëĢĮë©´
ĠìĪľ ìĭĿ
ì¡° ë¡ľ
Ġì£¼ ìľĦìĹĲ
ĠëıĻ íı¬
ì¤ĳêµŃ ìĹĲìĦľ
ìĭľë¯¼ ìĿ´
Ġê¼Ń ëĳĲê°ģ
ëĬ¦ ê²Į
ĠíķľíĨµ ìĨį
ê³ °
ê³ł ìĭľ
ĠìĥĿê°ģ ëĤľëĭ¤
ĠëĪĦêµ¬ ë³´ëĭ¤
Ġëħ¸ëł¥ ìĿĦ
êµĲìĪĺ ëĭĺ
Ġìŀĺ íķĺëĬĶê²Į
ë°© ìĿ´
ĠêµŃê°Ģ ë¡ľ
ĠìĨĮë¦Ħ ëıĭ
ìĿ¸ ìĦł
ĠìĥĿ ê³Ħ
Ġì£Ħ ê°ĴìĿĦ
ĠìŀĦ ìĭľ
Ġìĭ¸ ì§ĪëŁ¬
ìĸ¸ ìĿ´
Ġì£ĦìĨ¡ íķ©ëĭĪëĭ¤
ĠëįĶìļ± ëįĶ
ìķ¼ íķł
Ġë§ŀ ì£ł
Ġê²ģ ëĭĪê¹Į
ĠìĹ°ìĺĪ ìĿ¸ëĵ¤
ì§ĢëĬĶ ê±´
íķĺì§ĢìķĬ ê³ł
Ġìĭł ìķĻ
ìłĢëŁ° ê²Į
Ġë§ĲìķĦ ìķ¼ì§Ģ
ĠìĤ¬ìľł ìŀ¬ìĤ°
ê³ł ìľł
ìĺ¤ ìĹ¼
Ġì£½ ìĸ´ê°Ģ
Ġêµ¬ ëıħ
ê°ķ ëł¥
ìĽĥ ìĿĮ
ĠìĹħ ìłģ
Ġt v
êµ¬ìŀ¥ ì°½
U T
ĠìĤ¬ ìĥģìĿ´
ðŁ į
ĠìŀĲíķľëĭ¹ ìĿĺ
ìķĦ ëĵ¤ìĿ´
ê·¼ ë¡ľ
Ġê» ´
Ġì§Ģ ëŁ´
ĠëĤĺíĥĢ ëĤĺ
ê°Ģ íĬ¼
ìĿĦ ê²Į
ì£¼ ëĬĶê±°
Ġë§Ĳ ìĿ¸ëį°
Ġìļ°ë¦¬ ë¯¼ì¡±
Ġêµ° ìĿ¸ëĵ¤
Ġìŀ¬ìķĻ ìĿ´ëĬĶ
ëıĦ ìĿĺ
ĠëıĮ ë¦¬ëĬĶ
ìĭłì²ľì§Ģ ëĬĶ
Ġìĸ´ìĿ´ ìĹĨëĦ¤
ĠìĻ¸ì¹ĺ ëįĺ
ëĵľëĿ¼ ë§Ī
ĠìĿ´ ê³ł
ìłĢ ëĶ´
ĠëıĦ ì§ĢìĤ¬
Ġìª½ ë°ľ
ĠëĦĪëĦ¤ ëĵ¤
ĠíĮ¨ ë°°
Ġê±´ê°ķ ë³´íĹĺ
ì¡° ìłķ
Ġë°ķ ìĽĲìĪŃ
ìŀĲëĵ¤ ë§Į
ĠìķĪ ìį¨
Ġì¢ĭ ìĿĦëĵ¯
ĠìķĦë§Ī ì¶Ķìĸ´
ëıĻ ê°ķ
ĠëŃĲ ìŀĦ
ëŀĳ ê»ĺ
Ġê³łë¯¼ ìłķ
Ġëª½ ëķħ
Ġê°Ģì§Ģê°Ģì§Ģ íķľëĭ¤
ìĿ´ ìĭł
ê·¸ë ¦¼
Ġë§Ŀ ìĥģ
ĠìķĪëĲĺ ëĬĶê±°
ĠìĤ¬ìĿ´ë¹Ħ ì¢ħêµĲ
ìĿ´ëªħ ë°ķê·¼íĺľ
Ġìļ° ê¸°ëĬĶ
Ġìŀ¥ ëĭ´
ë· Ķ
Ġíķľë²Ī ìĶ©
Ġìĥ Ľ
Ġë¬¸ìŀ¬ìĿ¸ ìłķê¶Į
ì³Ĳ ë¨¹ëĬĶ
Ġì¡´ìŀ¬ íķĺëĬĶ
Ŀ ê°Ģë¦¬
ì§Ģ ìĹĲìĦľ
íķ¨ ìĿĺ
íĥĢ ìŀĦ
Ġìĭ¬ íķĺëĭ¤
ĠìłķìĿĺ ìĻĢ
ĠìĪł ì§ĳ
Ġë³¸ë ³´
Ġì¡°êµŃ ìĤ¬íĥľ
Ġìĭ¤ ì²´ë¥¼
êµŃ ëĮĢ
ìŀĪ ìĸ´ëıĦ
Ġê²½ì°° ìĹĲ
ìŀĲë¡ľ ìĦľ
Ġë§¡ ê²¨
ìĦł ëĭ¤
Ġë¶Ģ íĴĢ
ĠìĦł íı¬
ĠíĸĪ ëĭ¤ê°Ģ
ĠíĮĮ íĭ°
Ġë¹ĦìķĦ ëĥ¥
Ġìłķ ê³Ħ
Ġìļ° ì§¸
ì§ĳ ìĸ´
íķĺëĬĶê±° ê³ł
ĠìľĦíķ´ìĦľ ëĿ¼ëıĦ
íķĻ ê³¼
Ġê·Ģì¡± ëħ¸ì¡°
íķľ ëĨĪ
ĠìĿĺ ëĮĢ
ĠíıŃ íĮĮ
ĠìĦłíĥĿ ìĿĦ
ê°Ģë§Į íŀĪ
ìłģìľ¼ë¡ľ ëĬĶ
ĠìĿ¼ ìĭĿ
Ġë§Ĳ ëł¤
ìŀĦ ê¸°
ĠìĹ° ëĮĢ
Ġë§ĺ ìĿ´
Ġëª¸ ìĿ´
ìĦ¸ ëıĦ
ĠìķĦë¦Ħ ëĭ¤ìļ´
ë¯¸ ì¹ĺ
Ġë°Ľ ëĬĶê²Į
ĠíķĦìļĶ ìĹĨê³ł
íķĺ ëĬĲ
ĠìłĢ ëĵ¤ìĿĢ
ĠìĹ¬ ì§Ģ
ëŀĳ ìĿ´
Ġë¶Ħ íĥķ
Ġê·¸ëŁ¬ ê²Į
ĠOOO ëĵ¤ìĿ´
ìļ°ë¦¬ëĤĺëĿ¼ ëıĦ
ëĵ¤ ê¹Įì§Ģ
Ġë¯¼ì£¼ëĭ¹ ìĹĲìĦľ
Ġê±±ìłķ ìĿ´
ë´ī ìĩĦ
ê¹¡ íĮ¨
ìĦ¸ ê·ł
Ġìĭľ ë¶Ģ
íķł ê±´ëį°
Ġë²Į ê³ł
ëľ ¬
Ġì¿ł íĮ¡
Ġíķ´ ì¤ĺëĿ¼
ëĤ´ë ¡ľ
ìĸ´ë¨¹ ê³ł
ĠìķĦ ê°Ī
Ġíķ «
ìŀ¬ ë²Į
ê±´ ìĿĢ
Ġê³µ ìĤ¬
íķľ ê±¸ëłĪ
Ġëª¨ ê¸Ī
Ġì¹ĺ ìĽĮ
Ġì¢ĭ ëĦ¤
Ġìļķ íķĺì§Ģ
ĠëĤĺê²½ìĽĲ ìĿĢ
ĠãĦ± ãħĲ
íķĺíķĺ íķĺ
ê³³ ìľ¼ë¡ľ
Ġê³ĦìĨį íķ´ìĦľ
ìŀĲìľł ë¯¼ì£¼ì£¼ìĿĺ
ĠìķĦ ê°Ģ
ìŀ¬ ë¥¼
ĠìĥĿê°ģ íķł
ë¶Ħ ëıĦ
ìłķë¶Ģ ìĹĲ
ĠìĹĲ íĺĢ
ĠëĬĺ ë¦¬
ĠìĭĿ ëŁī
ĠìłĦìŁģ ëĤĺë©´
ì§Ģë§Ĳ ëĿ¼
Ġì Ĳ
ìĿ¸ íķľ
ĠìĤ¬ ëĤĺ
ĠìķĪ ê·¸ëŀĺ
ĠêµŃ ë¦½
Ġë§Ĳ íĸĪëĭ¤
ìĨĮ ë¡ľ
ĠëĤĺëĿ¼ ê²½ìłľ
ĠíĥĢ ëĬĶ
Ġëĭ¹ìĹ° íķĺì§Ģ
ì¶ľ ëıĻ
ĠëĮĢêµ¬ ìĹĲ
ëį ¤
ìĭľ ì²Ń
ĠìĿ´ ê¸´
Ġë¬´ë ²ķ
ĠìĿĳìĽĲ íķĺê³ł
ì§Ģ ëĬ¥
ëĵ¤ ìĿ¸ê°Ģ
ĠìĿ¼ ë³
ê±´ë ŃĲ
íĹĪ ê°Ģ
ĠìĿ´ëĤĺëĿ¼ ìĹĲ
Ġëĺĳê°Ļ ìķĦ
§ Ľ
ëĮĢ ëĨĵê³ł
ê¸Ī ìĿĺ
Ġíĩ´ ìŀĦ
ê·¸ëŁ¬ ëĤĺ
ĠëĮĢ ë²ķ
ĠìĿ¸ ìĬ¤íĥĢ
´ë° ©
Ġê°Ģ ì¹ĺë¥¼
Ġê³µ ìĺģë°©ìĨ¡
ìĺ¤ ëĦ¤
ê²Ģ ì¦Ŀ
ĠëĨĴ ëĭ¤
ìĹ¬ë¡ł ì¡°ìŀĳ
ìĿĺ ìĿĺ
Ġì² ©
ìŀĪ ëĬĶê²Į
Ġìĭł íĺ¸
ĠìĦłëıĻ íķ´ìĦľ
Ġê°ľëħĲ ìĿ´
ì§Ģ ëĦ¤ìļĶ
´ë ķĲ
ìŀ¬ ì²ł
ĠëĶ° ì§Ģê³ł
Ġì°Į ì§ĪìĿ´
íĻ©êµĲìķĪ ìĿ´
ëĤ¨ ìĿĢ
³ Ģ
ĠìŀĪìĹĪ ê³ł
Ġë¯¸ëŀĺ íĨµíķ©ëĭ¹
ĠìĿĺìĽĲ ì§ģ
ĠìĪĺìĦĿ ëĮĢë³ĢìĿ¸
ĠêµŃë¬´ ì´Ŀë¦¬
Ġê°ľ ê¿Ģ
ìĿ¸ë ³´ëĭ¤
ë¶Ī ìķĪ
ëĮĢíķľë¯¼êµŃ ìĿĦ
Ġìĭľë¯¼ ìĿ´
ìĿĦëķĮ ëĬĶ
ëıĻ ìķĦ
Ġì¢ħ ìĿ´
ê³łìŀĪ ê³ł
íĶĮ ëłĪ
íĸĩ ëĭ¤
ë¬¸ ìłķê¶Į
ìļ° ë»¥
Ġìłģ ëĮĢ
Ġìłķê¶Į ê³¼
Ġì²ĺë²Į ìĿ´
Ġê°Ķ ëĬĶëį°
Ġëļ ±
íķĻ ëĮĢ
ĠíĽĦ íĩ´
Ġëĺ¥ ì¹ł
Ġê± ¸ëł
Ġë°Ķ ê¸Ģ
ëĳĲ ìĪľ
ĠëĮĢíķľ íķŃê³µ
ĠëıĻ ìłķ
Ġê¸Ī ê°ķìĤ°
íĺĳ ë°ķ
Ġë³µ ìŀ¡
Ġíķłì¤Ħ ìķĦ
ĠìĿ´ìĥģ íķ´
Ġìĭłì²ľì§Ģ ìĹĲ
Ġì²ĺë²Į íķ´ëĿ¼
Ġìĥģ ëĭ¹
ì§Ħ ëĭ¤ê³ł
ĠëĮĢíĨµëł¹ ìĿ´ëŀĢ
Ġìĭ¸ ëĭ¤
ĠëĨĢ ìĿ´íĦ°
Ġê¹Ĭ ìĿ´
ì Įĵ
ë§Į ìĿ´ëĿ¼ëıĦ
ê° ¤
ì§Ħ ìĿĢ
ë¯¸ ìķĪ
Ġìĺ¤ íķ´
ë¶Ī íĨµ
ë¶ģ ìĹĲ
ê¾¼ ëĵ¤
ëĭ¤ ë¥¸ë
ìķĦ ìĺĪ
Ġìĸ´ëĶ¨ ëĥĲ
íķĺ ìĦ±
Ġëĭ¤ ìļ´
ëħ ¸ëŀĺ
Ġë¬´ íļ¨
ê°Ļ ê³ł
íĤ¤ ìļ°
ĠìĤ¬ìĿ´ ìĹĲ
Ġê¸°íļĮ ê°Ģ
Ġíİĺë¯¸ëĭĪ ì¦ĺ
ê²ĥ ìĿ´ì§Ģ
íĶĦ ëĿ¼
Ġëª¨ë¥´ ê²łëĦ¤ìļĶ
ĠëĦĺ ëĵ¤ìĿĢ
ĠìĹĨ ê²łì§Ģ
ĠêµŃíļĮ ìĿĺ
ĠêµŃìłķ ìļ´ìĺģ
ë½ Ģ
Ġì¼Ģ ìĿ´ìĬ¤
ì§Ħ ìŀĳ
Ġëª» íĸĪëĭ¤
Ġë²ķ ë¥ł
Ġë°Ģìĸ´ë ¶Ģ
ëŀ ¨
ĠìķĪ ì£¼
Ġì±ħìŀĦ ìł¸ìķ¼
ìĤ¼ ìĦ±ìĿ´
Ġìŀ¬ìĤ° ìĿĦ
Ġê³łìĬ¤ íĨ±
Ġë½ĳ ê³ł
ëŃĲ ëŀĺ
ĠìĪĺ ë²ķ
Ġìĥģ ëĮĢê°Ģ
Ġê°Ĳ ê¸°
ĠëĵľëŁ¬ ëĤľ
ĠëĮĵê¸Ģ ëŁ¬
ĠíıŃ ëıĦ
ë§ī ë§Ĳ
ĠëĤ´ìļ© ìĿĢ
ĠëĤĺìģĺ ëĭ¤
ìłĦ íĮĮ
ĠëĲĺ ëĬĶê²ĥ
Ġìĭ¶ ìĸ´ëıĦ
ëĭµ ìĿ´ëĭ¤
ëĤĺìĺ¤ ê²Į
ë´¤ ëĥĲ
ĠëŃĲ íķ´
ìĥĪ ëĪĦë¦¬
Ġìłķìĭł ìłģ
Ġì§Ģì§Ģ ìŀĲëĵ¤ìĿĢ
ĠëģĿ ìĿ´ëĭ¤
Ġê·¸ë§Į ëĳĲ
ëĤĺê²½ìĽĲ ìĿ´
Ġê²½ ê¸°ê°Ģ
ĠíĽĦ ì§Ħ
Ġìĭ¸ ëıĮìķĦ
ì§Ģ ê²½
ĠìĨĲ ë°Ķëĭ¥ìľ¼ë¡ľ
Ġëª© ìłģìľ¼ë¡ľ
Ġë¬´ìĹĩ ìĿ¸ê°Ģ
Ġìĭ¸ìĿ´ì½Ķ íĮ¨ìĬ¤
íķĺëĬĶ ê±´ê°Ģ
Ġìļ° ì§ľ
ìĭ¤ ìĹħ
ë¡ľ ê°Ģ
ĠìķĪ íķĺëĬĶê²Į
ĠìłĢ ìĬ¹
Ġëª» ìĵ°
Ġê²½ ë¹Ħ
ĠìĹ´ íıŃ
Ġë²Ķì£Ħ ê°Ģ
íĭ° ì¦Į
Ġë³¼ ëª¨ë¡ľ
ê·¸ë ł¤
ìķĬ ëĬĶ
ĠíĥĢ ëıĦ
Ġê±° ëĳĲ
ĠìĬ¤ íı¬ì¸ł
ĠìłĦìŁģ ìĿ´
ĠìĨĮëĵĿì£¼ëıĦ ìĦ±ìŀ¥
Ġëª¨ ìħĶ
ëĿ¼ëĬĶ ê±´
ĠìĤ¼ ê¶Įë¶Ħë¦½
Ġë³´ëĤ´ ìĦľ
ìĤ¬ ìĦľ
Ġê¹ ĬìĿĢ
ìĭĿ ë¯¼
ĠìĹ¬ ëŁ¿
ëªħ ìĿ´ëĤĺ
Ġêµ° ë¶Ģ
ðŁĺ ł
Ġê·¸ì§Ģ ê°ĻìĿĢ
Ġíķĺì§Ģë§Ī ìĦ¸ìļĶ
Ġê°Ģ ì§Ī
Ġìĭľ ëĭ¤
ëĵľ ë¦¬ê³ł
ĠìŀĪëĬĶ ê±´ì§Ģ
ĠìĦľ íķ´
Ġë°©ë²ķ ìľ¼ë¡ľ
ĠëĨĶ ëĳĲê³ł
i c
Ġìĸ Ħ
Ġê¸ ¸ë
ëĶ ľ
Ġíķ´ìĻ¸ ìĹĲìĦľ
ì Ĵ
İ Ī
ì¹ «
Ġë°© ê´Ģ
ìĨĮë¦¬ ëĥĲ
ê°Ķ ëĦ¤
Ġì°½íĶ¼ íķĺëĭ¤
i m
ëĭ¤ ë³´ëĭĪ
Ġê¸° ë¥¼
ĠíĺĦ ì¶©
Ġëª° ìĪĺ
Ġì¦Ŀ ìĹ¬
Ġê¼¬ë°ķ ê¼¬ë°ķ
ë³Ģ íĺ¸
Ġê±´ê°ķ íķľ
C D
Ġë¨¹ ì§Ģ
Ġìŀħë§Į ìĹ´ë©´
ë¶ĪìĮį íķľ
ëĵ¤ ì²ĺëŁ¼
Ġìĭľ ìŀ¥ìĿ´
ìĪĺìŀĪ ê²Į
Ġê°Ĳìĺ¥ ìĹĲìĦľ
ëª¨ ë¥¼
ìĪĻ íķľ
"" ""
ìłĦíĺķ ìłģìĿ¸
ìĭľ ê³Ħ
Ġìłķìĭł ìĥģíĥľ
ĠìĽĲ íķľëĭ¤
Ġíķ´ëıĦ íķ´ëıĦ
ëĮĢ ë¶Ģë¶Ħ
Ġì£¼ ë¨¹
Ġëĭ¹ íķĺì§Ģ
Ġë¶Ī êµĲ
ĠíĽĦ ë°°
Ġìĸ¸ë¡ł ëıĦ
ĠíķĦìļĶ ëıĦ
ì§ĢìķĬ ëĥĲ
ĠëıĦëĳĳ ëĨĪ
ìķĦ ëĶ°
Ġìķŀìľ¼ë¡ľ ëĬĶ
Ġê°Ģì¡± ìĿĢ
ê°Ħ ê±°
Ġìĵ° ëĬĶê±°
Ġíľ ©
ì£¼ ìĭľ
Ġì§Ģ ìĦ±
Ġìŀ¡ ìķĦëĿ¼
ĠëĪĦêµ° ëį°
ìĥ Ľ
ĠìłĦ ìĹŃ
Ġìĺ¬ ë¦´
ĠíķĺëĬĶ ê±´ëį°
ĠëĤ´ë °Ģ
Ġë§Ŀ íķ´ëĿ¼
Ġìĸĳìĭ¬ ìĿĢ
ĠìĿ´ íĭĢ
ìĺ¤ ì£½
ĠìĹĨëĬĶ ëĵ¯
ëıĪ ìĹĲ
Ġìĭ¸ êµ¬ëł¤
ĠíĹĪ ë¦¬
ì¹ĺ ëĤĺ
Ġì§ĳ ëıĦ
Ġë°© íĥĦìĨĮëħĦëĭ¨
Ġë¶Ħ ëħ¸ë¥¼
ĠëģĿ ìĿĢ
Ġëª¨ ìľ¼
ĠëķĮ ë¶ĢíĦ°
Ġëī´ìĬ¤ ëĬĶ
ĠëĭŃ ëĮĢê°Ģë¦¬
k m
íĻľ ìļ©
Ġìłķëĭ¹ íĻĶ
íĶ¼ ìķĦ
ðŁ¤£ ðŁ¤£
Ġ ----
Ġìĵ° ëĬĶê²Į
Ġìłķë¶Ģ ëĭ¤
ìķĮ ì§Ģ
ìĿĺ ìĭĿìĿ´
ìĹĨ ëĦ¤ìļĶ
Ġì²´ë ł¥
ëĭ¹ íķĺì§Ģ
Ġë§Ĳ ìķĺ
Ġìķł ìĵ°
Ġìµľ ìĭł
ê·¹ íŀĪ
¤ ëĭ¤
Ġíķ ı
Ġìĭľ ìłĦ
Ġìĺ¬ ëĿ¼ìĦľ
Ġë³´ìĹ¬ ì¤Ģ
ë§Į ìĦ¸
Ġê°Ģ ë´ĲëĿ¼
ĠìĦł ë°°
ĠëķĮ ë¦¬
Ġë¿Ĳ ìĿ´ì§Ģ
Ġë¶Ļ ìĸ´ìĦľ
ĠêµĲíļĮ ê°Ģ
Ġì±ħìŀĦ ìł¸ëĿ¼
ìĿ¸ê°Ħ ìķĦ
íĮĮ ê´´
Ġìłķì¹ĺ ìłģìĿ¸
Ġë²Ħ ìłĵ
ìķ¼ íķ¨
ĠìłĢ ë²Ī
Ġë¶Ī ëŁī
íķľêµŃ ìĿĺ
ĠíĪŃ íķĺë©´
Ġë¬¸ ì¤Ģìļ©
Ġì¶ľ ìĥĿ
ì§ĢìķĬ ëĭ¤
ª Ħ
ìŀ¬ ìĿ¸ìķĦ
Ġëª» ìķĮìķĦ
!!!! !!!!!
ĠìĿ´ìļ© íķĺê³ł
Ġì§Ģ ë¯¼
Ġì¤ ı
ĠìĤ¶ ìĿĺ
ìŀĲëıĻ ì°¨
Ġìĭľ ë°Ķ
Ġëĵ£ ë³´ìŀ¡
Ġì´Ľë¶Ī ëĵ¤ê³ł
Ġëħ¸ìĺĪ ë¡ľ
ìĤ¬ ëĵľ
ëĦ¤ ëĵ¤ìĿ´
Ġë§ŀ ëĤĺìļĶ
ì´Ī ëĶ©
Ġìº ¡
ðŁĲķ ðŁĲķ
Ġì¡¸ ê°ľ
Ġë§Ŀê°Ģ ëľ¨
ĠëĳĶ ê°ĳ
ĠìĹĨ ìĸ´ë³´
ìĭĿ êµ¬
ëķĮ ë§¤
ĠìĦ¸ ìļ°ê³ł
Ġë¶Ħ ëĭ¨
ìĨĮë¦¬ ëĬĶ
ĠëĤĺìĿ´ ìĹĲ
Ġëª©ìĨĮë¦¬ ë¥¼
Ġë¶ķ ê´´
ĠìķĦ ìĺ¤
ĠìķĦëĭĪ ê°Ģ
Ġê¹ Ĳ
Ġì°¨ ë¦¬ìĦ¸ìļĶ
ì¢ĭ ìķĦìļĶ
ì²ŃìĻĢëĮĢ ê°Ģ
-------- --------
Ġëł ī
Ġì§ ¬
ĠìłĦ êµŃìĹĲ
ĠìĹ° ë£¨
Ġëĭ¬ ëĿ¼ì§Ģ
ìĭŃ ìĩ¼
ì¢ĮíĮĮ ëĬĶ
Ġê±´ë ³´ë£Į
ĠìĤ¬ë¦¬ ìĤ¬
ĠìķĦëĭĪ ëĭĪê¹Į
ë°Ķ ê°Ģì§Ģ
ĠëĤ´ë ²Ħëł¤
ĠìĨĮëĮĢê°Ģë¦¬ ê°Ģ
Ġëĸ³ëĸ³ íķĺê²Į
íĤ¤ ê³ł
Ġë°Ľ ìķĺëĭ¤
Ġìĸĳ ëıĦ
Ġë¹¨ê°±ìĿ´ ëĬĶ
ìĭ¶ ëĦ¤
Ġìĭłì²ľì§Ģ ë¥¼
Ġì§Ħë³´ ëĬĶ
ëĺĳ ê°ĻìĿĢ
Ġì§ģë¬´ ìľł
ìĸ´ ì§Ģê³ł
ĠìĿ´ ëĵ¤
Ġê¹Ģ ìŀ¬
Ġëħ¸ ê³¨
Ġê°ĢëĬ¥ íķĺëĭ¤
ë¹Ħ íĸī
Ġëħ ¸ë¹Ħ
ë°ľ ë¡ľ
Ġìķŀ ëĳĲê³ł
ì§Ģê¸Ī ìĿ´
Ġì¢ħêµĲ ê°Ģ
ìŀĺëª» ìĿĦ
ĠìķĪ ìŀ¡
Ġë¶ģ ìĨ¡
Ġìķł ëĤ³
ëĬĲ ëĤĮ
Ġì´Ī íĨłíĻĶ
Ġê´´ë¡Ń íŀĪ
ê¸ ¸ë¡ľ
íķľíħĮ ë§Į
ĠíĹĽìĨĮë¦¬ ë¥¼
Ġë¬¸íĨµ ìĿĢ
ì§ĳ ëıĦ
ĠíıīìĥĿ ìĿĦ
ì°¨ ëŁī
Ġì§Ģê¸Ī ë¶ĢíĦ°
Ġì§ĢëĤĺ ê°Ģëįĺ
Ġê¿Ī ëıĦ
ë ¼Ī
ëĭ¤ íĸī
Ġíķ´ ìĨĮ
ëĤ´ë ¶Ģ
Ġê¸°ê°Ģ ì°¬ëĭ¤
ê¸° ìĸµ
ëĲĲ ëĬĶëį°
ë¬´ ìĹĩ
ê·ľ ëªħ
ĠíĿ¬ë§Ŀ ìĿĦ
Ġìļ°ëł¤ ë¨¹
Ġë§ŀ ìķĦìķ¼
íĥľ ë¥¼
Ġì¹ľ ì²Ļ
ìķĬ ê³ł
Ġì¡°ìŀĳ ìĿ´
ê±° ìĿĺ
ĠëĤĺ ë¬´
ìĦľ ëĭĪ
Ġìĭ¬ ë¦¬
ĠìłĦ ë¶ĢíĦ°
Ġë¹Ħ ìĥģìĭĿ
ĠìĥĿê°ģ ìĹĨëĬĶ
ì§ĵ ë§Į
Ġë°©ìĨ¡ ìĹĲ
Ġì§Ģì¼ľ ëĿ¼
ëĲĺ ëĦ¤ìļĶ
ë§İ ìķĦ
Ġì°© ìļ©
Ġë°ĸ ìľ¼ë¡ľ
ĠìĤ¬ìĿ´ì½Ķ íĮ¨ìĬ¤
ĠìĦł ìłķ
ĠìĤ´ë ¦´
ìº ł
Ġê°ľ ê·¸ë
ìĭ¤ ìĪĺ
ë¬¼ ìĿĢ
ìĿĳ ìĽĲ
ĠìķĶ ëį©ìĸ´ë¦¬
Ġë°ľìłĦ ìĿ´
ìķĦ ìłĢìĶ¨
ì© Ķ
ìĺĪ ìłĦìĹĲ
ìĿ´ìĥģ ìĿ´
Ġë¬´ìĭĿ íķĺê³ł
ĠìĿĳ ëĭµ
Ġê°ľ ë°©
Ġíķ´ ëĭ¬ëĿ¼ê³ł
Ġì§ģ ìłĦ
ëľ °
íķ´ ê³¨
Ġê³ł ì¡¸
Ġêµ¬ ìĽĲ
Ġìĸ¼êµ´ ëıĦ
ìĿ´ìĭľ êµŃìĹĲ
Ġìļ° ë³ĳ
ëĶ ´ë
ĠìŀĲíķľëĭ¹ ìĹĲ
ì£½ ìĹ¬
Ġì¡´ëĤĺ ê²Į
ĠìĶģ ìĵ¸
ĠìĿ¼ ìłķ
Ġìľł ìŀħ
Ġë¹¼ ë°ķ
ĠìĬ¬ íĶĪ
Ġìķł ëĵ¤ìĿĦ
ĠìĤ¬íĺķ ìĭľì¼ľëĿ¼
ìłĢ ì§Ī
ì¤ĺ ìļĶ
ìĥī ê¸°
ĠìĪĺìĤ¬ íķĺê³ł
Ġëľ °
ĠëĬĺ ìĸ´ëĤľ
ê´ Ħ
ê°ĳ ëĭ¤
ĠìĶ¨ë¶Ģ ë¦¬
ìĸ´ëĤ´ ê³ł
~ ??
Ġíķľ ê±°ì§Ģ
Ġìī¬ ìī¬
ĠìłĦ ëĤ¨
ì£½ ìĿ´
Ġëª¨ë¥¸ ëĭ¤ê³ł
ĠM BC
ĠìĿ¼ìĥģ ìĥĿíĻľ
ì£¼ ê¸¸
Ġëĭ¤ íķĺëĦ¤
ĠìŀĲ ìľ¨
ĠëĲĺ ê¸°
ĠëĨį ëĿ½
Ġì±Ļê²¨ ëĿ¼
ìĦľ ì´Ī
Ġëª» íķĺëĬĶê²Į
Ġë¶Ħ ìĹ´ë
ìĺĪ ë°°
ĠíĮĮ ìĤ°
ìĿ´ëŁ° ëį°ëıĦ
Ġë¹ĦëĤľ íķĺëĬĶ
ĠìĹĨìĹĪ ëįĺ
ìĸ´ë¨¹ ëĬĶ
êµŃ ì¢ħ
ĠìķĦ ìĽħ
ĠìŀĲ ë©¸
ì¤ĳêµŃ ëª½
ĠìĤ¬ê³¼ ëĬĶ
Ġê³µë¶Ģ ë¥¼
Ġì§ĢëĬ¥ ìĪľ
ëĭĺ ëĵ¤ìĿ´
Ġìĩ¼ íķĳ
ĠëħĦ ìĿ´
ĠìĤ´ë¦¬ ëĬĶ
ĠëĮĢ íķŃ
ĠìĤ¬ëŀĮ ìĿ´ëĿ¼ë©´
ìĿ¸ë ł¥
ê³łìŀĪ ìľ¼ëĭĪ
Ġì§Ī íĪ¬
ĠìĤ¬ëĿ¼ ì§Ģê³ł
ĠìĭľëģĦ ëŁ½ê²Į
Ġì¦Ī ê·¸
Ġê²Ģ ìĥĪ
Ġë§ī ê°Ģ
ĠìŀĲìľł ë¡Ńê²Į
........ .....
ë§Ĳ ìĿ´ëĭ¤
ìĨĮ ëĭĪ
ìķĪ ëĤĺ
Ġì¹´ ì¹´ìĺ¤
Ġíģ°ìĿ¼ ìĿ´ëĭ¤
Ġë³´ìľł ìĦ¸
Ġìĺ¤ ë§ĪìĿ´
Ġìĭł ìļ©
Ġìķ½ ìŀĲ
ìķĦ ëĭĲ
ĠìĻĶ ëĬĶëį°
ëĸ¼ ê¸°
Ġê°ľ íĹĮ
ì¡´ ìŀ¬
Ġíŀĺëĵ¤ ì§Ģ
ëĭ¤ íĺľ
Ġë¹Ħ êµ´
ĠëĪĪ ê°Ģë¦¬ê³ł
ĠìłĦëĳĲíĻĺ ìĿ´
ëįĶ ê¸°
ëĿ½ ìľ¼ë¡ľ
ĠíĹĲ ëľ¯
ìĿĢ ê±´
Ġìĺ µ
Ġìĵ° ë©´ìĦľ
íĭ ¸
ëĤ´ ìĿ¼
Ġê¸°ëĭ¤ ëł¤ëĿ¼
Ġãħ ķ
Ġë¶Ħ ìĿĢ
ĠíĹĪ íĹĪ
ĠíĽ ¤
ĠìĤ¬ ë¨¹
Ġìĸ´ë ²Ħ
Ġìļķ ìĭ¬ìĿ´
ĠëĮĢíķ´ ìĦł
Ġë²Ħíĭ° ê³ł
ĠJ TBC
Ġì§Ģê¸ĭì§Ģê¸ĭ íķĺëĭ¤
Ġìĭłë¢° ë¥¼
ĠìĿ´ëĵĿ ìĿĦ
Ġìŀĳìŀĳ íķ´ëĿ¼
Ġê±° ëĮĢ
ĠìĿ¼ë³¸ íķĺê³ł
ĠëķĮ ë§Īëĭ¤
ĠìĿ´ìľł ëıĦ
ĠìŀĪìĿĦ ì§Ģ
ĠìĿ¼ìĤ¼ ëĬĶ
ì§Ģ ìļ°ì§Ģ
ê¸° ëĬ¥
ìłĦ ìĿĢ
ìĨĮ ìĨ¡
Ġìĸ´ëĸ¤ ì§Ģ
ĠëĤ´ëł¤ ëĿ¼
ìĥģíĻ© ìĿ´
Ġm bc
Ġíķĺìĭľ ì§Ģ
íĺĦ ìĿ´
íľ´ ê°Ģ
ĠíĥĪ ì·¨
Ġë§¥ ì£¼
ë® ¤
ĠìĿ´ ê°Ģ
ĠìĨį ìħĪ
Ġëħ¹ ì·¨
íķĺ ëĵ¯ìĿ´
Ġì§Ģ ìĥģ
Ġìĸ´ ê·¸ë¡ľ
ì§ģ ìŀ¥
Ġíķ´ë ²Ħ
Ġíŀĺ ëĤ´ëĿ¼
° ĺ
Ġì¢ħ íķ©
ĠìĦ¸ íĥģ
ĠìĿ¸ìłķ íķĺì§Ģ
ĠëĤľë¦¬ ì¹ĺ
Ġê¿ °
ê°ľëı¼ì§Ģ ëĵ¤
ëĬĶëį° ë¡ľ
Ġìĵ° ì§Ģë§ĪëĿ¼
ë£ ¸
ë°ķ ê³ł
ĠìĻ¸ ì³Ĳ
ì§Ŀ ì§Ŀ
ĠìłĬìĿĢ ìĿ´
ê°ģ ìĿ´
ë°ĺ ë¯¸
ĠíĻĶ ìĿ´
Ġê±°ì§ĵ ìĦłëıĻ
ëĳ¥ ìĿ´
Ġ ;;
ĠìĪĺ ìĭł
ëĬĶê±° ë³´ë©´
íķ´ ì¡Į
Ġê°Ģ ëıĻ
ìļķ ìĿ´
Ġêµ°ëĮĢ ë¥¼
ë§Ĳ ëįĺ
êµŃë¯¼ ìĹ°ê¸Ī
ë¨ ¼ì§Ģ
Ġë²Ķì£Ħ ìŀĲê°Ģ
íķł ëł¤ë©´
ìķĪ íķ´ëıĦ
Ġë§Ŀ íķ´ìķ¼
ĠëĪĦêµ¬ ìĿĺ
ĠìķĪë³´ ìĿ´ëĥĲ
ìĩ¼ ë¥¼
Ġë°° ìļ¸
Ġìļķ ëĤĺìĺ¨ëĭ¤
ĠêµĲìľ¡ ë¶Ģ
ä¸ Ń
ĠìķĪ ëĵ£
ìĥģ ëĮĢë¡ľ
ĠìĦłê´Ģ ìľĦ
íķĺ ë¯Ħ
ìĪĺ ëł¹
ìŀ¥ ê¸°
Ġì£¼ êµ¬ìŀ¥ì°½
ĠD NA
Ġìĺ¤ ë¥´ë©´
Ġìĭł ëĿ¼
Ġíķ´ë Ĩĵ
ì½ ķ
Ġì´Ľë¶Ī ë¡ľ
íķľ ê²¨ëłĪ
ĠíıĦ íķĺ
ìļĶ ìĥĪ
ìĿ¼ ë¶Ģ
Ġë¶ģ ë¯¸
Ġì¤ĳêµŃ ìĿ´ëĤĺ
ì°¬ ìĸĳ
Ġêµ´ë ³µ
Ġë³´ ìķĪ
ĠìĿ¼ë³¸ ì°¨
ë´Ĳ ì£¼
ĠëıĦ íĥľ
Ġë¨¹ ìĸ´ìķ¼
ìķ½ ìĿĦ
ĠíĺĦìŀ¬ ìĿĺ
ĠíĹ· ê°Ī
ĠìĤ¬ëŀĮ ìŀħëĭĪëĭ¤
Ġìĸ¼ë§Ī ìłĦ
Ġê°Ģì¡± ëĵ¤ìĿ´
íĻĶ ìĹĲ
Ġìĸĺ ëĬĶ
ĠíĮĶìķĦë¨¹ ëĬĶ
ì² «
Ġê²Ģì°° ìĹĲìĦľ
Ġë½ĳ ìĿĦ
Ġìĺ¤ë¦¬ ë°ľ
Ġíŀĺëĵ¤ ëĭ¤ê³ł
Ġ ---
Ġëĭ¤ ìĪĺìĿĺ
Ġê°ľ ìĨĶ
Ġìĵ°ëłĪê¸° ë¥¼
Ġë¬´ëĦĪ ì§Ģê³ł
Ġêµ¶ ìĸ´
ĠìĦ¸ë¬´ ì¡°ìĤ¬
ìĤ ¿
Ġë¬¼ ê°ĪìĿ´
Ġì°¾ ëĬĶ
ĠìĥĿê²¼ ëĬĶëį°
ì£¼ ëĭ¹
Ġë³´ ì¡°ê¸Ī
ìĨį íŀĪ
ë°Ķ ë¥¸ë
Ġê¸ī ìĭĿ
Ġê³µê°ľ íķĺëĿ¼
Ġìµľìķħ ìĿ´ëĭ¤
Ġëĸł ëĵ¤ìĸ´
ĠëıĦìĻĢ ì£¼ëĬĶ
íĻķì§Ħ ìŀĲ
ëĤĺ ê°ĢìĦľ
Ġíİ¸ ëĵ¤
Ġì§Ħìĺģ ëħ¼ë¦¬
Ġìļ° ìĬ¤
Ġëĭ¹ ë¶Ħê°Ħ
ê±°ë¦¬ ì§Ģ
ëįĶëĭĪ ë§Į
ìĤ¬ê±´ ìĿĢ
ê°Ļ ìķĦìļĶ
ìĵ° ê¸°
ëķ ľìĭľ
ĠëĮĢëĭ¤ ìĪĺê°Ģ
Ġíķľëĭ¬ ìĹĲ
Ġëĭ¤ìĸĳ íķľ
ĠíĿ¬ íķľ
Ġëĭĺ ìĿ´
ĠìĬ¬íĶĦ ëĭ¤
Ġê¸° ê»ı
ëĤ´ ìĹĲìĦľ
êµ° ìĿĦ
Ġ4 5
ĠíĥĢìĿ´ íĭĢ
ĠêµŃ ê³ł
Ġê·¸ëłĩ ì§Ģë§Į
ĠíĦ° ì§Ģê³ł
ëĲĲ ê³ł
íķĺ ë©´ëĲĺ
Ġíķĺ ì²Ń
êµ¬ ë§Ī
íŀĪ ê²Į
Ġë¶Īë²ķ ìľ¼ë¡ľ
ĠìķĪ ë³´ë
Ġìļ° ì£¼
ë¶Ī ëĬ¥
Ġì£¼ ìłĳ
Ġë°Ķ ëĿ¼ê³ł
ë£Į ê°Ģ
ìłĲ ìłĲ
Ġì²ľ ë°ķ
ì¢ĭ ê³ł
3 5
ĠëĶ± íŀĪ
ìŀ¬ìķĻ ìĿ´ê°Ģ
Ġì° ¿
ĠìĿ¼ ì¢Ģ
Ġì°¾ ê³ł
ĠìŀĶ ì¹ĺ
Ġë¯¸ìĤ¬ìĿ¼ ìĿĦ
ĠìĿ´ìĿµ ìĿ´
ë§ ¡
ê³Ħ ì¸µ
Ġì°¨ ìĽĲìĹĲìĦľ
ìħ¨ ëĤĺìļĶ
Ġì§Ħìłķ ìĦ±
Ġt he
Ġì£½ ìĺĢ
ìĿ´ ê²ĥ
ĠìķĪ ëıĮìķĦ
ê¸Ī ëıĦ
Ġìļ° ë¦´
Ġì½Ķë¡ľëĤĺ ëĬĶ
ĠìķĪë³´ ëĬĶ
ì§Ĳ ìĬ¹
íĸĪ ìĹĪëĬĶëį°
Ġë§Į íķľ
Ġë¶Ī ëłĢ
ìĽĥ ê¸´
ĠëĭĪëĦ¤ ëĬĶ
ìŀĳ ìłķ
Ġë¶ĢíĮ¨ íķľ
ê³ł ë§Ļ
Ġë¹Ħ ê³µ
Ġ3 000
ìĻķ ëĶ°
ĠëĲĲ ëĬĶëį°
ëĵ¤ ìĿ¸
Ġì¦Ŀ ìĥģ
Ġê¹¨ ìĭľë¯¼
ìŀĲëĵ¤ìĿ´ ëĭ¤
Ġì¡°ìĭ¬ íķ´ëĿ¼
Ġìŀłìŀ¬ ìłģ
Ġì´Ŀ ëıĻìĽĲ
ĠìĤ¬ëŀĮëĵ¤ íķľíħĮ
Ġë°ķê·¼íĺľ ë¥¼
ĠìĽĶê¸ī ìĿĢ
ĠìĿ¼ë°© ìłģìľ¼ë¡ľ
Ġê¹½ íĮĲ
Ġíķĺ ìľĦ
ëħ ¹
Ġìŀĺ íķĺëĦ¤
ĠëĲĺ ëıĦë¡Ŀ
Ġë¬¼ íĥĢ
ìĹŃ ìī¬
Ġëĭ¬ ìĿ¸
Ġë³´ê³ł ìĭ¶ëĭ¤
êµŃê°Ģ ë¥¼
ë¿Ĳ ìĿ´
ĠìĹĨ êµ¬ë§Į
ìħ¨ ëĦ¤ìļĶ
ĠëĮĢëĭ¨ íķ´
ìĦ¸ ìļ°
ĠãĦ± ãĦ±
íķĺ ìĿ´
ëĤ Ń
Ġì£¼ ìĿ¸ìĿ´
ĠìĦ¸ ê·ł
Ġíĥľ ëıĦ
ĠìķĶ ìĤ´
i s
ìĿĦ ìĪĺëıĦ
Ġì£¼ ëĶĶ
íķĺê¸° ìĹĲ
ìĤ¼ ìķĦ
ë¬´ ìĹŃ
íĻĶ ëĮĢ
ĠìĿĺ ìĦĿ
ëĶ¸ ìĿ´
Ġì§§ ìĿĢ
ĠìĽĲìŀĲ ëł¥
ì¡°ìļ© íŀĪ
Ġì§Ģ ìĺ¤
ìĪĺ ìĹħ
Ġë§ŀ ëĬĶì§Ģ
ëįĶëĿ¼ ë©´
Ġìŀ¥ê´Ģ ìĿĦ
íĺĳ ìłķ
ĠíĴĢ ìĸ´ì£¼
ëĿ¼ ìĬ¤
ê³µ ìĤ¬
ĠíĮĲ êµŃìĹĲ
ĠëĤ´ë¡ľëĤ¨ë¶Ī ìĿĺ
ìļĶ ì²Ń
Ġì£¼ ìŀ¥ìĿĦ
Ġìļ° ë¬¼
Ġì¹ĺë£Į ë¹Ħ
Ġë¯¸ì³¤ ëĭ¤
ĠëĿ ł
íķł ëĿ¼ê³ł
Ġë°©ìĨ¡ êµŃ
ĠêµŃë°© ë¶Ģ
ĠëĮĢ íķĺìĹ¬
Ġíķł ê±°ë©´
ĠíĺĦ ì§ģ
ìĤ¬ ìĿ´íĬ¸
Ġê°Ģ ìĬ¤
ê°Ļ ëĥĲ
ĠìłĪ ëĿ¼
Ġìŀĳ ìŀĲê°Ģ
Ġìłķìĥģ ìłģìľ¼ë¡ľ
ëĭ¤ ìĿ´
Ġì¹ĺ ëªħ
Ġì»¤ ìĦľ
? !!
ĠìĽĲ ìĪĺ
ĠìłķìĿĺ ìĿĺ
ĠëĨĢëŀį ëĭ¤
. !!
ëŀĢ ê²Į
Ġë¬¸ìłľ ëĿ¼ê³ł
ĠìŀĪ ìľ¼ëĤĺ
ìĹĪ ê²łì§Ģ
Ġë¯¸ìķĪ íķĺëĭ¤
v e
Ġì¡° ìĽĲ
Ġìĸ´ë Ķ°
Ġìļķ ìĦ¤
Ġë§¤ ë§¤
Ġëľ¨ ê³ł
ĠìĿ´ ìĥĪëģ¼
ìłľ ìłķìĭł
ìŀ¥ ê³¼
ĠìľĦ ëĮĢ
ĠìľĦ ìĹĲìĦľ
ë¶Ħ ìķ¼
Ġê¶Į ë¦¬ë¥¼
ê²¬ ìĿ´
ĠìĨĮìĦ¤ ìĿĦ
ëĭ¤ íķĺê³ł
Ġì¤ĳêµŃ ìĿ´ëŀĳ
Ġë°± ëĳĲ
Ġì¢Įë¹¨ ëĵ¤ìĿĺ
ìĿ´ ìĬ¹
êº¼ ëĿ¼
ĠíĻ© ëĭ¹
Ġì²ŃëħĦ ëĵ¤
ìĺ¤ ëĬĶëį°
ì§Ī ìĿ´ëĥĲ
ë°Ķ ê¸Ģ
ë½ĳ ìķĦ
Ġíķ´ë³ ¸
êµ¬ ì²Ńìŀ¥
ëģ¼ ëĵ¤ìķĦ
íĸī ìľĦë¥¼
ì¢ħ ìĸĳ
ĠìĤ´ìķĦ ê°Ī
ĠìĤ¬ëŀĳ íķ©ëĭĪëĭ¤
Ġìķŀìŀ¥ ìĦľ
ëĵľëł¤ ìļĶ
Ġíķĺ ê¸¸
Ġë³ ¸ë°Ľ
ĠìķĦìĿ´ ëĵ¤ìĿĢ
ĠìĿ´ëĿ¼ ëıĦ
Ġëĵ¤ìĹ¬ ëĭ¤
ì²ľ ìĿ´
ìĿ´ ìłĦ
ĠìĹĨ ìĸ´ìķ¼
ĠëıĦ ìłĦ
Ġìķŀ ìŀ¡
ì£½ ìĿĮ
ëĬĶ ëĶĶ
ìĤ¬ ì§Ģ
ĠìłĢ ëĶ°
Ġëª» ë³´
íļĮ ìļ©
Ġë¶Ī íıī
ĠíļĮ íĶ¼
ìŀĲ êµŃë¯¼
ëĶ ĺ
íĭ ±
ìĨĮ ë¹Ħ
ëĲł ì§Ģ
Ġë²Ķì£Ħ ìŀĲë¥¼
Ġìĺ¤ëĬĺ ìĿĢ
ĠëĵľëŁ¬ ëĤĺ
Ġê¸°ê°Ģ ì°¨
ë½ Ħ
íķľ íĥľ
ĠíķĺëĬĶ ê±¸
Ġìķķ ìĥī
ëħ¸ë §¹
ĠíĥĢìĿ´ ë°į
ĠìĥĿê°ģ ìĹĲ
ëįĶ ëĵ¬
ìłĪ ëĿ¼ëıĦ
ê¹Ģ ì§Ħíĥľ
Ġì¶ľ ë°ľ
Ġê°Ģ ìĭĿ
ìľł íķĻìĥĿ
ĠìĹĲìĿ´ ì¦Ī
ĠìĤ¬ ë¡ľ
ìľł ì¶ľ
êµĲ ì£¼
Ġì°¸ ëĭ´
ìŀĲëĵ¤ ê³¼
ĠìĹĨìĸ´ ì§Ģ
ìĭľ ëĮĢê°Ģ
Ġê¹Ģ ë¬´ìĦ±
ëĮĵê¸Ģ ìĹĲ
ĠìķĬìķĺ ìľ¼ë©´
ëĤĺ ìĻĶ
Ġë¹ Ĺ
ëĦĪ ê±°
Ġìĸ´ëĶĶ ê°ĢìĦľ
ĠìĨĮë¦¬ ìķ¼
íķĺìĭľ ì§Ģ
ĠíĦ ±
ĠíĤ¹ íģ¬ëŀ©
ìķĦ ìķĦ
ĠìĻ¸ ìłľ
Ġì²¨ ë¶ĢíĦ°
ê°Ģ ìĬ¤
ĠìĤ¬ ëĭĪ
Ġë°ĺ ì¤ĳ
ìĿ´ìŀ¬ ìļ©
ëĮĢ íļĮ
ëĭ¨ ì§Ģ
ë¦¬ëĬĶ ê±´
Ġë¹¨ê°±ìĿ´ ëĿ¼ê³ł
Ġì²ľ íĻ©
ëª° ëŀĳ
Ġê¹¨ëģĹ íķĺê²Į
Ġë³´ëĤ´ë ²Ħ
ìĿ¸ ëĵ¤ëıĦ
ë¹ł ì§Ģê²Į
ĠëĲĲ ì§Ģ
ĠëĶĶ ìĬ¤
ìĸ´ë ¥¸
ê¸´ë ĮĢë¡ľ
Ġì§ģê¶Į ëĤ¨ìļ©
ìļĶ êµ¬
ëį° ëª¨
ìĹŃ ê²¨
ìłķê¶Į ìĹĲìĦľ
ĠëĪĪ ê³¼
ĠìĪĺì¤Ģ ìĿĢ
Ġëª°ëĿ¼ ìļĶ
Ġìĭľê¸ī íķĺëĭ¤
ëĵ¤ ê²Į
ĠìŀĦ ì§ĦìĻľëŀĢ
Ġë¶Īë¦¬ íķľ
ðŁĺ±ðŁĺ± ðŁĺ±ðŁĺ±
Ġê¾¸ì¤Ģ íŀĪ
Ġëĭ¤ íķĺëĬĶ
Ġê³¼ ë°ĺ
Ġíİ¸ ìķĪ
ìĿĦê±° ê³ł
â ĺ
ŀ Į
ëį° ë¦¬ê³ł
ê±° ìŀĸìķĦ
ìĤ¬ ë©´
Ġc ctv
Ġì§ĳíĸī ìľłìĺĪ
Ġë³´ëĥ ħëĭĪëĭ¤
ë§Ī ëĵľ
ìĭľë¯¼ ëĭ¨ì²´
Ġë¹µ ìĹĲ
ìĿ´ ê²ĥëĵ¤ìĿĢ
ĠìŀĲ íķľ
ê²ĥ ê°ĻìĿĢëį°
Ġë¬¸ ìĿĦ
Ġìĸ´ë ¨¸
Ġë°ĺ ê³µ
ë²Ī ìĿ´ëĤĺ
ìĺ¬ ë¦¬
ĠëĶ´ë ĤĺëĿ¼
Ġìĸ´ ê¹¨
êµŃë¯¼ ëĵ¤ìĿĦ
Ġì¥Ĳ ìĥĪëģ¼
Ġê±°ë¦¬ ëĳĲê¸°
ìĮ Ķ
Ġìŀ¬ëĤľ ì§ĢìĽĲê¸Ī
ì£¼ ì°¨
Ġìĭľ ëĭ¬
ê°Ī ìĪĺë¡Ŀ
ĠìĪľìĪĺ íķľ
ìķ ¤
ìłĦ ì²´
Ġë¬´ ìĸ¼
ĠíĸĪ ìŀĸìķĦ
Ġë§ī ê±¸ë¦¬
Ġíĺķ ëĭĺ
ìĿĦ ëķĲ
Ġì¤ĺ ìķ¼ì§Ģ
Ġìłķ ìĪĻ
ìĿĺë£Į ì§Ħ
ĠìķĪ íķĺëĭĪ
ë¬¼ ë©°
Ġëĭ¬ì°½ ëĵ¤ìĿĢ
Ġê²½ íĸ¥
íĺľ ìĽĲìĿ´
íİ ´
ĠìĦłê±° ê°ľìŀħ
ĠìŀĪìĹĪ ì§Ģ
ĠìĹŃìĤ¬ ìłģ
Ġì£¼ëĳ¥ ìĿ´ë§Į
Ġìª¼ ëĭ¤
ĠìķĪíķĺ ë¬´
ëĲĺ ëĬĶê±´
Ġë¬´ë §Ī
ë» ĳ
Ġìļ´ìĺģ íķĺëĬĶ
ëĬĶ ëĭ¤ëĬĶ
ëĮĢ ìļĶ
Ġê¸° ìĽĥ
ê·¼ ê±°
ĠìķĪ íĸĪëĬĶëį°
íĩ´ë ¥¼
Ġìłķì¹ĺ ìĿ¸ìĿĢ
Ġì§ĵ ìĿ´ëĭ¤
ê³łìŀĪ ëĥĲ
ê°ķ ìłĲ
Ġë½ĳ ìľ¼ë©´
ĠìķĪë³´ ìĿ¸ëĭ¤
Ġì§±ê¹¨ ëĵ¤
ê¸°ëłĪê¸° ìķ¼
ĠìķĦ ëĦ¤
Ġíķł ëł¤ë©´
ĠëĳĲ ê°ľ
Ġìĵ°ëłĪê¸° ëĵ¤ìĿĢ
Ġê°ĻìĿĢëį° ìļĶ
Ġì§ĢëıĦ ìŀĲê°Ģ
ìĥģ ì¡°
ëĬĶëį° ìļĶ
ë¹Ħ ìľ¨
Ġë°¥ ë§Ľ
Ġì¹ľìĿ¼íĮĮ ê°Ģ
Ġìŀ¡ìķĦ ëĦ£
Ġìĸ´ëł¤ ìļ¸
? "
Ġì²ĺ ì°¸
ŀĢ ëĭ¤
Ġê·¸ë ¦Ħ
ëĭ¹ íķĺë©´
íĮĮ ë¦¬
íİ¸ ìĿĦ
ë°ķ ì§ĢìĽĲ
ëĤ¨ ìŀĲê°Ģ
ìŀĺ íķĺëĬĶ
Ġì¤ĳìĤ° ì¸µ
Ġë¶Ģ ë©Ķ
Ġì§Ģê¸Ī ë³´ëĭ¤
Ġë¬´ìĬ¨ ì£Ħ
ĠìĺĪ ìģĺ
ĠëĤł ë¦¬ê³ł
ĠìĦłê±° ì²ł
ĠìŀĲìĭĿ ëıĦ
Ġëĭ¤ëĭĪ ì§Ģ
ĠíĤ¤ ìļ°ê³ł
Ġë´¤ ëĤĺ
ìĿ´ìĹĪ ëįĺ
Ġê°Ģ ëĦ¤
ìĹĨ ì§Ģë§Į
ê³łìĭ¶ ìĸ´
Ġìĺ³ ëĭ¤ê³ł
Ġëĺĳëĺĳ íŀĪ
ĠëĤ¨ ë¡ľëĭ¹
ĠìĻ¸êµŃ ìľ¼ë¡ľ
ĠëĲĲ ëĦ¤
Ġíķ´ë³ ¼
ìŀĲ ëĦ¤
ìłģ ìĿ´ëĦ¤
ê´ľ ì°®
ê³łë¯¼ ìłķ
ìĦ¸ ìĬµ
Ġìľł ê¸°
ĠëĮĢíĨµëł¹ ìĿ´ëĥĲ
ê¹¨ ëģĹ
Ġë°ĽìķĦ ëıĦ
Ġ8 00
ĠìŀĶ ë¨¸ë¦¬
ê³ł ìĨĮ
íķĺì§Ģ ìļĶ
Ġë¶Ī ë¡ľ
íķľê±° ìŀĦ
ĠìĤ¼ ì²ŃêµĲìľ¡
ĠíĶ¼íķ´ ìŀĲëĬĶ
Ġíĺ¼ ë°¥
ĠëĶĶ ìŀĲìĿ¸
Ġë¹ĦíĮĲ ìĿĦ
Ġìª½íĮĶ ë¦°ëĭ¤
Ġë§Ī ìĭľê¸¸
ëħĦ ìĿ´ëĤĺ
ì°¨ ìĽĲ
Ġê´ĳ ë³µ
ë§Į ìŀ¥
ìłľ ê³µ
Ġê°Ģ ëĤĺ
ìļ° ëł¤
ì§Ī íķľ
ìĿ´ëĤĺ íķĺê³ł
ĠëĤ³ ìĿĢ
Ġíĸīë³µ íķľ
ĠìĪĺëł¹ ëĭĺ
ê¸° ëĵĿê¶Į
ëĤĺìĺ¤ ê³ł
Ġì¯ ¤
ê±´ ì¶ķ
Ġë³´ ëĬĶê±°
Ġëĵ± ëıĮ
Ġíķľë²Ī ìĿ´ëĿ¼ëıĦ
Ġë´¤ ëĥĲ
Ġíĸīíĥľ ë¥¼
ĠìŀĲë°ľ ìłģ
êµ¬ ìłĪ
Ġë°° ë¯¼
ë³ĳ ìľ¼ë¡ľ
ĠìłĲ ìĭ¬
Ġíĺķ ëŁī
íķĺ êµ°
ê°Ģ ìĿĺ
ê±° ìĹĲìļĶ
ĠìĿ¼ ëĵ¤ìĿ´
Ġê±° ëĦ¤
ĠìĿ¼ë³¸ êµ°
ĠíĹĪ ê²½ìĺģ
Ġì¹¨ ë±ī
° ĶëĿ¼
ĠìĤ¬ ëĬĶê±°
ìĻĢ ìķ¼
íĳľ ë¥¼
ëĪĦ êµ´
Ġê´ľì°® ëĭ¤
Ġëĸłëĵ¤ ìĸ´ëĮĢ
ê¸Ī ìķ¡
Ġêµ¬ ìĦĿ
ìĤ¬ ëĭĺ
Ġëĭ¤ ê¹Į
Ġìĸ´ë ķ
Ġë¹ł ì§Ģ
Ġê²½ì°° ìĦľ
Ġë³´ìĹ¬ ì¤ĺìķ¼
Ġíĳľ ê°Ģ
Ġíķĺê³ł ëıĦ
ł¤ ìĦľ
íĿ¬ ìĥģ
ĠëĤľë¦¬ ìĿ¸ëį°
Ġê¸°ë³¸ ìłģìľ¼ë¡ľ
ĠìŀĲìĦ¸ íŀĪ
Ġ e
ìĭ¬ ìĥģìłķ
Ġê¼´ ëıĦ
Ġ6 5
ĠëŃĲ ë§Į
Ġìļ°ë¦¬ ë§Į
Ġìļ°ë¦¬ ë³´ëĭ¤
ĠìĤ¬ìĭ¤ ìĿ´ë©´
Ġëķħ ìĿĦ
Ġìľ Ī
Ġë§Į ëĤĺë©´
Ġìŀ¥ ë©´
ĠìĽĶ ë¶ģ
Ġë³´ íĺ¸ë
Ġë§Ī ëĶĶ
ì²´ ìĿ´íĥĪ
ë©´ìĦľ ìļĶ
ìĽł ëĭ¤
ëĸ¨ ê³ł
ĠìĿ´ ì§ĢëŀĦ
Ġìŀ¡ ìķĦë¨¹
ìķĦìķ¼ íķľëĭ¤
Ġìĭ¹ ìĵ¸
Ġì¹¼ ë¡ľ
ìŀĪ ëĭ¤ëĬĶ
ĠëĤĺëĿ¼ ìķ¼
Ġìĵ° ì§Ģë§Ĳê³ł
ĠíķĻ ëł¥
ĠìĿ´ìĥģ ìĿĺ
íķĺëĬĶëį° ëıĦ
ê°Ĵ ëıĦ
Ġë»Ķë»Ķ íķĺê³ł
ìĨį ëıĦ
Ġë°ľ ë³ĳ
ìĿ¸ëĵ¤ ìĹĲê²Į
Ġë°©íĸ¥ ìľ¼ë¡ľ
Ġi mf
íķľ ì±Ħ
ëĤĺ ìĺ´
ìłķ ì§Ģ
ĠëĲĺ ëıĮìķĦ
íĽ ¼
ĠëĮĢêµ¬ ìĭľë¯¼
ì§ģ ìłĦ
ìŀĲìĭĿ ëĵ¤
ìł ĸ
Ġê±° ì§ĸ
Ġìľł ëĬ¥
ëħ¸ ìĿ¸
Ġëĺĺ ë§Ī
ĠìĿ´ì¤ĳ ìĿ¸ê²©
ĠìķŀìĦ¸ ìĽĮ
Ġìĸ´ ê¸ĭ
Ġëħ¸ ì¹ľ
ĠìĤ¬ê³ł ë°©ìĭĿ
Ġë²Ĺ ê³ł
ĠêµŃìĿµ ìĹĲ
Ġê·¸ ìķ¼ë§Ĳë¡ľ
êº¼ ê³ł
íİ ¸ë§Į
ê° ¸
Ġíķĺ ëŁ¬
Ġíķł ê¹ĮìļĶ
Ġê³łë§Ļ ìĬµëĭĪëĭ¤
ìł ¼
ìĭł ìĥģ
ê¶Į ìĹĲ
ĠíĻĶ ìŀ¬
ĠìĻ¸êµĲ ëĬĶ
Ġì¢Ĩ ìĦł
ĠìĻĶëĭ¤ ê°Ķëĭ¤
ìĬ¤ëŁ½ ëĦ¤ìļĶ
ëĮĢ ëĥĲ
Ġìĭľ ìłĲ
íķ´ë Ĥ´
ĠëĤĺëĿ¼ ë§Ŀìĭł
ëł¹ ìĿ´
Ġìłķìĭł ì¤Ħ
íķĺëĦ¤ ãħĭãħĭ
Ġê·¸ëłĩê²Į ëıĦ
ìŀĲ ëĤĺìļĶ
Ġê·¸ ìłĦìĹĲ
ĠìľĦ íĥľ
Ġìĸĳìĭ¬ ìĿĦ
Ġì§ĢíĤ¤ ê¸°
ĠíĻľ ìĦ±íĻĶ
ë¬¸ ìĿĢ
Ġë¶Ģ íķĺ
ëª» íķł
Ġìĭ« ìĿĢëį°
ë°¥ íĨµ
íķ´ ìĺ¨
ëĥ Ķ
ìľł ì°©
íĻĶ ìłĲ
ĠìķĦëĭ¥ íķĺê³ł
ĠìĿ´ ìłģ
ĠëĤĺ ë¶ĢëŀŃ
ë°ķ ìĺģìĦł
Ġë¬¼ ìĸ´ìķ¼
Ġì´Ŀ ìŀ¥ìĿ´
Ġì¢Įíĳľ ì°įê³ł
Ġìł¸ ìķ¼
Ġë§Ī ë¹Ħ
ĠìłģíıĲ ëĭ¤
ĠëĦĺìĸ´ ê°ĢëĬĶ
ĠíĨµìĿ¼ ìĿĦ
ĠìŀĪ ëįĶëĿ¼
ĠìĦľ ìĸĳ
ĠìĿ¼ë³¸ë §Į
ĠìĪĺìĭľ ë¡ľ
ìĤ´ìĿ¸ë §Ī
ĠìķĪ íķĺë©´ìĦľ
Ġë°ĺ ëł¤
íĺ¸ ëĬĶ
Ġë§¤ ìĪĺ
Ġë²Ī ì§Ģ
ĠìķĦíĶĦ ëĭ¤
² ¤
ìī½ ê²Į
i t
ìŀĲ ìĬ¥
ìĭ¤ ë§Ŀ
ê°Ĵ ìĿĢ
Ġë¶Ģëª¨ ìĿĺ
ëĦ ¥
ìĪĺ ìĨĮ
ìĹĨ ëĬĶê±°
Ġë¬¸ìłľ ìĿ¸ìĿ´
ĠãĦ ¸
ëķĮ ì²ĺëŁ¼
Ġìľł ìĬ¹ì¤Ģ
Ġê·¸ëŁ° ê±¸
ê³ł ëł¤
ìĹĲìĦľ ëĤĺ
Ġëı¼ì§Ģ ë¡ľ
ĠìĤ¬ìļ© íķĺëĬĶ
ìķĪ ê³ł
ĠìķĮ ìĪĺê°Ģ
ê·¸ë§Į íķ´ëĿ¼
Ġì£½ìĹ¬ ëıĦ
ĠìĥĿê°ģ íķĺ
Ġìķ½ ìłĲ
ë´ī ìĤ¬
ĠëĤĺëĿ¼ ëĭ¤ìļ´
ì§Ī ìĿ´ìķ¼
Ġì¢Į ì§Ģìļ°ì§Ģ
ĠìĺĪ ìĪł
ĠíĮĮ ëŀĢ
Ġë²Ħ ëł¸
Ġëį® ìľ¼ëł¤ê³ł
Ġê°Ĳìłķ ìłģìľ¼ë¡ľ
Ġê°Ģ ëĬĶê±°
Ġê·¸ ê°Ģ
ì§Ī ê¹Į
Ġë°© íĥĦ
Ġíķµ íıŃíĥĦ
ĠíĹĽ ë°ľ
ê³Ħ ìĿĺ
ĠìĤ´ë¦¬ ê³ł
Ġíį ½
ìłľ ì£¼ëıĦ
ë°Ķ ëĢ
ì¡± ìĿ´
ìĿ´ëĭĪ ê¹Ĳ
ìĿ´ìłľ ìĻĢìĦľ
Ġë°ĶëŀĮ ìĹĲ
ĠW HO
ë©´ íĹĪ
íķĻ ìłģ
íİ¸ ìĹĲ
Ġìŀ¡ìķĦ ëĭ¤
ìĿ´ìĻĢ ì¤ĳìĹĲ
ìŀĲ ëĭĪ
Ġëª ¹
Ġíķ ¥
Ġê·¸ ê²ĥìĿĢ
ëĬĶì§Ģ ëĬĶ
ĠêµĲìĪĺ ëĭĺ
ëªħ ìĶ©
ìķł ë¯¸
Ġë³¼ ëķĮ
ëº Į
ĠìĨĮìĥģê³µ ìĿ¸
íķľëĭ¤ ë©°
Ġëħ¸ë¬´íĺĦ ìĿ´
Ġë¯¸íĨµ ëĭ¹ìĿ´
ĠìĦ¬ ëĤĺëĿ¼
í į
ëĭ¹ ìĦł
Ġì£ ł
Ġë§Ĳ íķĺëĬĶê²Į
ìłķë¶Ģ ìĻĢ
Ġì£¼ íĬ¹
ĠìĨĮ êµ´
ðŁĶ ¥
ê± ±
ë³´ ìĪĺê°Ģ
íĮĲ ë§¤
ëĲľëĭ¤ ë©´
ĠìĦ¸ê³Ħ ìĹĲ
ĠìķĬëĬĶ ê°Ģ
ìŀĩ ëĬĶ
Ġ1 20
Ġìŀ¬ ìĿ¸ìķĦ
ĠìĹĦë²Į ìĹĲ
ĠìĿ¼ ë¡ľ
ĠìĪĺ ê°ĳ
ë¹Ħ ìĦľ
Ġìķł ë¹Ħê°Ģ
ìļķ ìĹĲ
Ġëģ¼ ìĽĮ
ĠëĤĺìĺ¬ ê¹Į
Ġìŀ¥ê¸° ì§ĳê¶Į
ĠìķĦì¹¨ ìĹĲ
ìĹ ĳ
ì£¼ ë¹Ī
Ġê·¸ íĨłë¡Ŀ
ìłĢ ê²ĥëĵ¤
ĠìĥĿê°ģ íķĺëĬĶëį°
Ġì¡°êµŃ ê°ĻìĿĢ
ĠìķĪëĲĺ ëĬĶê²Į
Ġíİ¸ íĺĳ
ĠêµĲíļĮ ëĬĶ
i r
Ġë¹Ħ ê³µê°ľ
ĠìĭľíĤ¤ ì§Ģ
Ġ h
Ġì¶ľ êµŃ
Ġíĺ¸ìĿĺ íĺ¸ìĭĿ
ìľł ìĿĺ
Ġë²Ħ ë¦´
ëĦĺ ìķĦ
Ġë¹¼ ë¨¹
Ġìķłëĵ¤ íķľíħĮ
Ġìĥģíĥľ ìĹĲìĦľ
ë¶Ģ ìŀĲ
ĠìķĪ ë´¤
ìķł ë¥¼
ê±°ë¦¬ ë©´ìĦľ
íķľêµŃ ìĹĲ
Ġë³´ëĤ´ ìŀĲ
Ġê°ľëħĲ ìĹĨëĬĶ
ĠìĿ´íķ´ë ª»
ĠìĤ¬ëŀĮ ê³¼
Ġì§Ħ ë¦¬
Ġê°Ĳ ìłķìĿ´
Ġìļķ íķĺë©´ìĦľ
Ġì²ľ ìķĪ
ĠëĲĺ ëĦ¤
ê±°ë¦¬ ëĦ¤
Ġê³łë§Ī ìļ´
Ġíķľ ë³µ
ĠíĽ ĹëĤł
ĠëĮĢêµ¬ ìĹĲìĦľ
Ġëį ¥
Ġê°ľ ë§ĮëıĦ
ĠìłĢ ê²ĥëıĦ
Ġì£¼ ë¡ľ
ìĤ° ìĹĲ
ĠêµŃê°Ģ ìłģ
ĠëĨĢ ìĿ´
ìĥģíĻ© ìĹĲ
Ġëĭ¤ëħĢ ëĿ¼
ê² ¡
ĠìĿ´ ê±¸ë¡ľ
Ġíķł ê±°ëĭ¤
Ġìķł ìį¨
ìĭľíĤ¤ ëł¤ê³ł
ìĹĩ ëĭ¤
Ġì½ §
ĠíĻķìĿ¸ íķĺê³ł
Ġíķľ ë°ľ
Ġë§Ĳ ìķ¼
Ġê·¸ ìĻ¸
ìĹŃ íķł
Ġ2 8
ê¹Ģ ìĹĲ
ĠëĿ¼ ìĿ´
ì£¼ ìŀ¥
ĠìłĦ ìļ©
ĠëķĮë¬¸ ìĿ´ì§Ģ
Ġìĸ´ì¨Į ëĵł
ìļ° ë§Ī
Ġìĭ¤íĮ¨ íķľ
Ġê°Ļ ëĭ¤ê³ł
ë°ľ ìłķ
Ġìŀĺëª» íĸĪëĭ¤ê³ł
ĠìĬ¤ ì¿¨
ĠëĲł ê²ĥìĿĦ
ĠëĪĦêµ¬ ìĹĲê²Į
Ġìĸĺê¸° íķĺëĬĶ
íĶĦë¡ľ ëĬĶ
ìĨĮ ìĨį
ëĭ¨ ìĿĢ
ĠëŃĲ ëĵłì§Ģ
Ġìŀ¥ ìĭĿ
Ġì¡°ìĦł ìĿ¼
ĠíĴ ī
Ġë¿Ĳ ìŀħëĭĪëĭ¤
ĠìķĦë¹ł ê°Ģ
Ġìĵ¸ëį° ìĹĨìĿ´
ĠìĥĪëĪĦë¦¬ ëĭ¹
ì²ľ ìķĪíķ¨
ìĿ´ìĹĪ ê³ł
ĠìĿ¼ ë³´
Ġë¯¸ íķĦ
ĠìķĮ íħĲëį°
Ġê³¼ ìŀī
ëĺĳ ë°Ķë¡ľ
Ġìĸ´ë¦°ìĿ´ ì§ĳ
Ġëª» íķľëĭ¤ê³ł
Ġìĸ´ë ¦´ëķĮ
ë°ķê·¼íĺľ ëĬĶ
Ġì¡° íļĮ
ĠìķĦëĭĪ ìŀĸìķĦìļĶ
ĠìķĦë²ł ë¥¼
o t
Ġì§Ģê¸Ī ìĿ´ëĤĺ
ĠëĪĦ ë¦¬ê³ł
Ġê´Ģ íĸī
ĠìĮį íĮĲ
Ġë³´ ìĿ´ë©´
Ġìı ľ
ĠëĤĺê°Ģ ìķ¼
Ġìŀ¬ ë°ľ
Ġìĭ¶ ê³ł
ìĺ¬ íķ´
ĠìķĶ ìļ¸
Ġìŀħë§Ľ ëĮĢë¡ľ
ë¹Ħ ëĤľ
Ġëĸł ëĵľ
Ġë³¼ ë§Į
ĠìĭľìĽĲ ì°®
o g
ĠìķĪ ì§ĢíĤ¤
Ġìĸĳ ìª½
ëĤ´ë ĥĲ
ĠëĤ´ëł¤ ëĨĵ
ĠìķĦ ìĦ¸ìļĶ
Ġì¹ĺ ë£¨
ëŃĲ ëĿ¼
ĠìĹŃê²¨ ìĽĮ
ìĤŃ ë°ľ
ĠíĶ¼ìĿĺ ìŀĲ
ĠìŀĲ ìłĦê±°
ìĤ ´ë©´
Ġì£¼ ìĽĮ
ëĤ¨ íĥĵ
ł¤ ëĬĶ
Ġì§Ģëĵ¤ ë§Į
Ġì§Ģì¼ľ ë³´
Ġê°ľíĮĲ ìľ¼ë¡ľ
ìŀĲë³¸ ì£¼ìĿĺ
Ġì¤ĳ ê³ł
ĠíĮĮ ê²¬
ëĮĢíķľë¯¼êµŃ ìĹĲ
ĠìĭľëĮĢ ìĿĺ
ì§ģ íķľ
ĠìĨį ë³´
ìĩ¼ íķĳ
ĠìłĦì²´ ì£¼ìĿĺ
ëıĻ íı¬
ĠëĲĺ ëĬĶê±°ìķ¼
ĠíķĺëĬĶ ë§Ĳ
Ġë§Ŀ íķ´ê°Ģ
ĠìĹ° ëıĻ
ë¬¸ë¹ł ëĵ¤
ĠíĬ¼ íĬ¼
? ~
ëħĦ ìĿĺ
ìĹĲê²Į ë§Į
Ġíķ´ìķ¼ ì£ł
Ġíĥľ ìĸ´ëĤ¬
ìī ĳ
êµŃ ìĿ´ëĭ¤
ĠìķĦ ìĿ´ëĬĶ
ĠìĿ´ë ¡ł
ĠìĹĨ ìĿĦëĵ¯
ê²¨ ìļ°
ĠëĤĺìĺ¤ ê²Į
Ġìķ¼ ëĭ¹ìĿĢ
Ġì¢ĭìķĦ ëĿ¼
Ġëĭ¬ì°½ ëĵ¤ìķĦ
ìµľìķħ ìĿĺ
ìŀ¥ ìŀĲìĹ°
Ġê³µ ìĭľ
Ġìĸĳ ëħĲ
ìĹ´ ìĿ´
ĠìļĶ ë¦¬
ĠìĿ¸ìłķ íķľëĭ¤
ĠìĤ¬ë¦¬ ë¶Ħë³Ħ
ĠëĤĺ ì¹ĺ
ĠìĤ´ ì§Ŀ
Ġêµ¬ ì²Ń
ĠëĮĢë³Ģ ìĿ¸ìĿ´
įĺ ëį°
Ġê³łë§Ī íķ´ëĿ¼
ìĿ¼ ëĤł
Ġëĵ¤ ìľ¼ë©´
ì²ľ íŀĪ
ĠíĻķ ë¥łìĿ´
Ġë§Ĳë¡ľ ëĬĶ
ĠëĬĲëģ¼ ê³ł
êµĲ ìĪĺê°Ģ
ì°¨ ë°ĺ
ê²¼ ëĭ¤
Ġê·¸ë ¥¼
ê°Ļ ìķĦìĦľ
ĠíķĺëĬĶ êµ¬ë§Į
Ġë§ŀ ìķĦìļĶ
Ġë°ľ ê¸ī
Ġë³Ģ ê²½
ĠìķĬìĿĢ ëį°
Ġìŀħìŀ¥ ìĹĲìĦľëĬĶ
Ġìĸ¼ êµ
ìłĪ ë¡ľ
Ġíķ´ë³´ ê³ł
íķ´ë ¡ľ
Ġì§ĳ ìĿĢ
ĠìĤ´ìķĦ ìķ¼ì§Ģ
ê³³ ëıĦ
Ġìĸ» ìĿĢ
Ġíľ´ ìłĦ
Ġê¼ŃëĳĲê°ģ ìĭľ
Ġì¡° ìķĦ
êµ° ëĭ¤ëĤĺ
ì¢ħ ìĿĺ
Ġì¤ĳìļĶ íķľê±´
ĠìĤ¬ì§Ħ ìĿĦ
ìķĶ íĬ¼
ĠìŀĲ ì´Ī
Ġëį §
ĠëĤ¨ ì¹¨
ìłĪ íķĺê²Į
íĥĪ ë¶ģ
Ġë©įë©į ìĿ´
ĠìĹĳ ìĬ¤
ëĲ «
ĠëĤ´ ëıĪ
Ġì¡°êµŃ ìĹĲ
Ġëªĩ íĳ¼
ĠìĬ¤íĥĢ ìĿ¼
Ġë§ī ì§Ģ
ì±ħ ìĿ´
ĠìĹĲ ëĿ¼
Ġê³µìķĪ ê²ĢìĤ¬
ãħ Ķ
ĠìķĪ íĸĪìľ¼ë©´
Ġë¶Ģ ë¥´ê³ł
ëĤľ ëĭ¤ê³ł
ĠêµĲ ë¥ĺ
ĠíĮĮ ê³ł
ìĽĥ ê¸°ê³ł
ĠìĻ¸êµĲ ë¶Ģ
ë¬¸ì£Ħ ìĿ¸ìĿ´
ĠìĿ´ë ¥´
ìŀĪ ëĤĺìļĶ
ìłĢ ê±¸
Ġë¹¨ê°±ìĿ´ ëĵ¤ìĿĢ
Ġëħ¼ ë¦¬ëĬĶ
Ġê²ģ ë°ķ
Ġë©Ī ì¶°
Ġê¿Īê¾¸ ëĬĶ
ë© ¸ë
ìļ° ê°Ģ
ëķĮ ë³´ëĭ¤
Ġì§Ģì§Ģ ì¸µ
Ġíķľë²Ī ìĹĲ
Ġë¬¸ì£Ħ ìĿ¸ìĿĢ
ĠìĻł ì§Ģ
Ġìķŀìŀ¥ ìĦľìĦľ
ê¸° ìĿĺ
ëĭ¤ëĭĪ ë©°
2 3
ĠìĹĨ ìĹĪëĬĶëį°
Ġëĺ¥ ë¬¼
ê¹Ģ ìĿ¼ìĦ±
Ġ20 30
ìĿ¸ê±° ëĥĲ
ĠìĤ¬ ìĤ´
ìĬ¤ ìĹĲ
ìłĦ ìļ©
ĠëıĻ ìĤ¬ë¬´
Ġíĸī ìľĦë¥¼
ĠëĤĺìĺ¤ ëĬĶê±°
ĠìĨį ìĹĲìĦľ
Ġê³µìĪĺì²ĺ ë¥¼
ĠìĤ¬ë§Ŀ ìŀĲê°Ģ
Ġë¯¸ì³¤ ëĦ¤
ì¡° ìĤ¬ëĬĶ
Ġê°ľ ëıħêµĲ
ĠìĨĲ ìĭ¤
ĠìĨį ìĥģ
ëª© ìĿ´
ĠíĻĺ ìĪĺ
ĠëĤľë¦¬ ëĦ¤
ì¤¬ ëĬĶëį°
Ġê²Ģì°°ê°ľíĺģ ìĿ´
Ġê·¸ìŀĲë¦¬ ìĹĲ
íķĺ ê±°ëĿ¼
ĠëĮĢ ê±°
ĠìĿ¼ ìŀħëĭĪëĭ¤
ë¬¸ ì²ľì§Ģ
Ġëĸł ë²Į
ĠëĩĮ ìĹĲ
Ġíķ´ê²° íķł
êµ¬ ìĹŃ
ĠìĻ ¤
ì°½ ì¶ľ
ĠëĬĺ ë¦¬ê³ł
ìĦĿ íĥĦ
íĺķ ìľ¼ë¡ľ
ë¦¬ì§Ģ ë§ĪëĿ¼
ëŀĲ ëĭ¤
ë¬µ ê³ł
ĠíĽł íĽłíĽł
Ġì¢ĭ ëĭ¤ëĬĶ
ĠìĿĺ ì§Ģê°Ģ
Ġê·¸ëŁ° ê±°ì§Ģ
Ġëĭ¨ ìĸ´ê°Ģ
ĠìĿ´ìłķëıĦ ë¡ľ
Ġë©° ëĬĲ
ê±° ëł¤
ëĵł ë§Ĳëĵł
ìŀĳ ëħĦ
Ġì į°
ë§Ī ê·Ģ
êµ° ìĿĢ
Ġì½Ķë¡ľëĤĺ ë¥¼
ëĪĪ ìĹĲ
ĠìĥĿíĻľ ë¹Ħ
ĠìĤ¶ìĿĢ ìĨĮëĮĢê°Ģë¦¬
ìĭ¬ íķľ
Ġì£½ ìĿ´ê¸°
íİ¸ ìĿĢ
Ġê±±ìłķ íķĺëĬĶ
Ġì½Ķë¡ľëĤĺ ìĹĲ
Ġì¢ĥìĦł ìĿ¼ë³´
ĠìķĦ ìŀ¬
ĠìĤ¬ ê¸°ë¥¼
Ġê³µ ë§¤ëıĦ
Ġíİ¸ ì§ĳ
íķĺ ëĵłì§Ģ
Ġëĭµ ê¸Ģ
íķĺ ëıĦ
Ġê²½ ìļ°ëĬĶ
ì£Ħ ìĿ¸
Ġê¸°ëĭ¤ ë¦¬
Ġë°ľìłĦ ìĿĦ
ìĭĿ ìĹĲ
Ġìĭ¬ ìłķ
Ġìį¨ ìķ¼ì§Ģ
Ġëħ¼ ìĿĺ
ê²¬ ì°°
Ġì¥Ĳ ê³ł
ĠìŀĲìľłë¯¼ì£¼ì£¼ìĿĺ ë¥¼
Ġìĭľì²´ íĮĶìĿ´
Ġë²Ħìłĵ ìĿ´
ë©´ ìĹĲ
ĠìłĢ ëĵ¤ìĿĺ
ĠëĤ´ ìłķ
Ġì¤Ħ ìĿĦ
íĺĳ ëł¥
ĠëĪĪì¹ĺ ë§Į
ëĭ¤ ëħĶ
ì£¼ ë©´ìĦľ
ĠìķĬ ëĭĪ
Ġë²ķ ìłķ
ìĵ° ì§Ģ
ìĿ´ìĹĪ ìĿĮ
íķ´ ìłľ
ê±° ê°Ļëĭ¤
ë¯¼ ìĿĦ
Ġëªĩ ìĿ´ëĤĺ
ìĸ´ë³´ ëĭĪ
Ġë§ĲìķĦë¨¹ ëĬĶ
ìĿ´ íķľ
Ġë¶Ģ ìĹ¬
ë¦ ´ëĿ¼
Ġëĵ± ê³¨
ìķĦì¹¨ ìĹĲ
Ġë ¦¼
Ġë¬¸ìłľ ê³ł
ĠìĦ± ëĬ¥
Ġëĵ± ìĿĺ
ë§ĮìĽĲ ìĹĲ
Ġê²© ëł¤
ĠëĶ ¸ëŀĺ
Ġëĵ¤ìĸ´ ìĻĶ
Ġê³µë¶Ģ ì¢Ģ
ëĮĢëĭ¨ íķľ
ëĤĺ ìģĺ
ìĭł ëĵ¤
ì§Ħ ëĭ¨
ĠëĲĺ ê²łì§Ģ
Ġë¶ģíķľ ê°ĢìĦľ
Ġë§ĲìķĦë¨¹ ìĿĢ
ë°Ŀ íĺĢ
Ġë°Ķ ì¹ĺ
ĠíĶ¼ ëķĢ
Ġë¬´ ëĭ¨
Ġë§İ ëĦ¤ìļĶ
ëŀĢ ìĿĦ
ìĦ¸ê¸Ī ìĿĦ
ĠëħĢ ìĦĿ
ĠëĦĪ ëĦ¨
Ġìļ°ë¦¬ ì§ĳ
Ġìĺ¤ ë¹ł
Ġì¢ĭ ìĬµëĭĪëĭ¤
Ġì£½ ê¸°
ĠëıĪ ê³¼
íĥĢ ìĽĮ
Ġë³¸ ìłģìĿ´
ìŀ¡ ìĿĦ
ìĤ¬íĥľ ê°Ģ
ĠìĤ´ìĿ¸ë ¯¸
9 4
Ġíķĺ ê²ł
Ġì¤ĳ ê°ĦìĹĲ
ëħĦ ì°¨
ì¡Į ê³ł
ì¤¬ ëĭ¤
ĠêµŃëĤ´ ìĹĲìĦľ
Ġì¡°ìŀ¥ íķĺëĬĶ
ĠìĤ¬ ëĬĶì§Ģ
Ġíķľ ëĭ¤ëĬĶê²Į
Ġê·¼ê±° ë¡ľ
ìĭĿ ëĭ¹
Ġê·¹ ì¢Į
ìī °
ĠìĦľë¯¼ ëĵ¤ìĿ´
ë°ĳ ìĹĲ
ì§Ģ ìĨĮë¯¸ìķĦ
ĠìĿ´ë ©´
Ġãħ ĵ
Ġ2 7
Ġìķŀ ëĤłìĿ´
ë¥´ë ħ¸
ì§ĳëĭ¨ ìĿ´
ĠíĮ©íĬ¸ ëĭ¤
, ..
ë¦ ħ
Ġìĵ°ëłĪê¸° ëĭ¤
ĠíķĻ ìĬµ
Ġê·Ģ íķľ
Ġë°ĶëĢĮ ê³ł
Ġë©ĭ ì§Ģëĭ¤
Ġê´ľì°® ëĭ¤ê³ł
ëªħ ìĺĪ
ĠìĦł ê³ł
Ġê·¸ëŁ¬ ëĬĶëį°
ê²½ ê¸°ëıĦ
íķłëķĮ ê°Ģ
ĠìĦ¸ìĽĶíĺ¸ ëĬĶ
Ġìļ°íĮĮ ê°Ģ
ìĹ°ìĺĪ ìĿ¸
ê³ ±
ìĤ¬ëŀĮ ëĵ¤ëıĦ
ĠêµŃíļĮ ê°Ģ
ĠìĪĺì¤Ģ ìĿ´ëĦ¤
ĠìĿ´íķ´ íķł
Ġë³´ íİ¸
ĠìłĢ ê²ĥëĵ¤ìĿ´
Ġì¤ĳ ëĮĢ
ĠìĹ¬ ìłĦ
Ġë²Į ìĸ´ìĦľ
ĠìĻ¸êµŃ ìĹĲ
Ġê³¨ ëª©
ĠìĪĺ ìĥī
Ġì£¼ ê¸°
ĠìĤ´ ê³łìŀĪ
ëª¨ ìķĦ
Ġë¹Ħê²ģ íķľ
ë¹¨ ê³ł
Ġìĸ¸ ìĸ´
Ġì°į ìĸ´ìĦľ
Ġê·ł íĺķ
ĠìĤ¬ ìķ¼
ĠìĦł ë³Ħ
Ġíģ ´
Ġìļ´ìļ´ íķĺëĬĶ
Ġê°Ŀê´Ģ ìłģìľ¼ë¡ľ
ëĮĢ ë°Ń
ë§Ĳ ìĿ´ìķ¼
íĻĶ ìŀ¥
íĮĲ ìĿ´
ê°ĻìĿĢ ê²Į
Ġì§Ģì§Ģ íķĺì§Ģ
ê°ķ íĸī
íķĺê¸° ë¡ľ
Ġíķµ ê°ľë°ľ
Ġê°Ĳìĭ¸ ëĬĶ
ĠìĨĶ ê¹Į
ìľ¼ëĭĪ ê¹Ĳ
Ġëª° ì¹´
ìĻĢ ìļ°
Ġì²ľ ë°ķíķľ
ê°Ķ ëĥĲ
Ġê´Ģê³Ħ ë¥¼
Ġë°Ķê¿Ķ ìĦľ
ìĸ´ë¨¹ ìĿĦ
´ë įĶ
íķľ ê±´ì§Ģ
Ġì¹ľ ìĿ¸ì²Ļ
Ġíİ¸ ëĵľëĬĶ
ë°ľìłĦ ìĨĮ
ĠëĮĢêµ¬ ëĬĶ
ìĿ´ëŁ¬ ëĭ¤
Ġì§ĳëĭ¨ ìĿ´ëĭ¤
Ġê¸° ëŀĺê¸°
ìĻĢ ëĮĢë¡ľ
ëĬ¥ íĽĦ
Ġë¹ł ìł¸ìĦľ
ĠëĶ¸ ëıĦ
Ġë§Īì°¬ê°Ģì§Ģ ëĭ¤
ìĻ¸êµŃ ìĿ¸
Ġìŀħ ìŀ¥ìĿĦ
íĺ¸ ì¤ĳ
Ġìķµ ë¬´ìĥĪ
Ġë§Īëķħ íķĺëĭ¤
c h
ìĽĲ ìĿ¸
Ġëª» ë§ī
ĠìĦł íķľ
ĠìŀĪìĿĦ ëĵ¯
Ġì¦Ŀê±° ëıĦ
ë©´ ìĹĲìĦľ
Ġë¬´ ê¸°ê³ł
Ġëª» íķ´ëıĦ
Ġìĸ´ì©Į ëĤĺ
Ġë¿Ĳ ìĿ¸ëį°
ê°Ħ ìĦŃ
ê³µ ì§ľ
Ġì£½ ê²łëĭ¤
ĠíĺĦ ìŀ¥ìĹĲìĦľ
Ġë§¤ ì¶ĺ
Ġë¿Į ë¦°
Ġëª¨ìŀĲ ìĿ´íģ¬
ìĺ¹ íĺ¸
ëĳĲ ë¦¬
Ġëħ¼ ë¦¬ë©´
ë§ĮìĽĲ ì§ľë¦¬
ĠìĿ´ ìĿ¸ìĺģ
ì§Ħ ìĿĦ
ĠëĲĺìĹĪ ìľ¼ë©´
Ġìħ Ī
Ġê°Ģ ê¸°
Ġëĳĺ ì¤ĳ
ãħģ ãħĬ
ĠìĿ¸ìŀ¬ ê°Ģ
2 4
© ìĭľëĭ¤
Ġëĭ¤ ë¥´ëĦ¤
ĠëıĦ ìļ°
Ġë§ŀ ìŀĸìķĦ
ë³ĳ ìĿĦ
Ġì¶ľ ìĦ¸
ë¦´ë łĪ
Ġê¹į ìķĦ
Ġë°Ķë¥¸ë ¯¸ëŀĺ
Ġì£¼ ê±°
Ġë¬¸ìłľ ìĿ¸ëį°
ëĶ° ë¡ľ
íĥĪ ì¶ľ
Ġê¸´ ìŀ¥
ê°Ģ ìłķ
Ġì¡° ì§Ģ
Ġê·¸ ì¤ĳ
Ġëĵ Ń
Ġìľł ê°Ĳ
ìĭ¶ ìĸ´
Ġìŀ¥ê´Ģ ìĿĢ
ìĶ »
Ġëª° ìĤ´
Ġìŀ¡ ìķĺ
ĠëĤ¬ ëĭ¤
ê´´ë ¢°
ĠìĨĮë°© ê´Ģ
Ġê¹Ģ ìĿ¼
Ġìĵ°ëłĪê¸° ëĦ¤
ì²´ë ¥ĺ
ĠêµŃìłľ ìłģ
ìĿ´ ìĽĥ
ëĭ¤ ìĺ¤
ĠìĤ¬ ìŀ¥ìĿ´
ì¹ĺ ìļ°ê³ł
ëłĪ ìĺ¤
Ġê¹ĢìłķìĿĢ ìĿĺ
ĠìºĲ ëĤĺëĭ¤
Ġê¸°ìĪł ìĿ´
ìĸ ¸ë¹Ħ
ë¬´ ëĬĶ
ëĤľ ê±°
Ġíķľìĭ¬ íķ´
ĠíŀĪ íĭĢëŁ¬
Ġì§ĢìĭĿ ìĿ¸
ĠìĿĮëª¨ ë¡ł
ĠëĳĲëĵ¤ ê²¨
Ġë°Ķ ëĳĳ
Ġì¡°êµŃ ì²ĺëŁ¼
ë¶ĢíĦ° ëĬĶ
ĠìłĦëĿ¼ëıĦ ê°Ģ
Ġê» į
ĠìĤ½ ìĭľëĭ¤
ê¸ ¸ë§Į
ìĥģ ìľĦ
Ġìŀħ ëıĦ
ëŀĢ ê±¸
ĠêµŃê°Ģ ìľłê³µìŀĲ
Ġê·Ģ ê°Ģ
Ġì¤ĺ ìĦľ
ĠìŀĪëĭ¤ëĬĶ ê±¸
Ġê°Ģ ë¦¬ì§Ģ
ì¹ľ ê±°
Ġìļ© ëĤ©
ĠìĪŃ ë°°
Ġì§ĳíķ© ìĨĮ
íĸĪ ì£ł
ĠëĲĺ ëł¤
Ġì¡°ìĦł ìĿ´
íĬ¹ íĺľ
ĠíĻĺê²½ ëĭ¨ì²´
ìĥģ ëĮĢ
ìĦ¸ íĤ¤
Ġìłķìĭłì°¨ ë¦¬ìĦ¸ìļĶ
ë§Įëĵ¤ ìĸ´ìĦľ
ĠìĹ´ëĵ± ê°Ĳ
ìłķ ì¹ĺëĬĶ
ìĬ¤ íħĮ
ìĦ¸ ìĽĮ
Ġê¹ ĥ
Ġëª»íķł ë§Ŀìłķ
ëħĦ ìĿ´ë©´
ê°Ĵ ìĹĲ
ëªħ ë°±
Ġìĸĳ ìĬ¹íĥľ
Ġëįľ ëĸ¨ìĸ´ì§Ħ
Ġì¢ģ ìĿĢ
Ġì§Ģìĺ¤ ìĺģ
Ġì¢ĭìķĦ íķĺê³ł
ê¿ į
íķĺ ëŀĢ
ë§Į ë¶Ī
ë¶Ģ ìĿĺ
Ġê±° ëĿ¼
êµ° ìĿ¸
ì§Ģ ìĭĿ
ìĽĲ ì§Ģ
ĠìĹ¬ ê°Ģë¶Ģ
Ġëĭ¹ íĻ©
ê³µ ì²ľ
Ġë§Įëĵľ ëĬĶëį°
ìĿ´ ê²ĥëĵ¤ìĿ´
ê°Ĳ ìłķìĿĦ
Ġë§ŀ ìľ¼ë©´
ĠìĤ¬ê³ł ë¡ľ
Ġíķ´ê²° ëĲł
Ġë¿Į ë¦¬ê³ł
ìĿ¼ë²ł ì¶©
ĠìĿĺê²¬ ìĿ´
ĠëĿ ¨
ðŁı »
ìľ½ ìĭľ
Ġ ????
ĳ ëĮĢ
ĠìĺĪ ëĬ¥
Ġë³´ëĤ ´ë©´
Ġìĭ± ê°Ģ
Ġë³´ ê´Ģ
ĠëĦĪë¬´ íķľëĭ¤
ì¡°êµŃ ìĿĺ
ĠìĪľ ìĦľ
ìĿ´ë²Ī ìĹĶ
Ġë§Įëĵľ ëĥĲ
Ġìŀħìľ¼ë¡ľ ë§Į
ìĥ ·
íķł ë§¤
ìĿ´ëĿ¼ ëĬĶê±°
ìŀĳ ìĿĢ
ĠëĤ´ ì£¼
ĠëĮĢíĨµëł¹ ìĹĲê²Į
íĥĢ ëıĦ
Ġëĵ¤ìĸ´ ìĺ¬
ĠìĦ¤ ë¦½
ìłĳ ëĮĢ
Ġê´Ģìĭ¬ ìĹĨëĭ¤
ë³´ìĪĺ ëĬĶ
ĠìĿ´ë¦¬ ìłĢë¦¬
ë³´ëĤ ´ëĿ¼
Ġë¯¼ê°Ħ ìĿ¸
ìŀĲ ë©´
Ġíı¬ ìļ©
ìĨĮëĵĿ ì£¼ëıĦ
êµ¬ë©į ìľ¼ë¡ľ
ĠìķĦ íľ´
Ġë¶Ģ ê³¼
ĠìļĶ ìĸĳ
ĠìĹ´ ìĸ´
Ġê°ģ íķĺ
ĠëĤ® ì¶°
ĠìĤ½ ì§Ī
Ġê·¸ ê¹Ł
ĠëıĦ ë¥¼
íİ ľ
Ġëª» íķĺê²łëĭ¤
ĠëįĶ íģ°
íĥľ ê°Ģ
Ġì£Ħ ëĥĲ
Ġëħ¼ë¦¬ ìłģìľ¼ë¡ľ
Ġê´´ë ¢°
ĠìĻ¸ì¹ĺ ë©´ìĦľ
ë»Ķë»Ķ íķľ
âĿ¤ âĿ¤
å Ľ
Ġê¹Ģ ìĹ¬
Ġìĥī ê¸°
ĠìĿ´ë ¡ľ
Ġëª¨ ìĭľê³ł
ëĭĺ ê³¼
Ġìĵ° ê²Į
Ġë°Ľ ëĬĶëį°
Ġìŀ¬ ëĭ¨
Ġë¹ĦêµĲ ê°Ģ
Ġë¬´ë£Į ë¡ľ
íķ ı
ĠìŀĲ ë¥´ê³ł
Ġê°ľíĺģ ìĿĢ
ìŀĲìĭĿ ìĿĢ
ĠìķĪíĥĢê¹Ŀ ìĬµëĭĪëĭ¤
Ġë¶Ģ ëł¤
ìłķì¹ĺ ìĿ¸ëĵ¤
ë¬¸ìłľ ë¥¼
íķ´ë´¤ ìŀĲ
ê°Ģ ì¹ĺ
íķľ ëĵ¤
ëĦ ¼ãħĭãħĭ
íķĺ ìħĶ
Ġê³µ ìĿ¸
ĠìĽĲ ìĿ¸ìĿĢ
Ġìľ¤ ì´Ŀ
ìłķì±ħ ìĿ´
ì´ĿìĦł ëķĮ
Ġë¬¼ìĸ´ë ´ĲëĿ¼
ĠëŃĲ íĸĪëĥĲ
Ġëħ¸ íļĮì°¬
ĠìķĪëĲĺ ëĭĪê¹Į
ĠëĤĺìĺ¤ ëĬĶì§Ģ
êµŃê°Ģ ìĿĺ
ì¡´ ê²½
ìĿ¸ë ĥ¥
ĠëģĿ ìĿĦ
ĠìĦ¤ ìĤ¬
ĠìķĮë°Ķ ë¹Ħ
ĠíĮĲê²° ìĿ´
Ġíķĳ íģ¬
Ġê°ľ ìĿ¸ë
ĠëıĮìķĦ ê°ĢëĿ¼
Ġê·¸ ëĭĪê¹Į
Ġëĵ¤ ëŁ¬
ëĵ± ìĿĢ
ĠëĪĪ ìľ¼ë¡ľ
ë²Ķ ìĿ´
ðŁĲ ¦
Ġë¯¸ì³Ĳ ëıĮìķĦ
ĠëĬĻìĿĢ ìĿ´
Ġê°Ħìĭł ë°°
Ġíķľ ê²ĥëıĦ
Ġíķľ ëª«
ĠëĭĪëĦ¤ ëĵ¤ìĿ´
Ġê·¸ëķĮ ëıĦ
ĠĠĠĠ ĠĠĠĠ
. ~
ë¬´ ëĭĪ
Ġë¬´ë ¡Ģ
Ġì§ķ ê·¸ëŁ½
ĠìłĬìĿĢ ìĿ´ëĵ¤
ìĿ¼ ìĪĺë¡Ŀ
ë§Ī ìĭľ
ĠìĹ° ìĿ¼
íĴĪ ìĿĦ
Ġãħĩ ãħĪ
Ġì¹Ń ìĨ¡
ĠëĮĢëĮĢ ìĨĲìĨĲ
ìĦ± íķľ
Ġëª°ìķĦ ëĤ´ìŀĲ
ë¥´ë©´ ìĦľ
ê·¸ ì§Ģ
Ġê²½ìłľ ìłģìľ¼ë¡ľ
§Ī ëĭ¤
ĠìķĦëĭĲ íħĲëį°
ĠëĮĢìĦł ëķĮ
ĠìķĪíĿ¬ ìłķ
ë¯¼ ê²½ìļ±
ìŀħ ìŀ¥ìĹĲìĦľ
Ġë§¤ ìŀħ
Ġë¬´ìĦŃ ê³ł
ĠìķĮëł¤ ì£¼
ĠìĤ¬ ì°°
ìĦł ê´Ģ
íĻĶ íķĺê³ł
Ġìļķ ìĿ´
ë°° ìĭł
ĠëĤĺìĻĶ ëĦ¤
ĠëĮĢìĿĳ ìĿĦ
êµ³ ìĿ´
ëħ ¸ëł¥
Ġë§Ĳ ëįĺê°Ģ
ë²Ħ ë¦´
Ġëħ¸ íĥľìļ°
ĠëĮĢíĳľ ìłģìĿ¸
ç ļ
ê´Ģ ì¢ħ
Ġë°ĺ íĨłë§ī
ëĭ¬ ìķĦ
ĠëĴ· ëıĪ
ìĭľ íļ¨
Ġíķľ ë§Ĳ
ĠëĲ ©ëĭĪê¹Į
ìĦ± ìĿĺ
Ġë§Ī ì¼ĢíĮħ
ĠëĨĪ ìĿ´ëĦ¤
Ġêµ° ë³µ
ĠìĤ´ìķĦ ëıĦ
Ġìľ¤ ë¦¬
Ġêµ¬ìĨį ìĭľì¼ľëĿ¼
ĠìĤ¬ê±´ ìĹĲ
ĠìłķìĿĺë¡ľìļ´ ì²Ļ
íŀĪ ëĦ¤
íķł ë¿Ĳ
ëĤ´ë ¥¼
Ġê°ĸëĭ¤ ë°Ķ
Ġë¬´ ìĸ¸
ì²´ ìłģ
Ġë§Įëĵľ ëĬĶê²Į
Ġíķľ ê°ľ
Ġê°Ģ ë¦¬ê³ł
ĠëĳĲ ëĭ¬
Ġì§ĵ ê³ł
ì¤ĳêµŃ ìĿĺ
ĠìŀĪìĹĪ ëĥĲ
ĠìĿ´ë¦Ħ ëıĦ
ë¨¹ ê¸°
ĠíķľêµŃ ê³¼
ĠëĮĢíĨµëł¹ ìĿ´ëĭ¤
ĠêµŃíļĮìĿĺìĽĲ ìĿĢ
Ġìłķìĭł ê³¼
ĠíĶ¼ ê°ĻìĿĢ
ĠëħĦ ëĨĪëĵ¤
ĠëĤ ±
ìĦ¸ íĥģ
êµŃë¯¼ ëĵ¤ìĿĺ
íİ ¸ëĦ¤
ĠìĤ´ë Ŀ¼ê³ł
Ġì°½ ì¡°
ĠìķĪ íķĺëĦ¤
ìħ Ģ
Ġìĺ¬ ëł¸
ĠíĻĺ ìŀĲê°Ģ
ĠëĶĶ ì§Ī
ëĵ£ ì§Ģ
ĠìĥĿê°ģ íķĺëĬĶê²Į
ëĵ± ìľ¼ë¡ľ
Ġë©Ģ ìĹĪëĭ¤
Ġìĭłê²½ ìį¨
ĠëĮĢ ê²°
íĶĦ ëĭ¤
ĠìĹĦ ìĹ°íŀĪ
ìķĦë¬´ ê²ĥëıĦ
ì§Ģì²ĺ ì°¸
ëħĦ ëĴ¤
Ġìĥģ ìĥģëıĦ
Ġì´ĿìĦł ìĿ´
ĠìĿ´ìĥģ íķĺì§Ģ
ëįķ ë¶ĦìĹĲ
Ġë§¤êµŃëħ¸ ëĵ¤
ìķł ëĵ¤ëıĦ
ĠìĹŃ íĻľ
ĠëĤľ ë¬´
Ġëıħìŀ¬ ê°Ģ
Ġëĭ¬ì°½ ëĵ¤ìĿ´
ĠëĤ® ì¶Ķ
ìĿ´ìľł ëĬĶ
ê² »
íķ´ ëĭ¬ëĿ¼
ìľłìĭľë¯¼ ìĿ´
Ġn ë²Īë°©
ëį° ê°Ģ
Ġìĭľ ìłĲìĹĲ
ê°ľ êµŃ
Ġë¹Ħ ë¦¬ëĬĶ
Ġë¶ģíķľ ì²ĺëŁ¼
Ġì£¼ëĮķ ìĿ´
ì§Ħ ì°½
ĠíķĺëĬĶ ê±´ê°Ģ
ëĤĺëĿ¼ ìĿĺ
íķľëĭ¤ ëĭĪ
Ġë°ľ ìĿĺ
Ġë¹ĦêµĲ ë¥¼
Ġë´īìĤ¬ íĻľëıĻ
ĠíĹĪìĪĺ ìķĦë¹Ħ
Ġê°Ģ ìĦ±
ë§Ī ì§Ģë§ī
ĠìĥĿê°ģ ìķĪ
ê³Ħ ì¢Į
ĠíĬ ¸ëĿ¼
ĠìĺĪ ìĻ¸
Ġê¹Į ë©´
ì½Ķë¡ľëĤĺ ë¡ľ
ĠíĮĶìķĦ ë¨¹ê³ł
Ġê·¸ë £¹
ìłģ ìŀĲ
ì¡° ìĤ¬ê°Ģ
Ġë¹Ħ ê³µê°Ĳ
íķĺê¸° ë§Į
ëĺĳ ëĺĳ
ìĸ¸ìłľ ë¶ĢíĦ°
ìĥĪíĤ¤ ëĵ¤
ëĤ« ëĭ¤
Ġëª»ë°° ìļ´
Ġìŀĺ íķĺì§Ģ
ëª¨ ìŀĲ
ĠìķĦëĭĪëĿ¼ ìĦľ
ĠìĪĺ ëĭ¹
Ġê±° ëĵŃ
Ġëªħ ë¶ĦìĿ´
ĠìĪĺìĤ¬ íķĺëĬĶ
ĠíĸĪ êµ¬ë§Į
Ġë°© ê°Ģ
Ġì¤Ħ ì¤Ħ
Ġê³¼ ìłķ
Ġê±°ì§ĵë§Ĳ ìĿ´
Ġê³¼ê±° ìĤ¬
ĠëŃĺ íķ´ëıĦ
íį¼ ì£¼ê³ł
Ġìª½íĮĶ ëł¤ìĦľ
ĠìĿ´ ìĻķ
Ġê·¸ëŁ¼ ìĹĲëıĦ
ĠëĦ£ ìĸ´ëĿ¼
Ġê²Ģì°°ê°ľíĺģ ìĿĢ
ĠêµĲíĻľ ìĿ´
ìļ §
ë§Į ëĵľëĬĶ
Ġë¬¸ ìĦľ
Ġìļ° ìĽĶ
Ġë¹Ħ ìľĦ
ì§ģ ìłĳ
Ġê°ķ ìĦ±
ìĭľíĤ¤ ëĬĶê²Į
ĠìĤ° ëĭ¤ê³ł
Ġë¹¼ê³ł ëĬĶ
ĠìĤ¬ ìķħ
êµ¬ ì²Ń
Ġê¸°íļĮ ì£¼ìĿĺìŀĲ
Ġë³´ìĿ´ ëĦ¤ìļĶ
ĠìłĪ ì°¨
Ġíİ¸ ìĿĦ
ĠìłķìĿĺ ë¡ľ
ì½ ¤
Ġëĭ¥ ì³ĲëĿ¼
ìłĦ ëıĦ
Ġëħ¸ ìĪĻ
Ġë¶Ħëªħ íķĺëĭ¤
Ġìª½ë°Ķë¦¬ ëĵ¤
ĠìķĦëĭĮ ê²Į
Ġë§Ŀ íĸĪëĭ¤
Ġëĭ¤ë¥¸ ê°Ģ
Ġì© Ĳëĭ¤
Ġìļ°ëıĻ ìĤ¬ë¦¬
Ġ E
Ġë§Ĳ íķĺëĬĶëį°
ĠìĨ ľ
ì£Ħ ìĿ¸ìĿ´
Ġëĭ¨ ê³Ħ
íķĺë©´ìĦľ ëıĦ
ĠìłģíıĲ ìĦ¸ëł¥
Ġë°¥ ëıĦ
ĠëŃī ê°ľ
Ġë°ĺ ìľ¼ë¡ľ
Ġë°ľ ìłķ
Ġìĭ¬ê°ģ íķĺê²Į
ĠìĨĮë¹Ħ ìŀĲ
ĠìŀĲì¡´ìĭ¬ ëıĦ
ìĺĨ ìĹĲ
íķľ ë¯¸
ë§Ī ëĬĶ
íĮĮ íĭ°
Ġê¹Ģ ê±´ëª¨
Ġëĭ¨ êµĲ
ĠëĶ° ìł¸ë
ĠíĪ¬ ìŀĲë¥¼
Ġìĭľìŀĳ ìĿ´ëĭ¤
Ġíļ¨ ìľ¨
Ġëª¨ìĸĳ ìĿ´ëĦ¤
~ !!!!
ìĹ ¥
ëĵ¤ ì¢Ģ
ê´Ģ ìĹĲ
ĠëĨĪ ëıĦ
ĠëĤł ë¦¬
ĠíĮ¨ ëĦĲ
Ġë°Ķê¸Ģ ë°Ķê¸Ģ
ìĤ¬ ë¡Ģ
Ġì¶ ĺ
Ġì²ĺ ë°ķ
Ġë¶Ħ ë¥ĺ
Ġì§ĳëĭ¨ ëĵ¤
íķ´ ì¤Ģëĭ¤
ë³´ íĨµ
íĸĪ ëĤĺìļĶ
ĠìĹ¬ íĺĲ
ìº Ķ
Ġë²Įìį¨ ë¶ĢíĦ°
ĠìĺĪìłĦ ë¶ĢíĦ°
ìĿ´ íĺ¼
ĠëĤ´ ê¸°
Ġìŀħ ëĭĪê¹Į
íķľêµŃ ìĿ¸
Ġê³µìĪĺì²ĺ ëĬĶ
Ġìŀĩ ëĬĶ
ĠíĦ¸ë ©´
ê°Ģ ìł¸
Ġë¯¼ ì¤ĳ
Ġìľł ë¦°
ĠìĿĳìĽĲ íķľëĭ¤
ĠìŀĪì§Ģ ìļĶ
Ġìĺ³ ëĭ¤
ĠëıĦëįķ ìłģ
§İ ìĿĢ
íķĺ ìħĶìĦľ
ìĿ´ëĿ¼ ëįĶëĭĪ
Ġêµ¬ìĨį íķĺëĿ¼
ĠìķĮìķĺ ì§Ģ
ì±Ļ ê²¨
ì²ĺìĿĮ ë¶ĢíĦ°
ĠìĤ¬ ìĿ´ë²Ħ
ë¯¼ ìĥĿ
ìķĪ ëĲĺë©´
Ġë¶Ģ ë¥¸
ë¬¼ íĥĢê¸°
ĠëĳĲ ê»į
ĠíĬ¹ ê¸°
ĠìĦłê±° ë¥¼
Ġì±ħìŀĦ ëıĦ
ĠíķľíħĮ ëĬĶ
ĠëıĻë§¹ êµŃ
ĠìĿ´ ìĻ¸
Ġê³ł ëŀĺ
Ġë§ŀ ë²ĮìĿ´
ĠìĦľ ìļ¸ë
ĠíĮĲëĭ¨ ìĿ´
íĺ¸ë Ĥ¨
Ġìĺ¹íĺ¸ íķĺê³ł
ĠëĤĺ ëĦ¤
ê¹Į ìĿ´
ĠëĪĦêµ¬ ëĵł
Ġì¹¨ íĪ¬
ãħłãħł ãħł
Ġì²´ ìľ¡
Ġíķĺ ê²łëĤĺ
ìĭł ìķĦ
ĠëĮĢëĭ¨ íķĺëĦ¤
ĠíļĮìĤ¬ ìĹĲìĦľ
íķĺê³łìŀĪ ëĬĶëį°
íĪ Ń
ĠìĿ¸ ìļ©
ĠëĦĪ ë¶ĢíĦ°
Ġê¶ģê¸Ī íķ´ìĦľ
ĠëĶĶ ìŀĲ
Ġë¯¸ì³¤ êµ¬ëĤĺ
ĠíĿł ì§ĳ
ëįĺëį° ìļĶ
Ġì¹ľêµ¬ ëĵ¤
ë³´ ìĥģ
Ġê¶Į ê³ł
Ġíķ´ìĦľ ëĬĶ
Ġê¸ī ê¸ī
ì¢Įë¹¨ ëĵ¤ìĿĢ
Ġë¯¼ì¡± ì£¼ìĿĺ
Ġëį® ê³ł
Ġë¶Ģì¶Ķ ê¸°ëĬĶ
Ġë³´ ëĬĶê²ĥ
ì²ľ êµŃ
Ġíķĺê³ł ìŀĪëĭ¤
Ġëªĩ ì²ľ
ĠëĨĴ ìĿ´
ĠìŀĲìľĦ ëĮĢ
Ġê³łìĬ¤ ëŀĢíŀĪ
êµ° ìĿĺ
ĠíĻĺìŀ¥ íķľ
ĠìĿ´ ëĵ¤ìĿĺ
ìĭł ê°Ģ
ìłĦ ê¸°
ĠìĿ¸ ìĪĺ
Ġëª¨ë¥´ ê²łëĬĶëį°
Ġì£Ħ ìķĻ
ìĿ´ìĥģ íķľ
ë°¥ ê·¸ë¦ĩ
ĠíķĻìĥĿ ìĿ´
ĠãħħãĦ² ëĵ¤
ìĹĲ ê³ł
ìŀ¥ ìłľìĽĲ
ìłĦ ê³¼
Ġëĵ ±ìĿ´
Ġíķ© ìŀĳ
Ġë²Ħ ë¦¼
ìķĦë²Ħ ì§Ģê°Ģ
ê³ł ìļ©
ĠìĥĿ ê¸°ê³ł
ĠìĦłëıĻ ìľ¼ë¡ľ
ĠìłģíıĲ ê°Ģ
ĠíĻįì¤Ģíĳľ ê°Ģ
Ġì¤ĳêµŃ ê³µìĤ°ëĭ¹
Ġë³¸ íĨł
Ġì¶ľ ìĦĿ
Ġê³µìłķ íķĺê³ł
ĠëĭµìĿ´ ìĹĨëĭ¤
Ġìŀ£ ëĮĢë¡ľ
Ġìĸ´ëĸ¨ ê¹Į
Ġë¬¸ íĶĦ
ëįĺ ê²Į
ë°© ìľ¼ë¡ľ
Ġê²°êµŃ ìĹĶ
ĠìĹ¬ëŁ¬ ë²Ī
Ġë¹¨ìķĦ ëĮĢëĬĶ
ĠìĪ« ìŀĲê°Ģ
Ġê°Ģ ìļ´ëį°
ìĤ° ìĿĢ
íķĺìĭľ ëĤĺìļĶ
ĠëįĶë¶Ī ìĸ´ë
ê°ķê°Ħ ëĭ¹
Ġê¼´ë ŀĳ
ëĮĢ ëĭĪ
ì£¼ ìĨĮ
ë¶Ģ ë¦¬
Ġë¬¸ ìĶ¨ê°Ģ
ë§Ĳ ìĿ´ëĥĲ
ĠëĮĢì±ħ ëıĦ
ëļ «
Ġìļķë¨¹ ìĿĦ
Ġìłķëĭµ ìĿ´ëĭ¤
Ġìŀĺ íķľê²Į
Ġë¯¼ ì¢Ĩ
ê°ĢëĬĶ ê±´
ê±´ë ³µ
ì§Ģë§Ī ìĭľê³ł
ì§Ģëª» íķľ
Ġì¶ľìĤ° ìľ¨
Ġê³ĦìĹĦ ëł¹
Ġë¬´ë¦İê¿ ĩê³ł
ĠìŀĪ ê²łëĭ¤
ì°¨ ê²Į
Ġë¨¹ ëĬĶëĭ¤
Ġìĭľìŀ¥ ê²½ìłľ
ìĭľìĺ¤ íĮ¨ìĬ¤
Ġìļ° ë§¤íķľ
Ġëĵ¤ ìĹĪëĭ¤
Ġì°¨ ëªħì§Ħ
Ġë°Ŀ íĺĶ
Ġìŀ¥ê´Ģ ìľ¼ë¡ľ
ĠìķĪíĥĢê¹Ŀ ì§Ģë§Į
ĠìĿ¼ ìĿ¸ê°Ģ
ëĬĶê±° ë³´ëĭĪ
Ġê²½ ëł¥
ìŀħ ìĿ´
Ġìľł ê¸ī
ì£Ħ ëĭ¤
Ġë¬¸ìłľ ëıĦ
Ġëĵ¤ìĸ´ ìĺ¤ë©´
Ġì¤ĳìļĶ íķĺëĥĲ
Ġê³µë¶Ģ íķĺê³ł
Ġê²°íĺ¼ ìĿĦ
Ġì¿µ ì¾ħ
ĠëĤĺ ìķĦê°Ģ
Ġë©Ģ ìĸ´
ĠìĿ´ëĶ° ìľĦë¡ľ
Ġëĵ¤ ìĸ´ëĤĺ
ëıħìŀ¬ ìŀĲ
ìĸ´ëĤ´ ëĬĶ
ĠìĿ´ ìĻĢì¤ĳìĹĲ
íķł ê»ĺ
Ġì¹ĺ ë¶Ģ
Ġê¹¨ìĸ´ ìŀĪëĬĶ
ìĿĦ ë¿Ĳ
Ġë¬ ¸ëĮĢ
ëĮĢ ëĦ¤
ë³´ ìĿ´ì§Ģ
Ġë¶Ģ ìĭ¤
ĠëĶ ¸ë¦¬
Ġì¤ĳêµŃ ìŀħêµŃ
ê¸´ íķľëį°
Ġë²Ħ íĭ¸
Ġì¡°ìĦłìĿ¼ë³´ ê°Ģ
Ġíķ´ëĮĢ ëĬĶ
ê¹ ½ìĿ´
ĠìĿ´ë ¶ģ
ìĭ¸ ê²Į
ĠìĤ¬ê³¼ ëıĦ
Ġê²½ìŁģ ëł¥
ì§Ģ ê²¹ëĭ¤
Ġë§Ĳ ëįĺì§Ģ
Ġì¡°êµŃ ê°Ģì¡±
Ġì§ľ ìŀ¥ë©´
Ġê³µìĪĺì²ĺ ë²ķ
Ġì°¾ìķĦ ê°ĢìĦľ
ĠìĿ´ëģĮ ìĸ´
Ġíķĺ ëħ¸
ì¹ĺ ëĭĪ
ĠëĶ¸ ìĿĦ
ĠíĮ© íĬ¸ë¡ľ
Ġë¬´ê³ł íķľ
ë¯ Ģ
ë¦ ´ëł¤
ĠìľĦ ê¸°ë¥¼
Ġê°Ħ ë¶Ģ
ë¦¬ëĬĶ êµ¬ëĤĺ
ĠìĥģíĻ© ìĿ¸ëį°
ëıĦ ìĹĨëĭ¤
Ġì£¼ ìĨĮ
Ġì£¼ ê¶Į
ĠëıĪ ì¢Ģ
ë°ĺ ìĹŃ
Ġë°© ì§Ģ
Ġë°Ķê¿ ¨
ìĿ¸ ê³µ
ëĵľ ê°Ģ
Ġë¨¹ ìĸ´ëıĦ
ĠìķĦë¬´ë ŀĺëıĦ
ì°į ìĿĢ
ëĺĳ ê°ĻìĿ´
ĠĠ Ġ
ë¬´ìĦľ ìļ´
íķľ ëĭ¬
Ġíķł ì§ĵ
ë§ŀ ìĿĢ
Ġê·ľ íĥĦ
ĠìķħëŀĦ íķľ
³ ´ë¡ľ
ĠìķĪ ë°Ľê³ł
ĠìĹĨ ëıĦë¡Ŀ
ë³´ ì§ĢëıĦ
ì¢ħ ìŀĲëĵ¤
ìĶ¨ ìĿĺ
Ġê¼´ ê¹Ŀ
: :
ìķĦ ëıĻ
ê¹ ħ
Ġë¯¼ ë§Ŀ
ìĤ¬ëŀĮ ë§Į
Ġê±°ì§ĵ ìĿĦ
ìĮ Ī
Ġë©ĺ íĥĪ
ĠìĿ´ë ł¥
ĠìłĢ ì¶ľìĤ°
Ġê°ķ ëĮĢêµŃ
Ġê²½ìłľ ëĤĺ
ìĵ¸ë į°
ëĮĢ ìłĳ
ĠìķĪ ë³´ë¥¼
ìĹ¬ ê¸°ê°Ģ
Ġì§Ħ íķĳ
ĠëĤ¨ ëĬĶ
ë¨¹ ìľ¼ë©´
ë°Ķ ì§Ģ
Ġë§ŀ ì¶¤
Ġìª½ ìľ¼ë¡ľ
Ġíİ Ļ
ëĤ¬ ìĸ´
Ġê·Ģ êµŃ
ë¬¸ìłľ ëĭ¤
íĨ ¨
ĠíĴĪ ê²©
Ġë¯¿ìĿĦ ìĪĺê°Ģ
ĠìķĪ ëħķ
ìĦł ì§ĦêµŃ
Ġë°ĺ ëĮĢíķľ
ë²Ħ ë¦ĩ
ì»¤ ëħķ
ìĿ¸ ì²ľ
ê²ĥ ëĵ¤ëıĦ
ë¬¸ ìĸ´ë²Ļ
ĠìĿ¼ë³¸ ê¸°ìĹħ
ëĤ´ ìĹŃ
ĠìĥĪ ê¸°ëĵ¤
Ġê¸ī ê²©
ì¡°ìĦłìĿ¼ë³´ ëĬĶ
ì§Ģ ìĭľ
Ġê²ĥ ëĵ¤ìĿĦ
ĠëĤ´ ëĭ¤
Ġë¯¸ë §Į
ìĿ´ëŁ ´ëķĮ
ĠìķĦ ëĵ¤ëıĦ
ĠëıĪ ë§İìĿĢ
Ġë¨¹ ìĹĪ
Ġëıħ ìĦł
Ġëĭ¤ë¥¸ ê±´
íĬ¸ë Ĥĺ
ĠìŀĪìĹĪ ìĿĮ
ĠìķĮìķĦ ë³´ê³ł
ìķĪ ìĿĢ
Ġì¢ĭ ìĿĮ
Ġìĭł ì²ľ
ì²ľ íķĺìĹĲ
ê¸ī ìĭĿ
Ġëĭ¬ ëŀĺ
ìŀĸ ëĭĪ
Ġë§ī ë§Ĳë¡ľ
ĠìłĪ ë§Ŀ
ĠìĿ´ëŀĺ ëĿ¼
ìĤ¬íĥľ ë¥¼
ìĤ¬ ëĭĪ
ĠìŀĲ ë¯¼ëĭ¹
ì¢Į ìĿµ
ì¡Į ëĥĲ
Ġìĵ¸ ìĸ´
Ġê°ķëł¥ íŀĪ
ì¤Ħ ìķĦëĤĺ
ìĤ´ë ¦¼
Ġë¬¸ë ²ł
Ġêµ¬ ìĥģê¶Į
Ġìļķ ë¨¹ëĬĶ
ë¡ł íķĺê³ł
ê¼ ´ëĿ¼
ĠíĨµ íķľ
Ġìĭ¶ ìĿĢê±°
Ġìŀĺëª» ìĿ´ì§Ģ
ĠìķĦ ê»´
ĠìĿ¼ ìĿ´ì§Ģ
Ġë°ľ ëºĮ
Ġì²ł íĮĲ
ĠìĦłê±° ëĬĶ
Ġë°°ìĭł ìŀĲ
ë³´ëĿ¼ ëĬĶ
ìĪĺ ê¼´
ĠìĨĮ ê°Ģ
Ġê´Ģ íķľ
ìķĮ ìķĦìĦľ
Ġìķ¼ íķ©
ĠëĤ© íĴĪ
Ġê¼¼ ì§Ŀ
ĠëĮĢ ë¦½
ĠìľĦ ìĥĿ
ìŀĺ íĸĪëĭ¤
Ġìķ½ ê°Ħ
ĠëĬĺ ìĸ´ëĨĵ
Ġíķĺ ëĬĲëĿ¼
ĠìŀĪ ìĹĪëĭ¤ë©´
ĠìķĦìĿ´ ëĵ¤ìĹĲê²Į
ì¹¨ ëŀµ
íŀĺ ìĿĦ
ĠìłĦìĦ¸ê³Ħ ìĹĲìĦľ
ìĨĮ íĻĺ
ìĤ° ë¶Ģ
ĠëĦĪ íķľíħĮ
ĠìĤ´ ì²ĺë¶Ħ
Ġìŀ¥ ë¹Ħ
Ġëĭ¬ ë¦°
íķĺê¸° ìľĦíķ´
X X
ëł ¸ëĥĲ
ĠìŀĲ íĸī
Ġê°Ģ ë°©
ëªħ ìĹĲ
Ġë¯¼ ê°Ĳ
ĠìķĪìłĦ íķľ
ĠìŀĲêµŃë¯¼ ìĿĦ
Ġìª½íĮĶ ë¦°
Ġê°¤ ëŁŃìĭľ
ĠìķĪ ì²łìĪĺê°Ģ
Ġê¸° ìŀ¬
ìĹ° ìŀ¥
Ġì°¸ íĮ¨
§Į íģ¼
ĠëĳĲ êº¼
ĠíĥĪ ìĦ¸
Ġê°ĢëĵĿ íķľ
Ġìĸ´ë¥´ìĭł ëĵ¤
ê¹Į ëıĦ
~~ ?
ëª¨ ê°Ģì§Ģ
Ġê¹Į ëıĦ
ĠëĤ´ëł¤ ìķ¼
Ġê¶ģê¸Ī íķĺëĦ¤ìļĶ
Ġìŀħìŀ¥ ìĹĲìĦł
ĠëĮĢëĭ¤ ìĪĺìĿĺ
Ġë¬µ ë¬µ
êµ¬ìłĪ ìłĪ
Ġì§Ģ ìĿ¸
ë²Į ìĸ´
Ġëº Ģ
Ġìŀ¬ìĤ° ìĿ´
ĠìķĦë¬´ë§Ĳ ëıĦ
Ġë°Ķ ë³´ëĥĲ
ĠìķĬ ëĦ¤ìļĶ
ë°Ķ ëŀįëĭĪëĭ¤
Ġìĺģ ìĸĳ
ëª© ìĿĦ
ĠëĤł ìĶ¨
Ġë©į ì¶©
Ġìłķì±ħ ìĹĲ
ê±¸ë ³´
Ġë§Ľ ìĿĦ
Ġê°ĢëĿ¼ ìķī
Ġëįķ ë¶Ħ
ìłģíıĲ ì²ŃìĤ°
§ ĺ
ëĮĢ ìļ°
ìĬ¤ ì½Ķ
ìĦł êµĲ
Ġìŀĺ ëĲĺ
Ġêµ¬ ì¶ķ
Ġë§ĲìĿ´ ì£ł
Ġìŀ¥ëĤľ ì§Ī
Ġìķ¼ë¹Ħ íķľ
ìŀĪ ëĭ¤ë©´
Ġë¶Ģ ëıĦ
Ġì¹ĺ ë¥¼
ĠìĹ° ìĨį
ìģ ł
Ġë§Įëĵł ëĭ¤ê³ł
Ġì§Ģê²¨ ìĽĮ
ĠìĿ´íķ´ë¶Ī ê°Ģ
ëıĻ ìĦ±ìķł
ëªħ ëł¹
ìļ´ ìĿ´
Ġëªħ ë°ķ
ĠëĤł ë¡ľ
Ġì§ĳíļĮ ë¥¼
ê²°êµŃ ìĿĢ
ĠëĬ¥ëł¥ ìĿĦ
ê²Ħ ëĦ¤
ĠìĿ´ ëĵ¤ìĿĦ
ĠëĤ´ë ¦´
Ġì¹ĺ ìĽĮëĿ¼
ê¸°ëłĪê¸° ëĵ¤
Ġë²ĮëłĪ ëĵ¤
ĠO UT
ìłķ ìľłëĿ¼
Ġë¯¼ ë³Ģ
Ġìľł ë³ĳ
Ġëªħëĭ¨ ê³µê°ľ
ĠìĿ´ë§Į íģ¼
ëĿ¼ ëĭĪê¹Į
ĠìĥĿ ëªħìĿ´
ê³µ ìĭł
ëłĪê¸° ëĵ¤
Ġê°ķ ê²½íĻĶ
Ġì²ľ ë§ĮìĽĲ
Ġë³Ģ íķĺì§Ģ
Ġì¡°ìŀĳ ìľ¼ë¡ľ
ĠìĤ¬ëĿ¼ ìł¸
Ġì§ĳíļĮ ëĬĶ
ĠìłĦ ìĹĲëĬĶ
ê¶Į ëł¥ìĿ´
Ġë¶Ī ê³µìłķ
ìµľ ê°ķ
ĠêµĲìľ¡ ê°Ĳ
įĺ ì§Ģ
ìłĦ ìĤ¬
ĠìĻ¸ ìķķ
Ġëªħ ë°ķìĿ´
ëĮĵê¸Ģ ìĿ´
ëĪĪ ê¹Ķ
Ġìĭľì§Ħíķĳ ìĿ´
ĠìĹ´ë ¦°
Ġë§Ĳ íķľëĭ¤
ê±°ë¦¬ ëĥĲ
........ ......
ĠìĥģíĻ© ìĿĢ
ì¢ĮíĮĮ ê°Ģ
Ġ7 00
ê·Ģ ìĭł
´ë° Ķ
ĠëĨį ëĭ´
Ġë¶Ģìŀĳ ìļ©
ìĿĺ ìĭ¬
Ġë¬¼ ëŁī
Ġê²Ģì°° ëıĦ
Ġìķħ ìĪĺ
ĠìķĦëĤĺ ìļ´ìĦľ
ëĮĢ íĺķ
Ġê°ľ ëĸ¡
Ġìĭ¤ ìĸ´
Ġëĭµ ìĿĢ
Ġì²ľ ì²ľíŀĪ
Ġì¡°ìĤ¬ íķĺë©´
ĠìķĮìķĦ ë´¤ëĭ¤
Ġìĺ¬ëł¤ ëĨĵê³ł
ìĥģìĭĿ ìłģìľ¼ë¡ľ
ĵ ë°Ķëĭ¥
Ġê·¸ ëĬĶ
Ġìĺ¤ ëĥĲ
Ġê°Ĳ ê¸Ī
Ġê²ĢìĤ¬ ëĵ¤
ëĴ Ģ
Ġë¯¼ìĭ¬ ìĿĢ
Ġë³´ ì§ĢëıĦ
ìķĪ ê°Ģ
Ġì¤ĳ ëıĻ
Ġìķ¼ ìĿ´
ĠíĻ© ëĮĢíĳľ
íĹĪ ìľĦ
ì£¼ ê¶Į
Ġëĭ¤ ë¥´ë©´
Ġê°ľ ì°¨ë°ĺ
ĠìłĦ ë³µ
Ġì§Ħ ì§Ģ
ëŁ¬ ìĬ¤
ì¤ĳ ìĭ¬
Ġë³¸ ê²©
ê°ķ íķľ
Ġìŀ¥ê´Ģ ëĭĺ
Ġëª¸ ìĿĦ
Ġì§ĳê°Ĵ ìĿĢ
ĠëĦ¤ìĿ´ë²Ħ ìĹĲ
ĠìĻľ ìĿ´ëŁ¬
Ġê²ĥ ë³´ëĭ¤
Ġì¡°êµŃ ìĿ´ê°Ģ
ĠìĿ¸ê°Ħ ìĵ°ëłĪê¸°
ĠìŀĲìľł íķľêµŃëĭ¹ìĿ´
ì²ŃìĻĢëĮĢ ëĬĶ
ĠìĿ´ë£ ¬
ĠëĶ°ëľ» íķľ
ĠìĦł ìĿĦ
ĠìĽĲ ì²ľ
Ġëĵ¤ìĸ´ ê°Ģê³ł
ĠìĿ¼ë°ĺ ìĿ¸ìĿ´
Ġëľ» ëĮĢë¡ľ
ĠìĤ¬ë²ķ ëĨįëĭ¨
ĠìĦĿ ìľł
ìŀ¥ ë¹Ħ
Ġíķ´ ì²ĺë¨¹
ĠíĸĪ ìĸ´ëıĦ
ĠëĤ´ë ª°
Ġê·¸ëŁ° ìĭĿìľ¼ë¡ľ
Ġê¸Ģ ìĿ´
Ġê°Ģ ê¹Ŀ
Ġê¸° ìĽĲ
íĻĶ íıĲ
Ġíĥ Ķ
Ġë§Į ìĹĲ
ĠëıĮ ìĿ´
ĠíĻķìĭ¤ íķĺëĭ¤
Ġë¶Ģë¥´ ì§Ģ
ê³µ ê¸ī
ìķł ê¸°
Ġìĭłì²ľì§Ģ ëŀĳ
Ġì°į ìľ¼ë©´
ìķĦë²ł ëĬĶ
Ġíĸ¥ íĽĦ
ĠìĦ¸ìĽĶíĺ¸ë ķĮ
³ ¼
íķ´ ìĦł
ëĮĢ ìŀ¥
Ġë§Ĳ ì§Ģ
ê°ľ ìłķ
ì²Ń ìĨĮ
íĳľ ëĬĶ
Ġì§ľ ë¦¬
ë¬¸ìłľ ë¡ľ
ĠëıĪë²Į ìĿ´
ĠíĿ¡ ìĪĺ
ä »
ĠëĮĢ ìŀ¥
ëĳĲ ë¡ľ
ì§Ģê¸Ī ìĿ´ëĿ¼ëıĦ
ìĿ´ìĹĪ ì§Ģ
ĠëĦĪë¬´ë ĦĪë¬´
Ġê¸°ìĸ´ ëĵ¤ìĸ´
Ġìłķ ìŁģ
Ġê¸° ìģ¨
ëĭ¤ëĬĶ ê²ĥ
Ġë¶Ī êµ¬ìĨį
ìķĺ ìĬµëĭĪëĭ¤
íĮĲ ìĤ¬ê°Ģ
Ġëĭ¹ìĭł ëĵ¤ìĿĺ
Ġìĸ¸ìłľ ì¯¤
Ġíĺ¸ íĻ©
§Ĳ ìĿ´
Ġì¢ħêµĲ ìĿĺ
ìŀĲë¹ł ì¡ĮëĦ¤
ë§Ī ìĿĦ
íĥľ íĴį
ĠíĮ¨ ìĭ±
Ġì§Ħìłķ ìľ¼ë¡ľ
ê°Ģ ë³´ëĭ¤
ĠìĨĮ ëł¨
ĠëĤ´ëł¤ ëĨĵê³ł
Ġê·¸ëŀ¬ ëĭ¤
ìĭľíĤ¨ ëĭ¤
ëª¨ëĳĲ ê°Ģ
Ġìĭ¤íĻĶ ëĥĲ
ë§Ī ìĦ¸ìļĶ
Ġê·¸ ëĵ¤ë§ĮìĿĺ
ìĥĪ ê°Ģ
ĠìĹ° ë°©ìłľ
ĠìĤ¼ìĦ± ìĿĦ
ìŀĲ ì²´ë¥¼
Ġì£½ ì§Ģ
Ġê²° ëĭ¨
Ġìĸĳ ê·¹
Ġê¼´ íİĺë¯¸
Ġë°ĶëĿ¼ ë³´ëĬĶ
ìĿ´ ëĦĺ
Ġì§ ļ
Ġë¬´ ì¦Ŀìĥģ
Ġë¶Ģ ì§Ģ
ìłķì¹ĺ ìĹĲ
Ġì§Ģê»Ħ ìĿ´
Ġëª¨ ì§Ģ
ëª¨ ê°Ģ
íķ´ìķ¼ íķĺëĬĶê±°
ìĺģ ì§Ħ
ĠíĮĲ ì¹ĺëĬĶ
Ġìĭłì²ľì§Ģ ë¡ľ
ê·¸ëłĩ ëĭ¤ê³ł
Ġìŀħ ìŀ¥ìĿ´
ĠìĬ¤ ëŁ½ëĭ¤
ĠìŀĲë¹ł ìł¸
ìĤ° ìĿĦ
Ġë³¸ ëĬ¥
Ġíı¬ íĨł
Ġê¸°ìĹħ ìĹĲ
ĠìŀĪìĿĦ ìĪĺ
Ĥľ ëĭ¤
ĠìŀĲ ìĪĻ
ĠìĦľ ìĬ´
ë²Ħ ëĳ¥
ê·Ģ ì¡±
Ġë»Ķë»Ķ íķĺëĭ¤
Ġì¹´ íĴĢ
Ġì½ľ ëĿ¼
Ġëª» íķĺëĭ¤
ê¸Ģ ìĿ´
Ġê²½ì°° ìĿĦ
ĠT K
ëıĦ íķĺê³ł
ìłģ ìĸ´ëıĦ
ë§Ĳ ìĿĺ
ìļ° ìĬ¤
ìĺģ íĸ¥
ë²Ħ ë¦¬ë©´
Ġì°¨ ë¡ľ
ĠëıĦìĻĢ ì¤Ħ
çļ Ħ
ê¸° ìĹĶ
ĠìĥĿê°ģ ê³¼
ëģ¼ ëĵ¤ìĿ´
Ġì¹ľ ë¯¸
Ġëĵ± ìľ¼ë¡ľ
ê°ĸ ëĭ¤
Ġëº Ħ
ĠëģĬ ìŀĦ
ëĮĢ ìĥģìĿ´
ì§Ħ íĸī
ĠìĹĨëĬĶ ê²ĥ
ĠìłĢ ìĤ¬ëŀĮ
ë°ĺ ìĿ´
Ġê¸°ìŀĲ ëĵ¤ìĿ´
ĠëĲĺëĬĶ êµ¬ëĤĺ
ìĦ± íķ´
OOO ìķĦ
Ġëĭ¨ íĺ¸
// /
ì¡Į ìĿĮ
Ġìŀĳ ëħĦìĹĲ
Ġìĭłì²ľì§Ģ ìĻĢ
Ġê¸Ī ë©Ķëĭ¬
Ġëĭ¤ë¥´ ëĭ¤ê³ł
ëĨ¨ ëĦ¤
Ġìķµ ì»¤
Ġë²¼ ìĬ¬
ĠíĬ¸ëĿ¼ ìļ°ë§Ī
ĠìķĦ ìĤ¬
Ġê°ľ ì²ĺëŁ¼
ê¹Įì§Ģ ë§Į
ĠãĨį ãĨį
ĠìĿ´ëŁ°ëį° ëıĦ
Į ãħĭãħĭ
ì¤ĳ ëıĦ
Ġê²Ģ ê²½
ĠëıĻ ìĦł
ĠìĦ± ë¦½
ê´ĳ ëįķ
Ġë°©ìĨ¡ ìĿĦ
ìĥ Ģ
ì¤Ħ ìĿĦ
Ġ20 17
Ġëĸ¨ìĸ´ ìł¸ìĦľ
Ġë§Įëĵ¤ìĸ´ ì§Ħ
Ġë§Ŀíķ´ ê°ĢëĬĶ
ê¸Ī ìľµ
ĠìĨį ìĭľìĽĲ
Ġíı¬ íķŃ
Ġ' '
ìĪĺì¤Ģ ìľ¼ë¡ľ
êµĲìľ¡ ìĿ´
ĠêµŃëĤ´ ìĹĲ
Ġë³´ê¸° ìĭ«ëĭ¤
ĠëĤĺëŀı ëıĪ
íķľ ê²ĥìĿ´
ê°ľ ëıħ
ĠìĹ¬ ëĭ¹ìĿĢ
ìĹħ ê³Ħ
Ġê°Ĳ ì¶Ķê³ł
Ġëĭµ ìĿĦ
Ġìī ĳ
ĠìĿ¼ìŀĲë¦¬ ë¥¼
Ġê±´ë¬¼ ì£¼
íķĺëĬĶ ëĵ¯
ìĿ¼ ë¶ĢëŁ¬
ì¹ĺ ëĬĶê²Į
Ġì¤ĳ ìĭ¬ìľ¼ë¡ľ
Ġë¯¸ ìĤ¬
Ġìļķ ë¨¹ê³ł
ĠëıĮìķĦ ê°Ģê³ł
ë°ľ ìĿĦ
Ġêµ¬ ì²Ńìŀ¥
ìµľ ìĨĮíķľ
ì§Ģì§Ģ ìŀĲ
Ġë²Ī ìĹŃ
Ġë¡ľ ìĬ¤ì¿¨
Ġìĳ¥ ëĮĢë°Ń
Ġíķľ ìĪĺ
Ġë§Ĳ ìĤ´
ì¡° íıŃ
ĠìķĦëĭĪ ëŀĢëĭ¤
Ġì£¼ ëĥĲ
ì§ģ ìľ¼ë¡ľ
ì°¨ ìĿ´ëĤĺ
ĠëıĦ ë¬´ì§Ģ
Ġì§ĵ ìĿ´ëĥĲ
ĠìĦ¸ë ²Ī
Ġë¹ļ ëĤ´ìĦľ
Ġìĭľëĭ¤ ë°Ķë¦¬
¤ ë²Ħ
Ġ !!!!!
ì§Ħ ìķĬ
ëģ ĵ
ìŀħ ìĿĦ
Ġíķµ ë¬´
Ġê·¸ëĤĺ ìłĢëĤĺ
ìŀĺëª» ëĲľ
Ġì¢ĭìķĦ íķł
Ġì±ħìŀĦ ì§ĢëĬĶ
Ġê¶ģê¸Ī íķ´
ĠíĻĶìĿ´íĮħ ìŀħëĭĪëĭ¤
ëľ© ìĿ´ëĤĺ
Ġì§Ģ ì¶ľ
ĠêµŃ ìłķìĿĦ
Ġê³µ ë¬´
ëĭ¨ ìĨį
ëĬĶê±° ìĹ¬
ìľĦ ëıĦ
Ġì°¸ ìĪĺ
ĠìĦ± íıŃëł¥
Ġê±¸ëł¤ ëıĦ
Ġíģ´ë ¦Ń
Ġìľł ìĭł
Ġìĭł ìŀ¬ë¯¼
ĠëģĮ ìĸ´ëĤ´
ĠíĶĦëłĪìŀĦ ìĿĦ
Ġë¹¨ê°± ìĿ´ëĿ¼
ëĤ® ìĿĢ
Ġíķĺ ëıĦë¡Ŀ
Ġì§Ģ ê·¹íŀĪ
Ġì£¼ ìĭľ
ĠìĤ¬ê³ł ë°©
ëĥĦìĥĪ ê°Ģ
Ġë²Ļ ìĸ´ë¦¬
Ġë§ģ íģ¬
ĠìķĪ ì§Ģ
ĠìķĪ ê°Ī
ìĬ¤ ëłĪ
ì¤ĳ íķľ
íķ´ìķ¼ íķĺëĤĺ
Ġëª° ë¹µ
ëĲĺìĹĪ ëĭ¤ê³ł
ĠìĪĺ ë¡Ŀ
Ġì£¼ ëĬĶëį°
Ġë¶ģíķľ ì£¼ë¯¼
ìłķê¶Į ëķĮ
ĠìĦ¸ìĥģ ìĿ´ëĭ¤
íķłìĪĺ ë¡Ŀ
ĠíĺĪ ìķķ
ĠìĿ¼ìĸ´ëĤĺ ëĬĶ
ĠìĿ´ê²ĥ ìłĢê²ĥ
ìĸ´ë ¨¸ëĭĪ
Ġë¶Ī ì¾Į
ìĹŃ ìĤ¬ë¥¼
íĥľ ìĸĳ
ëĬĲ ëģ¼
ĠëĦĺìĸ´ ê°Ģë©´
Ġì§ĵê±°ë¦¬ ê°Ģ
Ķ° ëĿ¼
Ġë¹Ļ ìĭł
ëĤĺ ëĤĺ
ìľł íĪ¬
Ġë¨¹ ìĸ´ìĦľ
ê³łìŀĪ ìĿĮ
Ġìª½ ë°Ķ
ê·Ģ ë¥¼
Ġìķµ ë²ĮìĿ´
ĠëıĮ íĮĮ
ĠìĤ¬ëŀĮìĿ´ ë©´
ìĿ´ìĥģ ìĿĢ
Ġìłľìłķìĭł ìĿ¸ê°Ģ
ìĸ¼êµ´ ìĹĲ
6 5
ìĭľ ëģĦ
ìĿ¸ë °°
ĠìĨĮ ê°ľ
Ġëĵ¤ ë©´
Ġë¬¸ìłľ ìĹĲ
ë¦° ëį°
Ġëĭ¨ ê²°
Ġíķ©ë¦¬ íĻĶ
íķĺ ê±°ëĵł
ĠëĤĺ ìĺµëĭĪëĭ¤
Ġíķľ ëķĮ
ìĭł ëĭ¤
Ġë¯¿ ìľ¼ë©´
ĠìĬ¤ì¿¨ ì¡´
ê¸° ëĬĶê²Į
íĥ ł
Ġíģ¬ ê³ł
ĠíĪ¬íĳľ ë¡ľ
Ġëĭ¹ìĦł ëĲľ
a e
~ ^
ì²Ń íĥģ
Ġë¶ģíķľ íķĺê³ł
Ġêµ° ëĮĢëĬĶ
ĠìĦłíĥĿ ìłģ
ëł¥ ìĹĲ
ĠëĤ´ ìĦľ
êµŃë¯¼ ì²ŃìĽĲ
ì¡°êµŃ ìķĦ
ê³µìĤ° ëĭ¹ìĿ´
ĠìĿĳ ê¸ī
ĠìķĦëĭĪ ëįĶëĿ¼ëıĦ
Ġíķ´ ì¤ĺ
Ġìłķê¶Į ëıĦ
Ġìķħ ìĦ±
ĠëĮĢê¹¨ë¬¸ ìĿ´
ì¶ķ ìłľ
ëĶ¸ ìĿĢ
ĠìĥĿ ê²¨ìĦľ
Ġíķł êº¼
ĠëĤ¨ ìĹĲ
Ġì¡°ìŀĳ ìĿĦ
ĠíķĺëĬĺ ìĹĲìĦľ
ĠíĮĶìķĦë¨¹ ìĿĢ
Ġëª»íķĺ ëıĦë¡Ŀ
ĠìķĦìļ° ìĦ±
Ġìĸ´ëķ ł
Ġë ¥ĺ
ĠìķĪ ê±¸ë¦¬
ìĶ ¸
Ġìķł ê¿
Ġê´Ģ ë£Į
Ġë³Ģ ì§Ī
Ġìª½íĮĶ ë¦¬
Ġë¯¸êµ° ìĿ´
Ġë¬´ì±ħìŀĦ íķľ
ãħĭ ãĦ±
ë°© ë¬¸
ë¬´ë ĩĮ
ĠìĻ¸ ê³ł
íĻķ ìĭ¤íŀĪ
ĠìĤ¬ê±´ ëıĦ
ĠìłĦëĿ¼ ëĶĶìĸ¸
Ġê°ľíĥĦ ìĬ¤ëŁ½ëĭ¤
! .
ëĤ ´ë©´ìĦľ
ĠìĤ¬ëŀĮ ìĿ´ëĦ¤
ĠìĿ´ëŁ¬ ë©´ìĦľ
íķłëķĮ ê¹Įì§Ģ
ĠëĶĶ ìł¸ëĿ¼
ìĥ ĺ
Ġëª¨ ìĿ´ëĬĶ
Ġë°Ķ ì§Ŀ
Ġëħ¼ ëĭ¤
Ġëħ¼ ë¦¬ë¥¼
ìĺ¥ ìĪľ
Ġê°Ģìŀ¥ íķľ
ìłĦëĿ¼ëıĦ ëĬĶ
Ġìĸ´ì²ĺêµ¬ ëĭĪê°Ģ
êµ¬ ì¡°ê°Ģ
ê°Ķ ìľ¼ë©´
Ġë§Įìķ½ ìĹĲ
ê°ĲìĤ¬ íķ©ëĭĪëĭ¤
ìĭľ íķĺëĬĶ
ìĺ¤ ë¦¬
ë¶Ī ë¡ľ
Ġë°ĺëĮĢ íķĺê³ł
ĠìĭľëĮĢ ë¥¼
Ġëª»ì°¨ ë¦¬ê³ł
Ġì§ģ ìĽĲìĿ´
ìļ°ë¦¬ ìĿĺ
ê³³ ìĿĦ
ĠìķĬìķĺ ìĿĦ
ĠëŃĲ ëĭ¤
Ġê¸°ìĤ¬ ëĤĺ
íķľêµŃ ìĹĲìĦľ
ĠìķĦë¬´ë į°
Ġëıħë¦½ìļ´ëıĻ ê°Ģ
ê¸° ê¸°
ìĹ¬ ëĮĢ
Ġíķł ìĿ¸
Ġê³¼ ìŀ¥
ìĿ´ ê²ĥëĵ¤
ìķĦ ê¹Ŀëĭ¤
ĠìŀĲ ê³ł
Ġì¡°ìŀĳ íķĺê³ł
ìĭľëĮĢ ìĿĺ
ĠíķĻêµĲ ìĹĲ
ĠíĨłì°© ë¹¨ê°±ìĿ´
ìĿ¸ ê±´ê°Ģ
Ġì£¼ ìĸ´
Ġëĭ¹ íķĺë©´
Ġìı Ł
íĬ¸ëŁ¼íĶĦ ëĬĶ
Ġìĸ ½
ĠíĸĪ êµ¬ëĤĺ
ĠëıĻ ìĺģ
Ġì´Ŀ ì¶ľëıĻ
Ġìĭ« ìĿĮ
ĠëĦĪíĿ¬ ëĵ¤ìĿĺ
Ġãħ Ķ
ĠìĿ¸ê°Ħ ìĿ´ëĦ¤
ì¶Ķ ê²½
Ġ4 1
ëĸ Ħ
ìĻĶ ìľ¼ë©´
ĠíĺĦìĭ¤ ìłģìľ¼ë¡ľ
Ġê³µê¸° ì²Ńìłķ
ìŀĥ ê³ł
ì§Ģ ëĵ¤ìĿĢ
ëĵ¤ ìĸ´ëĿ¼
Ġì§ Ń
íķĺëĬĶ êµ°
Ġìĭł ëĤĺê²Į
Ġì¶Ķ ìłĳ
ê°ĳ ëĦ¤
ë§İìĿĢ ëį°
ê´ľ íŀĪ
ìĽĲ ì§ľë¦¬
Ġë§Į íĸī
ê¸Ģ ìİĦ
Ġìĸĳ ìľ¡
ĠíıŃ ê²©
ĠíĤ¤ ìĽł
Ġë°ĺìĦ± ìĿĢ
Ġê³łë§Ļ ëĭ¤ê³ł
s s
ģ ìĭľëĭ¤
ìĿ´ ëĨĪìĿĺ
ê² ī
ëıĻ ìĸĳ
ĠíķľêµŃ ê²½ìłľ
Ġì·¨ ëĵĿ
ĠíĮĶ ë©´
ìĿ´ìĹĪ ëĦ¤
Ġëª» ìĿ´
Ġë¶Ī ìĿ´ìĿµ
ì§ĳ êµ¬ìĦĿ
ê³łìŀĪ ìĸ´
ĠìĬ¹ ì°¨
ĠìĿ´íĽĦ ìĹĲ
íķĺ ë¦¬
ĠìĿ´ ìĦ±ìĿĦ
ĠìĿ¼ ìĻķ
Ġì¶ľ íĩ´ê·¼
ĠëĭĪ ë¯¸
Ġê³ł ëĶ©
Ġê³ł ìķ¡
ì¹´ ìĿ´
ĠêµĲìľ¡ ìĿ´
Ġë¬¼ìĸ´ë ´Ĳ
ĠìĿ´ ê±°ìķ¼
Ġë§İ ìľ¼
ìłĲ ìľ¼ë¡ľ
ê¹Ģ ì¹ĺ
Ġë§Įëĵł ê²Į
Ġì¦Ŀê±° ëĬĶ
Ġì¡°ìĦłìĿ¼ë³´ ëĬĶ
ìĺ³ ìĿĢ
Ġì§ķê¸Ģì§ķê¸Ģ íķĺëĭ¤
ĠëĲĺ ëĬĶê±°ëĭ¤
Ġëĭ¹ íķ´ë´Ĳìķ¼
Ġë¶ģ ìª½
ë¶Ī ë¦¬
Ġëĺ¥ ìĺ¤ì¤Į
ðŁĳ İ
Ġì§ľê³ł ì¹ĺëĬĶ
Ġê°Ģë²¼ ìļ´
ìĹĨ ëĬĶê²Į
ĠìĽĲ ìŀ¥
Ġë¹¨ê°±ìĿ´ ë¡ľ
ìŀ¥ê´Ģ ìĿ´
Ġë¶Īë²ķ ìĿ´
Ġê³¤ ëŀĢ
ë¶Ģ ëĮĢê°Ģ
ĠëĤĺëĿ¼ ìĿ¸ëį°
ëĵľ ë¦´
ìŀ¡ íĺĢ
íĬ¸ë¦¬ ìĬ¤íĬ¸
ëĤ´ë¦¬ ê³ł
ĠëĤĺ ë¬´ë
ĠëĲĺ ëĬĶê±°ëĥĲ
ĠìĿĺ ë¬´ë¥¼
ìĸµ ìĹĲ
ëĮĢíĨµëł¹ ëıĦ
Ġë°ĺëĮĢ íķľëĭ¤
ĠìĪľìĭĿ ê°ĦìĹĲ
ê¹ ģëĭĪëĭ¤
Ġíķ´ìķ¼ íķĺëĬĶëį°
ë¬¸ìŀ¬ìĿ¸ ìĿĦ
ĠìĦľìļ¸ ìĹĲìĦľ
Ġíĥĵ ìĿĦ
ëĸ¨ìĸ´ ì§ĢëĬĶ
Ġì°Įì§Ī íķľ
ìŀ¬ íĮ¬
íĻĶ íķ´ìĦľ
ĠìŀĲê¸° ëĵ¤ìĿĢ
ìĿ¼ë³¸ ìĿĦ
Ġë¶Ģëª¨ ëĵ¤
ĠìĬ¬ íį¼
ìį ħ
ëĦ¤ìĿ´ë²Ħ ëĬĶ
Ġìį »
Ġë©¸ ì¢ħ
Ġë¶ĢëģĦëŁ¬ ìĽĢ
E CD
Ġë§Ĳ íķ´ëıĦ
ëŁ½ ëĦ¤
ĠëĶ° ë¥´
ĠìĹĨìĸ´ ì§Ģë©´
Ġê¼´ ê°ĳ
ĠìŀħêµŃ ê¸Ī
Ġìĸ´ëłµ ê³ł
Ġíī¤ íī¤
Ġìĭ¤ ëĵľ
Ġë©´ ì£Ħ
ĠëĤĺìĦľ ìķ¼
Ġíķ´ë³´ ìĦ¸ìļĶ
Ġê» Ħ
ìĸ´ì© Ķ
Ġë§ī ëĮĢíķľ
Ġëª© ìĤ¬ê°Ģ
Ġìĸ¸ë¡ł íĶĮëłĪìĿ´
Ġê³µê°ľ ìłģìľ¼ë¡ľ
ìļ°ë¦¬ëĤĺëĿ¼ ìĹĲ
Ġê°Ģì§ľëī´ìĬ¤ ë¡ľ
ĠìĥĪíĤ¤ ëĵ¤
T S
ìĿ´ íķ´ê°Ģ
ëĭ¹ ìķĦ
ĠíĨµ ìĿ¼ìĿ´
ìĺ¬ ë¦°
íĽĪ ì²ĺ
ĠëĳĲëł¤ ìļ´
ìĿ´ ìĿĺ
ĠìĿ¸ ìĭĿìĿ´
ìłĪ ìĹĲ
Ġëĭ¤ëĭĪ ë©´
Ġê°ľìĨĮë¦¬ ëĥĲ
ĠëĤ« ëĭ¤ê³ł
ĠìŀĲìĹ° ìĬ¤ëŁ½ê²Į
Ġë°¤ ìĹĲ
Ġì§ĢëŀĦ ëĵ¤
ĠëįĶ êµ¬ëĤĺ
Ġíķ´ìķ¼ íķĺëĬĶ
ĠêµĲë¬ĺ íķĺê²Į
â Ģ
ìĹĲ ëĮĢíķ´
ê°ľ ìĿ¸ìĿĺ
íķ´ìķ¼ íķľëĭ¤ê³ł
ëĮĵê¸Ģ ì¡°ìŀĳ
1 000
Ġë°ĺ ì¹Ļ
ĠëĶ° ë¦Ħ
ë¥´ë ©°
íķĦìļĶ íķľ
ĠìĦ±ê³µ íķľ
Ġíĥľìĸ´ëĤĺ ìĦľ
ìĦ¸ìĽĶ íĺ¸ë
ìĿ´ ë¹Ħ
ìĹ¬ ê¸°ëıĦ
ĠìķĬ ê²łëĭ¤
Ġê²½ìłľ íĮĮíĥĦ
ĠíĿĶ ëĵ¤ê³ł
Ġë³´ê¸° ìĭ«
Ġëĸ³ëĸ³ íķĺë©´
Ġë§Ĳ íķ´ìĦľ
ĠìĿ¸ ê³¼
ĠìķĮ ìĪĺìŀĪ
ëįĶ êµ¬ë§Į
ë¶Ħ ëĵ¤ëıĦ
ĠìķĦì§ģ ìĿĢ
Ġ20 18
ĠìĦľë¯¼ ìĿĦ
ê°Ģ ì¦ĪìķĦ
Ġê³ł ê³ł
Ġìłģ ìŀĦ
Ġë¬¼ ìĹĲ
ìĭľíĤ¤ ëł¤
Ġëĭ¹ìĹ° íķĺëĭ¤
Ġë»Ķ íķľëį°
ĠìľĹ ëĮĢê°Ģë¦¬
ë©Ģ ì©¡
Ġë ±Ģ
ìĸ´ ì§ľíĶ¼
ë§ŀ ëĦ¤
ë§ŀ ìĬµëĭĪëĭ¤
Ġíĺķ ìĦ±
Ġì¤Ģë¹Ħ ëĤĺ
Ġê°ķëĤ¨ ìĹĲ
ĠëĤ± ëĤ
ì¢ ģ
Ġë§ĪìĿĮ ìĿĺ
ĠëĪĪì¹ĺ ë¥¼
ê³ł ìĿĺ
Ġë°Ķ ë¥´ê²Į
ĠìĤ´ ìĤ´
ĠíķŃ ë³µ
ìĦ¸ê¸Ī ìĿ´
Ĳĺ ëĬĶ
Ġë´¤ ìľ¼ë©´
Ġë²ķ ëĮĢ
ĠìķĪëĲĺ ìļĶ
Ġíİ¸ íķľ
ì¢ĭìķĦ íķĺëĬĶ
ëĥ ħ
íĨµ ìĭł
ĠëĲĺ ìĹĪëĬĶëį°
ĠìĦ¸ ìŀħ
ĠìĺĪ ìģľ
Ġìķŀ ìĹĲìĦľëĬĶ
Ġì²ľ ì£¼êµĲ
Ġì¢ĭìĿĢ ìĿ¼
Ġíķĺìĭľ ì£ł
Ġê°ľìĿ¸ ìłģìĿ¸
ëħĦìłĦ ë¶ĢíĦ°
ĠìĤ¬ì£Ħ íķĺê³ł
ĠëĳĲëĳĶ íķĺëĬĶ
ĠëĵŃ ëĭĪëĭ¤
ê°Ģ ìŀħ
ê±° ë¦´
Ġë¬¸ ìłķë¶Ģê°Ģ
ê²° ìłķ
ĠëĤľ ë¦¬ê°Ģ
ìĿ´ëŁ° ê±´
Ġë½ĳ ìķĦì£¼
Ġê¹¨ ìł¸ëıĦ
ĠìŀĲìĭł ëĵ¤
Ġêµ¬ìĨį íķ´ëĿ¼
ë¬¸ìŀ¬ìķĻ ê³¼
ì» ¬
ĠìŀĬ íĺĢ
ë¡ ¬
ĠìŀĪ ê¸°ìĹĲ
Ġìĸ´ë ĳ
ì¤Ħ ìķĦëĥĲ
ĠìĦ± ì¡°ê¸°
ìĸĳ ê°Ħ
Ġì²ľ íķĺìĿĺ
Ġê³µë¬´ìĽĲ ìĿĢ
ĠìķĮ ì§Ģë§Į
Ġíķł ìĪĺê°Ģ
Ġíķľë²Ī ë§Į
ìĭľìŀ¥ ìĿĢ
ë©´ëĲ ¨
ĠìĻ¤ ì¼Ģ
Ġë¶Ģ ë¶Ģê°Ģ
Ġìĺ¬ ë°Ķ
íĺĦ ì§Ħ
ĠìłĢëŁ° ê²ĥëĵ¤ìĿ´
Ġíħħ íħħ
ì§Ģ ê¸ī
íķľ ê²ĥìĿĢ
ìĿ¸ íĬ¸
ìĪĺ ê¸ī
ì¹ĺ ìĿĺ
Ġì¡° ê¸°
ìłĦ ìĹĲìĦľ
ĠìĽĥ ëĬĶ
Ġê³¼ê±° ìĿĺ
Ġê°Ģì¹ĺ ëıĦ
ĠìķĪ ê°Ĳ
ĠìĿ¼ ì¡°
ì¤ĳ ëĭ¨
ì§Ī íĻĺ
Ġíķł ëķĮëĬĶ
ĠìŀĪëĬĶ ê±´ê°Ģ
Ġì¡°ìĤ¬ íķ´
ëĲł ê²ĥìĿ´ëĭ¤
Ġë³´ìĹ¬ ì£¼ìĦ¸ìļĶ
Ġë°ĳ ë°Ķëĭ¥
ĠìŀĺëıĮìķĦ ê°Ħëĭ¤
ĠêµŃë¯¼ ë¶ĦìĹ´
Ġê³ł ìĨįëıĦë¡ľ
íķ´ìķ¼ ëĲ¨
íĭ Ī
Ġê± ±
íļĮ ë³µ
Ġì¤ĳ ìĹĲìĦľ
ë¶Ħ íŀĪ
ìĹŃ ê²¹ëĭ¤
Ġë°© íķľ
ìļ¸ ìĤ°
ĠìłĢëŁ° ê²ĥëĵ¤
ë¬¸ìŀ¬ìĿ¸ ìĶ¨
ìħ¨ ëĭ¤
ìľ¤ ì´Ŀìŀ¥
ĠëģĮìĸ´ëĤ ´ë
on g
Ġê³µíĻĶ êµŃ
ê³ł ìľĦ
ê¸° ëĮĢ
Ġíķľ ê³Ħê°Ģ
Ġì¡° íķ©
ĠëıĦ ìłģ
Ġë¬¸ìłľ ìŀħëĭĪëĭ¤
Ġê¸°ìĤ¬ ëĦ¤
ĠìĹŃìĤ¬ ìłģìľ¼ë¡ľ
ĠìĨĮëĵĿ ìĿ´
ĠìĿ´ ê¸°ëĬĶ
ĠìķĬ ìĬµëĭĪê¹Į
Ġë¹¨ ìķĦì£¼
Ġìļ°íķľ ìĹĲìĦľ
ĠìĽĥê¸´ ê²Į
ĠíĽĦìĽĲ ê¸Ī
ĠìŀĪ ìľ¼ë©°
Ġëĺĳê°Ļ ëĥĲ
Ġê¹İ ìķĦ
ìĭľ ê¸°ìĹĲ
Ġë½ĳ ì§Ģ
ë¨¸ë¦¬ ìĹĲ
ìĤ¬ê±´ ê±´
ĠëģĶì°į íķĺëĭ¤
Ġê° ¸
ì£¼ ìĿ¼
ê°ľ ì°Ĳ
ìĹĨ ìĸ´ëıĦ
Ġê±° ë¦¬ê°Ģ
ì¶Ķ ë°©
Ġë©´ ìłĳ
ëĮķ ìĿ´
ì£¼ë³Ģ ìĹĲ
ĠìĿ¼ ìĸ´
íĮĮ ìĹħ
ìĺģ ìĽĲ
ë¬´ë ĦĪ
íĴĪ ìĿ´
ĠíĶ¼íķ´ ìĿĺìĭĿ
ì¹¨ ìĿĦ
Ġíķĺì§Ģë§Ĳ ìŀĲ
ë¬´ìĦŃ ëĭ¤
ëĭ ®
ëĵ¤ ì§Ģ
íĸĪ ìĿĦíħĲëį°
ĠëĤĦ ëĤĦ
ìķĦ ìĺ¤
Ġë§Ĳ ìĿ´ëĦ¤
ĠêµŃë¯¼ ìĹ¬ëŁ¬ë¶Ħ
ìĹĪ ëĦ¤ìļĶ
ĠëĲĺ ìĸ´ë²Ħ
Ġì¤ĳêµŃìĿ¸ ëĵ¤ìĿ´
Ġê±¸ë¦¬ ê³ł
Ġìŀ¥ìĤ¬ ê¾¼
ĠíĬ¹íĺľ ë¥¼
ìĦľ ìĬ¤
Ġê·¸ë ¡ľ
ĠëĮĢ ìĿ¼
êµ¬ ë§¤
Ġíķľ ê±°ëĥĲ
ĠìĿ¸ ê°ĢìļĶ
Ġì¹ľ íķľ
Ġëªĩ ìĭľê°Ħ
ĠìĿ´íķ´ ëĬĶ
Ġíķĺ ë¬¼ë©°
ì¤ «
ĠìŀĲ ìĽĲë´ī
Ġëĵ¤ ì§Ģ
ĠìĿĺ íĺĳ
Ġ2 9
íıĲ ìĩĦ
Ġìĭ¶ ìĿĦ
Ġì£¼ ëİħ
Ġê³ł ìĸĳ
Ġê³ł ìĸĳìĿ´
ĠëĤĺ ì§Ģ
ì¤Ħ ìķĮê³ł
ĠíĶ¼ ë¶Ģ
ê²ģ ê²Į
Ġì£½ì°½ ìľ¼ë¡ľ
ĠëŃĲ ëŀĺ
ëĦĪ ìĿĺ
Ġìĸ¸ë¡ł ëĵ¤ìĿ´
ĠíĤ¤ ìļ¸
Ġëª©ìĪ¨ ìĿ´
Ġë©ĭ ì§Ģ
Ġíķłë¨¸ëĭĪ ê°Ģ
åĽ ½
ìĸ´ ì¨
ĠëĤ Ń
ìļ´ ëĭ¤
ĠëĨĪ ëĵ¤ëıĦ
ëĲł ê±°
Ġê¸°ë³¸ ìĿ´
... !!!
êµ¬ ë¦Ħ
ì¹ĺ ìĤ°
Ġë¨¹ ìľ¼ë©´ìĦľ
ĠëĶ° ì§Ī
ĠëĪĪ ë¹Ľ
ë§Įíģ¼ ëıĦ
ĠìĻľëĥĲ ë©´
d e
êµ¬ ë¯¼
ìłģ ìĿ´ëĿ¼
Ġíķ´ ìŀĦ
Ġë¬´ë ł¤
Ġê± ´ë°©
ìĸ´ë łµ
Ġê²° ìĤ¬
Ġêµ° ìĿ¸ìĿ´
ì¡Į ìĸ´
ĠìķĦìĿ´ ì½ĺ
ëĭ¤ ìĭľëĬĶ
Ġìŀĺ íķĺëĬĶê±°
ĠìĿĺ ë¯¸ë¥¼
ì°¸ ìĤ¬
Ġê¸°ëłĪê¸° ëĵ¤ìĿ´
ĠíĿĶ ëĵľëĬĶ
Ġì§±ê°ľ ëĵ¤
ì³ £
ìĸ´ë §ī
Ġë¹Ħ ëĭĲ
ĠíĸĪ ìĸ´ìļĶ
Ġë¬¼ ìĿĦ
Ġë¶Ģëª¨ ë¥¼
ĠìĪł ë¨¹ê³ł
Ġê·¼ê±° ê°Ģ
ĠìłĢê¸° ìĦľ
ĠíĺĦëĮĢ ì°¨
Ġë¯¼ëĤ¯ ìĿĦ
ëĬĶ ê±´ëį°
ĠëĮĢ íĻĶë¥¼
Ġë§Į ëĤĺê³ł
íķĻ ëł¥
Ġëª© ìĹĲ
ĠëķĮë¬¸ ìŀħëĭĪëĭ¤
ĠìłĬìĿĢ ìĿ´ëĵ¤ìĿ´
ĠíĮ¨ê±°ë¦¬ ëĵ¤
ĠìĿ´ ì¯¤
Ġê°Ģ ëĿ¼ê³ł
Ġë¯¸êµŃ ìĿ´ëĤĺ
ĠìħĢ íĶĦ
Ġê³ ģ
ìĤ¬íļĮ ìłģ
Ġìļ°íĮĮ ëĬĶ
Ġì£¼ë¯¼ ëĵ¤
êµŃìłķ ëĨįëĭ¨
Ġ âĸ¶
ĠëĦ ·
Ġê°ľ ë§Ŀ
ìĸ´ë ³´ë
íķ´ìķ¼ íķĺê³ł
Ġë°ľ ëĭ¬
Ġì¢ħ ìĤ¬
ĠëĬĺìĸ´ëĤĺ ê³ł
ĠëĤłëĽ° ëĬĶ
Ġëª» íķĺëĬĶê±°
ê¹¨ ì§Ħ
ĠëĤľ ëıħ
ìłķì¹ĺ ê°Ģ
Ġë¶Ģìłķ íķĺê³ł
Ġê¾ ¹
Ġìŀĸ ìķĦ
íķĺëĬĶ ì²Ļ
Ġìŀ¥ ìĻ¸
ëģĿ ëĤĺë©´
Ġìĸ¸ìłł ëį°
ĠêµŃë¡ł ë¶ĦìĹ´
Ġë¬´ ìŀĳìłķ
Ġë§Ŀ ëĤĺëĭĪ
ìĨĮë¦¬ ëıĦ
ĠëĩĮ ëĬĶ
ĠìĭĿ ìĤ¬
íķłëķĮ ëıĦ
Ġìĸ´ìļ¸ë¦¬ ëĬĶ
Ġìłģë°ĺíķĺ ìŀ¥
Ġíķĺ ê²łì§Ģë§Į
ĠíĸīëıĻ ìĹĲ
Ġëª¸ ìľ¼ë¡ľ
ĠìĤ´ëĭ¤ ìĤ´ëĭ¤
ìķĦëĭĻ ëĭĪëĭ¤
ìĽĲ ëĵ¤ìĿ´
Ġë¬´ íĺĲìĿĺ
Ġìĺ¤ ìĭŃ
Ġìĭ¶ ìĸ´ìļĶ
ë´ £
íĸĪëĭ¤ ëĬĶëį°
Ġê²½ì°° ëĵ¤
Ġì§Ħë³´ ìĿĺ
¥´ íħĶ
ĠìĥģìĭĿ ìłģìĿ¸
Ġëħ¸ìĿ¸ëĦ¤ ëĵ¤
Ġë¹Įë¶Ļ ìĸ´
ëĵł ëĭ¤ê³ł
ĠìĤ´ ìĪĺìŀĪ
Ġìĭ¤ íĺķ
Ġì¶Ķ ê°ĢìļĶ
Ġì¶ľ ì²ĺ
Ġë°Ķë¡ľ ìŀ¡
íĬ¹ ë³Ħ
ĠìĬ¬ íĶĶ
ëĭ¨ ìĿĺ
íĻĶ íķĻ
ìĤ´ ìŀĲ
Ġê·¸ë§Į íķ´
Ġê¸°ìĹħ ìĿĺ
ĠìĿĮ ìķħ
Ġìĥģê´Ģ ìĹĨëĬĶ
Ġë¬¼ëŁ¬ ê°ĢëĿ¼
Ġì§ģìĹħ ìĿ´
ê·¸ëŁ¬ê²Į ìļĶ
´ë¦¬ëĬĶ ëĮĢë¡ľ
Ġìłľ ë³´
Ġìĭ¶ ìĿĮ
ìĦ¸ë Ŀ¼
Ġë²Ķ ìĿ¸
Ġë¹Ī ë¶Ģ
Ġê¹ĶëģĶ íķĺê²Į
Ġìļ° ë¥´ë¥´
ëªħ ì¤ĳ
ĠëıĪ ë²ĦëĬĶ
Ġë°° ìĨ¡
ìĽĥ ê¸´ëĭ¤
ê¼¬ëĿ¼ ì§Ģê°Ģ
ìĤ¬ ìłķ
ìŀĳ ìłĦ
ĠìĤ¬ìĹħ ìĿĦ
Ġë¨¹ê³łìĤ´ ê¸°
Ġì§Ģ ìĽĮ
Ġìŀħ ê¸Ī
ìĤ¬ëŀĮ ìĿĺ
ĠëıĮ ê³ł
ìĿ¸ê°Ħ ëĵ¤ìĿĢ
Ġë¦¬ ìĬ¤íĬ¸
íķĺ ìĺĢ
Ġíķľ ëªħìĿ´
ĠìĨĲ íķĻê·ľ
íķľê±° ëĬĶ
ĠìĿ´ëªħë°ķ ê·¸ëĦ¤
Ġê¹Ģìłķ ìĿ¼
Ġê³µì§ģ ìŀĲ
Ġê³µ ê°Ħ
ìŀĪ ëĭ¤ê°Ģ
ĠëĤ¨ ëĵ¤ìĿ´
ĠíĹ Ŀê°Ģë¦¬
Ġì½Ķ ë¦¬ìķĦ
Ġíķ´ìķ¼ íķĺëĤĺ
ê°ĢëĬ¥ íķľ
ìĿĺ ìłĦ
ĠìŀĲ ìĿĺ
ĠìĹĨ ëįĶëĿ¼
Ġëª¨ ëħĢ
ì¡ ´ë
ĠìĦłê±° ê°Ģ
ĠëĬ¥ëł¥ ìĿĢ
Ġìĭľìŀ¥ ìĹĲ
ĠëłĪ ìĿ´
Ġì§Ģêµ¬ ìĥģìĹĲìĦľ
ëĨĴ ìĿĢ
ë¶ĢëģĦ ëŁ½
ìĿĮì£¼ ìļ´ìłĦ
ĠìŀĲ ë¶Ģ
ìĦ¸ë Ħ¤
Ġë°Ģ ëł¤
Ġë°Ģ ìĸ´ì£¼
ĠìĤ¬ëĿ¼ ì§Ħ
Ġì¶ľìĭł ìĿ´
ĠìĿ´íķĺ ëıĦ
ê°ľ ê²Ģ
ĠëĶ ±ìĿ´
ë§ŀ ì¶Ķ
ðŁĺ ģ
ëįľ ìĿĢ
ë½ĳ ìĿĢ
Ġê²½ìļ° ëıĦ
ë¥´ ëĭ¤
ìŀħ ìĹĲ
ĠìĥĿê°ģ íķľëĭ¤ë©´
ĠìĤ´ ìĿ¸ìĿĦ
Ġê³¼ ëıĦíķľ
ĠìĿ´ìķ¼ ê¸°ê°Ģ
Ġë¸Į ëĿ¼
ê²°ê³¼ ê°Ģ
Ġë¶Ī ìĿĦ
Ġë°ľ ë²Ħëĳ¥
ĠìĨį ê³ł
ìĬ¹ ìłĦ
ì¢ĮíĮĮ ìĿĺ
ĠìłĢëŀĺ ëıĦ
Ġíķľ ëĨĪ
ìļ° ëĭĪê¹Į
íķ´ë Ĥĺ
ìĭĿ ìĿ´ë©´
ĠêµŃíļĮ ë¥¼
ĠìĤ´ìķĦ ê°Ģ
Ġë¯¸ìĦ±ëħĦ ìŀĲ
ê³µëıĻ ì²´
ĠìĹ°íıī ëıĦ
ëĭĪ ëĤĺ
Ġìĸ Į
ĠëĤĺ ëĦ¤ìļĶ
ĠìĿ¼ë³¸ ìĿ´ëĤĺ
ëģ¼ ëĭ¤
Ġê³Ħ ëŀĢ
ìĺ¨ ëĭ¤ê³ł
Ġë°ľê´ĳ ìĿĦ
ĠìĿ´ ê²ĥìĿĦ
Ġì£¼ ë©´ìĦľ
ëªħ ë§Į
ìŀĦ ãħĭãħĭ
Ġë¶Ħ ëĵ¤ëıĦ
Ġë°° ìĽĮìĦľ
Ġì¹ĺ ìļķ
Ġìĸ´ì©Į ëĭĪ
Ġìĸ´ë¥¸ ëĵ¤ìĿ´
íĻ© êµĲ
Ġë²¼ ëĿ½
Ġë¶Ģ ìŀĲëĵ¤
Ġêµ¬ ë§Į
ĠìŀĲìľł íķľêµŃëĭ¹ìĿĢ
ĠìŀĶ ëĭ¹
ĠìĿ¼ ì¹ĺ
ĠìĹĨ ëĬĶê±°ì§Ģ
Ġë²Ī íĺ¸
ëĵ Ģ
íķľ ìŀĲ
íķľ ëĭµìĭľê³ł
ëĤĺ ë¬´
ĠëıĦ ëĿ¼ìĿ´
Ġìĥģ ëĤ©
Ġì°į ëĬĶëĭ¤
ìĦ¸ê³Ħ ê°Ģ
Ġê³łëł¤ ëĮĢ
Ġë İ
ĠìĿ¼ ìĿ´ëĥĲ
Ġë¬¸ ìłķë¶ĢëĬĶ
ê°ľ ê°ĻìĿĢ
ìĹŃ ìłģ
êº¼ ìł¸
Ġíį¼ ëĭ¤
ĠìĿĮ íĿī
Ġë©´ ìĹŃ
ĠëĴ· ìłĦ
ĠëĤĻ ìĿ¸
ĠëĮĢì±ħ ìĿĢ
ĠìĿ´ìĦ± ìłģìľ¼ë¡ľ
ĠìĿ´ëķĮ ëĭ¤
íĤ¤ ê°Ģ
Ġìĸĳ íĮĮ
Ġìŀĺëª» íķľê²Į
ĠìĦ¤ ë¬¸
ĠìĹīë§Ŀ ì§Ħì°½
íĥľê·¹ê¸° ë¶ĢëĮĢ
ĠìłĢ ëłĩ
ìŀĪ ìĿĦê¹Į
ìĭĿ ëıĦ
ë°ľ ìĥĿ
ĠìķĪëĲĺ ëĤĺìļĶ
Ġë¶Ģìłķ ìŀħíķĻ
ĠìķĮìķĺ ëĥĲ
Ġìłľìłķìĭł ìĿ´ëĥĲ
İ ìĿĢ
ĠìłĦ ëıĦ
ëª¨ ìŀĦ
Ġìłģ ìĿĦ
Ġë²ķ ìľĦìĹĲ
ëĺĲ ëĺĲ
ëĭ¹ìĹ° íķľ
ĠìłľìĻ¸ íķľ
n a
ìŀ¥ êµ¬
ê²ł ìĨĮ
ĠìłĢ ì¶ķ
Ġìŀĺ ìķĮ
Ġì²ĺ ë¶Ħ
Ġê·¼ ëĮĢ
ãħħ ãħĭ
ì±Ħ ëĦĲ
!!!!!!!! !!
ĠìĤ¬ ëªħ
ë§Ī ë¦¬ê°Ģ
Ġë¯¸ ì¿¡
ĠëıĪ ìĿ´ëĤĺ
ĠìĤ¬ìĭ¤ ìĿ¸ëį°
Ġê¶Įëł¥ ìĿĢ
ìµľ ëĮĢ
Ġì¢ħêµĲ ë¥¼
ĠëĤ¨íĥĵ ë§Į
ë¦´ë ŀĺ
ĠëĿĦ ìĽĮ
Ġì° Ŀ
ìĦ± ë§¤ë§¤
ðŁĲ ¶
ĠìŀĲìĤ´ íķľ
ĠëĬĲê·¸ ëĵ¤ìĿ´
Ġìĸ´ì§Ģ ëŁ½
ĠëĪĪê°Ĳ ê³ł
Ġë¶Ģ ë¦¬ê³ł
Ġìŀ¬ íĻľìļ©
ë§Ŀ ìĿĦ
íķ´ë³´ ëĭĪ
ĠìķłêµŃ ìĭ¬
Ġê¸°ìĥĿì¶© ëĵ¤
ĠíĽĪ ìŀ¥
ì§ ł
ĠìķĦ ìĭľì£ł
Ġë¶Ģ ë¦¬ëĬĶ
íĶ¼ ëĬĶ
Ġëĺ¥ ìĭ¸
ĠìĪĺìĤ¬ ìĹĲ
Ġìķ¼ ê¸°
ê·¸ëŁ¬ ê³ł
ĠëĤ¨ìŀĲ ëıĦ
Ġë³¼ ëķĮë§Īëĭ¤
ĠìĽĶê¸ī ìĿ´
Ġëĺĳê°Ļ ìĿĮ
į ëĭĪëĭ¤
ê¸° ëĿ¼
Ġëį ¸
Ġë¬´ ê²Į
ìĹĪ ì£ł
íķ´ìķ¼ ëĲĺ
ëĨĪ ëĵ¤ëıĦ
ëıĻ ìĹĲ
ìĿ´ëĤĺ ëĿ¼ëĬĶ
Ġë¬¸ìłľ ìĿĺ
Ġë¹ł ëľ¨
ĠëĤľë¦¬ ìķ¼
Ġë¶Ļ ìŀ¡ê³ł
ĠìĻ¸ì¹ĺ ë©°
Ġì£¼ ëĬĶê±°
íĬ¸ ì½Ķ
ĠëĮĵê¸Ģ ë§Į
Ġë¹¨ê°±ìĿ´ ë¥¼
Ġíİ¸ ëĵ¤ìĸ´
íĸĪëĬĶëį° ëıĦ
ĠìĤ¬ê±´ ìĿĺ
Ġê³³ ê³³ìĹĲ
ĠëĵľëŁ¬ ëĤĺëĬĶ
Ġëª°ìķĦ ê°ĢëĬĶ
ĠëĬĲê»´ ì§Ħëĭ¤
Ġê¹Įë°ľ ëł¤
Ġì¶Ķêµ¬ íķĺëĬĶ
i p
ìĤ¬ ëĬĶê²Į
ëĭ¨ ìĪľ
ì²ľ ë²Į
ëª» íķĺë©´
Ġë¬¼ ê±´ëĦĪ
ĠìĦ± ê´Ģê³Ħ
Ġê°ĲìĤ¬ ëĵľë¦½ëĭĪëĭ¤
ìĤ¬ê±´ ìĿĦ
ìłķì±ħ ìľ¼ë¡ľ
Ġëª»ìĤ´ ê²łëĭ¤
ê¸Ģ ìĹĲ
ì¡°ìĦł ìĿĢ
ìĬ¬ ì©į
Ġê³¼ê±° ë¥¼
Ġì¢ħë¶ģ ì¢Įë¹¨
©´ë Ĳĺ
ĠëģĮìĸ´ëĤ´ëł¤ ìķ¼
Ġë©´ë §ĪìĬ¤íģ¬
Ġì§Ģ ë©´
ì¢ĮíĮĮ ëĵ¤ìĿ´
Ġìŀ¡ìķĦ ëĭ¤ê°Ģ
Ġë¬´ìĭĿ íķĺë©´
Ġìķī ìķĺëĦ¤
ĠëĤ³ ìķĦ
ĠìłĢìĨĮëĵĿ ì¸µ
ê¸° êµ¬
ĠìĹĨìĸ´ ì§Ģê³ł
ĠìĹ°ìĺĪ ìĿ¸ìĿ´
ì½ĶìĬ¤ íĶĦëłĪ
ë³´ ëĬĶëį°
ë¹Ħ íķµíĻĶ
íĺķ ëĭĺ
ì§ĢëĬĶ êµ¬ëĤĺ
Ġíį¼ ì£¼ëĬĶ
ĠìĦ¸ê³Ħ ë¥¼
ĠN O
Ġì¯Ķ ì¯Ķ
ëĮĢ íĺĳ
Ġìĺ¤ ëĿ¼
ë²ķ ìłģ
Ġì¤Ħ ìĹ¬ëĿ¼
ĠêµŃíļĮìĿĺìĽĲ ìĿĦ
íĻķ ìĭ¤
ìĹŃìĭľ ëĤĺ
Ġë°ĿíĺĢ ì§Ħ
ĠëĲĺìĹĪ ëĦ¤
ĠìĦłíĥĿ íķľ
ĠìĶ¨ë¶Ģ ë¦¬ëĬĶ
Ġíķĺìķ¼ íķ´ëĿ¼
ìĨĶ ê¹Į
ĠìŀĶìĿ¸ íķľ
ìłķìĭłì°¨ ëł¤ëĿ¼
Ķ ©
Ġê°Ģ ê³Ħ
ì¡° ì¹´
ì§ĳ ìľ¼ë¡ľ
Ġë§ī íŀĮëĭ¤
ĠìĿ´ìĥģ íķĺëĦ¤
íĥĪ ìĿĦ
Ġë°ĽìķĦ ë¨¹
Ġì¡°êµŃ ìĿ´ëŀĳ
¸ë° ķ
ĠëĨĢìķĦ ëĤĺ
ĠíĥĲ ìļķ
íĭ°ë¹Ħ ìĶ¨
. !!!
Ĥ ¼
ìĥģ ì¢ħ
Ġë°Ľ ìľ¼ëł¤ê³ł
Ġë§Įëĵ¤ ìĸ´ëĤ¸
ĠëĦĪë¬´ ëıĦ
íĶ¼ ê³ł
Ġëĺ¥ êµ¬ë©į
íķĺìŀĲ ë©´
ĠëĬ¥ ì§Ģì²ĺì°¸
ë¯¸ë ħĦ
ĠëĦ¤ìĿ´ë²Ħ ëĬĶ
ìłľ ê¸°
ĠìłĦ ê³µ
Ġê±° ê¸´
ĨĪ ìĿ´
ĠíķľêµŃ ìĿ¸ìĿĢ
ë¬¼ ëŁ¬
Ġë°ľìĸ¸ ìĿĢ
Ġê°± ìĥģëıĦ
Ġíķľ ìłķ
ê²¨ ìķ¼
ĠìĹ° ëł¹
ĠëįĶë¶Ī ìĸ´ë¯¼ì£¼
ĠìĦłëıĻì§Ī ìĹĲ
Ġê°ľê·¸ë §¨
íķľ ìľłì´Ŀ
ĠìĿ´ ìłķë¶ĢëĬĶ
Ġê·¸ë Ħĺ
ĠìĿ¼ ê°Ģì¡±
ĠëĦĺ ëĬĶëĭ¤
ĠëĮĵê¸Ģ ëĵ¤ìĿ´
2 8
ĠìķĮ ê³łìŀĪëĭ¤
Ġë§Ŀ ì¡°
Ġê·¸ëŁ¬ ëĬĶê±°
ĠíĻį ìĺģíĳľ
Ġìĭľìŀĳ ëĲľ
ĠëģĶì°į íķľ
íķĺìĭľ ëĤĺ
Ġìĭľ ì¦Į
ĠëĮĢíĨµëł¹ ìĿ´ëĿ¼ëĬĶ
Ġì°¨ ìĽĲìĿ´
ĠìĽĲ íķĺì§Ģ
ëĭ¤ê°Ģ ëĬĶ
ĠíĤ¤ ë³´ëĵľ
é Ł
Ġë¶Ģ ë¦¬
Ġê·¼ ìĦ±
ĠíĪ¬íĳľ ê¶Į
Ġìłĳ ìĪĺ
ĠìĥģëĮĢ ë¥¼
ĠëĮĢì²ĺ ë¥¼
íķľ ëĤł
ìĤ¬ ëĵ¤ìĿ´
Ġìłķ ë³´ë
Ġê·¸ ì§Ŀ
Ġëª¨ë¥´ ëĬĶê²Į
ĠìĿĳìĽĲ íķĺëĬĶ
ĠìķĮìķĺ ëĦ¤
Ġê±· ìĸ´ìĦľ
ì°Ĳ ê°ľì°Ĳ
ĠêµŃë¯¼ ìľ¼ë¡ľ
Ġê²Ģ ìĹ´
ĠëŃĶ ìĥģê´Ģ
ê²Ģ ìĥī
ĠìŀĲìĭł ìĿĢ
Ġëĭ¤ëĭĪ ëĬĶëį°
Ġìĥģê´Ģ ìĹĨëĭ¤
Ġë¬¸ëĮĢíĨµëł¹ ëĭĺ
Ġê·¸ë ³´ëĭ¤
ë§Ī ëł¨
Ġíķ´ íĤ¹
ĠìĨĮ ìĽĲ
ĠëĤ´ ì«
ê±¸ ìĿĮ
ĠìķĦëĭĮ ê±´
ìĤ¬íļĮ ê°Ģ
ĠëĤĺ ìĿĦëĵ¯
ë²ķ ë¬´ìŀ¥ê´Ģ
Ġìĥģ ê°Ģ
íķĺëĤĺ ëĬĶ
ëĿ ¨
ĠíļĮ ìĤ¬ëĬĶ
ìĿĦëķĮ ëıĦ
Ġëĭ¤ ë¥´ê³ł
Ġëĵľ ë¦½ëĭĪëĭ¤
ì§ĢìķĬ ìľ¼ë©´
ì¢ĮíĮĮ ëĵ¤ìĿĺ
Ġì£½ìĸ´ ê°ĢëĬĶ
ìĹ¬ ê¸°ìĹĲ
íĶ ķëĭĪëĭ¤
ëª» íķľëĭ¤
ì¶Ķ ê°Ģ
Ġëĭ¤ë¥¸ ê±°
Ġì°į ìĸ´ì¤Ģ
ëģĿ ëĤĺê³ł
ĠíĺľíĥĿ ìĿĢ
ĠëįĶëŁ¬ ìĽĮìĦľ
ê²ł ëħ¸
ĠëįĶ ë¯¼ì£¼
Ġë¹Ħ ëĶĶìĺ¤
ĠíķľêµŃ ë§Į
ĠëķĮ ë¦°
ł¤ ë©´
ì°½ íĶ¼
ĠëĤľë¦¬ ëĥĲ
Ħ Ĳ
ìĺ¤ ë¥¼
Ġê²½ìłľ íĻľëıĻ
ĠìĨĲ ìŀ¡
ĠìĪľì§Ħ íķľ
ĠëįĶ êµ°ëĭ¤ëĤĺ
ĠìĦľ ëªħ
ĠìĦłê±° ì¡°ìŀĳ
Ġëıħìŀ¬ êµŃê°Ģ
ìĿ´ ìĹĪëĬĶëį°
ì£¼ ìĭľê¸¸
ĠìŀĲ ìĤ´ë
Ġëª¨ëĳĲ ëĭ¤
ìĻĶ ëĥĲ
ĠëĭŃ ê·¼íĺľ
ĠìĿ´ìłķëıĦ ëĬĶ
ĠëĤ¬ ëĬĶëį°
Ġêµ¬ë¶Ħ ëıĦ
e c
ĠìłĦ ìłķë¶Ģ
Ġëª» íķ©ëĭĪëĭ¤
ĠìķĦëĭĪ ìĹĪëĤĺ
Ġìłķì¹ĺ íĮĲìĹĲ
ĠìŀĲíķľëĭ¹ ëıĦ
ĠìķĮê³ł ë³´ëĭĪ
ĠìķĦë²ł ìĻĢ
íĥĵ ìĿĦ
Ġì§ĢíĤ¤ ì§Ģ
ĠëĤ® ìķĦ
Ġ.... ...
íĻ©êµĲìķĪ ìĿĢ
ĠìĽĥê¸° ëĭ¤
ì· Ħ
ìĥĿ ê¸°
Ġë¶Ī ë§ĮìĿ´
Ġìĭľìŀĳ íķľ
Ġìļ°ë³ĳ ìļ°
ìĿ¼ ìĿ´ëĤĺ
Ġëª» ì°¸
ì²´ ê³Ħ
Ġíĳľ ìĭľ
Ġëª¨ìĬµ ìĿĢ
Ġìĭłê²½ ëıĦ
ĠìķĪê°Ģ ëĦ¤
Ġì ¨
Ġìłķê¶Į ëķĮ
Ġíķ´ìķ¼ ëĲľëĭ¤
íİ Ģ
ĠìłķìĿĺ ëĭ¹ìĿĢ
ìĭľì¼ľ ìķ¼ì§Ģ
Ġì²ł íķĻ
Ġíķĺ ëĵłì§Ģ
ĠìĤ¬ íĥķ
ĠìĨĮ ëħĢ
Ġê¸°ëĭ¤ ë¦¬ëĬĶ
íĿĺ ëł¤
ĠëĤĺ ìĦ¤
ìłĦ íĺĢ
Ġë¶Ģ ëŁ¬ìĽĮ
Ġê³ł ì¹ĺ
ĠìĦ± íĺķ
Ġë³¸ ìĿ¸ë
ĠëĭĪëĵ¤ ë§Į
Ġì´Ī ëŀĺ
ê²Ģì°° ìĿĺ
Ġê³¨ ëķĮ
ê²½ì°° ìĿĢ
T N
¼ Ľ
ë¦¬ ìĸ¼
Ġì§Ģ ìĸ´
ĠìĿ¼ ê¸°
ĠìĻľ ìŀĲê¾¸
Ġë¶ģ ìĹĲìĦľ
Ġìĺ¬ ëł¤ìķ¼
ĠìĿ´ë¦Ħ ë§Į
Ġì²´ íĹĺ
ëĤĺê²½ìĽĲ ìĿĢ
Ġìķħë§Ī ê°ĻìĿĢ
Ġì¹´ë įĶëĿ¼
ë¯¸ê°ľ íķľ
ĠìĦ¸ ì¹ĺ
ë¬¼ ê°Ģ
ê°ķ ìĿ´
Ġê´ľì°® ìķĦ
Ġëķ¡ ê¹¡
ìŁİ ìķĦ
Ġê±° ìļ¸
Ġì¡°ìĦł ìĿĢ
Ġì¶ľ ìĭľ
ĠìĹ´ ê³ł
Ġë°ĺëĮĢ íķĺë©´
Ġëĭ¤ìĿĮ ëĤł
Ġê°ĸ ìĿĢ
Ġë¬¸ë¹ł ëĵ¤ìĿĢ
ĠêµŃë¯¼ ìĿ´ëĭ¤
Ġëª» ë°ĽëĬĶ
ì¡ ¸ëĿ¼
Ġê³ł ë°±
ĠíĥĢ ëĿ½
Ġì¹ľìĿ¼ ë§¤êµŃ
ĠìĻ¸êµŃ ìĿ¸ëĵ¤
ìĦłëıĻ ì§Ī
ìĤ¬ê±´ ìĿ´
Ġëĸłëĵ¤ ìĸ´ëĿ¼
Ġëľ¬ê¸Ī ìĹĨìĿ´
ì° ¢
Ġìĭł ë´ī
ĠëĪĦ ë¦¬
Ġìĭ¤ ì²´ê°Ģ
Ġì¡°ìĤ¬ ëıĦ
ĠìĤ¬ê³¼ íķ´ëĿ¼
Ġë¯¼ì£¼ì£¼ìĿĺ ìĿĺ
Ġìĸ´ì©Ķ ê±´ëį°
ëłģ ìĿ´
ì£¼ íĸī
Ġê·¸ ëĵ¤ìĹĲê²Į
Ġê±° ìĬ¬
ì¹ľ ëĭ¤ê³ł
ĠìĦ± ì§Ī
Ġì´Ŀ ë¦¬ê°Ģ
ìĦ¸ëł¥ ëĵ¤
ĠìĤ¬íļĮì£¼ìĿĺ ìŀĲ
ĠëĤ© ì¹ĺ
ìĪĺ ëĤĺ
Ġë§Ĳ ìĿ¸ì§Ģ
Ġëĵľ ëĦ¤ìļĶ
íķĺê²ł ìĸ´
Ġê°Ķ ëĭ¤ê°Ģ
ĠìĽĶê¸ī ìĿĦ
Ġìĸĳìĭ¬ ìĹĲ
Ġê²¬ ëĶĶ
Ġë® Ī
Ġê¼´íĨµ ëĵ¤
ìĿ¸ ê²ĥìĿĦ
ìĹ¬ íĥľ
ĠìķĦëĭĪ êµ¬ëĤĺ
ë¯¸ ì³Ĳ
Ġìĺ¤ íĽĦ
ë³´ë Ł¬
Ġëª¨ìķĦ ëĨĵê³ł
ĠìķĪ íĭ°
ĠêµŃ ê²½
ìŀ¬ ë¡ľ
Ġìľł ìĸ¸ë¹Ħ
ë°© ìĿĦ
ë´Ĳ ìķ¼ì§Ģ
Ġê³µë¶Ģ íķ´ìĦľ
ĠìĤ¬ì§Ħ ì°į
ĠíĳľíĺĦ ìĿĦ
ì§ĢëŀĦ ìĿĦ
ê²Ħ ëĥĲ
ĠìĬµ ê´Ģ
Ġìłķ ìĦľ
ĠëĤĺ ëĬĶëį°
ĠìķĮ ë§Įíķĺëĭ¤
ĠëŃĲ ìĹ¬
ë°Ķ íĥĢ
ĠëıĦ ëł¤
ëĮĢê¹¨ë¬¸ ëĵ¤ìĿĢ
ìĺ¤ ë¥´
ê¼ ´ë¡ľ
Ġìĭ¬ ìĥģ
Ġìķħ ë²ķ
íĨł ë¦¬
ĠìĦ¸ê³Ħ ìĿĺ
íĥĵ ìľ¼ë¡ľ
Ġê¹ĢìłķìĿĢ ìĿ´ê°Ģ
ìĪĺ ìĭŃ
Ġë°Ľ ìĿĢê±°
Ġìŀ¬ ê²Ģ
Ġê°Ħ ìłĳ
ëĲł ê±°ëĭ¤
ĠëĤĺìģľ ì§ĵ
Ġê°Ķ ìľ¼ë©´
ëĸł ëĬĶ
Ġìĺ¤ ìĦ¸ìļĶ
ëĵ¯ íķĺëĭ¤
ĠìĹ° ìĬµ
ìĦłê±° ëķĮ
ĠìĬ¤ìĬ¤ë¡ľ ê°Ģ
ë§Ĳë¡ľ ë§Į
ĠìĿ¼ ìŀĲë¦¬ëĬĶ
ĠìĿ´ê²Į ëĤĺëĿ¼ëĥĲ
ĠìĿ´íķ´ íķľëĭ¤
Ġìĺ¬ëĿ¼ ê°Ī
Ġìĸ» ê³ł
ĠìĿ´ëĨĪ ìĿĢ
ë¬¸ë §Į
4 5
Ġë³´ ì§Ģë§Ĳê³ł
ĠëįĶ íķĺë©´
ëĭĺ ìķĦ
Ġë¶Ī ì²´
ĠêµĲ ë¯¼
Ġìŀ¡ íĺĶ
ëĭµ ëĦ¤
ĠíĺĪ ìĦ¸ë¥¼
Ġìļ¸ìĤ° ìĭľìŀ¥
ìķĦ ìĭľìķĦ
Ġê¹Ģ ê¸°
íķĺëĤĺ ëıĦ
ĠíĹĪ ìĪł
íķłìĪĺ ë°ĸìĹĲ
Ġìĭłê²½ ìķĪ
ì ªĦ
Ġê·¸ë ª¨
Ġì§Ģ ìŀ¡
Ġíķľ ìłģ
Ġì¡° êµ¬ê¸°
ìĹĨ ìĿĦ
Ġì¡°êµŃ ìĿ´ëĤĺ
ìłķë¶Ģ ìķ¼
~~~ !!!
ëı¼ì§Ģ ê°Ģ
ĠìĻĦìłĦ íķľ
ì±Ħ ìļ©
Ġê¿Ī ìĿĦ
ĠíĶĦëłĪìŀĦ ìľ¼ë¡ľ
íķĺ ëĵłê°Ģ
ëĮĢ íķ´ìĦľ
Ġíķľ ìĹĨìĿ´
ìĺ¤ ìĺ¤
ĠìĤ´ ê³łìĭ¶
Ġë³¸ ì§ĪìĿĢ
Ġëĸł ë°Ľ
Ġëıħë¦½ êµ°
ĠìĪĺìĭŃ ìĸµ
ĠëĦĪë¬´ëĤĺ ëıĦ
ĠëĤĺ ëŀĳ
ë§Ŀ êµŃëĭ¹
ĠëĦĺ ì¹ĺëĬĶ
Ġê·¸ëŁ¬ ëĭ¤ê°Ģ
ĠëŃĶ ìĨĮë¦¬
ĠíĻĶ íķ©
Ġë°¥ ë¨¹ê³ł
Ġíķĺë£¨ ìĿ´íĭĢ
ìĿĺìĽĲ ìĿĢ
Ġëĸł ëĬĶ
Ġê¸Ī íĥľìĦŃ
Ġãħħ ãĦ±
ĠìŀħêµŃ ìłľíķľ
ìĦ¸ê¸Ī ìĿĢ
ĠìĿ´ëĨĪ ìķĦ
ĠìłķìĿĢìĿ´ íķľíħĮ
ĠëµĪ ëĬĶê²Į
Ġíķľ ê¸°ì´Ŀ
ĠêµŃ ì±Ħ
Ġë§Ĳ íķĺëĦ¤
ëķĮ ê¸°
ì¡± ìĨį
ë£Į ëĬĶ
ĠìĨį ìĿĦ
ĠìŀĲìľł ë¯¼ì£¼
ìłķìĿĢ ìĿ´ê°Ģ
ĠëĦ¤ íĭ°ì¦Į
íĺĳ ìĥģ
ĠíķľìĪ¨ ë§Į
ðŁ¤¬ ðŁ¤¬
Ġëª» ë¨¹
íĹ ī
Ġíĸī ìĦ¸
Ġê°Ħ ìĹĲ
Ġë»Ķ íķĺì§Ģ
Ġê¶ģê¸Ī íķ©ëĭĪëĭ¤
Ġì§Ģìĺ¥ ìľ¼ë¡ľ
ìłķ ì²ł
ìĪĺ ê±°
Ġë³´ ìķĦ
ì§Ħ ìļ°
ĠìķĦëĭĪ ë©´ìĦľ
ê·¸ ìłľ
ìłĪ ìĿ´
Ġì¡°ìŀĳ íķĺëĬĶ
ĠíĺĪ ìķĪ
Ġì¡°ìĭ¬ íķ´ìķ¼
íĬĢ ê¸°
ĠëĤĺ ëĿ½ìľ¼ë¡ľ
ë¶Ģ ë¦¬ëĬĶ
ë§Ī ìĿĮìĿ´
ìłĦ êµŃë¯¼
ì§ľ íĮĮêµ¬ë¦¬
Ġê°Ļ ì§ĢëıĦ
Ġë¹Ħ ìŀĲ
ĠìĹ° ëªħ
ê²Ģ ìĤ¬ê°Ģ
Ġê²ĢìĤ¬ ëıĦ
ĠëĮĢê°Ģë¦¬ ë¥¼
Ġë°Ķê¾¸ë ©´
ëĮĢ ë©°
íļĮ ìĤ¬ê°Ģ
ë¶Ī ìĿ´
Ġíķ© ì³Ĳ
ëıĪ ë²Į
Ġìŀł ë³µ
Ġì¡°ì§ģ ìłģìľ¼ë¡ľ
ë§Ĳ ëĿ¼
Ġëĭ¹ ìĿĢ
Ġì²Ń ìĻĢëĮĢë¡ľ
ìĻķ ì¡°
Ġë¶ĪìķĪ íķ´
ĠíĿī ìķħ
ëĬĶëį° ëĬĶ
Ġë¶Ģ ìĿ¸ìĿ´
ìĹħ ìĿĦ
Ġë°ĺ ëŀĢ
Ġìłģ ìĿĳ
íĺĦ ìŀ¥
ĠìłĢëŁ° ìĭĿìľ¼ë¡ľ
ì´Ī ê¸°
Ġíķĺìĭľ ëĦ¤
ë°ĺëıĦ ì²´
o p
ĠìĿ¼ ìĿ¼ìĿ´
Ġê³µ ê°Ī
Ġì§Ħ ì¦ī
ĠëıĻ ëĵ±
ê¸¸ ìĹĲ
Ġì£Ħ ì±ħ
Ġìľ¡ ìķĦ
ê°Ļ ìķĦëıĦ
ĠíķĺëĬĶ ìĿ¼ìĿ´
ëł¥ ê³¼
Ġê¸°ìĤ¬ ìĵ°
Ġíķĺë£¨ ëĿ¼ëıĦ
ĠìĦľë¯¼ ìĿĢ
ĠëŃī ì³Ĳ
ĠìķĪ íķ´ì£¼
Ġìļ° ëĳĲ
ì¤ĳ ê³Ħ
Ġë§Ī ì£¼
ĠìľĦ ê¸°ìĹĲ
ì£¼ìĿĺ ìĹĲ
Ġëĭµ ìĹĨëĬĶ
ĠìĤ¬íļĮì£¼ìĿĺ ë¡ľ
Ġíİĺ ë¶ģ
Ġê¸°ëĮĢ íķ©ëĭĪëĭ¤
ëĭĪ ëıĦ
êµŃ ìĤ°
ìĥģ ìĭľ
Ġê°ľ ì²ľ
ìĨĮ ìĹ°
ê¸Ģ ë¡ľ
Ġíķĺê³ł ìŀĪëĬĶ
ĠíĸīëıĻ íķĺëĬĶ
Ġë¿Ĳ ìĿ´
ĠìĿ´ëªħë°ķ ìĿ´
ìłķìĥģ ìłģìĿ¸
Ġê°ĢëĵĿ ì°¬
¬ ´ë
ĠëıĻ ë¶ģ
ì²´ë Ŀ¼
ĠíĦ° ëľ¨
ìĸ¸ë¡ł ìĿĢ
íĸĩ ëĬĶëį°
Ġë§īë§Ĳ ìĿĦ
Ġì§Ŀ íīģ
ĠìķĪ ëĲ
Ġê²ĥ ìĿ´ëĿ¼ê³ł
ë²Ī ìĿĢ
ë¬¼ ëıĦ
Ġãħİ ãĦ·ãĦ·
Ġê¶Į ë¦¬ê°Ģ
Ġì¶© ê²¬
Ġëĸ¨ ë¦°ëĭ¤
ĠìłĢëŁ¬ ëĬĶ
Ġë§īê°Ģ íĮĮ
o w
ë ±ĥ
Ġíķľ ì±Ħ
Ġê°Ģ ê±°ëĿ¼
Ġíķ´ ìĺ¨
Ġê°ķ ìķĦ
ìľ¼ ìĭľê³ł
ìłķ ë¦¬
ĠëĮĢ ìķĪìĿĦ
ëª¨ ëį¸
ê¹Ģ íĺĦ
ëĦĺ ëĵ¤ìķĦ
18 0
ĠìĤ¬ê³ł ëĬĶ
ĠíĦ° ì¡Į
Ġëĭ¨ìĪľ íķľ
ë¶ĢëģĦ ëŁ¬ìļ´
ìĹ¬ ëĭ¹ìĿ´
Ġìĺ¤ ë¥¸ëĭ¤
Ġëıħ ê°Ĳ
íıŃ ëĵ±
ĠìĭľíĤ¤ ìŀĲ
Ġê°ĲìĹ¼ ëĲľ
Ġìĸ´ëĶĶê°Ķ ëĥĲ
ãħ ķ
ĠìĤ¬ ëŁ¬
ìĪĺ ë§Į
ĠëĦĪ ì²ĺëŁ¼
ë°Ķ ìľĦ
Ġë°© ìĭĿìľ¼ë¡ľ
ĠëĤĺìĺ¤ ëĬĶê²Į
ë¹¨ê°±ìĿ´ ëĵ¤ìĿ´
ë¡Ń ëĭ¤
ĠìĭłëıĦ ëĵ¤
ìĥĿ ìĹĲ
ĠëĲĺ ì§Ģë§Į
Ġë¶Ī íĻĶ
Ġê°ĸ ì¶Ķ
ë¯¸ì¹ľ ê±°
Ġìĸ´ë¦° ìķł
ê³ł íķľ
ìľĦ íĺĳ
Ġëĭ¬ ìĦ±
Ġì£½ìĹ¬ ëĿ¼
ê¸° ë°Ģ
Ġëĭ¤ ìķĮ
ìĿ¼ ê±°ëĭ¤
Ġìĭľ ìĿ¸
ĠëĲĺ ê²łëĦ¤ìļĶ
Ġë¨¹ ì¹ł
Ġê³µ ìĹ°
ĠìĨĮ ë©¸
Ġëħ¸ ê°Ģëĭ¤
ĠìĤ¬ìĭ¤ ë¡ľ
ìļ´ëıĻ ìĿĦ
Ġëª¸ íĨµ
Ġë³ĳìĽĲ ìĹĲìĦľ
ìŀĩ ëĭ¤
ĠìŀĬ ê³ł
ëĸ³ ëĸ³
ìķī ìķĦ
Ġë³´ ì¡´
Ġìĺģ ê´ĳ
íħĲ ì¸ł
ìĭľì¼ľ ëĨĵê³ł
Ġì²ł ë°¥íĨµ
Ġê°ĲìĹ¼ ìŀĲê°Ģ
Ġë°ĶìĿ´ëŁ¬ìĬ¤ ë¥¼
Ġê¸°ëĵĿê¶Į ìĿĦ
Ġì£½ìĿĮ ìľ¼ë¡ľ
ëĭĪ ëıł
Ġíķĺ êµ¬
ĠìłĦ ìķ¡
ë°ķ ìĬ¤
ĠìĨĲ ìŀĲ
ĠìŀĪìĹĪ ëĬĶì§Ģ
Ġë¨¸ ì§Ģ
Ġìľłìĭľë¯¼ ìĿĢ
êº ½
ê±¸ëł¤ ìĦľ
Ġë°Ķëĭ¤ ìĹĲ
íķĺëĬĶ ì§ĵìĿ´
ĠìķĪ ìĺ¬
Ġëĭ¹ íķ´ìĦľ
ëĳĲ ì§Ģ
ìħ ī
ìĸµ ìĿ´ìĥģ
Ġê´ĳ ìļ°ë»¥
ĠíĻ© ìĶ¨
ìľ¤ ì´Ŀìŀ¥ëĭĺ
ĠìłĦíĻĶ íķ´ìĦľ
Ġë¬¸ ì¹ĺë§¤
ìĦ¸ ê¸°ìĹĲ
Ġëª» íĸĪ
ìĨį ë³´
Ġìµľ íķĺ
Ġìĸĳë°ĺ ìĿ´
ĠìķĦ ë©Ķ
Ġì§Ģ ë§ĺëĮĢë¡ľ
ĠìĥĿê°ģ íķ´ë³´ë©´
Ġìŀ¥ ë³ĳ
Ġ5 86
ìĸ¸ ìĿĦ
Ġëª¨ëĵł ê²ĥìĿĦ
Ġê´ ´ë¡ľ
ëĮĢíĨµëł¹ ìĿĺ
k i
¦ ´ë
Ġíķĺ ê±°ëĤĺ
ëĬĶê±° ìĹĲ
ê²½ ìļ±ìĿ´
Ġìļ°ë¦¬ ëķħ
ëĤ¨ ëħĢ
ĠìķĬê³ł ìĦľìķ¼
ìĸ´ë³ ¼
ë°ĸ ìľ¼ë¡ľ
Ġëĭ¤ë¬¼ ëĿ¼
ĠìłĢ ìª½
Ġê³ł ëł¹
ĠêµŃíļĮ ë¡ľ
ĠëıĦìĻĢ ì£¼ê³ł
Ġê°Ģíķ´ ìŀĲê°Ģ
íķĺ ëĤ´
ë¶Ģ ë¦¬ê³ł
Ġë°ĺ ì¦Ŀ
ĠíĨµ íķĺëĬĶ
ìĥģíĻ© ìĿĦ
ĠìĿ´ëķħ ìĹĲ
ëĿ¼ê³ł ëĬĶ
Ġëĭ¹ ì²¨
Ġì¤ĳêµŃ ìĹĲê²Į
ìĤ¬ ëĭ¤
ë§Ī ì¹ĺ
ìľł ê°Ģ
ë°© ì§Ģ
Ġì°¨ ë¦¬ìŀĲ
ìĿ¼ë³¸ ëıĦ
Ġì°Į ëģĦ
Ġê°Ģê²© ìĿĢ
Ġìľ¤ë¯¸íĸ¥ ìĿ´
ĠìĿ¸ìĭł ê³µê²©
ê±°ë¦¬ ë¡ľ
íķĺì§ĢìķĬ ëĬĶ
ë¦¬ íķĳ
ìĸ´ ì§Ī
ìĪĺ ëĵ¤
ĠìĿ¼ íķľ
Ġë°Ķ ë¹ł
ìķĺ êµ¬ëĤĺ
Ġë§Į ìĿ¼
ĠìĻ¸ ìĸĳê°Ħ
Ġë¯¸ëŀĺ ìĿĺ
Ġì¢ĮíĮĮ ëıħìŀ¬
ĠìĻĢ ìĿ´
ĠëĽ° ìĸ´ë
ëĸł ëĤĺ
ĠìĿĺë£Įì§Ħ ëĵ¤
Ġë¶Īê³¼ íķĺëĭ¤
ê±° ìĹĲ
ë¶Ģ ìłľ
Ġíķ ¸
ĠìĻ ¼
ìŀĦ ìĿĢ
Ġë§Ī ëĪĦ
Ġë¹Ħ ìľ¨ìĿ´
ĠëĤ¨ ê²½
ĠíķĦ íĦ°
Ġìĸ´ëł¤ ìļ´ëį°
Ġìĸ» ìĿĦ
Ġë¶Īê°ĢëĬ¥ íķľ
Ġëª¨ ìĭľ
ì¤Ħ ìĿ´ìķ¼
Ġìłģ íİĺ
íģ¬ ê²Į
Ġ3 8
íĢ´ ëĵ¤
Ġìī´ëĵľ ì¹ĺëĬĶ
Ġë²Įìĸ´ ì§Ħ
Ġëª½ëĳ¥ ìĿ´ê°Ģ
ê³¼ ëıĦ
ê°Ļ ëĦ¤ìļĶ
ëģ¼ ëĵ¤ìĿĢ
Ġê¹Ģ ìĿĺê²¸
ĠëģĿ ëĤĺëĬĶ
Ġê±¸ ê¹Į
ìĤ¬íļĮ ìĹĲìĦľ
! ...
Ġê¸° ë»Ĳ
Ġê±° ëĳ¬
Ġì£¼ ëª©
Ġë°Ľ ìľ¼ìĦ¸ìļĶ
Ġìłķì¹ĺ ì§Ī
ĠìĤ¬ê¸° ê·¹
Ġìļ´ìļ´ íķĺë©°
Ġìŀ ĬìĿĢ
ìŀĲ ì¡´
ĠêµŃ ëĤ´ë
ê°Ħ ëĭ¤ëĬĶ
ìĺ¤ ë§ĪìĿ´
Ġìľł ì²´ìĿ´íĥĪ
íķ¨ ëıĦ
Ġì¢ĭìķĦ íķĺì§Ģ
íķĺ ë©´ë
Ġê³Ħ ê¸°ë¡ľ
ĠíļĮìĤ¬ ìĹĲ
ìłķì±ħ ìĿĢ
ĠìĿ´ë£ ©
ëŀľ ëĭ¤
ê²°ë¡ł ìĿĢ
íķĺëĭ¤ íķĺëĭ¤
ìĽĮ ëıĦ
ìļķ íķĺëĬĶ
Ġíķĺë£¨ ê°Ģ
ëĮ ľ
Ġë¬´ë¦¬ ëĵ¤
Ġì¸ µ
ì§Ħìĭ¤ ìĿĦ
Ġê·¸ë Ŀ¼
Ġìĵ° ëłĪ
Ġë°° ìĽĮìķ¼
Ġë©Ķ ìĿ¸
Ġìŀ¬ìĪĺ ìĹĨëĬĶ
ê¸¸ë°Ķ ëŀĢëĭ¤
ëħ ¸ëĿ¼
Ġê°ľ ìŀ¡
ëĵľ ìĭľê³ł
Ġì¢ħ ë¶Ģ
ĠíļĮ ìĪĺ
Ġë²Ķì£Ħ ìŀĲëĵ¤
ĠìĿ´ëŁ¬ ëĬĶ
ëī´ ìĸ¼
Ġë¶Ģ ëĭ¹
ĠìķĮ ê¸°ëĤĺ
Ġìķł ìĻĦ
Ġìĸ¼ ìĸ´ì£½
Ġì¤Ħ ê³ł
Ġëĭµ ê²Į
ê°Ķ ëĭ¤ê°Ģ
Ġë§ĲìĶĢ ìĿ´
ê¶Į ìŀĲ
ĠëĬĻ ìĸ´ìĦľ
2 6
ëĮĢ ê¹¨
ĠìĤ¬ëŀĮ ìĿ¸ê°Ģ
ĠíĶ¼ íķ´ì£¼
ë°° ìļ´
Ġë§ī ìĿĢ
Ġëĭ¨ ì£Ħ
ĠìĨį ìķĦìĦľ
íķĺê²ł ì£ł
Ġì¿ł íħĮíĥĢ
Ġì¤ĳ íķĻìĥĿ
ðŁ ļ
ê» ĳ
ê¸¸ ìĿ´ëĭ¤
íĶ¼ ìĿĺ
Ġìĸĺ ëĵ¤
Ġìĭ¤ìĹħ ë¥ł
ìķĦ ëĨĶ
Ġíķľ ì¤Ħ
ëĲĺ ê²łëĦ¤
ĠëĦĪ ëŀĳ
íķĻ ê¸°
ìĽĥ ê²¨
Ġê¼¬ ëĿ½
Ġë¬´ìĹĩ ë³´ëĭ¤
ì¹ĺ ëįĺ
Ġë¶Ģ ëıĦëįķ
ĠìĹ¬ ìĿĺëıĦ
ë³´ë ĥĪ
ĠëĤĺìĺ¨ ê²Į
ĠëĤ« ê²łëĭ¤
ëįĶë¶Ī ëĭ¹
ĠëłĪ ìŀĦ
ĠêµŃë¯¼íĺĪ ìĦ¸
Ġë°Ķ íĥķ
ĠëĲĺ ëĬĶê±´
Ġìĥģ ìŀ¥
Ġìŀ¬ ì¡°ìĤ¬
ðŁ Ķ´
ĠìĽĲ ë³¸
ĠìĦ¤ ì¹ĺê³ł
ĠëĮĢê¸°ìĹħ ìĿ´
ì£¼ ë¨¸ëĭĪ
ĠêµŃë¯¼ íĪ¬íĳľ
ê·¼ ì²ĺ
ĠêµĲ íĽĪ
Ġê³Ħ ìĭŃëĭĪëĭ¤
ì£½ ê³ł
Ġê¹ĢìłķìĿĢ ìĿĦ
ì§Ģì§Ģ íķ©ëĭĪëĭ¤
Ġìĵ´ ëĭ¤ê³ł
Ġê·¸ë ĤĺëĿ¼
Ġë°° ì¶ľ
ìĨĲ ìĹĲ
ìĿ´ ìłķëıĦ
Ġê²½ ìĿ¸ìĦł
Ġë¹¨ê°±ìĿ´ ëĵ¤ìķĦ
Ġëīĺ ìļ°
ĠíĨ ¡
ëĵ¤ ìĿ¸ì§Ģ
ìłķ ìĦľ
Ġê·¸ë §Ī
ĠëĮĢ ìĪĺ
Ġì§Ģ ëıĪ
ĠëĪĦ ëĤĺ
Ġíİĺ ìĿ´ìĬ¤
ĠíķĺëĭĪ ê¹Ĳ
ìĥīíŀĪ ëĵ¤
ìĤ¬ êµ¬
Ġì§Ģ íĸ¥
Ġìľł ì´īìĥĪ
Ġë¹¨ ìķĦë¨¹
ì¶Ķ ì²ľ
ĠìĦ¸ê³Ħ ìµľê³ł
ĠíĳľíĺĦ ìĿ´
Ġê¹¡ íĨµ
Ġì´ĪëĶ© ëıĦ
ĠìĭłëıĦ ìĭľ
ĠëĤĺ ê²Į
ĠìĪĺ ê¸ī
Ġì²Ń ìłķ
íķĺëĬĶê±° ëŀĳ
ë°± ë§Į
ĠëĩĮ ìĹĨëĬĶ
íİĺ ìĿ¸
Ġ è
Ġê·¸ ëĭ¥
ĠìĪĺ ìĪľ
Ġìłģ ìłĪíķľ
íĥľ ëĬĶ
ìķĦ ëĬĶëį°
ì°¨ ìĤ°ìĹħ
Ġìŀħ ëĭ¹
ĠëķĮ ë¦¬ëĬĶ
ĠëĤ´ë ĨĶëĿ¼
Ġë°ķ íĺĢ
Ġëĭ¬ ê²Į
Ġê³¼ ëĮĢ
Ġìĸ¸ ëĬ¥
Ġíķłë¨¸ëĭĪ ëĵ¤ìĿĦ
ë¹ ħ
Ġì¤ĳ ì¦Ŀ
Ġíķ´ êµ°
Ġë¬¸ìŀ¬ìĿ¸ ìĹĲê²Į
Ġìĸ´ëĶĶ ìŀĪëĥĲ
Ġìļ´ íĸī
ë¶ģíķľ ìĿĺ
ëĪĦê°Ģ ë´ĲëıĦ
ĠëŃī ì³ĲìĦľ
ðŁĻ ı
Ġìĸ¼ë§Į ëį°
ìĸ´ë ĨĶ
ìĺ¤ ë¡ľì§Ģ
ĠëıĪ ë²Ħ
Ġì°¨ ê´Ģ
ë§ŀ ì§Ģ
ĠìĭľëģĦ ëŁ¬
ìłģ ìĿ¸ëį°
Ġì§Ħ ë³´ë
ĠíķĻ íıŃ
Ġíķµ ìĭľìĦ¤
Ġì²ĺìĿĮ ìľ¼ë¡ľ
Ġì²´ ê°Ĳ
Ġê°Ģë³į ê²Į
Ġìļ° íĺ¸
Ġìĺ¤ ë¥´ëĬĶ
ë³´ëĭ¤ ê°Ģ
Ġë°ľ íľĺ
ìħ¨ ëĬĶëį°
Ġëĭ¤ëĭĪ ëĦ¤
ĠíĭĢëĶ± ëĵ¤ìĿ´
ĠíıĲê¸° ë¬¼
% ,
ì£¼ìĿĺ ê°Ģ
Ġìĭ¤ ìĥģìĿĢ
Ġì²Ń ì¶ĺ
ĠìĪľ ìľĦ
ëıĮìķĦ ê°Ģ
ìĸ´ìĿ´ êµ¬
ëĭĪëĦ¤ ê°Ģ
ê³ł ìŀĳ
Ġíķľ íĮĲ
Ġì£¼ ìŀ¥ìĿ´
Ġì´Ī ë°ĺ
Ġìŀ¬ìķĻ ìĿĦ
ì½Ķë¡ľëĤĺ ê°Ģ
ëħ¸ì¡° ê°Ģ
ìľ¤ìĦĿìĹ´ ìĿ´
ĠìĻĦë²½ íķľ
ì§Ģ ëĭĪê¹Į
ìĿ¸ ìĽĲ
ì¤ĳ ìĹĲìĦľ
Ġê³ł ìŀ¥
ë¶Ħ ëħ¸
Ġëĵ¤ ë¦°ëĭ¤
Ġë§ī ë¡łíķĺê³ł
ĠíĻĶ ëĤľëĭ¤
ìĹ´ íķľ
ëģ¼ë¦¬ ëģ¼ë¦¬
ĠìŃĪ ìļ±
a c
ĠìĹĨ ëĬĶê±°ìķ¼
ĠìĨį ìĿ´ëĬĶ
ìĿµ ìĿ´
ĠìĿ´ìļ© ë§Į
ĠìłģíıĲ ë¥¼
Ġìľ¼ íľ´
ìķĦë¬´ ëıĦ
Ġë¡ ¤
êµŃ ê³¼
Ġì§Ģ ë¦¬
ĠìŀĪëĬĶ ê±´ëį°
ë¹¨ê°±ìĿ´ ê°Ģ
ĠíĪ¬íĳľ ë¥¼
ĠëĮĢíĳľ ëĭĺ
ĠìłĦ ê°Ģ
Ġíķ´ ìłľ
Ġë¶Ħ ë³Ħ
Ġìķ½ ìĿĦ
ĠëĮĢíĨµ ìĿ´
Ġíĺ¹ìĭľ ëĤĺ
Ġë°ľëª© ìŀ¡
ê¸° ê°ģ
íĨµ íĻĶ
ìłĦ ë³µ
ĠìłĦ ìłĦ
ĠìłĦ ìĪł
ë£¨ ì¦Ī
Ġì¡°ìĤ¬ ê°Ģ
ëĬĶê²ĥ ëĵ¤ìĿĢ
ìĭľê°Ħ ìĿĦ
ë¥ĺ ê°Ģ
Ġìłķìĥģ ìĿ¸
Ġì¤ĳìļĶ íķĺì§Ģë§Į
ëĭ¹ìĭł ìĿĺ
ìĤ¬ê¸° ëĭ¨
Ġìĭłë¬¸ ìĤ¬
ĠìĤ½ ëĭĪëĭ¤
ê³µê°Ĳ ìĪľ
ëĮĢ ìĦľ
ĠëĤĺ ìĿĦ
ìłĦ ìĹĲëĬĶ
ĠíķĺëĬĶ ìĿ¼
Ġìĺ¤ ì§Ģë§ĪëĿ¼
ĠìĿ´ëŁ° ê²ĥëıĦ
ðŁĩ µ
Ġì§Ģêµ¬ ë¥¼
ĠìķĦ ëª°ëŀĳ
ë¶Ģ íĦ´
Ġì§Ħ ì¶ľ
ì§Ī êµ¬
Ġíķł ë¨¸
Ġìłķìĭł ìĿ´ìĥģ
Ġë°ķê·¼íĺľ ëıĦ
Ġê³µë¬´ìĽĲ ëĵ¤ìĿ´
Ġì²Ńë¬¸íļĮ ìĹĲìĦľ
Ġëĭ¥ ì¹ĺ
Ġë³´ëĦ¤ ìļĶ
êµŃê°ľ ìĿĺìĽĲ
Ġìŀ¡ íŀĮ
Ġìį ħ
ĠìĤ¬ ê·Ģ
Ġìĺ¤ íĨł
Ġë°ķ íŀĮ
ĠìĪĺìĤ¬ ëıĦ
ĠíķĺëĥĲ ê³ł
Ġë¬» ê³łìĭ¶ëĭ¤
¬¸ ìłľ
Ġì¡° ëĳĲìĪľ
Ġìľł ìłĦìŀĲ
ìķł ìķ¡
ëĤ´ë Ĩĵ
§Ĳ ë¡ľ
ìĹĦë§Ī ê°Ģ
Ġë¹Ħ ê¼¬
Ġìľł ë¶Ħ
Ġë°Ľ ê¸°
Ġìłķë¶Ģ ëĤĺ
Ġë¨ ¸ë¬¼
ĠìĨĲ íķ´ë³´
ĠìĹĲ ëĦĪì§Ģ
íķĺëł¤ ëĤĺ
ìĥģíĻ© ìĹĲìĦľ
įĶ ëĿ¼ëıĦ
ðŁĩ ¯
Ġë§ĪëĪĦëĿ¼ ê°Ģ
Ġëĥī ìłķíķĺê²Į
ë³´ ìŀĦ
ëįĶ ë¯¸
ëŀĺ ê¸°ëĵ¤
ëĬĶì§Ģ ìļĶ
Ġìĭ¬ ìĤ¬
ìĭľíĤ¤ ëĥĲ
ĠëĮĢêµ¬ ê°Ģ
Ġê³³ ìľ¼ë¡ľ
Ġì»¤ ë²Ħ
íķľëĭ¤ëĬĶ ê±´
ĠëĤĺìĻĶ ìľ¼ë©´
Ġì£¼ëĳ¥ ìĿ´ë¥¼
Ġìķ½ìĨį ìĿĦ
Ġê³µê³µ ê¸°ê´Ģ
ì§Ģíķĺ ì²ł
ðŁĩ¯ ðŁĩµ
ìĿ´ ë¯¼
ë§Ī ê°Ģ
ìĺ¤ ë¥¸
Ġìľ¼ ìĿ´êµ¬
ë ¢
ĠìĤ¬ ìłĦìĹĲ
ĠìĿ´ëŁ¬ ëĥĲ
Ġê·Ģ ìĹĲ
ðŁĺ Ħ
Ġë¹Į ë¹Į
ĠìŀĪìĿĮ ìĿĦ
ĠìľĦìķĪë¶Ģ íķłë¨¸ëĭĪ
ĠìłľìĻ¸ íķĺê³ł
Ġë³´ ìĤ´
Ġìŀħ ìĤ¬
Ġì²ľ ë¬¸
ĠìĿ´ëŁ¬ ì§Ģ
ìĤ¬íļĮ ìĹĲ
Ġì§ĳíļĮ ìĹĲ
Ġo id
Ġë©Ķë¥´ìĬ¤ ëķĮ
ë¹Ħ ìĶ¨
ëĳĲ ëĬĶ
Ġìŀ¥ ìķħíķľ
Ġìµľê³ł ë¡ľ
Ġìŀł ìĿ´ëĤĺ
Ġì°©ê°ģ íķĺê³ł
ĠìĥĪë²½ ìĹĲ
Ġì§Ģ ëĮĢë¡ľ
ë¶Ģ ìŀ¥
ìĦł ìłĦ
íļĮ ë¥¼
ë¯¸ íĻĶ
ëįĶ ë¸Ķ
Ġíŀĺ ìį¨
ìĩ¼ ìĩ¼
ĠëĮĢíĳľ íķĺëĬĶ
Ġëı¼ì§Ģ ê°Ģ
ĠëĤ® ì§Ŀ
Ġë³´ìĥģ ê¸Ī
a p
íĻ Ī
Ġëĭ¹ ëĤĺëĿ¼
ìĿ¸ìĿ´ ë©´
Ġëªħ ëª©ìľ¼ë¡ľ
ĠíĨł ë§ī
Ġëª» ë´¤
Ġë§Į ëıĦ
ë¶Ī ë§Į
Ġê°ľíĮĲ ìĿ´ëĭ¤
Ġëĭ¤ëħĢ ìĺ¨
Ġa id
Ġë¶ķ ê´´ë
íķĺê³ł ìŀĲ
Ġë°Ķ ì§Ģ
Ġë°° ë¥¼
ìķħ ìĿĺ
ĠìķĦíĶĦ ëĦ¤ìļĶ
ëħ¸ ìĿ¸ëĦ¤
ì¢ħ ìĽĲ
Ġì£Ħ ì§Ģ
íİ¸ ìĿĺ
Ġë¨¸ë¦¬ ë¡ľ
ĠìķĪë³´ ìĹ¬
ĠìĿ´ê±° ëĥĲ
ìĸ´ë²Ħ ë¦¬
ĠëķĮë¬¸ ìĿ´
ĠìĽĲìĪŃ ìĿ´ëĵ¤
ĠëĮĢ ë¥Ļ
ìĦ¸ ìĿĺ
ĠìĦłëıĻ ìĿĦ
ĠëĤł ì§ľ
ê²¬ ìĿĦ
ĠëĮĢê¹¨ë¬¸ ìĿĢ
ëŃĶ ëį°
ĠìĹŃê²¹ ê³ł
Ġìŀ ¼
ĠìĿ´ ê²¼
íķĺëĬĶ êµ¬ë§Į
Ġë§Į ëĤ¬
ĠëĤ´ ê²Į
ĠëĴ¤ ê°Ģ
ĠêµŃíļĮ ëĬĶ
ê¸°ìĹħ ëĵ¤
Ġíį¼ ë¶Ģ
Ġê±°ì§ĵë§Ĳ ìŁģìĿ´
ĠíĹĮ ë²ķìĿĦ
Ġëĭ´ë ³´ë¡ľ
Ġëĸµ ëĸµ
ĠìĽĥê¸° ì§Ģ
Ġì¼ ľ
ëģĮ ê³ł
ìĸ Ģ
ĠìķĪ ì£¼ê³ł
ì¤Ģ íĺ¸
Ġë³´ë Ł¬
Ġê¹Į ë¨¹
ë¿Ĳ ìĿ¸
Ġë¹ļ ìĿĦ
Ġì§ĢìĨį ìłģìľ¼ë¡ľ
Ġíķ Ģ
ê°ľ ìĦł
Ġì£¼ ìłģìĿĢ
Ġì²ĺ ìĭł
Ġìĸĳ íĤ¤
ìª½ ë¹łë¦¬
ĠìĻĢ ëıĦ
ì²´ë Ĳĺ
Ġì§ĢìĹŃ ìĹĲ
ĠìķĶ ê²ĥëıĦ
íķĦìļĶ ê°Ģ
ĠìĭľìłĪ ìĹĲ
Ġëį°ëł¤ ëĭ¤
ĠìŀĪ ëĭ¨
ĠìĹĨ ìĿĦê¹Į
ĠìĪĺ ë¦¬
íĺķ ìĹĲ
Ġë¶Ģëª¨ ëĵ¤ìĿ´
ãĦ´ ãĦ´
ĠíĨłì°©ìĻľêµ¬ ëĭ¹
ĠìĿ¼ìłľ ê°ķìłĲ
) .
êµŃ ëıĦ
ê±´ ìĿĦ
Ġê³µ ì£¼
ëĲĺ ëĬĶê²ĥ
ëĵł ëį°
Ġë¶Ī íıīëĵ±
ìłĲ ëıĦ
Ġëĵ¤ìĸ´ ê°Ģìķ¼
ëĬĶëĭ¤ ë©´
ê·¹ íĺĲ
íķĺìŀĲ ëĤĺ
ĠëıĦìĻĢ ì¤Ģ
ìĪĺêµ¬ ê¼´íĨµ
íķĺ ëĿ½
íķľ ìĿ´
ìĸ´ ê°ĢëĬĶ
Ġë³´ ìĦĿ
ĠíķĦìļĶ íķĺëĭ¤ê³ł
Ġì¢Įë¹¨ ìĿ´
ĠëĤ¨ìŀĲ ë¥¼
Ġê±¸ë ¦¼
ĠìĿĺìĤ¬ íĺĳíļĮ
Ġìĸ´ëĶ §
ðŁĴľ ðŁĴľ
h in
ê²Į ìĭľ
Ġëĵ¤ ìĹĪëĬĶëį°
Ġê°Ĳ ìłķìĿĦ
ĠëıĻ ë°ĺ
ë°ĺ ìĿĳ
ĠìĽĲ ìĿ¸ìĿĦ
ĠìĨĮë¦¬ ëıĦ
ĠìĦ¸ê³Ħ ìłģìĿ¸
Ġíĥĵ ìľ¼ë¡ľ
ĠìĿ´ëĤĺëĿ¼ ìĹĲìĦľ
ĠìĪĺì¶ľ ê·ľìłľ
Ġë²Ĺ ê²¨
ĠíĴĪ ì§Ī
Ġë³´ìĹ¬ì£¼ê¸° ìĭĿ
ĠìŀĲ ê´´
ëħĦ ë¶ĢíĦ°
ìŀĳ ê°Ģ
ĠíķľêµŃ ë³´ëĭ¤
ĠìĿ¸ê°Ħ ëĵ¤ëıĦ
ĠíķĦìļĶ ìĹĨëĬĶ
ì§Ģê¸Ī ìĿĺ
Ġíķ´ê²° ì±ħ
Ġê¸°íļĮ ì£¼ìĿĺ
ĠëĤ´ëħĦ ì´ĿìĦł
Ġë¯¸ì³¤ ëĭ¤ê³ł
ìļ ¸ë¡ľ
ĠìĤ¬ ëĭ¨
ìķĪ ëĲĺê³ł
ëħĦ ëĵ¤ìĿ´
ëŀĳ ìºĲ
íķľíħĮ ëĤĺ
ĠìķĪëĲĺ ì£ł
ĠíĮĮ ë¦¬
ĠíĴĢ ê³ł
ì³Ĳë¨¹ ìĿĢ
Ġê·¼ë³¸ ìłģìĿ¸
.... ?
ĠìĿĺ íķ´ìĦľ
Ġê³Ħ ê¸ī
ĠíĨµ ìŀ¥
ìļķ ìĭ¬
Ġê²½ì°° ëıĦ
ĠìĿ´ëŁ¬ ëĭĪê¹Į
Ġê¸°ëłĪê¸° ê°Ģ
êº ¼ì§Ģ
ëĭ ¿
ê³ł ë£¨
ĠìŀĲ ë°±
Ġë¬¸ ëĭ¤íĺľ
Ġê²½ ê°ģ
ìŀħ ìĭľ
Ġë¶Ī ìĿ´
20 19
ĠëĦĲ ë¦¬
ĠëĬ¬ ëĵ¤
ĠìĤ¬ ìĥģìĿĦ
Ġë°Ķ ë³´ë
ĠëĲĺ ëĬĶê±´ê°Ģ
ìĦĿ ë°©
Ġëª° ìĥģìĭĿ
Ġë¯¸ëŀĺ ìĹĲ
) )
ĠëĤĺ ê°Ģì§Ģ
ìĸ´ë ¨¸
Ġì£¼ ë§ĲìĹĲ
ì¡°ìĦł ìĿ´
Ġë°Ľìķĺ ëĭ¤ê³ł
Ġë¯¸íĨµ ëĭ¹ìĿĢ
ĠëĤĺëĮĢ ì§Ģ
ëĲĺ ìĹĪëĬĶëį°
Ġë°© ìĤ¬
ì²ł ìłĢíŀĪ
Ġë¯¸ì¹ľ ì§ĵ
ëĤĺë³´ëĦ¤ ìļĶ
ĠìĺĨ ì§ĳ
ĠëįĶëŁ¬ ìļ´ë
íĩ ĺ
ë ī
ĠìķĪ ëĤ´ê³ł
ĠìľĦ ìĦ±
Ġë¶Ī íĥľ
ìĭľíĤ¤ ëł¤ëĬĶ
ĠëĨĢ ìķĦëĿ¼
Ġìļ©ìĦľ ê°Ģ
ĠìĺĽëĤł ìĹĲ
ãħ ĥ
ëĿ¼ ê³¤
ìĤ ´ë©´ìĦľ
ìĬ¬ ë¦¼
Ġë©Ķ ìĦ¸
ìĪĺì¤Ģ ìĿĺ
Ġë©įì²Ń ìķĦ
Ġëħ¼ë¦¬ ëıĦ
Ġë¶Ģì¡± íķ´ìĦľ
Ġë°ľìĥĿ íķľ
ë©´ëĲ ł
Ġê¸°ìĥĿ íķĺëĬĶ
ìĿĢ íĩ´
ì£¼ ëĭĪê¹Į
íķĺëĬĶ ìĤ¬ëŀĮ
ì¤ĳ ê·¼
íĻĶ ë²ķ
ë¹Ħ íķĺ
ĠìķĮ ìĸ´
Ġì§ĵ ë§Į
ĠëıĮìķĦ ìĺ¬
Ġìĸ¸ìłľ ëĬĶ
ĠìĹĨìķł ìŀĲ
Ġìº¡ ì³Ĳ
Ġíķĺ íĸ¥
Ġì¹ľìĿ¼ ë§¤êµŃëħ¸
ìĻĶ ê³ł
ĠëĤĺìĺ¨ ê±°
Ġìĭ¤ë§Ŀ ìĿ´ëĭ¤
ĠíĮĶìķĦë¨¹ ìĿĦ
Ġê°ľë°ķ ìĤ´
ìĹĲ íĺĢ
ê°Ķ ëĭ¤ê³ł
ëĮĢíķľë¯¼êµŃ ìĹĲìĦľ
ìķķ ìĪĺìĪĺìĥī
Ġë¯¸ë ĶĶ
ìĮ ©
Ġëħ¼ëŀĢ ìĿ´
ä ½
Ġíķľ ìŀ¥
ìķŀ ìŀ¡ìĿ´
ĠëıĦëįķ ìĦ±
ìĿ´ ì§ķ
ĠëĮĢíĨµëł¹ ìĹĲ
Ġë¹¨ ìķĦëĿ¼
Ġì¹ĺ ë¤Ħ
ĠìŀĲìľł ëĬĶ
Ġë´Ĳ ìļĶ
Ġê°Ģì¡± ëıĦ
Ġê¹ĢìłķìĿĢ ìĿĢ
ë©į ë©į
ë§Ľ ìĹĲ
ìķĦìĿ´ êµ¬
ìĽ ¬
ìĹĪ ìŀĸìķĦ
ìĨį ìĿĦ
ĠìŀĪëĬĶ ê±¸
ëħ¸ ëĭµ
ĠìĤ´ìķĦ ìŀĪ
ĠìĤ¬ê±´ ìľ¼ë¡ľ
ĠëĬĲëģ¼ ê²Į
ëįĶëĿ¼ê³ł ìļĶ
Ġê°ľ êµ¬ëĿ¼
ìĸ´ë ª¨
ĠëĭĪ ê°ĻìĿĢ
ĠìĨĮ ë¬¸
íĤ¤ ìļ°ëĬĶ
ìķ½ ìĿ´
Ġìķķ ëĭĪëĭ¤
ĠíĻľ ê°ľ
ìļĶ íĥĢ
íķł ê¼¬
ìĪ ©
Ġë¶ģ ê´´ë
ĠíķĦìļĶ ëĬĶ
Ġê¸°ìĪł ìĿĦ
ìķĦ ëĵ¤ìĿĢ
Ġì§Ģ ë¦Ħ
Ġë³´ ê¸ī
Ġê±° ë¥´ëĬĶ
ĠìķĬ ëĭ¤ê³ł
Ġìĺ¤ ëŀ«
ìĿ¼ë³¸ ê³¼
ĠíĮĶ ìĿ´
Ġê´Ģìĭ¬ ìĹĨê³ł
Ġê²°íĺ¼ íķ´ìĦľ
ĠëĤĻ ë§Ī
ĠìļĶêµ¬ íķĺëĬĶ
ĠëĶ´ ì§Ģ
Ġìłķ íĨµ
Ġì§Ģ ì¼°
Ġíķľ ê±´ëį°
ĠëĶ° ìľĦê°Ģ
ìı ´
ìĭł íķľ
ì¡° ìĦ¼ì§ķ
ĠìłĢ ìłķëıĦë©´
íķ´ìĦľ ëĿ¼ëıĦ
Ġì¶© ìĭ¤
ĠìĭĿ ìĿĺ
Ġê·¸ëĤĺ ë¬¼ìĹĲ
Ġíĸ¥ íķľ
Ġë¬¸ìĬ¬ëŀĮ ëĵ¤
ëĦ¥ ìħĺ
êµ ¶
êµ ¼
Ġìĺģ ë³Ģ
ëıħ ìĿ¼
ì¶© ëĵ¤ìĿ´
ë¿Ĳ ìĿ´ì§Ģ
Ġëĭ¤ìĿĮ ìĹĶ
íĪ ¼
ê´Ģê´ĳ ê°Ŀ
ì²ĺ ë¨¹ëĬĶ
Ġìĭł ì²´
ìĦ¸ë §Į
ĠìĪĺì¤Ģ ëıĦ
Ġíĺ¸ ìľĦ
Ġë§ŀëĬĶ ëĵ¯
ìĿ½ ê³ł
ìŀĲìĭł ìĿĺ
ìĿ¸ ëĵ¤ìĿĦ
Ġëĭ¤ ìķĪëĭ¤
Ġë¬¸ ìłķê¶ĮìĿ´
ìĹĨ êµ¬ëĤĺ
ĠëĪĪ ëıĦ
Ġíį¼ ë¶ĵ
ĠëĭĪëĵ¤ìĿ´ ëĤĺ
ĠëĲĲ ëĭ¤ê³ł
Ġëª°ìķĦ ëĤ´ê³ł
Ġëº Ĳ
Ġs k
Ġë§ĲìĶĢ ìĿĦ
ĠëłĪ ìķĮ
íķł ë§Įíķľ
ìĨį ìĿĢ
ë°ķ ìĤ¬
ĠìĿ¸ê°Ħ ëĵ¤ìĿ´ëĭ¤
Ġë°© íĮ¨
ĠíĺĦ ì§Ģ
Ġì¹ľìĿ¼ ìĿ´
Ġìŀĳ ê¸ĪìĿĺ
Ġíķľìĭ¬ íķĺëĦ¤
ì¤¬ ëĭ¤ê³ł
Ġë¨¹ìĹ¬ ìĤ´ë¦¬
Ġìĥ ĺ
ê»ĺ ìĦľëĬĶ
ĠìĬ¹ ìĿ¸
ìĤ´ìķĦ ìŀĪëĬĶ
¸Į ëĿ¼
. ^^
ì£¼ ê°Ħ
Ġë§Ĳ ìĿ´ëĿ¼ê³ł
Ġì¤ Į
ĠìĿ¸ ì§ĢëıĦ
Ġëª» ëĶ°ëĿ¼
ĠíķĺëĬĶ êµ°
ëĳĲ ë²Ī
Ġì¢Ģ ë§Į
ĠìĥĪ êºĦ
Ġê³Ħ ì§ĳ
Ġíĥľ ë¸Ķë¦¿
ĠìĦłëıĻ ê¾¼
ë¯¸ë §Į
ĠêµŃìłľ ìłģìľ¼ë¡ľ
ĠíĥĪë¶ģ ìŀĲ
å ¤
ìĺĢ ëĬĶì§Ģ
Ġìłķê¶Į êµĲì²´
¸ëĮĢ ê¸°
ĠíĺĦìĭ¤ ìĹĲ
ĠìĿ´ê±° ëĬĶ
Ġìĭ«ìĸ´ íķ©ëĭĪëĭ¤
Ġëĵł ê²Į
Ġê³łìľĦ ì§ģ
ĠìķĦ ëģ¼
ĠëĦĪ ë³´ëĭ¤
Ġê°Ļ ëįĺëį°
Ġì¢Į ë¹ł
íĶĦ ëŀĳìĬ¤
ì¡Į ëĤĺ
Ġë²ł ëĦ¤
ĠëĨĴ ê²Į
ìĦ¸ìĥģ ìĹĲìĦľ
Ġì¢ĥ ë¶Ī
¸ë° °
Ġì§¤ ëĿ¼ëĿ¼
ê³łìľł ìłķ
ëĭĪ ìĬ¤
ĠìĿ´ ìłķ
ĠìĤ¬ ëħ¸ë§¹
Ġìĺ ´
Ġëĭ¨ ì²´ê°Ģ
Ġë´Ĳ ì£¼ê³ł
Ġìķ½ íĥĪ
Ġì¹¨ ë²Ķ
ë¨¸ë¦¬ ë¥¼
Ġë¿Į ë¦¬ëĬĶ
Ġê°Ģê²© ìĿĦ
ĠìĿ´ìĬĪ íĻĶ
ëĮĢ ëĿ¼
Ġì¡° ë¦¬
íĥĢ ìĿ´
Ġìĭ« ìĸ´ëıĦ
Ġì½Ķë¡ľëĤĺ ë°ĶìĿ´ëŁ¬ìĬ¤
ĠìĶ ©
Ġë²Ķì£Ħ ëĬĶ
Ġê¹ĢìłķìĿĢ ìĹĲê²Į
ĠêµĲíļĮ ìĹĲ
ìĿ´ ìĤ¬
ìķ¼ íķ©ëĭĪëĭ¤
ĠìłĦ êµĲ
Ġë§¤ ì£¼
ì¡°êµŃ ê³¼
Ġìłķ êµŃ
ìĭł ë¢°
íŀĪ ëĵ¤
Ġì°¨ ëĬĶ
Ġê¼¬ ë¶ķ
Ġë³Ģíĺ¸ ìĤ¬ê°Ģ
Ġêµ¬ìĹŃì§Ī ëĤľëĭ¤
ĠíĻĶìĿ´ íĬ¸ë¦¬ìĬ¤íĬ¸
íķľ ëªħ
ĠìŀĪëĬĶ íķľ
ë°ĺ ëĮĢë¡ľ
Ġë¬´ìĬ¨ ì§ĵìĿĦ
Ġê·¸ë§Į ëĳĲê³ł
Ġì²ĺìĿĮ ìĿ´ëĭ¤
ĠëĲĺìĹĪ ëĬĶì§Ģ
ĠìĶ¨ë¶Ģ ëł¤
Ġë°¥ë¨¹ ëĵ¯ìĿ´
ĠìĹ¬ì§Ģ ê»ı
¯ Ħ
Ĥ ´ëĿ¼
Ġìłķ ì§Ģ
Ġìŀ¬ ëĮĢë¡ľ
ë°Ľ ëĬĶê²Į
ìłĪ íķĺê³ł
ĠëĪĦêµ¬ ìĿ¸ì§Ģ
ëı Ķ
ê± ¸ëł¸
ĠìĿ´ë »
ë³´ êµ°
ì¤ĳ ê°Ħ
Ġìŀ¬ ìĿ¸
ë¡ł ìĿĦ
ê°ķ íĻĶ
ĠëĲľ ê²Į
Ġë§ĪìĬ¤íģ¬ ëĤĺ
ìĪĺìĤ¬ ê¶Į
Ġë¹ĦíĮĲ íķĺë©´
Ġê¼¬ëĿ¼ì§Ģ ë¥¼
ëĮĢ ë©´ìĦľ
ĠìŀĪ ê¸°ëĬĶ
Ġì¤ĳ ìĨĮ
Ġë¨¹ íŀĪ
Ġë§İìĿ´ ëĵ¤
íĪ¬ ìĦ±ìĿ´
ë¯¼ì£¼ ëħ¸ì´Ŀ
ê°ĳ ì§Ī
Ġë¯¼ì£¼ì£¼ìĿĺ ëĬĶ
ĠëĤ©ëĵĿ ìĿ´
Ġìĵ¸ëª¨ ìĹĨëĬĶ
ìĻĢ ìĿ´
ìľł ì£Ħ
ë²Ħ ë¦¬ìŀĲ
Ġì¡°ìĦł ìĿĺ
Ġê±°ì§ĵë§Ĳ ìĹĲ
ĠíĻĶê°Ģ ëĤľëĭ¤
ì£¼ ëĵ¤
íķł ê±°ëĥĲ
ëĬĶê±° ëĭĪ
ë°ľ ìĿĺ
Ġê°Ħ íĮĲ
ëĿ Ħ
Ġëª¨ëĳĲ ìĹĲê²Į
Ġì±ħìŀĦ ê°Ĳ
Ġì¢Įë¹¨ ëĵ¤ìķĦ
Ġì§Ī ìĿ´
ìĸ´ëĤ ´ë
Ġì§Ħìłķ ìĦ±ìĿ´
ĠìķĦëĬĶ ì²Ļ
Ġìļ°ìĦł ìĿ´ëĭ¤
ĠëĮĢì¤ĳ êµĲíĨµ
Ġìĸ´ëĸ¨ ì§Ģ
Ġëª» ì°¾
Ġë¯¸ ì³ĲìĦľ
ĠêµĲíļĮ ë¥¼
Ġê·¸ ê±¸ë
Ġê±° ëĮĢíķľ
ê´Ģ ëıĦ
ĠìľĦíķ´ ìĦł
Ġìłķìĥģ íĻĶ
Ġê°Ģì§ľëī´ìĬ¤ ë¥¼
ĠìĹ´ë ¶Ī
o re
ĠëĮĢ íĻĶê°Ģ
Ġë§Ĳ ê·¸ëĮĢë¡ľ
ìķĺ ìĿĦ
Ġíĸī ìľĦëĬĶ
Ġë°± ë§Į
Ġê°Ģì¡± ëĵ¤ìĿĢ
ĠìĹ¿ ë¨¹
ĠëģĿëĤ¬ ìĸ´
ëĮĢ ëĵ¤
Ġìĭľ ëħĢ
Ġì¤ĳ ì§Ģ
ìĭ¤ ë¡ľ
ë³ĳ ìĹĲ
Ġìŀĺëª» ëĲĲ
ìĸ¸ ìłł
Ġê¹ĢìłķìĿĢ ê³¼
ê²Ħ ì§Ģ
ĠìĥģìĨį ìĦ¸
. (
íķľ ê°Ģì§Ģ
ìŀĲ ëĥĲ
ĠìĿ´ ê¸°ê³ł
Ġê°ľ ìµľ
ìĥĿ ëıĦ
Ġë¯¸ ì²ĺ
ìĺģ ìĿ´
Ġë§¥ ëĿ½
ë³¶ ìĿ´
L G
ĠìĥĿ ê¸´ëĭ¤
Ġì²ł ìĥĪ
ĠìĬ¬ ì©į
ĠìĸĳìķĦì¹ĺ ëĵ¤
ìĦ° ëĭ¤
ë©´ ìĿ´
ìŀĲ ìĭłìĿ´
ìķ¼ ëıĻ
Ġëª¨ ë¦ħëĭĪëĭ¤
Ġíĺ ĵë°Ķëĭ¥
ĠìĹ¬ ê¸°ëıĦ
ìķł íĶĮ
ìĤ´ ìĹĲ
ë§ĮìĽĲ ìĿĦ
ĠíķĻìĥĿ ëĵ¤ìĿĢ
Ġë°ĿíŀĪ ë©´
ĠìĿ´ê¸¸ ìĪĺ
Ġì§Ģ ìĨĮë¯¸
ëª» íķ¨
ĠíĨµ ê³¡
Ġëķħ ìĹĲìĦľ
ĠíĻĶ ëĤĺìļĶ
Ġìĥģì²ĺ ë¥¼
ìĿ¸ ìĦ±
Ġë¶Ī ìĭł
ĠìĹŃ ìī¬
ê¼ ´ë³´
Ġë§ī ë¬´ê°Ģ
ĠìĪĺìĭŃ ëħĦ
ĠìĹ¬ê¸°ìłĢê¸° ìĦľ
ì£¼ ëł¤ê³ł
êµ¬ ëĭĪ
ì¹ĺ ì§Ģë§Ĳê³ł
Ġë§Ĳ íķ´ë´ĲëĿ¼
íĦ° ì§Ģê³ł
Ġë¬¸ìŀ¬ìķĻ ìķĦ
ìĹ´ ìĿĦ
íı¬ ìŀ¥
êº¼ ëĿ¼ê³ł
ĠëĲĺëĬĶ ì¤Ħ
Ġë¡ľ ë´ĩ
ĠíĮĲìĤ¬ ëĵ¤
Ġãħ Ħ
Ġê±° ë¥¸ëĭ¤
ëĵľ ìĭł
Ġìĺ¤ ëĦĪ
Ġ2 50
Ġë´Ĳ ì¤Ħ
Ġìĸ¸ìłľ ëĵł
Ġë¶ĪìĮį íķ´
ĠëĤ« ëĦ¤
ë°ĽìķĦ ìķ¼ì§Ģ
Ġì°©ê°ģ íķĺëĬĶ
ĠëłĪìŀĦ ëįķ
Ġíķĺ ìħĶ
ìĹħ ìĿ´
ĠëĤ¨ ìļ©
ĠëıĻ ê²°
ĠìķĪëĲĺ ê²Į
Ġìŀĺëª» íķ´ìĦľ
Ĥ´ ê³ł
ëĳĺ ëŁ¬
Ġìĺ® ê¸°
ì§Ģ ëĬĶê±°
ê²ĥ ê³¼
Ġìŀĺ íķľê±´
ê³µ ê³µ
Ġê²° ì§ĳ
ĠíĶ¼ ë¡ľ
ĠëĬĺ ê³ł
Ġì´Ľë¶Ī ìĿ´
ì§ĵê±°ë¦¬ ë¥¼
Ġëĭ¹ íķ´ìķ¼
Ġë§İ ì§Ģë§Į
ìĻĶ ëĭ¤ê³ł
Ġë³´ëĭ¤ ëıĦ
ĠìĿ½ ëĬĶ
Ġê¹Ķ ê³ł
íĿĶ ëĵ¤
Ġê³łìłķ ê°Ħì²©
ê¹Į ëĿ¼
Ġìĸ´ë ĳĲ
ì£½ ìĿ´ëĬĶ
Ġë¹ĦêµĲ íķĺë©´
ĠëĦ£ ìĸ´ìķ¼
ĠìłĦìĦ¸ê³Ħ ìłģìľ¼ë¡ľ
ĠíĹ¬ ê¸°
ë©´ ìĥģ
ìĭľ ê¸°ë¥¼
ìĦ± ë²Ķì£Ħ
ãĦ ¸
Ġë§ī ìľ¼ë©´
ì¦Ŀ ìĿĦ
ê³łìŀĪ ì§Ģ
ĠìĿ´ìķ¼ ê¸°ëĬĶ
Ġë¶Ģíĥģ íķ©ëĭĪëĭ¤
Ġê°ĸëĭ¤ ë¶Ļ
ìĿ¼ ìĿ¸ëį°
Ġë³´ ê±´ë³µ
ìĦĿ ìĹĲ
íĺķ ìĿĢ
ĠìĤ¬íĺķ ìĿ´
Ġëĭ® ìķĦ
Ġë¯¸ì¹ĺ ê²łëĭ¤
Ġìŀĺ íķ´ìķ¼
ĠëĤ¨ ê¸°
ĠìĦľ ë²Ħ
íķ¨ ìľ¼ë¡ľ
ĠêµŃë¯¼ëĵ¤ ê³¼
ĠëĦĪëĦ¤ ëĵ¤ìĿ´
Ġë¯¸ìĦ¸ë¨¼ì§Ģ ëĬĶ
ĠìĿ¼ë³¸ëĨĪ ëĵ¤
k bs
íķĺ ìħĶìķ¼
Ġë§Ĳ ê°Ļì§ĢëıĦ
Ġê·¸ ìĿ´ìĥģ
ĠìķĦëĭĪ ê¹Į
Ġê¸°ìĤ¬ ëĵ¤
Ġë°ĺëĮĢ ë§Į
ĠìŀĪìĹĪ ëĭ¤ê³ł
ĠìĹ¬ìĦ± ìĿĺ
ì§Ģë§Ĳ ìķĦëĿ¼
ĠëĽ° ìĸ´ëĤľ
ìĥģ ìĿ´ëĭ¤
Ġì³Ĳ ë§ŀê³ł
ê¼´ ìĿĦ
ĠëĬĺ ìĸ´ëĤł
Ġëª¨ìŀĲ ëĿ¼ìĦľ
ĠìĥīíŀĪ ëĵ¤
Ġíķĺ ê¸°ìĤ¬
Ġë¬¸ ìłł
ĠìĿ¸ê°Ħ ìľ¼ë¡ľ
Ġì¹ĺ ìļ°ê³ł
Ġë³¸ ìłģ
Ġê³łìĥĿ íķĺëĬĶ
ĠìłĦêµŃ ìłģìľ¼ë¡ľ
ê°Ģ êµ¬
ê°Ģ ëĿ¼ê³ł
ĠìĹ ´ëĿ¼
ĠëĮĢ ìķĪìĿ´
ĠìĹĨ ê¸°
Ġë°Ľ ìľ¼ë©°
Ġìļ© ìłĳ
Ġìļ± ìĿ¼
Ġë¶Ģ ëĶ
ĠëĭĪ ëĤĺ
ëĭµ ìĿ´
êº¼ ìł¸ëĿ¼
ë²Ķ ìľ¼ë¡ľ
Ġê¸Ģ ìİĦ
Ġìĭłê²½ ìį¨ëĿ¼
Ġìļ©ìĦľ ë¥¼
ĠëĤĺë¶Ī ëĤĺë¶Ī
ĠëĳĲë²Ī ëĭ¤ìĭľ
ê±¸ë¦¬ ë©´
ê²ĥ ë³´ëĭ¤
ìłģ ìĿ´ëĿ¼ê³ł
ì§ģ ëıĦ
Ġìŀħ ìĿ´ëĿ¼ê³ł
ĠìķĬëĬĶ ëĭ¤ëĬĶ
Ġë°ķìĤ´ë Ĥĺ
ĠíħĲ íĬ¸
Ġëªħìĭ¬ íķ´ëĿ¼
D P
ë³´ ìŀ¥
ê°ģ íķĺ
ìĺ¨ ê±°
Ġê²°ê³¼ ëĭ¤
ĠìŀĲêµŃë¯¼ ìĿĢ
Ġì§Ģê»Ħ ìĿ´ê³ł
a m
Ġìľ¤ ì´Ŀìŀ¥ëĭĺ
Ġì²ŃìĻĢëĮĢ ë¥¼
Ġë³´ìĹ¬ ì¤Ħ
ĠëĩĮ ë¥¼
ë¯¸êµŃ ìĿĺ
ðŁĴ ķ
Ġë¬¸ë¹ł ëĵ¤ìĿ´
ĠìĨĶ ë¡ľ
ìĹĲ êµ¬
ì¤ĳ ê³ł
Ġê±° ë©´
êµĲ ê°Ģ
Ġì¡°ìĤ¬ ëĬĶ
ĠìĦ¸ê³Ħ ìłģ
ĠìŀĪìĿĦ ê±°
ìĸ´ ìł¸
ê³¼ ìłķ
ĠìłĢ ê¸īíķľ
Ġìĺ¤ ëĿ½
ëª° ëŀĲ
Ġê¸°ì¤Ģ ìĿĦ
ĠìľłíĪ¬ ë²Ħ
ìĿ´ ì¦Ī
ìĺ Ľ
Ġê°Ģ ëŀĺ
Ġãħ Į
Ġìŀĺ íĸĪ
ìĺ¤ ìĦ¸ìļĶ
ĠëĲĺ ì§ĢëıĦ
ìĿ¸ë ¥ĺ
Ġë§Ŀ íķ´ìĦľ
Ġë²Ħ ë¦¬ì§Ģ
ĠíĨł ì§Ģ
ëĮĢêµ¬ ê²½ë¶ģ
Ġë¹ĦìĬ· íķĺê²Į
ë³´ëĤ ´ë
ĠíķľëĤĺëĿ¼ ìĿĺ
Ġíķĺ ëĵľ
ĠìĥĿê°ģ ìĿ´ëĤĺ
Ġê¹Ģ íĥľìļ°
ì³Ĳ ëĦ£
Ġ3 3
ĠìĹ° ì¶ľ
Ġë¬´ëĬ¥ ìĿĺ
Ġì§ĢìĽĲ íķ´
ĠìķĦëĬĶ ê°Ģ
Ġê·¼ê±° ë¥¼
Ġë° ŁìķĦ
íķł íħĮëĭĪ
Ġìĭ¤ ìĪĺë¡ľ
Ġìŀĺëª» íķľê±´
Ġì·¨ ìķ½
ĠíĭĢ ë¦¬
ëł¸ ìĸ´
Ġë§Įëĵł ê±°
ĠìķĬëĬĶ ëĭ¤ê³ł
Ġê·¸ëŀ¬ ìĸ´
ìĭľìłĪ ìĹĲ
ĠìĹĺ ë¦¬íĬ¸
ë¥´ ëĬĶê²Į
ĠìĥĪ ê²¨
íĺ¸ë ³µ
Ġì¡°ìĦłì¡± ëĵ¤
ê·¸ë§Į íģ¼
ĠìŀĲìľłëĮĢíķľë¯¼êµŃ ìĿĦ
Ġíķľ ì§ĵ
ĠìķĮ ë¦¬
ë²Į ê¸Ī
Ġë°° ìķĦíĮĮ
ĠëĮĵê¸Ģ ëª¨ìĿĮ
ĠíļĮìĤ¬ ë¥¼
ë¡Ń ê³ł
Ġë¶ĪìķĪ íķ´ìĦľ
Ġë²ķë¬´ë¶Ģìŀ¥ê´Ģ ìĿ´
Ġëħ¸ê³¨ ìłģìľ¼ë¡ľ
Ġì£¼ ìĤ¬
ĠìĿ´íķ´ íķĺê³ł
ĠëĮĢê°Ī íĨµ
ìĸ´ëł¤ ìļ´
Ġìĸį ìĤ½
ĠìŀĪ ëĭ¨ëĭ¤
ĠìķĪ ë§ŀëĬĶ
ĠìĤ¬ëŀĮ ëĵ¤ìķĦ
ê°ľ ìĶ©
Ġë§İ ëįĺëį°
ì°¨ ëªħì§Ħ
Ġë°ĺ ìĿĢ
Ġëĭ¤íĸī ìŀħëĭĪëĭ¤
ĠëĭĪ ëĨĪ
Ġì¤ĳêµŃ ì²ĺëŁ¼
Ġìłķì¹ĺ ë³´ë³µ
ĠíĮ¨ ë¥ľ
ìĥĿê°ģ íķĺëĬĶ
ĠëĵľëŁ¬ ëĤ´
Ġë¹ĦëĤľ ìĿĦ
ĠìĤĲ ëļ¤
Ġë§ŀì¶° ìĦľ
ĠìĻ¸ìłľ ì°¨
ł ´
ĠìĤ¬ ê±´ë
íķľê±° ëĦ¤
ìª½ ë°ľìĿ´
ĠìĿ´ë¯¸ ì§Ģê°Ģ
Ġìļ´ëıĻ ìĿĦ
ìľłìĭľë¯¼ ìĿĢ
ĠìľĦìĽĲ ìŀ¥
Ġì§Ģ ë§Į
ĠìĹĨ ëĭ¤ëĬĶê²Į
ĠìĪĺ ìĹĨìĿ´
ìĦĿ ëıĦ
ëĤ¨ ìŀĲëĵ¤
íĺķ ìłľ
Ġëĵ¤ìĸ´ ê°ĢëĿ¼
ĠìĽĥ ìĿĮìĿ´
Ġì§ĳëĭ¨ ê°ĲìĹ¼
Ġë¯¸ëŀĺ íĨµíķ©
ĠìĻĶ ìľ¼ë©´
Ġìłķëĭ¹ íķĺê²Į
!!!!!!!!!!!!!!!! !!!!!!!!!!!!!!!!
ìŀĲ ìłľ
Ġê³ ½ìĥģëıĦ
ĠìĹ¬ íĬ¼
Ġì£½ ìŀĲ
ê°ĻìĿĢ ê²ĥëĵ¤
ë°° ì¹ĺ
Ġë³´ëĤ´ ì§Ģ
Ġê·¸ëŀ¬ ì§Ģ
ĠìĿ´ìŀ¬ ëªħìĿ´
ĠìĿ¼ìĸ´ëĤĺ ì§Ģ
Ġì´Īê¸° ëĮĢìĿĳ
ê¸° ìľĦíķľ
ĠìłĢ ê¸ī
ĠëıĦ ê°Ģ
Ġìª½íĮĶ ëł¤
ë§Į ë³´ê³ł
ìĭľ íķĺê³ł
Ġìĭľ ì§ĳ
ìľł ì´īìĥĪ
ëĤ¨ ìĦ±
ĠìĺĪ ê²¬
ì°© íķľ
ĠíļĮ ìĽĲ
ĠìĿ¸ìłķ ìĿĦ
íĹĪ ëĭ¤
ĠìĤ¬íĺķ ìĭľì¼ľìķ¼
Ġëł Į
Ġë¯¼ ìĽĲ
ĠìĨĮ ìĪĺìĿĺ
íĿ °
ĠêµŃê°Ģ ë³´ìķĪ
Ġíĥľ íıīìĸĳ
ìŀ¥ê´Ģ ëĭĺ
Ġíķĺê¸° ìķ¼
ê¹ Ĭ
Ġíķľ ê±°ìķ¼
ìĭľíĤ¤ ëĦ¤
íĪ¬ ìĸ´
ê±°ì§Ģ ë¡ľ
Ġê°ĲìĦ± íĮĶ
ĠëĤ´ìĦ¸ ìĽĮ
íķĺ ë¦¬ëĿ¼
Ġë¶ īìĿĢ
Ġê°Ģ êµ¬
ê³Ħ ìĹĲìĦľ
ĠëĤ´ íĮ½
Ġìŀ¥ íķĻ
ĠìĦ¸ìĥģ ìĿĺ
Ġì°½ ìĽĲ
ëķħ ìĹĲ
Ġë£¨ ìłĢ
ĠìłĦ íĸ¥
íķł ê²ģëĭĪëĭ¤
Ġìłľ ìķĪ
Ġìłľ ëıĦë¥¼
Ġê³ł ì¶Ķ
Ġìĭ¤ ì¢ħ
Ġë½ĳ ìķĦëĿ¼
ĠìĤ¬ê¸° ì¹ĺê³ł
ìĦłê±° ë²ķ
ĠëĲĲ ëĥĲ
ìĿ¸ê±° ê³ł
ĠìĺĪë°° ë¥¼
Ġíķ´ëĮĢ ê³ł
ìĥ Į
ê²ł ëĭ¨
ìĭ¬ ì§Ģìĸ´
ĠìĦ± ì°°
Ġìĭ¤ ìĦ¸
Ġê¸°ìĤ¬ ì¢Ģ
ìĺĢ ëĭ¤ëĬĶ
ĠìłĪ ë¡ľ
ê¹Ģ ìłķìĪĻ
Ġë³´ìĪĺ ê¼´íĨµ
ĠíĻĺ ë¶Ī
ĠíĥĪ íĩ´
ĠëĮĢê°Ģë¦¬ ëĬĶ
© į
ë¶Ģ íĴĪ
ĠìĿ´ë ŀĳ
ĠêµŃë¯¼ ëĵ¤ìķĦ
Ġë¯¸êµŃ ìĿ´ëŀĳ
ĠìĺĪ ë¯¼
Ġëĳĺ ìĿĢ
Ġê°ĩ íĺĢ
ëĿ¼ ëĦ¤
ìłģ ìĿĺ
Ġê°ľ ëı¼
Ġê²ĥ ìĿ´ëĥĲ
Ġíŀĺëĵ¤ ìĸ´ìĦľ
ĠìķĪë³´ ìĿ´ëĤĺ
Ġíĺķ íĥľ
ĠíķĺëĬĶì§ĵ ìĿĢ
Ġë¬¸ëĮĢíĨµëł¹ ìĿ´
ìĹĲ ëĿ¼
ë§Į ëĵľ
ëĭ¹ ìĿ´ëĤĺ
ëĭ¹ íķ´ëıĦ
Ġíķľ ìĪľê°Ħ
ìĹ¬ ê¸°ëĬĶ
ìĨĮ ë°©
Ġë§Į ë§Įíķľ
ĠìĿ´ëŁ¬ ëĭ¤ê°Ģ
ĠëĶ± ë´ĲëıĦ
ìļ¸ë ¿Ĳ
ĠíķĺëĤĺëĭĺ ìĿĦ
Ġæ ĸĩ
ĠìµľíĽĦ ìĿĺ
Ġë¬¸ ì©Ŀì©Ŀ
ëĿ¼ê³ł ìļĶ
Ġìĵ° ë¦¬
íĶĮ ë£¨
Ġì§ĳìķĪ ìĿ´
ĠìłķìĿĺë¡Ń ê³ł
ĠìĤ¬ëŀĮ ìĿ´ëĿ¼ê³ł
ê·¸ë ĮĢ
ìľł ë¦°
ì£Ħ ìĨ¡
Ġìĺģ ìĦ¸
ìĪľ ê°ĦìĹĲ
ĠëĳĲ ë°°
ìĪĺìĤ¬ ë¥¼
ë¶Ģ ìĪĺ
Ġê·¸ ìŀĲì²´
Ġëª¨ ê¸°
ìķĪ ìłķ
ê·¸ë łĪ
Ġëĭ¹ íķľëĭ¤
Ġì¤ĳêµŃ ê°ĢìĦľ
ĠìĹ° ë§Ĳ
Ġëľ» ìĿ´ëĭ¤
ìŀĲ íķľíħĮ
ìĸ´ë ´
ìĹĪ ëĭĪ
ìłĢ íĿ¬
ìĵ° ëĬĶê±°
Ġìĺģ ë¶ĢìĿ¸
Ġë³´ê³ł ë§Į
Ġìĭłì²ľì§Ģ ëĤĺ
ĠìĿ¸ë ªħ
Ġëħ¸ëł¥ íķĺëĬĶ
ĠíĽĦìĨĲ ëĵ¤ìĿ´
Ġì§Ħëĭ¨ íĤ¤íĬ¸
Ġë¬¼ìĸ´ë³´ ê³ł
ìĹ¬ ëªħ
ë¹Ħ ìĭ¼
ĠíĺĦ ìĹŃ
ìĹ´ ê³ł
ĠìĪĺì¤Ģ ìĿ¸ëį°
Ġê¶Į ìľĦ
Ġë¹¼ ìķ¡
Ġs id
ìĹ´ë ³ĳ
ãħĮ ãħĮ
ê¸° ëħĲ
Ġìŀ¬ ê³ł
ìĭľíĤ¤ ìķ¼
Ġì´Ī ì²Ń
Ġë°± íĶĦë¡ľ
Ġê¼´ ìĹĲ
Ġìĸ´ëł¤ ìļ¸ëķĮ
ìĿ´ ìĸ¸
ìĿ´ ì¯¤
Ġíķĺ ì°®
Ġê°ľ ìłķìĿĢìĿ´
ĠìłĢ ìłĪë¡ľ
íķ´ë °©
Ġì§Ģê¸Ī ìĻĢìĦľ
ëĤ´ë ŀĢ
ë§ĮìĽĲ ìľ¼ë¡ľ
Ġê¸Ģ ìĵ´
ìµľ ê·¼
ì§Ģì§Ģ ìŀĲëĵ¤
Ġë¹ĦíĮĲ íķĺê³ł
Ġë¯¼ì¡± ìĿĦ
Ġê¹¨ëģĹ íķĺê³ł
ê·¸ë§Į íķĺê³ł
ìĿ´ ëĵĿ
ëĭĪ íĭ°
Ġê° Ń
ìĭľ íĤ´
Ġìłķ ëħķ
íĺ ¸ëĤĺ
Ġíķľ ìŀĶ
Ġê·¸ ê²ĥë§Į
ĠìĦł ìłľ
Ġë¬¸ìłľ ìĿ¸ì§Ģ
¸ëł ¹
ĠìĨį ëĬĶ
Ġê·¸ë§Į íķĺìŀĲ
ĠìĦ¤ ëł¹
Ġëĳĺ ë¡ľ
ĠëĮĢíĳľ ë¡ľ
ĠëĤĺìĿ´ ëıĦ
ĠìľĦíĹĺ íķĺëĭ¤
ĠP C
? .....
e t
Ġë§Ĳ êµ¬
ĠìĤ¬ëŀĮëĵ¤ìĿ´ ëĭ¤
Ġë¬´ìĦŃ ëĦ¤
Ġë» Ĺ
ì»¤ íĶ¼
ê½ Ĥ
Ġë¹¨ê°ľ ìĿ´
Ġì¡°íĺĦ ë³ĳ
Ġë¶Īë¡ľ ìĨĮëĵĿ
ĠìĿ´ë ²¤
ĠìŀĲê¸° ë¥¼
Ġíĺ¸ ê¸°
Ġë¹¼ ëĿ¼
ì²´ë §Į
ìĸ´ëĤ ´ëł¤
ë¬¸ìŀ¬ìķĻ ìĿĺ
ĠëĶ´ ìĨĮë¦¬
ìĹŃëĮĢ ê¸ī
ĠìĿ´ëķħ ìĹĲìĦľ
ë¯ ¹
ĠìĤ¬ ìĤ¬ê±´ê±´
Ġë¬´ ìĭł
ìĨĮ ëıĦ
íĦ° ì§Ģê²Į
ĠìŀĪëĬĶ ê²ĥëıĦ
Ġê°ķ ìļ©ìĦĿ
Ġìĭ¤ ë¬´
íĶĦ íĬ¸
ê·¸ ëĵ¤
íı¬ ë¥¼
Ġìŀ¥ê´Ģ ìĹĲ
Ġìĺ¤ëĬĺ ëĤł
Ġì²ĺìĿĮ ë³¸ëĭ¤
ë³´ëĤ ¼
ìĸ´ì© ľ
Ġì£¼íĬ¹ ê¸°
Ġì§Ģ ëªħ
Ġì° ľ
ìĺ¤ ìĦ¸íĽĪ
ìłĢ ëĿ¼
Ġëħ ¸ë¬´
Ġê·¸ëŁ´ ê¹Į
Ġëª°ëŀĲ ëĭ¤ê³ł
ìĬ¤ëŁ¬ ìļ¸
ĠM B
Ġíį¼íĬ¸ë ¦°
Ġë Ĺ
Ġëĭ Į
ĠìĻľ ìĿ´ëŀĺ
ĠìķĬ ìľ¼ë©´ìĦľ
Ġêµ¬ íķĺê¸°
íĥĢ ëĭ¤
Ġë°ľ ìķĶ
Ġë¬¼ ìĿ´
Ġì³Ĳ ë¨¹ëĬĶ
ëĭ¤ê°Ģ ëıĦ
ĠëĴ¤ ë¥¼
ĠíļĮ ìĭĿ
ĠíĮĮíĹ¤ ì³Ĳ
´ë §Į
ê¸°ìĹħ ìĿĢ
ĠíĻĺ ìľ¨
Ġíķµ ë³´ìľł
Ġë§ĺ ê»ı
Ġë°ĶëĿ¼ ë³´ê³ł
ĠìĤ¬ ë£Į
ìłķ ê²½
ĠêµŃë¯¼ ìľ¼ë¡ľìĦľ
ĠëĲĺ ê¸°ë¥¼
Ġêµ¬ ì¹ĺ
ĠëĶ° ë¥´ë©´
ĠìĬ¹ ì§Ħ
Ġë¬´ëĦĪ ì§Ī
Ķ° ë¦¬
Ġì§ĳìĹĲ ê°ĢìĦľ
ê¸°ê´Ģ ìĿ´
ĠëĳĲë²Ī ì§¸
ĠìĿĺëıĦ ìłģìľ¼ë¡ľ
Ġíĺ¸ ì¹Ń
Ġëī´ìĬ¤ ìĹĲìĦľ
Ġìłĳ ìĨį
ĠìĤ½ ìĤ´
ĠíĢ ´
ìľ¼ ìĿ´êµ¬
ĠìĿ´ ìľ¤
ĠìĤ¬ëŀĮ ìĿ´ëĤĺ
Ġë¶Ī ì°¸
ì£¼ìĿĺ ë¥¼
Ġìŀĺëª» ìĿ´ëĭ¤
Ġì§ĳëĭ¨ ìľ¼ë¡ľ
Ġë°ĿíĺĢ ì§Ģë©´
ĠìĹĨìĹĪ ê³ł
ìķĮë°Ķ ëĵ¤
íĮ©íĬ¸ ëĬĶ
Ġê°ĪìķĦ ìĹİ
êµŃ ê°ĢëĬĶ
ĠëĮĢ ëĬĶ
Ġì§Ħ íĻĶ
Ġìļ°ë¦¬ ëĤĺ
ëĤ´ë Ħ¤
ĠìĿ¼ì£¼ ìĿ¼ìĹĲ
ìŀĲ ì£¼
ĠëĮĢíĨµëł¹ íķľíħĮ
Ġê°Ĳ íĺķ
ĠìķĶ ìłģìĿ¸
Ġë°Ľìķĺ ëĬĶëį°
ĠêµĲê³¼ ìĦľ
ĠìĹĨ ìľ¼
íķľëĭ¤ ë©´ìĦľ
íķĺëĬĶê±° ë³´ë©´
Ġì°¾ ìĿĦ
Ġì» ¸
ëĤĺ ìķ¼
ĠëĮĢ ìĤ¬
Ġê¸° ìĥģ
ë¹Ħ ìĬ·
ë²Ħ ë¦¼
ĠëĦĺ ìĹĪëĭ¤
ĠìĿ´íķ´ ìķĪ
ĠìľĦíĹĺ ìĹĲ
Ġìĥģíĥľ ë¡ľ
Ġì¢Ģë¹Ħ ëĵ¤
Ġìĸ´ëķĮ ìĦľ
Ġë³´ ì¦Ŀ
Ġê´Ģ ìłľ
Ġì¢ħ ìŀĲëĵ¤ìĿ´
ë¦´ ëĵ¯
ĠìķĶ ë§Į
ĠëĪĪì¹ĺ ë³´ê³ł
Ġìłĳ ëĮĢ
ĠëĤ¨íİ¸ ìĿĢ
Ġì§ĲìĬ¹ ë§ĮëıĦ
Ġëį¤ ë¹Ħ
Ġíķłì¤ĦìķĦ ëĬĶê²Į
Ġê°Ģ íĺ¹
Ġë¬´ ì£¼íĥĿ
ê²½ìłľ ìĹĲ
ĠëĤ¨ìĿĺ ëĤĺëĿ¼
Ġì·¨ê¸ī íķĺëĬĶ
ĠíĿĺ ëł¤
Ġì«ĵ ê²¨
ì§Ģ ëł¹
ìĦ ŀ
íķľ ëĭ¨ëĭ¤
ëıĦ ëıĦ
ì¡° ìĶ¨
Ġë¹ł ì§Ģê³ł
Ġë¹ĦëĤľ íķĺê³ł
Ġì¿ ¨
ëĵ¤ ìĹ¬ìĦľ
ĠêµŃë¯¼ ìķŀìĹĲ
ìĹĪ ëĭ¤ê°Ģ
Ġìĭ¬ íķ´
Ġë³´ë Ŀ¼ê³ł
Ġìĭľìŀĳ íķĺë©´
T O
Ġ ,,,,
Ġëĭ¹ íķ´
ĠìķĮ ê²ł
Ġíķł ìĪĺëıĦ
Ġì°¨ ìĹĲ
íĮĶ ìķĦìĦľ
Ġê°Ī ìķĦì¹ĺ
Ġìłķìĥģ íļĮëĭ´
Ġë» Ĳ
ìĸ´ë¦° ìĿ´
ìķħíĶĮ ëŁ¬
ĠìĿ´ë» Ĳ
ĠêµŃ ê²©ìĿ´
ðŁ ¥
ĠíĻĶ íĴĢìĿ´
ĠëıĪë²Į ìĸ´
ë¹Ļ ìĭł
ĠìĿ´ë§ĮíĿ¬ ê°Ģ
Ġë¬µë¬µ íŀĪ
Ġê°Ģ ë©´ìĦľ
Ġë¯¸ ê¾¸ëĿ¼ì§Ģ
ĠëĲĺ ì§ĢìķĬ
Ġìĵ° ëįĺ
Ġëª¨ëĵł ê²ĥìĿ´
ìĦ¸ëł¥ ëĵ¤ìĿ´
Ġê´ĳíĻĶë¬¸ ìľ¼ë¡ľ
ìĦ¸ëĮĢ ê°Ģ
Ġì²« ë²Īì§¸
ĠëĦĪê±° ëĵ¤
ĠìĨĲê°ĢëĿ½ ì§Ī
ĠíĿ¡ ìĹ°
? ^^
ĠìķĪ ë¯¼ìĦĿ
ĠìŀĲê¸° ë§Į
Ġëĺ¥ ìĿ´
ĠìŀĪëĤĺ ë³´ëĦ¤
ìĦ¸ëł¥ ìĿĺ
ĠìĥģìĭĿ ìĿĦ
Ġë§Ĳ íķłìĪĺ
Ġë²ķ ìĿ´ëĭ¤
ĠìĦ± ìĨĮìĪĺ
Ġ3 2
Ġìĸ¸ë¡ł ìĿ¸
ĠíķĦìļĶ íķ´
Ġìĭľë¯¼ ìĿĺìĭĿ
ĠíĨłì°©ìĻľêµ¬ ëĵ¤ìĿ´
ìĿ´ìĹĪ ìĸ´
Ġë¶Ģë¶Ħ ìĿĢ
Ġìĸ´ë§Īìĸ´ë§Ī íķľ
ëĭ¤ ê°Ħ
ĠìķĦ ìĭľëĬĶ
ëĮĢ íķĻìĥĿ
ë¥´ ìŀ¥
ëĵ± ìĿĺ
ĠìĦ± ì§Ģ
Ġê·¸ëŁ° ìĨĮë¦¬
ìĭľê°Ħ ëıĻìķĪ
Ġêµ¬ìĨį íķĺê³ł
Ġê°Ģì§ľëī´ìĬ¤ ëĿ¼ê³ł
Ġë¹Į ë¯¸ë¡ľ
ìłķìĪĺ ê¸°
ĠìĦ¹ ìĬ¤
Ġë²Ķë²ķ ìŀĲ
Ġíķĺ ëĵłê°Ģ
ë§Ĳ ìŀĲ
ìĹ¬ ê²½
Ġê¸°ìĤ¬ ëĥĲ
Ġìŀ¡ ì§Ģ
ĠëĲł ìĪĺëıĦ
ĠìĿ¸ë §¥
Ġì²ĺìĿĮ ìĹĲ
50 3
Ġëħ¸ì¡° ëĬĶ
ĠìĭľìľĦ ë¥¼
Ġëĭ¹íķĺê³ł ëıĦ
ĠA I
Ġì£¼ìĿ¸ ê³µ
ëĭ¤ë¥´ íģ¬
, ...
ĠìŀĪ ê²łëĦ¤
íķł ê±°ìķ¼
ìĤ° ë¶Ī
ë²Ħ íĭ°
ë¬¸ìŀ¬ìĿ¸ ëıĦ
ðŁĺ į
ĠìĦĿ ê³łëĮĢ
ĠëĮĢìļ° ë¥¼
ĠìĹ°ëıĻ íĺķ
ìĿ¼ ì¹ĺ
Ġê²° ìłķìĿĦ
Ġê°Ģì¡± ìĿĺ
ë¯¸êµŃ ëıĦ
ĠìĤ´ìĿ¸ë ²Ķ
ìķĦì¹¨ ë¶ĢíĦ°
Ġë³´ ê¸°ìĹĲ
ìĤ° ìľ¼ë¡ľ
Ġë°ķ ìĤ´
ĠìŀĲê¸° ìĿĺ
ĠíĻĶ ìĽ¨
ĠìĦ¤ ë¦¬
Ġë³´ìĪĺ ìļ°íĮĮ
ĠìĿ´ ìĻĢ
ê²½ íĺĳ
Ġìĭł ëĤ¬ëĦ¤
ì§ĵ ëĬĶ
ìľ¤ ì§Ģìĺ¤
Ġìľ¡ ê°ĳ
ĠíĿĳ ìŀĲ
Ġìĸ´ë¥¸ ìĿ´
ĠìĺģìĽħ ìĿ´
Ġo ut
ĭ ëĵł
ì§Ģ ê²Ģ
Ġìŀĺ íķĺê³łìŀĪ
ë¯¸ íķĦ
Ġìĵ° ìŀĺ
ĠìŀĪìĹĪ ì§Ģë§Į
ë¡Ģ ê°Ģ
ĠãħĪ ê°ĻìĿĢ
ì¸¡ ê·¼
æ ľ
ìĿ´ ì¤ĳ
ëĤĺ ê°Ī
ê¸° ëĵ¤ìĿ´
ĠìĦ¸ ê²Į
Ġë¯¸êµŃ ì²ĺëŁ¼
Ġê¼´ ê°Ĵ
ĠìłĢì§Ģ ë¥´ëĬĶ
Ġë¬´ëĬ¥ëł¥ íķľ
ìĿ´ ëĬĶê²Į
ĠìķĬ ê²łì§Ģ
Ġì¡°êµŃ ìķĦ
Ġìĭ¤ ëł¥ìĿ´
ë¡Ģ ë¥¼
Ġëī´ìĬ¤ ëıĦ
ĠëĤľë¦¬ ëıĦ
7 7
Ġê±° ëŀĳ
íĸī ë³µ
ĠëıĦ ì°Ĳê°ľì°Ĳ
Ġê°Ķ ëĥĲ
ĠëĦĺìĸ´ ê°Ħ
Ġê²½ìľł ì°¨
ìĿ´ ìĥĪ
ëĭ¤ ë§Į
ìĪĺ ìļ©
ìĪĺ ì²©
ĠìĿ´ë ¶Ģ
ìĦ¸ ìļ°ê³ł
Ġìĥģ íĺ¸
Ġíĥľ ìĺģíĺ¸
Ġì±ħ ìĿĦ
Ġì§Ī ëŁ¬
Ġìį© ìĹĪëĭ¤
ëĦ ī
Ġíķĺ ê²łìĬµëĭĪëĭ¤
ĠìĤ¬ ì§Ģë¡ľ
ĠìłĢ ëĶ°ìľĦ
ìĿ´ëĿ¼ ëįĺëį°
Ġë¶Ħ ëĭ´
íı¬ ë¨¼
ì¹¨ íķ´
ĠìĿ´ìŀ¬ ìļ©ìĿ´
ëĭ¤ ëĬĶê±°
ê¸° ë¶Ħ
Ġë³´ ìĿ´ëĭĪ
ĠìķĦëĭĪ ìĹ¬
Ġê±° ë¶ģ
Ġíĸī ìłķë¶Ģ
Ġìĸ´ëĶĶ ëĥĲ
ĠëĴ¤ ëĬ¦ê²Į
ëĤ´ë ł¤ê³ł
ĠìĤ´ë Ŀ¼
ĠìĹ¬ìĦ± ëĭ¨ì²´
Ĥ´ë ¯¸
ĠìĹ ´ë¦¬
ìĿĮ ëª¨
ĠìĿ´ëŁ° ê²ĥ
ê²© ì°¨
Ġëĭ¬ ëĿ¼ëĬĶ
ìĤ¬ê³ł ê°Ģ
ëħ¼ ëŀĢ
................ ................
ĠëģĬìŀĦ ìĹĨìĿ´
ĠìŀĲ ìŀĳ
íļĮ ê°Ģ
ë²Ħ ëł¸ëĦ¤
ì¦Ŀ ê°Ģ
íķĺìĹ¬ ìķ¼
Ġì°© íķľì²Ļ
ĠëĤ´ìļ© ëıĦ
Ġë¬¸ìłķê¶Į ìĿĢ
ëĤĺ ëŀı
ĠìĿ´ íĸī
ëĲľ ê±´
ĠëĲł ê¹ĮìļĶ
ĠìĽĥ ê¹Ģ
§Ī ì§Ħ
ëĬł ëĵ¤
ĠíĹĮë²ķ ìŀ¬íĮĲ
Ġìľł ìķĦ
ĠíķľêµŃ ìĿ¸ëĵ¤ìĿ´
ê²¨ ìļ¸
Ġê²°íĺ¼ ëıĦ
ĠìĽħ ìķµ
ĠíĽĦìķĪë¬´ ì¹ĺ
ëħĦ ìķĪìĹĲ
ĠìĿ´ëŁ° ê²ĥëĵ¤ìĿ´
Ġêµ¬ íķľë§Ĳ
Ġíķ© ëĭ¹íķľ
ëıĮ ëĮĢê°Ģë¦¬
Ġìķķ ë¥ĺ
Ġê¸ī íķĺê²Į
Ġë¬´ëĦĪ ì§Ħ
ĠìĿ¼ë³¸ê³¼ ìĿĺ
Ġìĭłê²½ìĵ° ì§Ģ
Ġëºĳ ìĨĮëĭĪ
ìĸ´ëĶ ľ
ìŀĲ ë£¨
ĠíķĺëĬĶ ê²ĥìĿĢ
Ġìķł ë§¤
ê·¸ëŁ¬ ë©´ìĦľ
ì¤¬ ëįĶëĭĪ
Ġê³µìłķ ê³¼
ĠëĺĲëĿ¼ìĿ´ ëĵ¤
ĠìĿ¼ ìĿ´ê³ł
ìŀ¥ íķĻê¸Ī
ëĤ¨ ìŀĲëĬĶ
Ġë°© íķĻ
Ġì§Ģì¼ľ ì£¼
Ġíļ Ł
ĠìĿ¼ìĸ´ëĤĺ ìĦľ
Ġì²ľë²Į ë°ĽìĿĦ
Ġê½ĥ ë±Ģ
ì§Ħ ìķķ
ìľł ìĥģì¢ħ
Ġì£¼ ìŀħ
ĠìķĮ ê¹Į
ĠìĦł íĺ¸
Ġìĭł ìĦł
ë°© íĸ¥
ìłķëıĦ ìĿĺ
Ġìķħë§Ī ìĿĺ
íĳ¼ ìĿ´
ĠìĹĨ ìĿĦíħĲëį°
ìĦł ì§Ħ
ĠìłĦ íĽĦ
ìĹ¬ ê¸´
ĠìķĦëĭĪ êµ¬
ë°© ë§ĿìĿ´
ĠìłĪ ìĭ¤
ĠìĿ¸ìĥĿ ìĿĢ
íĴĢ ìĸ´
ĠìĹī ëį©ìĿ´
Ġë°©êµ¬ìĦĿ ìĹĲìĦľ
Ġë£ ¸
ëıĦ ë¯¸ìĤ¬ìĿ¼
ê²ĥ ìĿ¸ì§Ģ
ĠìķĮ ê²łì§Ģë§Į
ìĺ¨ ëĤĺ
íĻĺ ìĺģ
Ġëħ¸ëł¥ íķ´ìĦľ
Ġìŀĺ ëĲĺëĬĶ
ĠìĤ¬ëŀĮ ìĹĲ
ìĭ¤ ìłľ
Ġìķł ìŀĶ
ĠìķĦëĭĮ ì²Ļ
Ġë°ľ ìŀĳ
ĠìĦ± ìĭ¤íŀĪ
Ġìĭ¸ ìŀ¡ìķĦ
Ġëĺ¥ ìĿĢ
ª¨ ìĬµ
ĠìŀĲëħĢ ëĵ¤
ĠìķĪëĤ¨ ìķĺëĭ¤
ĠìķĦíĶĶ ìĿĦ
Ġì£¼ìłľ íĮĮìķħ
¥ ľ
ĠìŀĲ ìĪĺ
Ġë¯¸ ì¹ł
ë£ ¬
Ġë§ŀ ëĬĶê²ĥ
Ġê¹Ģ ë¬¸ìĪĺ
[...]
