{"<unk>":0,"<s>":1,"</s>":2,"<pad>":3,"<mask>":4,"!":5,"\"":6,"#":7,"$":8,"%":9,"&":10,"'":11,"(":12,")":13,"*":14,"+":15,",":16,"-":17,".":18,"/":19,"0":20,"1":21,"2":22,"3":23,"4":24,"5":25,"6":26,"7":27,"8":28,"9":29,":":30,";":31,"<":32,"=":33,">":34,"?":35,"@":36,"A":37,"B":38,"C":39,"D":40,"E":41,"F":42,"G":43,"H":44,"I":45,"J":46,"K":47,"L":48,"M":49,"N":50,"O":51,"P":52,"Q":53,"R":54,"S":55,"T":56,"U":57,"V":58,"W":59,"X":60,"Y":61,"Z":62,"[":63,"\\":64,"]":65,"^":66,"_":67,"`":68,"a":69,"b":70,"c":71,"d":72,"e":73,"f":74,"g":75,"h":76,"i":77,"j":78,"k":79,"l":80,"m":81,"n":82,"o":83,"p":84,"q":85,"r":86,"s":87,"t":88,"u":89,"v":90,"w":91,"x":92,"y":93,"z":94,"{":95,"|":96,"}":97,"~":98,"¡":99,"¢":100,"£":101,"¤":102,"¥":103,"¦":104,"§":105,"¨":106,"©":107,"ª":108,"«":109,"¬":110,"®":111,"¯":112,"°":113,"±":114,"²":115,"³":116,"´":117,"µ":118,"¶":119,"·":120,"¸":121,"¹":122,"º":123,"»":124,"¼":125,"½":126,"¾":127,"¿":128,"À":129,"Á":130,"Â":131,"Ã":132,"Ä":133,"Å":134,"Æ":135,"Ç":136,"È":137,"É":138,"Ê":139,"Ë":140,"Ì":141,"Í":142,"Î":143,"Ï":144,"Ð":145,"Ñ":146,"Ò":147,"Ó":148,"Ô":149,"Õ":150,"Ö":151,"×":152,"Ø":153,"Ù":154,"Ú":155,"Û":156,"Ü":157,"Ý":158,"Þ":159,"ß":160,"à":161,"á":162,"â":163,"ã":164,"ä":165,"å":166,"æ":167,"ç":168,"è":169,"é":170,"ê":171,"ë":172,"ì":173,"í":174,"î":175,"ï":176,"ð":177,"ñ":178,"ò":179,"ó":180,"ô":181,"õ":182,"ö":183,"÷":184,"ø":185,"ù":186,"ú":187,"û":188,"ü":189,"ý":190,"þ":191,"ÿ":192,"Ā":193,"ā":194,"Ă":195,"ă":196,"Ą":197,"ą":198,"Ć":199,"ć":200,"Ĉ":201,"ĉ":202,"Ċ":203,"ċ":204,"Č":205,"č":206,"Ď":207,"ď":208,"Đ":209,"đ":210,"Ē":211,"ē":212,"Ĕ":213,"ĕ":214,"Ė":215,"ė":216,"Ę":217,"ę":218,"Ě":219,"ě":220,"Ĝ":221,"ĝ":222,"Ğ":223,"ğ":224,"Ġ":225,"ġ":226,"Ģ":227,"ģ":228,"Ĥ":229,"ĥ":230,"Ħ":231,"ħ":232,"Ĩ":233,"ĩ":234,"Ī":235,"ī":236,"Ĭ":237,"ĭ":238,"Į":239,"į":240,"İ":241,"ı":242,"Ĳ":243,"ĳ":244,"Ĵ":245,"ĵ":246,"Ķ":247,"ķ":248,"ĸ":249,"Ĺ":250,"ĺ":251,"Ļ":252,"ļ":253,"Ľ":254,"ľ":255,"Ŀ":256,"ŀ":257,"Ł":258,"ł":259,"Ń":260,"Ġì":261,"Ġë":262,"ìĿ":263,"íķ":264,"ëĭ":265,"Ġê":266,"ìĿ´":267,"ëĬ":268,"ê³":269,"ê°":270,"ì§":271,"ëĬĶ":272,"ëĭ¤":273,"íķĺ":274,"ìĹ":275,"ê³ł":276,"ìķ":277,"ëĵ":278,"ìŀ":279,"..":280,"ì§Ģ":281,"ìĦ":282,"Ŀ¼":283,"ëı":284,"ê²":285,"ê°Ģ":286,"ìł":287,"Ġí":288,"ëĵ¤":289,"´ë":290,"Ĥĺ":291,"Ġìķ":292,"íķľ":293,"ê¸":294,"êµ":295,"ãħ":296,"ëıĦ":297,"ìĭ":298,"¸ë":299,"ìĹĲ":300,"Ġìŀ":301,"ëĿ¼":302,"ë§":303,"ĠìĿ":304,"ìĿĢ":305,"Ĥ¬":306,"Ġìł":307,"ë¡":308,"ëĭĪ":309,"ĮĢ":310,"¦¬":311,"ê±":312,"ìļ":313,"ìĿĦ":314,"ìĦľ":315,"ìľ":316,"ìĸ":317,"ë¡ľ":318,"ëĤĺ":319,"Ġê°":320,"Ġë§":321,"ë¦¬":322,"ãħĭ":323,"ê¸°":324,"ë©":325,"ìķĦ":326,"Ġì§":327,"ê²Į":328,"Ġê·":329,"Ġëĭ":330,"êµŃ":331,"ëį":332,"ëł":333,"ìĿ¸":334,"ìĿĺ":335,"ë©´":336,"ë¥":337,"íķ´":338,"ìŀĲ":339,"ë³":340,"ĠìĹ":341,"Ġë°":342,"ë¶":343,"ê±°":344,"ìľ¼":345,"ë°":346,"ì£":347,"ë¯":348,"ìĤ¬":349,"Īĺ":350,"ĠìķĦ":351,"ëĦ":352,"ìĸ´":353,"ìķ¼":354,"Ġë¬":355,"ëŀ":356,"Ġíķĺ":357,"ë¬":358,"ëĮĢ":359,"ë§Į":360,"ìĥ":361,"Ġëª":362,"ìĭľ":363,"Ġìĭ":364,"ĠìĿ´":365,"Ġêµ":366,"ìļĶ":367,"ìĽ":368,"ĠìĤ¬":369,"ëĦ¤":370,"Ġìĸ":371,"ì²":372,"ë¯¼":373,"Ġê²":374,"ìłķ":375,"ìĬ":376,"¡°":377,"ëį°":378,"Ġê·¸ë":379,"Ġìłķ":380,"ì£¼":381,"ê¹":382,"...":383,"Ġë³":384,"ãħĭãħĭ":385,"Ġë¶":386,"ë¥¼":387,"ëĥ":388,"ĠëĮĢ":389,"ì¹":390,"ìĺ":391,"ĠëĤĺ":392,"Ġê³":393,"ĠìĦ":394,"ìłľ":395,"ì°":396,"ëĥĲ":397,"Ġì§Ģ":398,"ëĭ¹":399,"ìĪĺ":400,"ĠìŀĪ":401,"ëŁ":402,"ë²":403,"ë¶Ģ":404,"ĠëĤ":405,"ì¤":406,"ëĤ":407,"íĺ":408,"êµ¬":409,"ìľ¼ë¡ľ":410,"ëª":411,"íķĺëĬĶ":412,"ĠìķĪ":413,"Ġíķľ":414,"Ġëı":415,"Ġíķ":416,"ìĨ":417,"!!":418,"ê·":419,"Ġëĭ¤":420,"ĠìŀĲ":421,"ìĽĲ":422,"Ġê¸":423,"ëĵ¤ìĿ´":424,"Ġìļ":425,"ĠìĿ´ë":426,"ĠêµŃ":427,"ìĿ¼":428,"ê¹Į":429,"Ġìĥ":430,"íķĺê³ł":431,"Ġë¯":432,"ëĲ":433,"ëĭĪëĭ¤":434,"Ġìĺ":435,"ìĻ":436,"Ġì¢":437,"ĠìĿ¼":438,"Ġê°Ģ":439,"ìŀ¬":440,"íĮ":441,"ì¹ĺ":442,"ìĥģ":443,"íĸ":444,"ĠìĹĨ":445,"ìĭł":446,"Ġë¹":447,"ìŀ¥":448,"Ġì£":449,"ë³´":450,"Ġê±":451,"íĻ":452,"??":453,"ê¸Ī":454,"ĠìĻ":455,"ëħ":456,"ê²ĥ":457,"Ĩµ":458,"Ġë¬¸":459,"ëł¤":460,"Ġê¸°":461,"ë¹":462,"ìĹĲìĦľ":463,"ê²ł":464,"ë¬¸":465,"ëŀĮ":466,"Ġìľ":467,"ìĤ":468,"Ġì¡°":469,"íĥ":470,"~~":471,"Ġë§Ĳ":472,"Ġì¤":473,"ëĬĶëį°":474,"ë§Ī":475,"Ġì°":476,"ìĬ¤":477,"ê°Ħ":478,"ìłģ":479,"ĠëĦ":480,"ê³¼":481,"ë§Ĳ":482,"Ġë³´":483,"ê±´":484,"ķĮ":485,"ìĦ¸":486,"Ġê·¸":487,"ĠëĲ":488,"íĨµ":489,"ĠìĪĺ":490,"Ġëį":491,"ì¡°":492,"ëıĻ":493,"¶Į":494,"Ġê°ľ":495,"íŀ":496,"Ġì²":497,"ìłĦ":498,"ì§Ħ":499,"ĠìĨ":500,"ìĦł":501,"Ġëĵ":502,"Ġãħĭãħĭ":503,"Ġëª¨":504,"ĠëŃ":505,"Ġë²":506,"....":507,"ìĦ±":508,"ĠêµŃë¯¼":509,"ì¢":510,"ĠìłĦ":511,"ļĮ":512,"Ġë¬´":513,"ĠìłĢ":514,"Ġìĭľ":515,"ëĭ¤ê³ł":516,"ìĹ¬":517,"ĠìĤ":518,"ìĸ´ë":519,"íŀĪ":520,"ĠìĿ¸":521,"Ġìļ°":522,"ìĨĮ":523,"ê¶Į":524,"Ġãħ":525,"íķł":526,"ìĿ´ëĭ¤":527,"ìķĪ":528,"ìĻĢ":529,"Ġëª»":530,"ëĵ¤ìĿĢ":531,"ë¬´":532,"Ġê³µ":533,"ëĲĺ":534,"ë³¸":535,"ìŀĪ":536,"ĠìķĦëĭĪ":537,"ĠëįĶ":538,"´Ģ":539,"ĠìĥĿ":540,"Ġìŀĺ":541,"ĠìĤ¬ëŀĮ":542,"Ġë¶Ģ":543,"ìĹĪ":544,"íļĮ":545,"ê°ģ":546,"Ġì§Ħ":547,"ŀĺ":548,"Ġì¤ĳ":549,"ëĭ¨":550,"íĸĪ":551,"ëĿ¼ê³ł":552,"¨¹":553,"Ġíĺ":554,"ì§ľ":555,"Ġíķ´":556,"ëŁ¬":557,"ë¦":558,"ê°ľ":559,"Ġìĸ´ë":560,"ìĭ¬":561,"ĠíĻ":562,"ì¤ĳ":563,"ê·¸ë":564,"Ł°":565,"ìļ°":566,"ìĺ¤":567,"ìĥĿ":568,"ìĿĮ":569,"íķ´ë":570,"ìĹĨ":571,"Ġê±°":572,"Ġì¹":573,"ìľł":574,"ëĬĶê±°":575,"Ġì£¼":576,"ìĤ°":577,"Ġê¹":578,"ëģ":579,"ìłĢ":580,"ìĭĿ":581,"ĠìĻľ":582,"ĠëĤĺëĿ¼":583,"ì¶":584,"Ġë¯¸":585,"êµĲ":586,"ĠìĹ¬":587,"íĻĶ":588,"ëªħ":589,"ĵ°":590,"ëł¹":591,"ê°Ļ":592,"Ġìłľ":593,"ĨĪ":594,"Ġëĺ":595,"ìĭ¤":596,"íı":597,"ĠíĮ":598,"íĮĮ":599,"Ġê²ĥ":600,"íħ":601,"íĶ":602,"Ġíĥ":603,"ìŀĦ":604,"ê²½":605,"ĠëĦĪ":606,"ìľ¼ë©´":607,"ì¡":608,"Ġë°Ķ":609,"íĬ":610,"ëįĺ":611,"Ħ°":612,"ë¹Ħ":613,"ëĳ":614,"ĠëĲĺ":615,"Ġë§Ī":616,"ĠëĭĪ":617,"Ġëĭ¹":618,"Ġë§Į":619,"į°":620,"ëħĦ":621,"Ġê°Ļ":622,"ëĵł":623,"ìľĦ":624,"ĠëĪ":625,"Ġíĸ":626,"Ġ1":627,"ìĿ¸ë":628,"ìļ©":629,"íķĺë©´":630,"ëķĮ":631,"ĠìķĮ":632,"ë¯¸":633,"´Ĳ":634,"ĠìĦ¸":635,"Ġë¹Ħ":636,"íķ´ìĦľ":637,"ë¥´":638,"Ġê²½":639,"ì§Ī":640,"Ġëħ":641,"ĠìķĬ":642,"íĤ":643,"ĠëŃĲ":644,"ë°ľ":645,"Ġë¬¸ìŀ¬":646,"ìŀħ":647,"Ġíı":648,"Ġê³ł":649,"ĠìĽ":650,"ëĵľ":651,"ĠìĥĿê°ģ":652,"íĦ°":653,"ê´Ģ":654,"ëįĶ":655,"Ġë¯¼":656,"ìĹħ":657,"ì²´":658,"Ġìļ°ë¦¬":659,"ê³µ":660,"Ġìĸ´":661,"ëĶ":662,"ĠìĨĮ":663,"ìĿ´ëĿ¼":664,"Ġë§İ":665,"Ġíķł":666,"ìļ´":667,"íĨµëł¹":668,"ì²ĺ":669,"ëĭ¤ëĬĶ":670,"ĳľ":671,"ĠìľĦ":672,"ë¶Ħ":673,"ëłĪ":674,"ì§ģ":675,"íķĺì§Ģ":676,"ĠíķĺëĬĶ":677,"ëĭĺ":678,"Ġìĺ¤":679,"ì°¨":680,"ê¹Įì§Ģ":681,"Ġì¢ĭ":682,"Ġì¶":683,"ĠìĿ¼ë³¸":684,"łĩ":685,"ìĪ":686,"ĠìĦł":687,"Ġìľł":688,"Ġë¶Ī":689,"ëĭĪê¹Į":690,"ê³Ħ":691,"ĠëĤ¨":692,"Ġìĭł":693,"ìĿ´ëĤĺ":694,"ìĦ¸ìļĶ":695,"ìŀĳ":696,"Ġë°ĺ":697,"ìĬµ":698,"ãĦ":699,"ì°°":700,"íķĺê²Į":701,"íħĮ":702,"íķ©":703,"ëģ¼":704,"ĠìĤ´":705,"ëĤ´":706,"ìĨį":707,"ëĤĺëĿ¼":708,"OO":709,"ì¤Ģ":710,"ë¨¹":711,"©´":712,"íķľëĭ¤":713,"³Ĳ":714,"Ġëĵ¤":715,"ìķĻ":716,"ĠëĶ":717,"Ł¬":718,"Ġë¶ģ":719,"Ġì¤ĳêµŃ":720,"ëŀĳ":721,"ë²ķ":722,"ëŁ°":723,"ĠìĿĺ":724,"ë¶Ī":725,"ëł¥":726,"íĤ¤":727,"ë°©":728,"Ġìĵ°":729,"Ġì£½":730,"ë£":731,"ë°Ķ":732,"ê¸Ģ":733,"íĸī":734,"Ġë°Ľ":735,"ĠíķľêµŃ":736,"íģ":737,"ìĶ":738,"ĠëıĦ":739,"íķĺëĭ¤":740,"ì²ľ":741,"ĠìĿ´ëŁ°":742,"ĠëĤ´":743,"ìķĺ":744,"ëª¨":745,"Ġìĥģ":746,"ĠëıĪ":747,"ìĹ°":748,"Ġì´":749,"Ġìŀħ":750,"Ġì§Ħì§ľ":751,"ìĹŃ":752,"ìĿ¸ëį°":753,"ëĲľ":754,"ì§Ģë§Į":755,"ê±¸":756,"ĥ¥":757,"Ġì§ĳ":758,"ëĤľ":759,"Ġì§Ģê¸Ī":760,"ëĳĲ":761,"ìĹĲê²Į":762,"Ġêµ¬":763,"ì²Ń":764,"ì£Ħ":765,"ĠëĪĦ":766,"ë°ķ":767,"ĠëĬ":768,"ëĮĢë¡ľ":769,"µľ":770,"íĳľ":771,"ĠìķĦëĭ":772,"íķ´ìķ¼":773,"ì¦":774,"ì´":775,"íķ´ëĿ¼":776,"êµ°":777,"Ġëģ":778,"ĠëĮĢíĨµëł¹":779,"Ġì¢Ģ":780,"ëª»":781,",,":782,"ĽĦ":783,"ì¼":784,"ì¡±":785,"¸ë¡":786,"łĩê²Į":787,"Ġê°Ĳ":788,"ĠíĸĪ":789,"Ġë¬¸ìŀ¬ìĿ¸":790,"Ġìķł":791,"Įĵ":792,"íķĻ":793,"Ġê¼":794,"Ġê²Ģ":795,"íĺ¸":796,"ì§ĵ":797,"ë¯¼êµŃ":798,"´ë©´":799,"íķľíħĮ":800,"Ġë¹¨":801,"Ġ2":802,"ĠëĮĢíķľ":803,"±ħ":804,"ëĨĪ":805,"Ġì¢Į":806,"ëĬ¥":807,"ëĦ¤ìļĶ":808,"Ġëĸ":809,"ê°Ĳ":810,"ëŀĺ":811,"ì§ĳ":812,"ëĵ¯":813,"ë²Ī":814,"ìĺģ":815,"ĠëķĮ":816,"ê·¼":817,"Ġë§ŀ":818,"ê¸ī":819,"Ġìŀ¬":820,"íĮĲ":821,"ê°ĻìĿĢ":822,"Ġìŀ¥":823,"ëłĪê¸°":824,"êµ¬ëĤĺ":825,"ëŀĢ":826,"00":827,"ìĦĿ":828,"ĠìŀĪëĬĶ":829,"Ġìłķì¹ĺ":830,"ë©°":831,"ĠíĶ":832,"ì¤Ħ":833,"¼ì§Ģ":834,"ëĤ¨":835,"íĿ":836,"ìĿ´ê³ł":837,"Ġì¡°êµŃ":838,"Ġì²ĺ":839,"ĠëĤ´ë":840,"Ġë¶ģíķľ":841,"ë¥¸":842,"Ĩĵ":843,"Ġë¯¼ì£¼":844,"ìĥĪ":845,"ĠëĺĲ":846,"ĠëıĻ":847,"Ġë°ķ":848,"ìķł":849,"ë°ĺ":850,"íĹ":851,"ìĤ¬ëŀĮ":852,"Ġì°¸":853,"Ġíķĺê³ł":854,"!!!":855,"Ġìłģ":856,"Ī¬":857,"ĠìĿ¸ê°Ħ":858,"Ġìłķë¶Ģ":859,"Ġê·¸ëĥ¥":860,"½Ķ":861,"ĠìĦľ":862,"Ġê¹Ģ":863,"ì¹ľ":864,"§Į":865,"ł¤":866,"Įĵê¸Ģ":867,"ëĿ¼ëıĦ":868,"Ġìµľ":869,"Ġë¨":870,"Ġìĸ´ëĸ":871,"ìĬµëĭĪëĭ¤":872,"ìĬ¨":873,"ë¶ĢíĦ°":874,"ëĬĶê²Į":875,"ì¢Ģ":876,"Ġë¬¸ìłľ":877,"ë°Ľ":878,"Ġìĸ¼":879,"ë¬¼":880,"Ġë°©":881,"íķ¨":882,"ĠìķĦëĭĮ":883,"ãħİ":884,"ãħī":885,"Ġíķ´ë":886,"ë²Ħ":887,"íĥľ":888,"ë¶ģ":889,"ìĽĮ":890,"Ġë²ķ":891,"ë§Ŀ":892,"ðŁ":893,"ĠìĬ":894,"ĠíĹ":895,"íĥĢ":896,"ëĵ±":897,"ëĵ¤ìķĦ":898,"ë²ł":899,"ë³´ëĭ¤":900,"Ġë°ľ":901,"Ġì°¨":902,"ê»":903,"ì£¼ìĿĺ":904,"Ġë¬¼":905,"Ġëĳ":906,"ãħ¡":907,"ìĤ´":908,"ëŁ¼":909,"Ġë¶Ħ":910,"ë§¤":911,"ì£ł":912,"ë©´ìĦľ":913,"ĠìĦ±":914,"ĠêµĲ":915,"İ¸":916,"Ġê°ķ":917,"ëħ¸":918,"íĬ¸":919,"ê²©":920,"Ġì¹ľ":921,"ëĭ¬":922,"êµŃë¯¼":923,"Ġìĭ¤":924,"Ġë©":925,"ìĸ´ìĦľ":926,"ìķ¼ì§Ģ":927,"Ġãħĭãħĭãħĭ":928,"íķ©ëĭĪëĭ¤":929,"±ìĿ´":930,"ĠëĮĢíķľë¯¼êµŃ":931,"Ġì²Ń":932,"ë¹¨":933,"´ĳ":934,"ë´Ĳ":935,"ìĿ´ì§Ģ":936,"ĠíĺĦ":937,"Ġìłķìĭł":938,"ĠìĹŃ":939,"Ĩł":940,"ĠìĽĲ":941,"íĶĦ":942,"ìłģìľ¼ë¡ľ":943,"íĺľ":944,"ë¬´ë":945,"ĠíĬ":946,"ì¢ħ":947,"ìħ":948,"Ġê²°":949,"ê·¸":950,"ìł¸":951,"Ġë¨¹":952,"ì³Ĳ":953,"Ġë§Ŀ":954,"íģ¬":955,"Ġ3":956,"Ġê°ĻìĿĢ":957,"ìĨĮë¦¬":958,"ê¸¸":959,"ĠìĥĪ":960,"Ġë§Įëĵ¤":961,"Ġìĺ¬":962,"¸ë¦¬":963,"Ġë¬´ìĬ¨":964,"ĠìĪ":965,"Ġê´Ģ":966,"ìŀħëĭĪëĭ¤":967,"ĠëıĮ":968,"ĠìĿ´ìłľ":969,"ìľ¼ëĭĪ":970,"ìĸĳ":971,"Ġíŀĺ":972,"ĠíĶ¼":973,"ìĿ¸ê°Ģ":974,"ìĿ´ëĥĲ":975,"Ġê·¸ëŁ°":976,"ì¼ľ":977,"ë²Į":978,"Ġìłķê¶Į":979,"ê²łëĭ¤":980,"Ġê·¸ë¦¬":981,"ëĪ":982,"íĿ¬":983,"Ł¼":984,"ë³´ë":985,"Ġë°°":986,"ì¶ľ":987,"Ġëª¨ë¥´":988,"Ġìļķ":989,"ĠëĦĺ":990,"ë¬¸ìŀ¬":991,"ëł¤ê³ł":992,"ê²¨":993,"ë¦°":994,"Ġì§Ģì§Ģ":995,"ĠëĨ":996,"ë³ĳ":997,"ìĶ¨":998,"ĶĶ":999,"Ġê²½ìłľ":1000,"Ġì¹ĺ":1001,"ĠìĹ°":1002,"ëŁ½":1003,"ª½":1004,"ê²°":1005,"ë¡ł":1006,"ì©":1007,"ĠíĿ":1008,"ì²ĺëŁ¼":1009,"Ġìłķë§Ĳ":1010,"ĠìĻ¸":1011,"!!!!":1012,"ë¨":1013,"ĠíķĺëĤĺ":1014,"ìĵ°":1015,"ë°°":1016,"ê¼":1017,"ĠëĨĪ":1018,"???":1019,"Ġëĭ¬":1020,"Ġë¯¸êµŃ":1021,"Ġê³Ħ":1022,"ĠëĮĵê¸Ģ":1023,"ê¾":1024,"Ġ5":1025,"ì°½":1026,"ìŀĸ":1027,"Ġìĺģ":1028,"Ġê¸°ìĤ¬":1029,"íķľëĭ¹":1030,"ê°±ìĿ´":1031,"ëĵ¤ìĿĺ":1032,"Ġê²Ģì°°":1033,"OOO":1034,"ê²ĥëıĦ":1035,"ê¸´":1036,"ìĿ¸ìĿ´":1037,"Ġë§ī":1038,"ëĬĶì§Ģ":1039,"ìķħ":1040,"Ġê·¸ëŁ¬":1041,"íĴ":1042,"Ġì¶Ķ":1043,"íķĺëĦ¤":1044,"ĠíĨµ":1045,"ĠëĦĪë¬´":1046,"ìŀĲê°Ģ":1047,"ë£Į":1048,"ìĺĪ":1049,"Ġíķĺì§Ģ":1050,"ê¹¨":1051,"Ġëĭ¨":1052,"ëĵ¤ìĿĦ":1053,"ìłģìĿ¸":1054,"ìłķë¶Ģ":1055,"ì±ħ":1056,"ìĻľ":1057,"Ġëħ¸":1058,"íĶ¼":1059,"ë¦¬ê³ł":1060,"Ġì´Ŀ":1061,"Ġë¯¼ì£¼ëĭ¹":1062,"Ġëª°":1063,"íĺĦ":1064,"Ġìŀ¡":1065,"ìĽĶ":1066,"ëĤł":1067,"Ġë³¸":1068,"Ġíģ":1069,"ìļ¸":1070,"ĠëĴ":1071,"³´":1072,"Ġê·¸ëŀĺ":1073,"íĻ©":1074,"ĠìĹĨëĬĶ":1075,"íĺķ":1076,"Ġë§¤":1077,"Ġìĭ¬":1078,"ì§Ģê³ł":1079,"ĠíĻķ":1080,"ëĬĲ":1081,"ëĵ¤ëıĦ":1082,"ê²łì§Ģ":1083,"ìĿ´ëĦ¤":1084,"ê°Ģë¦¬":1085,"íıĲ":1086,"Ġë³´ë":1087,"ìĿ´ê°Ģ":1088,"¡ľ":1089,"ĠìŀĲê¸°":1090,"ìķĦìĦľ":1091,"ĠëŃĶ":1092,"ìĸµ":1093,"Ġíķ©":1094,"ĠìĦ¸ê¸Ī":1095,"Ġìĭ¶":1096,"Ġ.":1097,"Ħ¤":1098,"¸ë¡ł":1099,"ìĪľ":1100,"¥¼":1101,"ë¬¸ìĹĲ":1102,"¸ëł":1103,"ĠìĨĲ":1104,"ìĿ´ëĿ¼ê³ł":1105,"ĠìŀĪëĭ¤":1106,"Ġìĸĳ":1107,"ê²Ģ":1108,"ĠëĤľ":1109,"ëĿ¼ëĬĶ":1110,"Ġì¦":1111,"ê°ķ":1112,"ĠëĶ°":1113,"Ĩĵê³ł":1114,"ĠëĳĲ":1115,"ë§Ĳê³ł":1116,"ìŀ¡":1117,"ĠêµŃê°Ģ":1118,"~~~":1119,"Ġì½Ķ":1120,"Ġëıħ":1121,"ĠìķĪëĲĺ":1122,"ìłķê¶Į":1123,"ī´":1124,"Ġíķľëĭ¤":1125,"ìŁ":1126,"»ê²Į":1127,"ĠëĪĪ":1128,"Ġìĸ¼ë§Ī":1129,"ìŀĸìķĦ":1130,"ìĺ¨":1131,"ìĺĢ":1132,"ëĺ":1133,"ì²ľì§Ģ":1134,"Ġíĸī":1135,"ĠìĹĨëĭ¤":1136,"Ġì¡":1137,"Ġê·¼":1138,"ãħĭãħĭãħĭ":1139,"Ġì¢ħ":1140,"Ġê°Ħ":1141,"ëĶĶ":1142,"º¼":1143,"ìĿ´ìķ¼":1144,"Ġê±´":1145,"Ġìŀĺëª»":1146,"íķĺëĥĲ":1147,"ĠíĮĲ":1148,"íĺĢ":1149,"·¨":1150,"Ġì³Ĳ":1151,"ì´Ŀ":1152,"ëıĪ":1153,"ë¦¬ëĬĶ":1154,"íĽĦ":1155,"ìķĦëĭĪ":1156,"į¨":1157,"ìĸ´ìķ¼":1158,"Ġìĵ°ëłĪê¸°":1159,"ëĦĪ":1160,"ĠìķĦëĭĪëĿ¼":1161,"į¼":1162,"ìĿ¸ì§Ģ":1163,"Ġìĸ´ëĶĶ":1164,"ëıħ":1165,"Ġì¤Ħ":1166,"íķĺëĤĺ":1167,"ĠíĽĦ":1168,"íķµ":1169,"ì¦Ŀ":1170,"ĠìĺĪ":1171,"Ġê·¸ëłĩê²Į":1172,"Ġíıī":1173,"Ġê·¸ë¦¬ê³ł":1174,"ĠëģĿ":1175,"Ġì£Ħ":1176,"ãħł":1177,"ìķĬ":1178,"ĠìłĪ":1179,"ë£¨":1180,"Ĩį":1181,"ĠìłĢëŁ°":1182,"ìłĲ":1183,"ĠìĬ¤":1184,"íķ´ëıĦ":1185,"Ġìķŀ":1186,"ìłĪ":1187,"Ġãħĭ":1188,"Ġìĸ´ëĸ»ê²Į":1189,"Ġìļ°ë¦¬ëĤĺëĿ¼":1190,"ìŁģ":1191,"ëĭ¤ê°Ģ":1192,"íĭ":1193,"ĠëĤĺìĺ¤":1194,"ìĿĺìĽĲ":1195,"ĠíĮĮ":1196,"Ġë¯¿":1197,"ë³Ģ":1198,"ì§ĢëıĦ":1199,"ĠëĲľ":1200,"ĠíĻĶ":1201,"ì¢Į":1202,"ëŃ":1203,"ê·¼íĺľ":1204,"Ġëĺĳ":1205,"ìĹĨëĬĶ":1206,"ëı¼ì§Ģ":1207,"ê°Ī":1208,"ì°¸":1209,"Ġì¢ĮíĮĮ":1210,"ë¡ľëĤĺ":1211,"ë¡Ŀ":1212,"Ġë²Ħ":1213,".....":1214,"ĠíĪ¬":1215,"íķĺëĬĶê±°":1216,"Ġë¬¸ìŀ¬ìķĻ":1217,"íķľê±°":1218,"Ġëĵ¤ìĸ´":1219,"Ġë²Į":1220,"ĠìĨį":1221,"ìĭľëĭ¤":1222,"ê°ĢëĬĶ":1223,"Ġëªħ":1224,"ĠíķĻ":1225,"Ġë§İìĿ´":1226,"ìŀĲëĵ¤":1227,"¿Ĳ":1228,"Ġê³¼":1229,"»Ķ":1230,"Ġëĵ±":1231,"ìĹ´":1232,"ìŀĪëĬĶ":1233,"ëĿ":1234,"Ġëª©":1235,"ĠìŀĦ":1236,"ĠìļĶ":1237,"Ġëĵľ":1238,"ìĬ¤íģ¬":1239,"Ġìĭ¸":1240,"ê±´ë":1241,"ë¹ł":1242,"ĠíķĦ":1243,"ìĭľíĤ¤":1244,"ìĻ¸":1245,"ĠìŀĲìľł":1246,"½ĳ":1247,"ì¶©":1248,"ìĸ¸":1249,"Ĥ´":1250,"ëĪĦ":1251,"ë´":1252,"ì¶Ķ":1253,"ëĭµ":1254,"Ġëĭ¹ìĭł":1255,"ê±°ë¦¬":1256,"ī´ìĬ¤":1257,"ĠìŀĲíķľëĭ¹":1258,"ëħĢ":1259,"ëįĶëĭĪ":1260,"Ġìĭ«":1261,"íİ¸":1262,"ĠíĬ¹":1263,"ĠëĪĦê°Ģ":1264,"Ġêµ°":1265,"ìķ½":1266,"Ġë´Ĳ":1267,"ë³µ":1268,"Ġëĭµ":1269,"ìĹĲëĬĶ":1270,"Ġìĸ¸":1271,"ìĨ¡":1272,"Ġë¹¨ê°±ìĿ´":1273,"ĠìĨĮë¦¬":1274,"ìĸ´ìļĶ":1275,"ĠOOO":1276,"ìĿ´ëŁ°":1277,"ìłķìĿĢ":1278,"ĠìĿ´ëłĩê²Į":1279,"ìģ":1280,"ì§Ħì§ľ":1281,"Ġê·¸ë§Į":1282,"ìĸ´ëıĦ":1283,"ĠìĤ¬íļĮ":1284,"ĠìķĦì§ģ":1285,"ìĦ¸ë":1286,"Ġì§ģ":1287,"ĠëĴ¤":1288,"íĺģ":1289,"ëĵĿ":1290,"Ġìĸ¸ë¡ł":1291,"ìĿ´ëĬĶ":1292,"ĠìĹĦ":1293,"ĠìĿ´ê²Į":1294,"ì°©":1295,"ëĤ´ë":1296,"ì¤ĺ":1297,"Ġíĭ":1298,"íĻľ":1299,"ë¦½":1300,"Ġ4":1301,"ê¸°ëĬĶ":1302,"íĹĺ":1303,"ëĿ½":1304,"ìķĮ":1305,"Ġìłľë°ľ":1306,"ĠêµŃíļĮ":1307,"¸ë¡ľ":1308,"íĥĦ":1309,"ìĦ¤":1310,"ĠíĥĦ":1311,"ê»ĺ":1312,"ê°ĢìĦľ":1313,"ëĸ":1314,"Ġìķħ":1315,"ìĺ¬":1316,"Ġìĸ¼ë§ĪëĤĺ":1317,"Ġëªĩ":1318,"íĪ¬":1319,"ì¡Į":1320,"ëĬĶëĭ¤":1321,"ì£½":1322,"ìĿĦê¹Į":1323,"ĠìĿ´ìĥģ":1324,"ãĨį":1325,"Ġë³´ê³ł":1326,"Ġëĭ¤ë¥¸":1327,"íķĺëĬĶëį°":1328,"íı¬":1329,"Ġëĸł":1330,"Ġëĺ¥":1331,"ĠìĤ´ìķĦ":1332,"ĠìķĦëĭĪê³ł":1333,"ĠëĲł":1334,"ĩĮ":1335,"ĠíĥĢ":1336,"Ġì²ľ":1337,"¨ìĸ´":1338,"Ķì£Ħ":1339,"ìĬ¹":1340,"ĠìĽĥ":1341,"ìĥī":1342,"ĠíĨł":1343,"ì§ĢëĬĶ":1344,"ĠìĪĺì¤Ģ":1345,"Ġê¹Į":1346,"ìĭ¶":1347,"ê¹Ģ":1348,"íķľêµŃ":1349,"ĠìĤ¬ëŀĮìĿ´":1350,"ìĻĢëĮĢ":1351,"ìŀĲëĬĶ":1352,"ëĬĺ":1353,"íĮ¨":1354,"Ġãħī":1355,"Ġíķ´ìķ¼":1356,"Ġë¬´ë":1357,"ìĹĶ":1358,"ìĹĪëĭ¤":1359,"ìĹĲëıĦ":1360,"Ġê²Į":1361,"ĠìĪĺìĤ¬":1362,"Ġãħİ":1363,"íĴĪ":1364,"ëŀĦ":1365,"ì°¬":1366,"ĠíıŃ":1367,"ì¡°êµŃ":1368,"Ġì¦Ŀ":1369,"íĮĶ":1370,"ë¯¼ì£¼":1371,"ĠêµŃë¯¼ëĵ¤":1372,"ê´ĳ":1373,"Ġíĳľ":1374,"ìłķëıĦ":1375,"ĠìłľëĮĢë¡ľ":1376,"Ġìļ´":1377,"ìļ°ë¦¬":1378,"ìľ¨":1379,"ĠíķĦìļĶ":1380,"ì´Ī":1381,"Ġê´ĳ":1382,"ëª©":1383,"êº¼":1384,"ìŀĺ":1385,"????":1386,"ì£¼ê³ł":1387,"Ġíĥľ":1388,"íĸ¥":1389,"ĠìĦłëıĻ":1390,"Ġì§ĵ":1391,"Ġë´":1392,"ĠìĦ¤":1393,"¶Ģ":1394,"ëĲľëĭ¤":1395,"ĠìĿ´ë¯":1396,"Ġìĺ¨":1397,"íĻĺ":1398,"Ġê¶Į":1399,"Ġì¹ľìĿ¼":1400,"Ġë³´ë©´":1401,"ĩ´":1402,"íĥĿ":1403,"¸ëŀĺ":1404,"ë¬¸ìŀ¬ìĿ¸":1405,"ìĿ´ë©´":1406,"ê·¸ëŀĺ":1407,"ìĿ¼ë³¸":1408,"êµ¬ë§Į":1409,"ľ´":1410,"ĠëĤł":1411,"ìĸ´ëĿ¼":1412,"Ġê±°ì§ĵ":1413,"--":1414,"Ġë§Ĳê³ł":1415,"^^":1416,"ìª½":1417,"ê²łëĦ¤":1418,"Ġìķ¼":1419,"Ġë½ĳ":1420,"Ġê³µìĤ°":1421,"ĠìĹĲ":1422,"Ġì±ħ":1423,"ê°Ģì§Ģ":1424,"ĸìĹĲ":1425,"Ġì¡°ìĦł":1426,"ìĥĪëģ¼":1427,"Ġìĸĺ":1428,"ĠãĦ":1429,"ĠëıĮìķĦ":1430,"íıŃ":1431,"íĨł":1432,"Ġì½Ķë¡ľëĤĺ":1433,"ìľ¡":1434,"íĸĪëĭ¤":1435,"ĠëŃĺ":1436,"ê·¹":1437,"ëĤĺìļĶ":1438,"ëĦĺ":1439,"íķĺê¸°":1440,"ĠëĬĲ":1441,"Ġãħ¡":1442,"íħĲ":1443,"ë¦Ħ":1444,"íĬ¸ë":1445,"ë§ĪëĿ¼":1446,"Ġì¶ľ":1447,"ĠìķĦëĭĮê°Ģ":1448,"Ġë³´ìĪĺ":1449,"Ġìŀĳ":1450,"ìĽĢ":1451,"ì¤ĳêµŃ":1452,"ĠìĹ´":1453,"²Ī":1454,"ĠìĤ¼":1455,"Ġë³Ģ":1456,"ìĿĳ":1457,"ëĮĢíķľ":1458,"Ġíİ¸":1459,"ë³´ê³ł":1460,"Ġê°Ī":1461,"ìĭŃ":1462,"Ġì¡°ìĤ¬":1463,"ĠëĤĺëĿ¼ê°Ģ":1464,"ìĨĲ":1465,"Ġëª¨ëĳĲ":1466,"Ġì¢ĭìķĦ":1467,"ĠìĶ":1468,"Ġë§ĪìĬ¤íģ¬":1469,"Ġìĭłì²ľì§Ģ":1470,"íİ":1471,"ĠìĤ¬ìĭ¤":1472,"ì¢ĭ":1473,"Ġíķĺë©´":1474,"ëĭ¤ëĭĪ":1475,"Ġëĭ¤ìĭľ":1476,"ìĿµ":1477,"¸ëł¥":1478,"Ġê³ĦìĨį":1479,"ìĿ´ëŀĳ":1480,"ìĹĨìĿ´":1481,"ìĿ´ëĿ¼ëıĦ":1482,"ĠìłķìĿĺ":1483,"ĠìĻĦ":1484,"ĩ¼":1485,"ê¹¨ë¬¸":1486,"Ġíķ´ëĿ¼":1487,"ëĬĶê±´":1488,"~~~~":1489,"ëıĮ":1490,"ê°ĻìĿ´":1491,"Ġì°į":1492,"ĠìĦ¸ìĥģ":1493,"ĠëĨĢ":1494,"ê¸°ìĹĲ":1495,"±Ħ":1496,"ĠìĿ´ë²Ī":1497,"Ġëª¨ëĵł":1498,"ìķĦìķ¼":1499,"Ġìĸ´ì©":1500,"ì¦ĺ":1501,"ìĸ´ëĤĺ":1502,"ì²ł":1503,"ì¸":1504,"Ġ?":1505,"íķĺëĿ¼":1506,"Ġëħ¼":1507,"Ġíģ°":1508,"ìĭľì¼ľ":1509,"ê°Ĵ":1510,"Ġì²ł":1511,"¸ë¬":1512,"ĠíļĮ":1513,"Ġíı¬":1514,"íķĺìŀĲ":1515,"Ġê·¸ëŁ¼":1516,"ĠìĿ´ìľł":1517,"ìĹ¼":1518,"ĠíĥĦíķµ":1519,"ĠíĹĪ":1520,"íĺ¼":1521,"Ġì·¨":1522,"¦°":1523,"ĠìĤ¬ëŀĮëĵ¤":1524,"Ġãħīãħī":1525,"íķĺëĭĪ":1526,"êµ´":1527,"ë§ŀ":1528,"ì°Į":1529,"ĠíĮĶ":1530,"ëķ":1531,"ê³łìŀĪ":1532,"íķĺë©´ìĦľ":1533,"ë¨¸":1534,"Ġ..":1535,"ìĻĶ":1536,"ë§ī":1537,"ĠíĻ©":1538,"ëĵ¤ìĸ´":1539,"Ġì¢ĭìĿĢ":1540,"ëł¨":1541,"íķĺìĭľ":1542,"ì½Ķ":1543,"Ġê°ľëı¼ì§Ģ":1544,"Ġë§İìĿĢ":1545,"ĠëĭĪëĵ¤":1546,"ìĭľë¯¼":1547,"Ġì´Ī":1548,"Ġíķ¨":1549,"ĠìĿ´ë¯¸":1550,"Ġë§ĲìĿ´":1551,"Ġë¹ł":1552,"ê¸°ê°Ģ":1553,"íıī":1554,"ë³Ħ":1555,"Ġ10":1556,"ĠëĪĦêµ¬":1557,"ëŁ¬ìļ´":1558,"ê±°ëĭ¤":1559,"ĠìķĦìĿ´":1560,"ëĨĵê³ł":1561,"ĠìĦłê±°":1562,"ëĲł":1563,"ìłł":1564,"Ġì¡°ìŀĳ":1565,"ê¸°ë¥¼":1566,"ëĭ¹ìĿ´":1567,"Ġë°ķê·¼íĺľ":1568,"¸ëĿ¼":1569,"Ġê¼Ń":1570,"ìĪł":1571,"ëĬĶê²ĥ":1572,"Ġìª½":1573,"ìĹĨëĭ¤":1574,"ëĶ°":1575,"íħĲëį°":1576,"ĠíĴ":1577,"Ġë¨¼":1578,"Ġìľ¤":1579,"ĠìĹ¬ìŀĲ":1580,"ê¸°ìĹħ":1581,"Ġì±ħìŀĦ":1582,"ĠíĽ":1583,"ĠíĭĢ":1584,"Ġìĵ":1585,"ìĿ´ëĭĪ":1586,"ĠìĥĪëģ¼":1587,"ìħ¨":1588,"ãħİãħİ":1589,"Ġíķľë²Ī":1590,"¸ëĮĢ":1591,"íķĺëĬĶê²Į":1592,"**":1593,"íķľëĭ¤ê³ł":1594,"ìĿ¸ëĵ¤":1595,"ë§ĮìĽĲ":1596,"ëłĩ":1597,"Ġë°Ķë¡ľ":1598,"Ġ...":1599,"ĳìĽĲ":1600,"Ġê¸Ī":1601,"ëįĺëį°":1602,"ì§Ģê¸Ī":1603,"Ġëľ":1604,"ĠìĿ´íķ´":1605,"íķ´ì£¼":1606,"Ġìķ½":1607,"ìį¨":1608,"Ġê´":1609,"ë¨¹ê³ł":1610,"ê±°ì§Ģ":1611,"Ġ6":1612,"ìĽĥ":1613,"¶ģ":1614,"ë¸":1615,"ìĿ´ìĥģ":1616,"ìĪĺê°Ģ":1617,"Ġìī":1618,"........":1619,"ëģĦ":1620,"Ġ20":1621,"ëłĩê²Į":1622,"Įį":1623,"ìĿ´ëŀĢ":1624,"ê±´ëį°":1625,"ëĶ±":1626,"Ġíķľìĭ¬":1627,"ëĮĢíĨµëł¹":1628,"Ġìĸ¸ìłľ":1629,"ĠìķĦì£¼":1630,"Ġì²ŃìĻĢëĮĢ":1631,"ĠìŀĲìĭĿ":1632,"ì§ķ":1633,"ëĮĢì²´":1634,"ãħľ":1635,"íľ´":1636,"ĠìķĮê³ł":1637,"ĠìľĦíķ´":1638,"íķĺìĹ¬":1639,"Ġê·¸ê²Į":1640,"ìĭ¸":1641,"ĠëĤ´ê°Ģ":1642,"Ġë°±":1643,"ĠëĭĪê°Ģ":1644,"ĠëķĮë¬¸ìĹĲ":1645,"ì§ĢìķĬ":1646,"ĠìķĦë¬´ë":1647,"ìĻĢìĦľ":1648,"ì¤ĳìĹĲ":1649,"ë¦¬ê°Ģ":1650,"Ġê¹¨":1651,"ë°±":1652,";;":1653,"ì²Ļ":1654,"Ġë¶Ģëª¨":1655,"ĠëĦ¤":1656,"ì¹ĺê³ł":1657,"Ġë²Ķì£Ħ":1658,"ê²¬":1659,"ëľ":1660,"ĠíĻĺ":1661,"ê¾¸":1662,"ë¥´ë":1663,"ĠìķĦëĭĪëĭ¤":1664,"Ġíĺ¸":1665,"ìĦ±ìĿ´":1666,"ìļķ":1667,"ê¼´":1668,"ë§İ":1669,"ìĤ¬ê°Ģ":1670,"ìķĦëĿ¼":1671,"ë²Ķ":1672,"êµŃê°Ģ":1673,"ì¡°ìĦł":1674,"ëįĶëĿ¼":1675,"ê²łëĥĲ":1676,"ĠëĬĺ":1677,"Ġë¹¼":1678,"ĠìķĦë¬´":1679,"ĠìłĪëĮĢ":1680,"ëĬĶê±°ì§Ģ":1681,"Ġê·¸ëłĩ":1682,"ĠìĪľ":1683,"ĠìĤ´ë":1684,"ĠêµŃë¯¼ìĿ´":1685,"ĠëŃĲê°Ģ":1686,"Ġì¢Įë¹¨":1687,"Ġíį¼":1688,"ĠìķĦì§ģëıĦ":1689,"ê°Ķ":1690,"ĠìķĦë²ł":1691,"Ġ100":1692,"Ġê·¹":1693,"Ġê¼¬":1694,"ĠìŀĪëĬĶëį°":1695,"ëŃĲ":1696,"Ġëĭ¹ìĹ°":1697,"ê²½ìłľ":1698,"ĠìĹĨìĸ´":1699,"ë¿Ĳ":1700,"ëĭ´":1701,"ìłĳ":1702,"Ġê¼´":1703,"ë³´ë©´":1704,"ìģľ":1705,"íĽ":1706,"Ġê°Ģì¡±":1707,"Ġíİ":1708,"ĠíĶ¼íķ´":1709,"Ġë¬´ëĬ¥":1710,"ìłķìĭł":1711,"ĠìĤ°":1712,"ìĻľêµ¬":1713,"ĠíıĲ":1714,"ĠìĥģíĻ©":1715,"Ġë³Ħ":1716,"Ġê¸°ìĹħ":1717,"¸ë¹":1718,"ĠíĻį":1719,"Ġì´ĿìĦł":1720,"íĥĪ":1721,"íĩ´":1722,"ëıĻìķĪ":1723,"Ġê°ĻìĿ´":1724,"±ìłķ":1725,"ĠêµŃë¯¼ëĵ¤ìĿ´":1726,"ìĭľê°Ħ":1727,"ìłĦìĹĲ":1728,"ĠìłķëıĦ":1729,"ê±°ëĤĺ":1730,"Ġì¤Ģ":1731,"ì§Ģë§Ĳê³ł":1732,"ê²ĥìĿ´":1733,"ĠìĿ¸ìłķ":1734,"ĠìĿ´ìļ©":1735,"ë¬´ìĽĲ":1736,"²Ħ":1737,"Ġë°ĺëĮĢ":1738,"Ġë°Ŀ":1739,"íģ¼":1740,"Ġê±¸":1741,"ê³³":1742,"Ġì§±":1743,"ê²ĥëĵ¤":1744,"ĠëĿ¼":1745,"ê·¸ëŁ¬":1746,"ê¾¼":1747,"Ġê¸Ģ":1748,"ìĭľê³ł":1749,"ĠêµŃíļĮìĿĺìĽĲ":1750,"ĠìŀĲìĭł":1751,"íĭ°":1752,"ĠëĤĺëĿ¼ë¥¼":1753,"Ġë¯¸ì¹ľ":1754,"ìĿ´ëĿ¼ëĬĶ":1755,"ìĤ¬ëĬĶ":1756,"ë¦´":1757,"ĠìĹĨê³ł":1758,"ì²´ê°Ģ":1759,"Ġê²½ì°°":1760,"ĠìĻĢ":1761,"ìŀ¥ê´Ģ":1762,"Ġê·¼ëį°":1763,"Ġì°¾":1764,"ì¹ĺëĬĶ":1765,"ĠêµŃë¯¼ìĿĦ":1766,"Ġì§Ī":1767,"ëĺĲ":1768,"ê·¸ëĥ¥":1769,"ìĬ¤ëŁ½":1770,"ëĤ¬":1771,"ìĸ¼":1772,"ĠìŀĪìĹĪ":1773,"ìļ´ëıĻ":1774,"ĠëĭĪëĵ¤ìĿ´":1775,"į©":1776,"Ġë¨¸ë¦¬":1777,"ê´":1778,"Ġíķ©ëĭĪëĭ¤":1779,"Ġë¹¨ë¦¬":1780,"Ġ\"":1781,"ëī´ìĬ¤":1782,"ìħĶ":1783,"ĠíĮ¨":1784,"ãħĩ":1785,"ĠíĥĪ":1786,"Ġì¶©":1787,"Ġìĸ´ëĸ¤":1788,"ìĺ¥":1789,"ê¿":1790,"ãħħ":1791,"ìĿ¼ë³´":1792,"íĶĮ":1793,"ëĨ":1794,"Ġë°ĽìķĦ":1795,"ĠìĿ´ê±´":1796,"ĠìĦ¸ê³Ħ":1797,"Ġíķµ":1798,"ĠìłģíıĲ":1799,"Ġì§ľ":1800,"ê²½ìĽĲ":1801,"ë¦¼":1802,"Ġãħħ":1803,"ĠëĮĢêµ¬":1804,"ëĭ¤ë©´":1805,"ê²ģ":1806,"ì£¼ëĬĶ":1807,"ëĲĺëĬĶ":1808,"ĠëĮĢê¹¨ë¬¸":1809,"Ġìĭľìŀĳ":1810,"ĠìĻĦìłĦ":1811,"íĥĵ":1812,"ĠìĤ¬ëŀĮëĵ¤ìĿ´":1813,"ìĿ¸ê°Ħ":1814,"Ġëĸ¨ìĸ´":1815,"ìŀĲë¦¬":1816,"Ġê°Ģì§ľ":1817,"Ġìŀ¥ê´Ģ":1818,"ì¹´":1819,"ê¸°ëıĦ":1820,"Ġìį¨":1821,"Ġê¶Įëł¥":1822,"ëĭ¹ìĿĢ":1823,"ĠìłĦë¶Ģ":1824,"ìĥĿê°ģ":1825,"Ġëıħìŀ¬":1826,"ì²´ë":1827,"Ġ~":1828,"ĠìĿ´ëŁ¬":1829,"ëķĮë¬¸ìĹĲ":1830,"ì§Ģê°Ģ":1831,"ê¸°ìĤ¬":1832,"Ġê¹ĢìłķìĿĢ":1833,"ãĦ´":1834,"ëł¸":1835,"ĤĺëĿ¼":1836,"ë»Ķ":1837,"Ġë»Ķ":1838,"Ġì¡´":1839,"ìĿ´ëŁ¬":1840,"ì¡°ê±´":1841,"ì¯":1842,"ìŀ¥ìĿ´":1843,"êµĲìķĪ":1844,"Ġê²°êµŃ":1845,"ĠìĽĶ":1846,"Ġë³´ìĹ¬":1847,"Ġãħł":1848,"Ġë¨¼ìłĢ":1849,"ãħīãħī":1850,"ìĶ©":1851,"ĠìĤ¬ê¸°":1852,"ĠìĹ¬ë¡ł":1853,"ë¶ģíķľ":1854,"»¤":1855,"ìī":1856,"Ġêµ¬ìĨį":1857,"ìĿ´ê²Į":1858,"Ġë§ĪìĿĮ":1859,"Ġíĺ¼":1860,"Ġìŀ¬ìķĻ":1861,"ĠìĭľíĤ¤":1862,"ĠìķĦëĭĺ":1863,"Ġë°¥":1864,"ĥĲ":1865,"ë¡Ģ":1866,"ìĤ¼":1867,"ëĵ¤ìĹĲê²Į":1868,"ì°©ìĻľêµ¬":1869,"íķŃ":1870,"ĠìŀħêµŃ":1871,"ìĿ´ìłľ":1872,"ëł¤ëĿ¼":1873,"ëĳ¥":1874,"ĠëĩĮ":1875,"ĠëĦĪíĿ¬":1876,"ëŁī":1877,"ê²Ģì°°":1878,"Ġëķ":1879,"ĠìĹ¬ê¸°":1880,"Ġì²ĺë²Į":1881,"ìĸ´ëĤ":1882,"ê¹Ŀ":1883,"¥Ĳ":1884,"ê°ľíĺģ":1885,"íļ":1886,"ê°Ģê³ł":1887,"ĠíķŃ":1888,"íķĺë©°":1889,"±Ļ":1890,"Ġìļ©":1891,"ëł´":1892,"Ġê±°ì§ĵë§Ĳ":1893,"ĠìĭĿ":1894,"Ġì§Ģëĵ¤":1895,"Ġìĸĺê¸°":1896,"ªħ":1897,"ë¬¸ìŀ¬ìķĻ":1898,"ëĿ¼ìĿ´":1899,"íĮħ":1900,"ì²©":1901,"ĠëĶ±":1902,"ìµľ":1903,"ĠìķĦëĭĪë©´":1904,"Ġíĺĳ":1905,"ì¡´":1906,"ì¢ĮíĮĮ":1907,"ëĮĢê°Ģë¦¬":1908,"ĠëĤ´ëł¤":1909,"Ġê·Ģ":1910,"ëĭĮ":1911,"Ġëį°":1912,"18":1913,"ìĮį":1914,"Ġíŀĺëĵ¤":1915,"íķĺìĦ¸ìļĶ":1916,"ĠíĤ":1917,"íĻķ":1918,"ĠíĿ¬":1919,"ê°ĳ":1920,"ĠíĺĦìĭ¤":1921,"ìłķì¹ĺ":1922,"ĠíķĺëĬĶëį°":1923,"Ġê·¸ëŀĺìĦľ":1924,"Ľë¶Ī":1925,"ëĨĪëĵ¤":1926,"Ġëª»íķľ":1927,"íķ´ìķ¼ì§Ģ":1928,"Ġ7":1929,"Ġê±±ìłķ":1930,"Ġ,":1931,"ë¥ĺ":1932,"Ġìłķìĥģ":1933,"ì¡°ìĤ¬":1934,"ìĪĺìŀĪ":1935,"ê²ĥìĿ´ëĭ¤":1936,"Ġëĭ¤ëĭĪ":1937,"ĠìĤ¬ê³ł":1938,"ìĽĶíĺ¸":1939,"ë°ĸìĹĲ":1940,"ìĬ¤ë¡ľ":1941,"ì¡°ìŀĳ":1942,"íĸĪëĬĶëį°":1943,"ë´ĲëĿ¼":1944,"ĠíĸīëıĻ":1945,"Ġë¨¸":1946,"ê±´ê°Ģ":1947,"Ġì§ĢìĽĲ":1948,"ì£¼ìĦ¸ìļĶ":1949,"©ëĭĪëĭ¤":1950,"íĹĪ":1951,"ìĵ":1952,"ëĲĺë©´":1953,",,,":1954,"ëĮĢíķľë¯¼êµŃ":1955,"ĠëĤ¨ìŀĲ":1956,"ĠãħĪ":1957,"ĠìŀĪìĿĦ":1958,"¸ë¬´":1959,"Ġê¸°ìŀĲ":1960,"ë´ī":1961,"Ġë©į":1962,"íĺĳ":1963,"íķ´ë´Ĳ":1964,"Ġìĸ´ëĬĲ":1965,"ĠìĹĦì²Ń":1966,"Ġëª¨ë¥´ëĬĶ":1967,"ãĦ¹":1968,"Ġëī´ìĬ¤":1969,"Ġìĭľê°Ħ":1970,"ì·¨":1971,"ĠêµŃë¯¼ìĿĺ":1972,"Ġëĵ£":1973,"ĠëģĮ":1974,"ĠìłĦëĿ¼ëıĦ":1975,"íķľëį°":1976,"ìķŀ":1977,"ê¼¬":1978,"ëĮĵê¸Ģ":1979,"Ġíķ´ëıĦ":1980,"ĠìķĦëĭĪëĥĲ":1981,"ìķĦë¨¹":1982,"Ġìĸ´ì©Į":1983,"Ġë¬´ì¡°ê±´":1984,"Ġëĭ¤ìĿĮ":1985,"ìłĢëŁ°":1986,"Ġìłķì±ħ":1987,"Ġãħİãħİ":1988,"íĺ¹":1989,"ĠìĤ¬ê³¼":1990,"Ł¼íĶĦ":1991,"ëł¤ëĬĶ":1992,"ĠíķĺëĬĶê±°":1993,"ãĦ·":1994,"ëŀį":1995,"ëĢ":1996,"ħĦ":1997,"Ġê²ĥìĿ´":1998,"ì±Ħ":1999,"Ġìĸ´ì°Į":2000,"ìĹĩ":2001,"Ġ!":2002,"......":2003,"ãħ¡ãħ¡":2004,"Ġì¤ĳìļĶ":2005,"ĠíĤ¤":2006,"ìłķë§Ĳ":2007,"ĠëĲĺëĬĶ":2008,"ĠëĤľë¦¬":2009,"Ġê°ĸ":2010,"ê¹Ĳ":2011,"Ġê²ĥìĿ´ëĭ¤":2012,"ëĭ¥":2013,"ì¹¨":2014,"ë¬¸ìłľ":2015,"Ġê°ĢëĬ¥":2016,"ĠëĬ¥":2017,"ê¸°ê³ł":2018,"Ġë§Įëĵ¤ìĸ´":2019,"§Ī":2020,"ĠìĿĳìĽĲ":2021,"Ġê°Ģì§Ģê³ł":2022,"Ġê°ĳ":2023,"Ġìĸµ":2024,"ĠíĦ°":2025,"ê±°ìķ¼":2026,"Ġë³ĳ":2027,"ìķĺëĭ¤":2028,"Ġìķķ":2029,"íķĺê²ł":2030,"Ġì§ĢìĹŃ":2031,"Ġìį©":2032,"ìľ¤":2033,"ìĪĺì²ĺ":2034,"ĠëıĦëĮĢì²´":2035,"íĭĢ":2036,"Ġì§ĳëĭ¨":2037,"ì¼Ģ":2038,"ì½":2039,"íķĺëįĺ":2040,"ĠëĮĢëĭ¨":2041,"ëĲĲ":2042,"ëħĲ":2043,"Ġê°ģ":2044,"Ġê°Ģìŀ¥":2045,"ê±´ì§Ģ":2046,"Ġë§ĺ":2047,"Ġë¨¹ê³ł":2048,"ëģ¼ë¦¬":2049,"ê·Ģ":2050,"íķ´ë³´":2051,"ðŁĺ":2052,"ê·ľ":2053,"Ġë²ł":2054,"ìĦŃ":2055,"ì°į":2056,"ëıĦë¡Ŀ":2057,"íĤ¨":2058,"ëĵ¤ë§Į":2059,"ìķĦìļĶ":2060,"ìĬ¬":2061,"ëĤ¨ë¶Ī":2062,"Ġê¶ģ":2063,"ĠëįĶë¶Ī":2064,"íį¼":2065,"ìĿ¸ìĿĢ":2066,"Ġëĥ":2067,"Ġë³µ":2068,"Ġê³µë¬´ìĽĲ":2069,"Ġê°Ļëĭ¤":2070,"Ġë°Ģ":2071,"ëįķ":2072,"ĠìĿĮ":2073,"ĠìłĲ":2074,"Ġë³¼":2075,"ìĦłê±°":2076,"Ġíķ´ìĦľ":2077,"Ġë³´ëĤ´":2078,"ëª°":2079,"ìĹĪëĬĶëį°":2080,"ĠìĦľìļ¸":2081,"Ġë¿Ĳ":2082,"ìĤ´ë":2083,"Ġíķ´ê²°":2084,"ëĵ¤ê³ł":2085,"ĠíĶĦ":2086,"Ħ¸":2087,"ëı¼":2088,"ì§Ģì§Ģ":2089,"ìĦ¸ê¸Ī":2090,"ìĿ´ë²Ħ":2091,"ĠìĤ¬ê±´":2092,"³¤":2093,"Ġê²ĢìĤ¬":2094,"ĠëĨĴ":2095,"ĠìķĪë³´":2096,"ìĦ¸ê³Ħ":2097,"Ġëĭ¬ì°½":2098,"Ġëĳĺ":2099,"ìĹŃìĭľ":2100,"ë¦¬ì§Ģ":2101,"ìĪĺëıĦ":2102,"íķľê²Į":2103,"Ġíķĺë£¨":2104,"ëĤĺëĬĶ":2105,"ëĤĺìĦľ":2106,"Ġíĺķ":2107,"ìŀĲëĵ¤ìĿ´":2108,"Ġë§Įëĵł":2109,"ĠëĤĺìģľ":2110,"ì¸µ":2111,"ĠìĻ¸êµŃ":2112,"ë¥´ê³ł":2113,"ĠìĹĨìĿ´":2114,"ë¨¸ëĭĪ":2115,"ë°Ľê³ł":2116,"ĠìĿ´ìłł":2117,"ĠìĻ¸êµĲ":2118,"ĠëĮĢê°Ģë¦¬":2119,"íĬ¼":2120,"ª¨":2121,"ë¨¼":2122,"ĠìĹŃìĤ¬":2123,"ëĵľëĬĶ":2124,"Ġ'":2125,"ĠìĶ¨":2126,"ëł¤ë©´":2127,"Ġê²ģ":2128,"ĠëĶ°ëĿ¼":2129,"Ġê°ĢìĦľ":2130,"íĥģ":2131,"ê°Ħëĭ¤":2132,"Ġê±¸ë":2133,"ëĬĶê±°ìķ¼":2134,"Ġì§ķ":2135,"ĠëĲľëĭ¤":2136,"Ġìĩ¼":2137,"ĠìļĶì¦ĺ":2138,"ìĿ¼ìĿ´":2139,"Ġ8":2140,"ê·¸ëŁ¼":2141,"ìŀĲë¥¼":2142,"ìĹĲìĦľëĬĶ":2143,"ëĵľìĭľ":2144,"Ġ30":2145,"Ġìĭľë¯¼":2146,"ìĦ¸ë¨":2147,"ĠìłĦìŁģ":2148,"ĠìĿ´ê±°":2149,"ìĭ¬íŀĪ":2150,"¸ë¹ł":2151,"Ġëª»íķĺëĬĶ":2152,"ê²ĥëĵ¤ìĿ´":2153,"ìŀĲíķľëĭ¹":2154,"ëĲĺê³ł":2155,"ĠìłĢëłĩê²Į":2156,"ĠëĶ¸":2157,"Ġê³µê°ľ":2158,"ãħĪ":2159,"Ġì°¬":2160,"Ġë¯¸ëŀĺ":2161,"Ġê°ĻìĿĢëį°":2162,"ĠìŀĪëĦ¤":2163,"Ġì§Ģì§Ģìľ¨":2164,"ìĦ¸ë¨¼ì§Ģ":2165,"ĠìĤ¬ìĿ´":2166,"Ġì±Ļ":2167,"ëĤĺìĺ¤":2168,"Ġì«":2169,"ìĿĦëķĮ":2170,"ĠíĴĢ":2171,"Ġìļ°ë¦¬ê°Ģ":2172,"ĠëĮĢíĨµëł¹ìĿ´":2173,"ĠìĿ¸ë":2174,"ĠëĤĺìĺ¨":2175,"Ġìµľê³ł":2176,"ë³´ëĦ¤":2177,"ëĿ¼ì§Ģ":2178,"ëŀĲ":2179,"Ġë¶Ļ":2180,"íķĳ":2181,"Ġê¸¸":2182,"Ġìķŀìľ¼ë¡ľ":2183,"ĠìŀĪìľ¼ë©´":2184,"ĠëĭĪëĦ¤":2185,"ĠìŀĪëĤĺ":2186,"Ġê·¸ê±¸":2187,"Ġê°ľíĺģ":2188,"ë³´ëĭĪ":2189,"ìĭ¬ìĿ´":2190,"ë³¸ë":2191,"Ġ9":2192,"ì¹ł":2193,"Ġë°©ìĨ¡":2194,"ĠíĹĽ":2195,"Ġê·¸ëŀĺëıĦ":2196,"ê²¼":2197,"ìĭĿìĿ´":2198,"ãĦ±":2199,"íĶĦë¡ľ":2200,"Ġì¦Ŀê±°":2201,"ëĴ":2202,"ì¿":2203,"ì³¤":2204,"¯¼":2205,"ìĪ¨":2206,"ë¯¸êµŃ":2207,"Ġê°Ķ":2208,"ë°Ķë¦¬":2209,"ë¸Į":2210,"ìĿ´ëĵ¤":2211,"Ġì¹¨":2212,"Ġë¶ĢëģĦ":2213,"íķłëķĮ":2214,"Ġê¸°ëłĪê¸°":2215,"ĬìĿĢ":2216,"ĦĪ":2217,"ëĮĢíĳľ":2218,"Ķì§ģ":2219,"íİĺ":2220,"¡ľëĤ¨ë¶Ī":2221,"Ġëģ¼":2222,"Ġì§Ħìłķ":2223,"Ġê¸ī":2224,"ê²¹":2225,"íķĻìĥĿ":2226,"ĠëĦĺìĸ´":2227,"ĠìĹŃìĭľ":2228,"Ġì´Ľë¶Ī":2229,"Ġì°©":2230,"ìķķ":2231,"ë¯¼ì£¼ëĭ¹":2232,"¦Ħ":2233,"ĠìĬ¹":2234,"ĠíĨłì°©ìĻľêµ¬":2235,"ãħĤ":2236,"¿Į":2237,"Ġê¿":2238,"Ġìı":2239,"ĠìĿ¼ë°ĺ":2240,"ìĩ¼":2241,"ëĮĢê°Ģ":2242,"ë°ķê·¼íĺľ":2243,"ê·¸ë¦¬":2244,"Ł´":2245,"ì§Ģë§ĪëĿ¼":2246,"ĠìŀĪê³ł":2247,"íĽĪ":2248,"ĠìĦľë¯¼":2249,"ĠêµĲìľ¡":2250,"Ġì§Ģì¼ľ":2251,"´ëĿ¼":2252,"Ġë©Ķ":2253,"Ġìĸ¼êµ´":2254,"Ġì§ĢëŀĦ":2255,"íı°":2256,"ìĦĿìĹ´":2257,"ì§¸":2258,"ĠìĤ¬ëĬĶ":2259,"ìĽĲìĿ´":2260,"Ġê´ľ":2261,"Ġê³³":2262,"ìŀĲê¸°":2263,"Ġë¶Īë²ķ":2264,"Ġëĵ¯":2265,"Ġë§¤êµŃ":2266,"ìłľë°ľ":2267,"ĠìĿ´ìķ¼":2268,"ë¦¬ë¥¼":2269,"ĠìĿĢ":2270,"Ġë§ĲìĿĦ":2271,"ĠìĤ¼ìĦ±":2272,"ĠìľĦíķľ":2273,"Ġë¬´ìĭľ":2274,"Ġì°Į":2275,"ëĿ¼ë©´":2276,"ë§Īëĭ¤":2277,"Ġì¹ľìĿ¼íĮĮ":2278,"ĠìĬ¤ìĬ¤ë¡ľ":2279,"ĠìĪ¨":2280,"Ġìķłëĵ¤":2281,"ìķ¼íķľëĭ¤":2282,"Ġìłķìĭłì°¨":2283,"íķĦ":2284,"Ġì°½":2285,"ìĿ¸ìĿĺ":2286,"ìĿ´íĮħ":2287,"Ġë¶ĪìĮį":2288,"ĠìķĶ":2289,"ĠíĬ¸ë":2290,"ĠìķĮë°Ķ":2291,"Ġìĭľì¼ľ":2292,"ëĪĪ":2293,"Ġìŀł":2294,"Ġê°ľìĨĮë¦¬":2295,"Ġë¶Ģìłķ":2296,"ĠëĬ¥ëł¥":2297,"ĠìĹħ":2298,"Ġêº¼":2299,"ìŀĶ":2300,"Ġ50":2301,"Ġë°ĿíĺĢ":2302,"ëªħìĿ´":2303,"ê³¨":2304,"ì§Ŀ":2305,"ĠìłľìĿ¼":2306,"ë§ĪëĶĶ":2307,"Ġì§Ħìĭ¤":2308,"ĠìķĪëĲĺëĬĶ":2309,"ì¦Ī":2310,"Ġìłķë¶Ģê°Ģ":2311,"ìļ°ë¦¬ëĤĺëĿ¼":2312,"Ġê³¨":2313,"ìĪĺì¤Ģ":2314,"ê°ĸ":2315,"ĠíĻķìĭ¤":2316,"ëıĻìĤ°":2317,"ë¹¨ê°±ìĿ´":2318,"Ġê²°ê³¼":2319,"Ġê°Ģë§Į":2320,"ì§Ģë©´":2321,"ìľ¼ë©´ìĦľ":2322,"ëĥ¥":2323,"ëĿ¼ìĦľ":2324,"ì°¨íĶ¼":2325,"Ġë¬¸ìłľê°Ģ":2326,"ìĥģìĿ´":2327,"Ġíģ¬":2328,"ĠìķĬëĬĶ":2329,"ĠìĹĨìķł":2330,"ì°®":2331,"ë©Ķ":2332,"ìĻķ":2333,"ĠìĤ¬ëŀĮìĿĢ":2334,"ê¸Īì§Ģ":2335,"íĸĪëĭ¤ê³ł":2336,"ìķĦëĭĮ":2337,"¸ëĤĺ":2338,"Ġê±°ì§Ģ":2339,"ë©į":2340,"Ġë¦¬":2341,"ìĵ°ëłĪê¸°":2342,"ëĤľëĭ¤":2343,"ëŀĢëĭ¤":2344,"Ġëª»íķĺê³ł":2345,"´ë°":2346,"ëĬĶê±°ëĭ¤":2347,"ì§Ħëĭ¤":2348,"ëįľ":2349,"ĠíĮ©":2350,"ĠìķĦë¬´ë¦¬":2351,"ê³łìĭ¶":2352,"ìĽĮìĦľ":2353,"ĠíĪ¬íĳľ":2354,"ĠìķĬê³ł":2355,"ĠëĦĮ":2356,"¸ë¬´íĺĦ":2357,"Ġë°ĸìĹĲ":2358,"Ġì¡°ìļ©":2359,"ĠìĹ´ìĭ¬íŀĪ":2360,"êµŃìĹĲ":2361,"ëĵ¤ê³¼":2362,"ëĺ¥":2363,"ĮĢë¡ľ":2364,"ê´´":2365,"ëĢĮ":2366,"Ġê³µë¶Ģ":2367,"ĠìĿ¼ë²ł":2368,"Ĳĺ":2369,"ìĸ´ìķ¼ì§Ģ":2370,"ê°ĢìļĶ":2371,"Ġìŀ¡ìķĦ":2372,"Ġë¬¸ì£Ħ":2373,"ĠìĿ¸ê¶Į":2374,"ìĪŃ":2375,"ê²łì§Ģë§Į":2376,"ì©Ŀ":2377,"ìł¸ëĿ¼":2378,"ë¦¬ë©´":2379,"Ġê²ĥëıĦ":2380,"íĬ¹":2381,"Ġë¬´ìĭĿ":2382,"Ġê´Ģìĭ¬":2383,"íķłìĪĺ":2384,"ëĲ¨":2385,"ìĭľëĮĢ":2386,"Ġíĥĵ":2387,"Ġë©Ģ":2388,"20":2389,"Ġëħ¸ë":2390,"ĠíķĺëĦ¤":2391,"ĠìĿ¼ë³¸ìĿ´":2392,"ìłģìĿ´":2393,"ĠíĻ©êµĲìķĪ":2394,"ì¶ķ":2395,"Ġíķ´ìķ¼ì§Ģ":2396,"ìŀĪëĭ¤":2397,"ë¶Ģë¶Ħ":2398,"Ġì¤ĳêµŃìĿ¸":2399,"ìĿĢê±°":2400,"Ġë©´":2401,"ĠëįĶëŁ¬ìļ´":2402,"Ġë°ĺìĿ¼":2403,"Ġë©įì²Ń":2404,"ë©´ë":2405,"ĠëĲĲ":2406,"ëĿ¼ë¦¬":2407,"ĠìķĪíķĺê³ł":2408,"ĠìŀĪëĥĲ":2409,"ĠìŀĪìľ¼ëĭĪ":2410,"ĠìĿ´ë¦Ħ":2411,"ì¤Į":2412,"ìĸ¸ë¡ł":2413,"ë¬´ë¶Ģ":2414,"ĠíıīíĻĶ":2415,"ìĩ":2416,"Ġãħ¡ãħ¡":2417,"ĠìķĬìķĺ":2418,"ëĮ":2419,"ĠëĮĢíĳľ":2420,"ĠìĿ¸ìĥĿ":2421,"ĠëĤĺê²½ìĽĲ":2422,"ĠìĦ¸ìĽĶíĺ¸":2423,"Ġê³µìĪĺì²ĺ":2424,"ìĭłì²ľì§Ģ":2425,"Ġë²Ī":2426,"Ġíķĺë©´ìĦľ":2427,"Ġë¬´ìĦľ":2428,"Ġìķī":2429,"Ġê²ĥìĿĢ":2430,"ìģĺ":2431,"ìĿ´ëŁ¬ìĬ¤":2432,"Ġì§ĢëĤĺ":2433,"Ġë³´ëĭĪ":2434,"Ġë³´ëĭ¤":2435,"Ġãħłãħł":2436,"Ķì§ģíŀĪ":2437,"ê²ģëĭĪëĭ¤":2438,"ĠìķĬìĿĢ":2439,"Ġë´ĲëĿ¼":2440,"ĠìĽĶê¸ī":2441,"ìĹĲìĦľëıĦ":2442,"ĠëŃĲëĥĲ":2443,"ê±°ëĿ¼":2444,"ìĪľìĭ¤":2445,"ê°Ļëĭ¤":2446,"ìķĦì¹ĺ":2447,"ĠìĹ¬ìĦ±":2448,"ìĪĻ":2449,"ë°¥":2450,"Ġì¶ķ":2451,"Ġìĸ´ëĶĶìĦľ":2452,"ìĤ¬íļĮ":2453,"Ġì»¤":2454,"Ġíķĺìĭľ":2455,"ŀ¬":2456,"ìķĦì§ģ":2457,"ê·¼ëį°":2458,"Ġëª¨ë¥´ê³ł":2459,"Ľ°":2460,"ê³µìĤ°":2461,"ëĬĶêµ¬ëĤĺ":2462,"Ġê²©":2463,"ê²ĥìĿĦ":2464,"ê²Ł":2465,"ê²ĥìĿĢ":2466,",,,,":2467,"ìĤ¬ìĿ¼":2468,"ĠëĤĺê°Ģ":2469,"ê¸°ë¡ľ":2470,"Ġë°ĺëĵľìĭľ":2471,"ê±°ëĵł":2472,"ìŀ¬ìķĻ":2473,"ìľ¼ëĭĪê¹Į":2474,"ëĵ¤íķľíħĮ":2475,"ìļ±":2476,"ĠìķĪëĲľëĭ¤":2477,"§Ĳ":2478,"êµ¬ìļĶ":2479,"Ġìļ°íķľ":2480,"ë´¤":2481,"Ġì±Ħ":2482,"ĠìķĮìķĦ":2483,"ëĭĪê°Ģ":2484,"íķĺëĿ¼ê³ł":2485,"Ġìĺ¤ëĬĺ":2486,"ìĤ¬ëŀĮìĿ´":2487,"ĠìŀĪì§Ģ":2488,"ĠìŀĦëªħ":2489,"Ġëª¨ìĬµ":2490,"Ġë§ĪëĿ¼":2491,"Ġëĭ¹ìŀ¥":2492,"ëł¤ìĦľ":2493,"Ġê¶ģê¸Ī":2494,"ĠêµŃë¯¼ëĵ¤ìĿĢ":2495,"ĠíĬ¸ëŁ¼íĶĦ":2496,"ë¯¸ë":2497,"íķľêµŃëĭ¹":2498,"Ġëı¼ì§Ģ":2499,"Ġìĥī":2500,"ëĮĢëĬĶ":2501,"ìĪĺìĤ¬":2502,"ëĭ¤ëĬĶê²Į":2503,"ì§±":2504,"ĠëĤĺëıĦ":2505,"Ġê·¸ëķĮ":2506,"Ġë¬¸ìŀ¬ìĿ¸ìĿ´":2507,"Ġë¯¼ì£¼ì£¼ìĿĺ":2508,"Ġë°ĺìĦ±":2509,"³µ":2510,"ŀĢ":2511,"Ġë»Ķë»Ķ":2512,"Ġë´¤":2513,"Ġìĸ´ëł¤":2514,"ĠìĿ´ëĤĺëĿ¼":2515,"ìŀ¥ìĿĦ":2516,"ĠíĮĲëĭ¨":2517,"Ġìĺ¬ëĿ¼":2518,"Ġë¶Īë§¤":2519,"Ĥ¨":2520,"ìŀĲê³ł":2521,"Ġì¢ħêµĲ":2522,"¦ĩ":2523,"Ġê·¸ëŁ°ëį°":2524,"ĠìĤ¬íĺķ":2525,"ì¤¬":2526,"ëĴ¤":2527,"ĠìĿ¸ê°ĦìĿ´":2528,"ĠìĿĺë£Į":2529,"Ġê°Ħì²©":2530,"íŀĪëł¤":2531,"ëĤ´ê°Ģ":2532,"Ġë°Ľê³ł":2533,"ìĹĨê³ł":2534,"Ġê±°ê¸°":2535,"ĠëĶĶ":2536,"ëŀįëĭĪëĭ¤":2537,"¨ëĤł":2538,"ĠíķĻêµĲ":2539,"ĠìĹ¬ëŁ¬":2540,"Ġë§ĲëıĦ":2541,"ê±¸ë¡ľ":2542,"ĠãħĤ":2543,"íķ´ìļĶ":2544,"Ġìĸĳìĭ¬":2545,"íĤ¹":2546,"ĠìĿ¸ê°Ħëĵ¤":2547,"ìŀĲëĤĺ":2548,"Ġë´ī":2549,"ê°Ģì¡±":2550,"Ġìĭ«ìĸ´":2551,"ìĿ´ìĹĪ":2552,"ëįĺê°Ģ":2553,"ìĿ¸ê±°":2554,"ë¨¸ë¦¬":2555,"Ġì¡°ê¸Ī":2556,"ĠëĤ´ë¡ľëĤ¨ë¶Ī":2557,"ìĿ¸ëĵ¤ìĿ´":2558,"Ġëĸ¨":2559,"ìĿ¸ëĭ¤":2560,"ĠìĤ¬ëŀĮëĵ¤ìĿĢ":2561,"ë§ĲìĿ´":2562,"ĠìĿĺìĽĲ":2563,"Ġì¥Ĳ":2564,"ĠìĥĿê°ģìĿ´":2565,"¸ëłĪ":2566,"ìł¸ìķ¼":2567,"Ġëĭ¤ëĵ¤":2568,"ĠìķĪíĥĢ":2569,"Ġì²ĺìĿĮ":2570,"Ġê°ĲìĤ¬":2571,"ìĭĿìľ¼ë¡ľ":2572,"ĠìĤ¬ëĿ¼":2573,"ĠíĻķì§Ħ":2574,"ëĬĶê±°ëĥĲ":2575,"Ġë¹ĦêµĲ":2576,"ìĭľìŀ¥":2577,"ìĦ¼":2578,"ìłķíĿ¬":2579,"íķĺì§Ģë§Į":2580,"ê°Ģì§Ģê³ł":2581,"ĠíķĻìĥĿ":2582,"ìĻĦ":2583,"ĠëĦĪëĦ¤":2584,"ìĸ´ë²Ħ":2585,"ĠëĤ«":2586,"ìļ°ê³ł":2587,"ĠëıĦìĻĢ":2588,"ìĽħ":2589,"ìĦ¸ëł¥":2590,"Ġê²°íĺ¼":2591,"ĠëĴ·":2592,"ĠëħĦ":2593,"ìĥģëıĦ":2594,"ľĺ":2595,"Ġê½":2596,"ìĹĦ":2597,"ë¹µ":2598,"ĠìľĦíķ´ìĦľ":2599,"ðŁĲ":2600,"ìĭľíĤ¤ê³ł":2601,"Ġê°ĲìĹ¼":2602,"ĠìĦľë¡ľ":2603,"ì§Ģë¥¼":2604,"Ġíĺ¼ìŀĲ":2605,"ĠìķĦëĬĶ":2606,"íķĺëĭ¤ê³ł":2607,"ĠìĪł":2608,"ìŀĲìľł":2609,"!!!!!!!!":2610,"Ġë¯¸ìĦ¸ë¨¼ì§Ģ":2611,"Ġê³µìłķ":2612,"íĸĪëįĺ":2613,"ëĤ´ê³ł":2614,"íŀĺ":2615,"Ġê°ľìĿ¸":2616,"ìĿ´ëĿ¼ë©´":2617,"Ġë¹ĦíĮĲ":2618,"Ġì¤ĺ":2619,"Ġê°Ģì§ľëī´ìĬ¤":2620,"ĠíķĺëĥĲ":2621,"ë¥¸ë":2622,"ìĦłëıĻ":2623,"ê¹ĮìļĶ":2624,"ë§¹":2625,"¬¼":2626,"ĠêµĲíļĮ":2627,"Ġìĭ¶ëĭ¤":2628,"Ġíħ":2629,"ĠëĨĪëĵ¤":2630,"Ġëª¸":2631,"ĠëķĮë¬¸":2632,"ë²Ķì£Ħ":2633,"Ġê±´ë":2634,"Ġê³µìĤ°ì£¼ìĿĺ":2635,"Ġì§ĢíĤ¤":2636,"¶Ħ":2637,"ë¯¸ì¹ľ":2638,"ëĭ¨ì²´":2639,"ĠìŀĪìĬµëĭĪëĭ¤":2640,"ĠìĿ½":2641,"ĠëĤĺìĦľ":2642,"ë³´ìĪĺ":2643,"ë°Ģ":2644,"ê·¸ëŁ°":2645,"ãħłãħł":2646,"000":2647,"ĠìĿ´ìľłê°Ģ":2648,"ãĦ²":2649,"ìĦ±ìĿĦ":2650,"Ġê³¼ê±°":2651,"Ġíļ":2652,"ì¢Įë¹¨":2653,"Ġì°¾ìķĦ":2654,"ĠìŀĪëĭ¤ê³ł":2655,"ĠìĹĨëĦ¤":2656,"Ġê³µìĤ°ëĭ¹":2657,"ĠìĤ¬íĩ´":2658,"ĠìĤ¬íļĮì£¼ìĿĺ":2659,"Ġì¡°êµŃìĿ´":2660,"ë°Ķë¡ľ":2661,"Ġíķĺì§Ģë§Į":2662,"ê°Ģë©´":2663,"ë§Įíģ¼":2664,"ê»Ħ":2665,"Ġì§Ħë³´":2666,"ĠíıīìĥĿ":2667,"ìĭ«":2668,"ĠëĤĺëĬĶ":2669,"Ġì¹´":2670,"íĺ¸ë":2671,"Ġíİĺ":2672,"----":2673,"ì§ĳëĭ¨":2674,"ðŁĴ":2675,"ë¥ł":2676,"ì§ĢìļĶ":2677,"ëħ¸ì´Ŀ":2678,"êµŃìĿ´":2679,"ĠíķľêµŃëĭ¹":2680,"ĠíĭĢëĶ±":2681,"ĠëĦ£":2682,"íķĺëĬĶê±´":2683,"Ġìļ´ëıĻ":2684,"ìĸ´ë³´":2685,"Ġìłķìĭłë³ĳ":2686,"íĻį":2687,"ê·¸ëŀĺìĦľ":2688,"Ġë¶ĢëıĻìĤ°":2689,"íĴĢ":2690,"ĠìĻĶ":2691,"Ġìĵ´":2692,"ëķħ":2693,"ìĿ´ê±´":2694,"ĠíķĺëĬĶê²Į":2695,"ëĤĺë©´":2696,"ĠíĸĪëĬĶëį°":2697,"êµĲìľ¡":2698,"ĠìĤ¶":2699,"Ġì©":2700,"ðŁĳ":2701,"ë¥´ëĬĶ":2702,"Ġë§ŀëĬĶ":2703,"íŀĮ":2704,"ê°ĢëĿ¼":2705,"íĢ":2706,"ĠíĥĿ":2707,"ĠìŀĶ":2708,"ìķĦì£¼":2709,"ĠìŀĪìĸ´":2710,"ë¦°ëĭ¤":2711,"Ġì¢ĭê²łëĭ¤":2712,"ê³µìŀĲ":2713,"ĠìķĦëĥĲ":2714,"ì§Ģë§Ī":2715,"Ġìĺ¤íŀĪëł¤":2716,"Ġë¬´ìĹĩ":2717,"ìĹĲìļĶ":2718,"Ġë¬»":2719,"Ġê³§":2720,"ëĭĺìĿ´":2721,"Ġìĭ¹":2722,"ìĿ´ë²Ī":2723,"ëĶ©":2724,"ìĹĲìĦł":2725,"ĠìĤ¬ìļ©":2726,"Ġíķľëĭ¤ê³ł":2727,"ħëĭĪëĭ¤":2728,"íķľê±´":2729,"Ġì²´":2730,"ĠëĮĢì²´":2731,"ìĬ¤íĬ¸":2732,"ëĺĳ":2733,"ëĭ¹ìĭł":2734,"ĠìĿ´ê¸°":2735,"ĠíĻĶìĿ´íĮħ":2736,"Ġêµ°ëĮĢ":2737,"Ġë³´ëĤ":2738,"ĠìķĮìķĺ":2739,"ìĤ¬íĮĮ":2740,"Ġë¿Į":2741,"ëĵ¤ìĿ´ëĭ¤":2742,"ëıĮìķĦ":2743,"ĠíĹĮ":2744,"ë¯¿":2745,"ĠìłĬìĿĢ":2746,"Ġíķ´ìĻ¸":2747,"ĠãĨį":2748,"Ġë¹Į":2749,"Ġíĩ´":2750,"Ġê±°ìĿĺ":2751,"Ġìĭłê²½":2752,"Ġëľ»":2753,"Ġê·ľ":2754,"Ġë²ķë¬´ë¶Ģ":2755,"ìĭľìķĦ":2756,"ìĤ¬ê³ł":2757,"´ë¡ľ":2758,"ëįĶë§Į":2759,"Ġë¬¸ë¹ł":2760,"ĠìŀĲë¹ł":2761,"êµ°ìļĶ":2762,"Ġì§±ê¹¨":2763,"ĠìĹĨëĬĶëį°":2764,"ìĬ´":2765,"ĠìĿ´ëŀĺ":2766,"íķľëĭ¤ëĬĶ":2767,"Ġìĸ»":2768,"Ġìĭ¬íĮĲ":2769,"ĠĠ":2770,"//":2771,"¢°":2772,"ìĸĺ":2773,"ĠíĻľ":2774,"ìĭľëĬĶ":2775,"ĠìŀĲê¾¸":2776,"ĠëĤĺìĻĶ":2777,"Ġê¸°íļĮ":2778,"Ġê¸°ë³¸":2779,"ĠëĵľëŁ¬":2780,"ĠìĿ´ëĿ¼":2781,"ì´Ŀìŀ¥":2782,"ĶëĿ¼":2783,"Ġì¹ĺë£Į":2784,"íļ¨":2785,"ĠìĿ´ëªħ":2786,"Ġëĭ¹ìĹ°íŀĪ":2787,"Ġìłķëĭ¹":2788,"ëľ¨":2789,"ëĨĵ":2790,"ĠëĤĺìĿ´":2791,"ĠìĿ¼ìĿ´":2792,"ĠêµĲìĪĺ":2793,"ĠìĤ¬ì§Ħ":2794,"ĠíļĮìĤ¬":2795,"ĠëĮĢíķĻ":2796,"Ġì¡´ìŀ¬":2797,"ìĿ´ëŀĺ":2798,"ĠëĤ®":2799,"ĠìŀĪìĿĮ":2800,"ê·¹ê¸°":2801,"ĠíĦ¸":2802,"Ġëª°ìķĦ":2803,"ê²łëĭ¤ê³ł":2804,"10":2805,"ĠêµŃëĤ´":2806,"ìĿ¸ì¤Ħ":2807,"ĠëĤĺìĺ¬":2808,"Ġë³´ëĬĶ":2809,"Ġì¢ħë¶ģ":2810,"ëıĦê°Ģ":2811,"ìĭľê¸¸":2812,"Ġê²Ģì°°ê°ľíĺģ":2813,"ëĵ¯ìĿ´":2814,"ĠìĻķ":2815,"ĠìĤ¬ëŀĳ":2816,"Ġë³¸ìĿ¸":2817,"ĠëĭĪëĵ¤ìĿĢ":2818,"ëĳĳ":2819,"Ġë°Ķê¿":2820,"Ġìī¬":2821,"ë¥´ë©´":2822,"ì§Ģë§Ĳ":2823,"ìłľë¡ľ":2824,"ì§Ģê²Į":2825,"Ġì¹ľêµ¬":2826,"ĠìŀĲë¦¬":2827,"ìĽł":2828,"ĠêµŃë¯¼ìĿĢ":2829,"ĠìĿ´ìķ¼ê¸°":2830,"ìłķìĿ´":2831,"ĠëĤĺìĻĢ":2832,"Ġê´Ģëł¨":2833,"ëŃĶ":2834,"ì»":2835,"Ġê·¸ëŁ¬ëĭĪ":2836,"Ġê³łìĥĿ":2837,"ĠëĮĢë¶Ģë¶Ħ":2838,"ĠëĪĪì¹ĺ":2839,"Ġ~~":2840,"Ġê¸°ìĸµ":2841,"ĠìŀĲê²©":2842,"Ġëķħ":2843,"Ġë³´ìĿ´":2844,"´ëĤĺ":2845,"Ġìĸ´ë¦°":2846,"ìĿ´ë¡ľ":2847,"ìĺģìĹħ":2848,"Ġìŀ¥ëĤľ":2849,"Ġëħ¸ëł¥":2850,"Ġë¹Ħë¦¬":2851,"ĳĪ":2852,"ê±°ëĥĲ":2853,"ìŀĦê¸Ī":2854,"Ġê°ľíĮĲ":2855,"ĠëĲĺìĹĪ":2856,"ê³¡":2857,"ëł¤ìķ¼":2858,"ëĤĺê³ł":2859,"ëĵ£":2860,"ĠìłķìĿĢ":2861,"ëł¥ìĿ´":2862,"ĠëıĦìĽĢ":2863,"Ġê°Ĳìĺ¥":2864,"ĠìķłêµŃ":2865,"Ġëº":2866,"ĠëĨĵ":2867,"Ġëħ¼ë¦¬":2868,"Ġê²ĥìĿĦ":2869,"ìķĦë²ł":2870,"ëĳĺ":2871,"Ġ(":2872,"íĸĪìľ¼ë©´":2873,"Ġì§Ģëĵ¤ìĿ´":2874,"íķĺì§Ģë§Ĳê³ł":2875,"ëĨĪìĿ´":2876,"ëŀµ":2877,"íĤ¬":2878,"íķĺëĬĶì§Ģ":2879,"ê³¤":2880,"ìĩĦ":2881,"ìĶĢ":2882,"ìī¬":2883,"Ġë§¨ëĤł":2884,"Ġìķ¼ëĭ¹":2885,"ê±¸ë":2886,"ì¯¤":2887,"ĠìłĦíĺĢ":2888,"Ġëħ¸ë¬´íĺĦ":2889,"ìĤ¬ê±´":2890,"Ġë¸":2891,"Ġê·¸ê±°":2892,"ëĲĺìĸ´":2893,"ìĿ¸ìĿĦ":2894,"ëħ¼":2895,"ìĦ¸ìĥģ":2896,"Ġì§ģìłĳ":2897,"ĠìĿ¼ë¶Ģ":2898,"Ġë¬´ìĦŃ":2899,"ë§ĮìĿ´":2900,"ĠíķŃìĥģ":2901,"Ġë¡ľ":2902,"ĠìŀĲì²´ê°Ģ":2903,"ì§ĢìĽĲ":2904,"ĠìķĦëĵ¤":2905,"ë¡ľìļ´":2906,"Ġìī½":2907,"ìķ¡":2908,"ëĪĦê°Ģ":2909,"ìłķìĿĦ":2910,"ĠëįĶë¶Īìĸ´":2911,"Ķ´":2912,"ĠíĹĽìĨĮë¦¬":2913,"Ġìĥģê´Ģ":2914,"!!!!!":2915,"ĠíĽ¨":2916,"Ġíķľë§ĪëĶĶ":2917,"ë¬¸íļĮ":2918,"Ġê±į":2919,"ìļ°ëĬĶ":2920,"ĠëĬĲëĤ":2921,"ìķĦëıĦ":2922,"ì½Ķë¡ľëĤĺ":2923,"ĠíĮ©íĬ¸":2924,"ìłķìĿĺ":2925,"Ġë¶Ħëªħ":2926,"ìĹĺ":2927,"Ġê¸°ëĭ¤":2928,"ê¸°ë§Į":2929,"ì¤ĺìķ¼":2930,"ĠìĤ¬ë²ķ":2931,"ĠãĦ±":2932,"ĠìŀĲìĤ´":2933,"Ġì§Ģê°Ģ":2934,"ê²¹ëĭ¤":2935,"ĠìłĢëŁ¬":2936,"Ġê·¸ëŀ¬":2937,"´ĲëĿ¼":2938,"ë¡±":2939,"Ġë§ĲíķĺëĬĶ":2940,"Ġê¹ľ":2941,"ë¯¼ì£¼ì£¼ìĿĺ":2942,"Ġíķ¨ê»ĺ":2943,"ì²łìĪĺ":2944,"Ġìłķë¶ĢëĬĶ":2945,"ìĿĦíħĲëį°":2946,"ĠìķĦëĭĻ":2947,"Ġìĺ³":2948,"ëĳĲíĻĺ":2949,"ĠìĦłíĥĿ":2950,"Ġíĭ°":2951,"Ġìłĳ":2952,"ìĪĺë¡Ŀ":2953,"Ġì¢ĥ":2954,"Ġì£¼ìŀ¥":2955,"Ġìĵ°ê³ł":2956,"Ġìĭ¬ê°ģ":2957,"ìŀĲëĵ¤ìĿĢ":2958,"Ġì½":2959,"Ġ-":2960,"ëĦ£":2961,"ìķĪë¶Ģ":2962,"ĠëĮĢë³Ģ":2963,"ĠëĤ´ìļ©":2964,"Ġë°©ë²ķ":2965,"Ġíķľìĭ¬íķľ":2966,"Ġì£¼ë³Ģ":2967,"Ġëıħë¦½":2968,"Ġì¡°ìĦłì¡±":2969,"ëģĹ":2970,"ĠìķĦëĭĮëį°":2971,"ĠíĸĪëĭ¤":2972,"ëĤĺëıĦ":2973,"łĪ":2974,"ê·¸ëĦ¤":2975,"íĴį":2976,"Ġì£¼ëĳ¥":2977,"Ġì°¨ëĿ¼ë¦¬":2978,"Ġë°ĶìĿ´ëŁ¬ìĬ¤":2979,"ĠíķĺëĭĪ":2980,"êµŃë¯¼ìĿ´":2981,"ìĵ´":2982,"ì£¼ë©´":2983,"ĠìĹ¬íĸī":2984,"ĠëĤĻ":2985,"ĠíĺĦìŀ¬":2986,"Ġëĺĳê°ĻìĿĢ":2987,"Ġëª©ìĪ¨":2988,"ĠëĲĺìĸ´":2989,"Ġìµľìķħ":2990,"50":2991,"ìĹ¬ìĦľ":2992,"Ġë°ĶëĢĮ":2993,"Ġìĭ¶ìĿĢ":2994,"ëĨĢ":2995,"Ġê¸°ë¶Ģ":2996,"Ġê²ĥëĵ¤ìĿ´":2997,"ëĵłì§Ģ":2998,"Ġì§Ģê¸ĪìĿĢ":2999,"ìĵ°ê³ł":3000,"Ġì§Ħìĭ¬":3001,"ìłķì±ħ":3002,"ëıħìŀ¬":3003,"Ġë§Ľ":3004,"ëĭ¹íŀĪ":3005,"ĠìĹĨìĿĮ":3006,"ìĥĿì¶©":3007,"Ġìĭľìŀ¥":3008,"ë³´ëĬĶ":3009,"ìŀĲë¡ľ":3010,"ëĬĲëĿ¼":3011,"Ġãħĩ":3012,"ĠìľĦíĹĺ":3013,"ê»ı":3014,"ë¶ĦìĿ´":3015,"Ġíĺ¹":3016,"ê°±":3017,"íķĺëĦ¤ìļĶ":3018,"ìŀĲìĭĿ":3019,"íķľë²Ī":3020,"ìĬµëĭĪê¹Į":3021,"ìĤ¬ë¥¼":3022,"ĠìĦ¸ë":3023,"ìĸ´ëĸ":3024,"ì§ĢìĹŃ":3025,"ìĤ¬ìĭ¤":3026,"Ġê·¸ê²ĥëıĦ":3027,"íķ´ìķ¼íķľëĭ¤":3028,"ìļ´ë":3029,"íĦ":3030,"Ġìļ¸":3031,"ìĿ´ë¥¼":3032,"ĠìĿ¼ìĿĦ":3033,"Ġê²ĥëĵ¤":3034,"íķĺëĭĪê¹Į":3035,"Ġìĸ´ì°¨íĶ¼":3036,"Ġì§ĳê°Ĵ":3037,"ĠìµľìłĢ":3038,"Ġê²¬":3039,"íķ©ìĭľëĭ¤":3040,"ĠìĿ´íķ´ê°Ģ":3041,"Ġë©ĭ":3042,"ê¸°ìŀĲ":3043,"Ġê·¸ëĤĺ":3044,"ĠìķĦíĮĮ":3045,"ìĿ´ëĿ¼ëĭĪ":3046,"ë¶ĢëĮĢ":3047,"ĠëĮĢìĿĳ":3048,"ë´ĲëıĦ":3049,"ĠìµľìĨĮ":3050,"Ġì¤Ģë¹Ħ":3051,"Ġë§¤êµŃëħ¸":3052,"Ġì§ĳíļĮ":3053,"Ġë¯¼ì¡±":3054,"ë³´ìŀĲ":3055,"ë§Įëªħ":3056,"ĠëĤ´ëħĦ":3057,"Ġìĵ¸":3058,"ĠìŀħëĭĪëĭ¤":3059,"ìĺ¨ëĭ¤":3060,"íķĺëł¤ê³ł":3061,"Ġë¹ĦëĤľ":3062,"Ġë³ĳìĽĲ":3063,"Ġì²ĺëŁ¼":3064,"ë¬¸ê°Ģ":3065,"ĠíĿĶ":3066,"Ġëª¨ë¥´ë":3067,"ìĹ¬ê¸°":3068,"ĠíķĺìĦ¸ìļĶ":3069,"Ġë°ĶëŀįëĭĪëĭ¤":3070,"ĠëıĪìĿ´":3071,"ëĥĲê³ł":3072,"Ġë°Ķë³´":3073,"ìĥģìĿĦ":3074,"Ġë¯¸ìĤ¬ìĿ¼":3075,"ìļ¸ëĮĢ":3076,"ìº":3077,"Ġê°ĢëĬĶ":3078,"ëģĿ":3079,"íķłê¹Į":3080,"ĠìĤ¬ë§Ŀ":3081,"Ġëĺĳê°Ļ":3082,"Ġ....":3083,"Ġìĸ´ì©Ķ":3084,"ĠëģĿê¹Įì§Ģ":3085,"ĠëĦ¤ìĿ´ë²Ħ":3086,"Ġì²łìłĢ":3087,"ĠìķĮìķĦìĦľ":3088,"ê¸ĭ":3089,"ĠìĿĺíĺ¹":3090,"ë§ĮìĹĲ":3091,"ëįĺì§Ģ":3092,"ĠëıĪìĿĦ":3093,"Ġë¶ĢíĦ°":3094,"íķĺê³łìŀĪ":3095,"ĠìĤ¬íĥľ":3096,"ĠìľĦìĦł":3097,"ĠëĨį":3098,"ìŀĩ":3099,"Ġ40":3100,"ĠëĮĢíķ´":3101,"ì§Ħíķĳ":3102,"ë¸Ķ":3103,"ìł¸ìĦľ":3104,"ì¹ľìĿ¼":3105,"ê´Ģê³Ħ":3106,"ìĥĿíĻľ":3107,"ĠìĿ¼ë³¸ìĿĢ":3108,"ĠíĺĪ":3109,"ë³¼":3110,"Ġë»":3111,"ĠìĬ¬":3112,"Ġìľ¤ìĦĿìĹ´":3113,"ìĤ¬ëŀĮëĵ¤":3114,"íĺ¸ìĤ¬":3115,"ëįĶëĿ¼ëıĦ":3116,"íķĻêµĲ":3117,"ëħ¸ë":3118,"ìĶ¬":3119,"ì§Ĳ":3120,"¸ë¬¼":3121,"ĠìĸĳìķĦì¹ĺ":3122,"íĨ":3123,"ĠëįĶëŁ½":3124,"ĠìŀĪëĭ¤ëĬĶ":3125,"Ġìľłìĭľë¯¼":3126,"ĠìĹĦë§Ī":3127,"Ġë¬´ëĦĪ":3128,"Ġìº":3129,"Ġê´ľì°®":3130,"Ġíķłë¨¸ëĭĪ":3131,"ìķĦì§ģëıĦ":3132,"ł¤ê³ł":3133,"íĳ":3134,"ê²ĥëĵ¤ìĿĢ":3135,"Ġë¯¿ê³ł":3136,"ë§İìĿĢ":3137,"ĠìĿ¼ë³¸ë":3138,"Ġë°ĽìĿĦ":3139,"ĠíĶ¼íķ´ìŀĲ":3140,"ì¤ĳëıĻ":3141,"ë§Ľ":3142,"ì¢ĭìĿĢ":3143,"ĠíķĺìŀĲ":3144,"ĠìĥĿê°ģíķĺëĬĶ":3145,"Ġìĺ¨ê°ĸ":3146,"Ġëį®":3147,"ĠìĦ¸ê¸Īìľ¼ë¡ľ":3148,"¦¼":3149,"ĠëĮĢì±ħ":3150,"ĠìĿ¸íĦ°":3151,"Ġê·¸ëĮĢë¡ľ":3152,"ìĬ¤ëŁ½ëĭ¤":3153,"Ġìŀ¬ìĤ°":3154,"ĠìĤ¬ëŀĮìĿĦ":3155,"Ġìľ¼":3156,"ĠìķĦëĭĪëĿ¼ê³ł":3157,"ëĭ¨ëĭ¤":3158,"Ġìª½ë°Ķë¦¬":3159,"ĠìĿĺìĭ¬":3160,"ê³łëıĦ":3161,"ĠìĹĨìĹĪ":3162,"ĠìĿĳìĽĲíķ©ëĭĪëĭ¤":3163,"ëĬĶê°Ģ":3164,"´ë¦¬":3165,"ĦìĥĪ":3166,"ĠíķĺëĬĺ":3167,"ĠìķĦëĭĲ":3168,"ĠìĿ´ìłľëĬĶ":3169,"ìľĦìĹĲ":3170,"ĠêµŃìłľ":3171,"ë¶Ħëĵ¤":3172,"Ġê¸°ëĮĢ":3173,"ª¼":3174,"ê²łëĤĺ":3175,"ë¬´ìĬ¨":3176,"ìľĦíķ´":3177,"Ġë§İëĭ¤":3178,"ĠìķĦëĭĪì§Ģ":3179,"Ġê°Ģê²©":3180,"ĠìĽĲëŀĺ":3181,"íķ´ë´ĲëĿ¼":3182,"Ķ°":3183,"Ġë³¸ëĭ¤":3184,"ê²½ì°°":3185,"ê¹Ŀëĭ¤":3186,"ĠìĹī":3187,"Ġê·¸ëıĻìķĪ":3188,"íĥķ":3189,"ë¢°":3190,"ë¨¹ëĬĶ":3191,"ìŀĲëıĦ":3192,"ĠëĤ¨ìĿĺ":3193,"ëĮĢêµ¬":3194,"ë°©ìĨ¡":3195,"Ġê°Ģë§ĮíŀĪ":3196,"ĠëĲĺê³ł":3197,"ĠêµŃìłķ":3198,"íĹĮ":3199,"Ġìĺ¹":3200,"ë§Ļ":3201,"ëļ":3202,"ìļĶì¦ĺ":3203,"ì£¼ëıĦ":3204,"ì¤ĳê¶Į":3205,"ëłĪìŀĦ":3206,"Ġìĺ¤ëŀĺ":3207,"ĠìłĦìĦ¸ê³Ħ":3208,"ìķĦìĿ´":3209,"ìĸ´ê°Ģ":3210,"Ġëĺĳê°ĻìĿ´":3211,"ĠëĤĺì¤ĳìĹĲ":3212,"Ġê³łìĨĮ":3213,"ëĮĢê¹¨ë¬¸":3214,"ëĤĺê²Į":3215,"ĠìķĪìłĦ":3216,"ì´ĪìĹĲ":3217,"ĠíĺĲ":3218,"íĻĶë¬¸":3219,"Ġë§Įëĵ¤ê³ł":3220,"ëķĮëĬĶ":3221,"19":3222,"Ġê·¸ëŁ´":3223,"íıĲëł´":3224,"Ġë§ĲìĿĢ":3225,"ë¶Ģëª¨":3226,"Ġë°ķìłķíĿ¬":3227,"ìĹ¬íĸī":3228,"ëĭ¬ì°½":3229,"ĠëĪĦêµ°":3230,"Ġì¦ī":3231,"ì¡ĮëĦ¤":3232,"ìĿ¸ê°ĢìļĶ":3233,"ëĨį":3234,"Ġê³µê°Ĳ":3235,"Ġë°ĳ":3236,"ĠìĿĺìĤ¬":3237,"Ġê°ĢëĿ¼":3238,"ĠìĿ´ë¦¬":3239,"íķ´ë³":3240,"íĶĪ":3241,"ĠìĿ¼ìŀĲë¦¬":3242,"ì¼°":3243,"Ġë¬¸íĨµ":3244,"Ġê°Ģì§Ģ":3245,"ĠìĪĺì¶ľ":3246,"Ġíķĺëĭ¤":3247,"ĠëĬĻ":3248,"ê·¸ëŀĺëıĦ":3249,"Ġëĵ¤ê³ł":3250,"Ġìļ°íĮĮ":3251,"ìĪĺë¥¼":3252,"ĠìŀĲëŀĳ":3253,"Ġ=":3254,"ĠëĭŃ":3255,"Ġë³´ê¸°":3256,"Ġëª¨ë¥¸":3257,"íķłê±°":3258,"ê²łëĭ¤ëĬĶ":3259,"30":3260,"ĠìĤ¬ìĿ´ë¹Ħ":3261,"Ġëĭµëĭµ":3262,"Ġê´Ģê³Ħ":3263,"ĠëŃĶê°Ģ":3264,"ĠìĭľëĮĢ":3265,"íĺĲ":3266,"ĠìŀĬ":3267,"ì²ŃìĻĢëĮĢ":3268,"ë¬´ë¦¬":3269,"ìĿĦê±°":3270,"íĬľ":3271,"Ġê²¨":3272,"êµŃíļĮ":3273,"ì¤ĺëĿ¼":3274,"Ġê±´ê°ķ":3275,"ĠìĤ¬ê¸°ê¾¼":3276,"ëĭ«":3277,"ĠëĨĪëĵ¤ìĿ´":3278,"ëĲ©ëĭĪëĭ¤":3279,"ìŀĸìķĦìļĶ":3280,"Ġê·¸ìłĢ":3281,"ë¹¼":3282,"Ġê¸Īì§Ģ":3283,"ì¥Ĳ":3284,"Ġíľ´":3285,"ĠìĿ¼ìłľ":3286,"ìĿ´ê±°":3287,"ĠìĦĿ":3288,"Ġê³łíĨµ":3289,"ìļ¸ë":3290,"Ġì¡°ìļ©íŀĪ":3291,"ĠíĮĲìĤ¬":3292,"Ġê¸°ìĪł":3293,"ĠíķĺëĤĺëıĦ":3294,"ì¯§":3295,"Ġì¤ĳêµŃìĹĲ":3296,"Ġìĸµìļ¸":3297,"25":3298,"ĠìĪĺì¤ĢìĿ´":3299,"ĠìĪĺëıĦ":3300,"ĠëįĶìĿ´ìĥģ":3301,"ê·¸ë¦¬ê³ł":3302,"įĺ":3303,"íĮĶìĿ´":3304,"ìķłëĵ¤":3305,"íķĺëŁ¬":3306,"Ġë§Ĳë¡ľ":3307,"Ġê°Ģì§Ħ":3308,"Ġìłķì¹ĺìĿ¸":3309,"Ġë°ı":3310,"ìĿĦëĵ¯":3311,"Ġê·¸ê±´":3312,"Ġê´ĳì£¼":3313,"¥´":3314,"Ġíŀĺëĵł":3315,"íĸĪëĦ¤":3316,"ĠìķĬëĬĶëĭ¤":3317,"ëķĲ":3318,"Ġë¹¼ê³ł":3319,"ĠìķĦë§Ī":3320,"ĠìĥģìĭĿ":3321,"ê²łëĦ¤ìļĶ":3322,"Ġëħ¸ì¡°":3323,"íķĺëł¤":3324,"ë¡Ń":3325,"ì§ĦêµŃ":3326,"Ġë´ĲëıĦ":3327,"Ġìļ°ë¦¬ëĬĶ":3328,"ê²ĢìĤ¬":3329,"ë©¸":3330,"Ġëĭ´":3331,"Ġê¹¨ëģĹ":3332,"ĠíĬ¹íŀĪ":3333,"ë°ĺëıĦ":3334,"ĠìĿ´ìĿµ":3335,"ëĭ¹íķľ":3336,"Ġëª¨ìŀĲ":3337,"Ġì¶ľìĭł":3338,"ĠìĿĳ":3339,"Ġì¹¼":3340,"ëį©":3341,"Ġë¬´ëĬ¥íķľ":3342,"ĠìµľìĪľìĭ¤":3343,"Ġãħľ":3344,"ì»¤":3345,"ĠìĤ´ìĿ¸":3346,"ëĤĺê²½ìĽĲ":3347,"Ġë¬¼ë¡ł":3348,"ĠëıĻëĦ¤":3349,"ĠëĮĢìĦł":3350,"ĠìĹ°ìĺĪ":3351,"ìĹĲë§Į":3352,"ĠëĦĪëĬĶ":3353,"Ġëĭ¤ë¥´":3354,"ìĹ¬ìŀĲ":3355,"ê°Ŀ":3356,"ľìĹĲ":3357,"Ġê´´ë":3358,"ìľ¼ë©°":3359,"ĠëĮĢê¸°ìĹħ":3360,"ĠëĤ³":3361,"ĠíĮĲê²°":3362,"íĻĶê°Ģ":3363,"ìłķë¶Ģê°Ģ":3364,"ĠìĿ´ìŀ¬":3365,"¸ë°":3366,"ë§Ĳë¡ľ":3367,"ëĳĶ":3368,"ë£¨íĤ¹":3369,"ëĭĪê¹Ĳ":3370,".......":3371,"Ġê¿Ī":3372,"ĠëĲĺì§Ģ":3373,"****":3374,"ì¹Ļ":3375,"ĠìĹĨìĸ´ìĦľ":3376,"Ġíķĺì§Ģë§Ĳê³ł":3377,"Ġìĵ°ëĬĶ":3378,"ĠìĹ¬ëĭ¹":3379,"ìĸ´ë¦¬":3380,"Ġì§ĳê¶Į":3381,"ëĨĪëĵ¤ìĿ´":3382,"Ġë¬¸ìŀ¬ìĿ¸ìĿĢ":3383,"Ġê¹Ķ":3384,"ĠìłĢì§Ģ":3385,"ĠíĳľíĺĦ":3386,"Ġë§Įëĵľ":3387,"íķľê²ĥ":3388,"Ġíĥľê·¹ê¸°":3389,"ì²´ë¥¼":3390,"ĠëıĮìķĦê°Ģ":3391,"Ġë³´ëıĦ":3392,"ĠìĥĿê²¼":3393,"Ġíı¬ê¸°":3394,"ìĭľìĺ¤":3395,"ì¢ĥ":3396,"Ġìŀĥ":3397,"ĠëĽ°":3398,"ĠëŃī":3399,"ëĶ¸":3400,"ĠìĤ¬ìĹħ":3401,"ŀĳ":3402,"ĠìĦ¤ì¹ĺ":3403,"ê¹Ķ":3404,"Ġíķ´ì£¼":3405,"ëĤĺë³´ëĦ¤":3406,"Ġëħ¸ëıĻ":3407,"ĠíĨµìĿ¼":3408,"ìĤ¬íĥľ":3409,"ĠìĮ":3410,"Ġì£¼ìĤ¬íĮĮ":3411,"ë¯¸íĸ¥":3412,"ìĬĪ":3413,"ìŀ¡ê³ł":3414,"ĠëĨĪìĿ´":3415,"ĠíķĺìĹ¬":3416,"ĠãĦ·":3417,"ĠìĹŃëĮĢ":3418,"¶Ī":3419,"ëĤĺëĿ¼ê°Ģ":3420,"Ġë°ĶëĿ¼":3421,"ê²łìĬµëĭĪëĭ¤":3422,"ĠìĹĨì§Ģ":3423,"ê·¸ë§Į":3424,"ĠìĿ¼ë³¸ìĹĲ":3425,"Ġìļ´ìłĦ":3426,"Ġë¶ģíķľìĹĲ":3427,"Ġê°ķëĤ¨":3428,"ĠëĦĪëıĦ":3429,"ĠìŀĲìĺģìĹħ":3430,"Ġë²Ĺ":3431,"ĠêµŃê°ľ":3432,"íķ´ë¥¼":3433,"ì§ĵìĿĦ":3434,"ìĹĨìĸ´":3435,"ìĿ¸ëĵ¯":3436,"íĬ¸ëĤ¨":3437,"íĸĩ":3438,"ĠíĪ¬ìŀĲ":3439,"ë½ĳ":3440,"Ġì£¼ê³ł":3441,"ê²łì£ł":3442,"Ġë¯¸êµŃìĿ´":3443,"ĠíŀĺëĤ´":3444,"Ġì²Ļ":3445,"ë¶Ļ":3446,"ĠíĽ¨ìĶ¬":3447,"Ġì§ĢëıĦ":3448,"íļį":3449,"Ġëįľ":3450,"ĠìĥģëĮĢ":3451,"Ġê¹Įì§Ģ":3452,"ëĳĲê³ł":3453,"Ġë°ľìłĦ":3454,"ê°ĢëĬ¥":3455,"ê·¸ëłĩê²Į":3456,"Ġìĺ¹íĺ¸":3457,"ìľ¼ëł¤ê³ł":3458,"ĠìĿ¸ê°Ħëĵ¤ìĿ´":3459,"ëħķ":3460,"ìŀĺëª»":3461,"ìĭľì¼ľëĿ¼":3462,"ëıħêµĲ":3463,"íķĺê²łëĭ¤":3464,"ĠíķłìĪĺ":3465,"Ġë°ľìĸ¸":3466,"ĠëĿ¼ê³ł":3467,"Ġìŀħìŀ¥":3468,"ĠíķľíħĮ":3469,"Ġê²Ģì°°ìĿ´":3470,"ĠìķĦë¬´ê²ĥëıĦ":3471,"ĠìĿ´ìĥģíķľ":3472,"ìĬ¬ëŀĮ":3473,"Ġs":3474,"ë§ĪìĬ¤íģ¬":3475,"ĠíĻķìĿ¸":3476,"Ġìĭ«ëĭ¤":3477,"ìĭľíĤ¨":3478,"Ġëª°ëŀĲ":3479,"ìŀĲìĿĺ":3480,"ĠìĿ¸ìĤ¬":3481,"łµ":3482,"ĠëĲĺë©´":3483,"ĠìľĦìķĪë¶Ģ":3484,"?!":3485,"êµ¬ë¦¬":3486,"ì¸¡":3487,"Ġê·¸ëŁ¬ë©´":3488,"Ġìļ°ìĦł":3489,"ĠìĥĿê°ģìĿĦ":3490,"Ġê´Ģë¦¬":3491,"ê°ĢëĿ½":3492,"ì¿ł":3493,"ĠìķĦìĺĪ":3494,"ê·ł":3495,"Ġìĺ¬ëł¤":3496,"ëł¬":3497,"ĠìĹ¼":3498,"ìĬ·":3499,"Ġ:":3500,"ì§ĪìĿ´":3501,"ĠëŃĲëĿ¼":3502,"ìĸ´ëĶĶ":3503,"Ġ18":3504,"ĠìĹĨìľ¼ë©´":3505,"Ġì¡±":3506,"Ġìŀĺëª»ëĲľ":3507,"Ġë²Įìį¨":3508,"ë¬µ":3509,"Ġìŀĩ":3510,"ë»":3511,"ĠíĥĿìĭľ":3512,"Ġê°Ģìł¸":3513,"Ġì¹Ń":3514,"Ġì§Ģì§ĢíķĺëĬĶ":3515,"Ġì¡°ìĭ¬":3516,"ëĭ¬ëĿ¼ê³ł":3517,"íĻĶë¥¼":3518,"ìĦľëĬĶ":3519,"ìĹĪìľ¼ë©´":3520,"Ł½":3521,"Ġë¶Ģì¡±":3522,"ìĿ¼ë²ł":3523,"ìĿ´ëłĩê²Į":3524,"ê¹Įë´Ĳ":3525,"ĠìĿ¼ëĭ¨":3526,"Ġë¶Ģíĥģ":3527,"Ġì»":3528,"ê°Ģìķ¼":3529,"Ġë°Ľìķĺ":3530,"ĠìĭľìľĦ":3531,"Ġë§ĲìĶĢ":3532,"ìĿ´ëĵł":3533,"íķĺëįĶëĭĪ":3534,"ãħ£":3535,"Ġëı¼":3536,"ĠìŀħêµŃê¸Īì§Ģ":3537,"ìĿ´ëıĦ":3538,"Ġëª»íķĺê²Į":3539,"Ġì§Ħìłķíķľ":3540,"ëĭ¤ë¥¸":3541,"ê»´":3542,"êµĲíĻľ":3543,"ĠìĤ´ê³ł":3544,"ĠìķĪëĤĺ":3545,"ìłľìĹĲ":3546,"ì§ĢëŀĦ":3547,"Ġëįķ":3548,"ĠëĳĲê³ł":3549,"ĠìĨĶì§ģíŀĪ":3550,"ê°ĻìĿĢëį°":3551,"ì½©":3552,"Ġíĸīë³µ":3553,"Ġëĸ¼":3554,"Ġì²ŃìĽĲ":3555,"ëĳ¬":3556,"Ġì£Ħëĭ¤":3557,"Ġë³´íĺ¸":3558,"Ġëľ¯":3559,"ĠëĮĢíķľë¯¼êµŃìĿĦ":3560,"ìĿ´íĬ¸":3561,"Ġê³¼ìĹ°":3562,"ĠëĬ¦":3563,"ëĮĢì¤ĳ":3564,"Ġëĭ¹ìĭłìĿ´":3565,"ìķĦë²Ħ":3566,"²ķ":3567,"Ġê¸°ìĥĿì¶©":3568,"Ġë°ĽëĬĶ":3569,"ĠìĻ¸ë":3570,"Ġë§ĲìķĦ":3571,"Ġê¼¬ëĿ¼ì§Ģ":3572,"ë¦¬ëĦ¤":3573,"Ġë¶ĢëģĦëŁ½":3574,"ìłĦëĿ¼ëıĦ":3575,"ìĹĨëĦ¤":3576,"Ġëĭ¹ìĦł":3577,"Ġê±¸ë¦¬":3578,"ĠìĹĨëĭ¤ê³ł":3579,"ĠìĿ´ëªħë°ķ":3580,"Ġëĺĳë°Ķë¡ľ":3581,"Ġíĺľ":3582,"íıŃíĸī":3583,"ĠìĿ´ìłķëıĦ":3584,"ëĸ¨ìĸ´":3585,"íĸĪëĥĲ":3586,"ì§ĢëĦ¤":3587,"ì¤Ģíĳľ":3588,"ĠëĮĢëĨĵê³ł":3589,"Ġ^^":3590,"ëªħìĿĦ":3591,"ĠìĺĨ":3592,"Ġë¬¸ì£ĦìĿ¸":3593,"Ġì£½ìĹ¬":3594,"¸ëĮĢíĨµëł¹":3595,"ëĦ·":3596,"Ġëļ":3597,"ê³µê°ľ":3598,"ê¶ģ":3599,"Ġê¾":3600,"³´ë":3601,"ìĪĺëĬĶ":3602,"ëł¥ìĿĦ":3603,"ĠìĻľêµ¬":3604,"Ġë¬¼ëŁ¬":3605,"ëĶ´":3606,"Ġìķħë§Ī":3607,"ìĸ´ì¤Ģ":3608,"ĠìĿ¸ë¬¼":3609,"Ġë²Ķ":3610,"ì§ĳíļĮ":3611,"Ġìķłëĵ¤ìĿ´":3612,"ĠíĿ¬ìĥĿ":3613,"ĠëķĮëł¤":3614,"Ġì²Ńë¬¸íļĮ":3615,"ĠìĤ´ìķĦëĿ¼":3616,"Ġíķľìĭ¬íķĺëĭ¤":3617,"ë¯¸íĦ°":3618,"ëħĦìĿ´":3619,"ĠëĬĲê·¸":3620,"ĠìķĦëĭĻëĭĪëĭ¤":3621,"Ġê±·":3622,"ë§Įíķľ":3623,"ëª½":3624,"ãħľãħľ":3625,"Ġì¡°ìĦłìĿ¼ë³´":3626,"Ġê·¸ëĤĺë§Ī":3627,"Ġì§ĵê±°ë¦¬":3628,"ìĪĺìĪĺ":3629,"Ġê°ķëł¥":3630,"ë°ĽìķĦ":3631,"ì´ĿìĦł":3632,"Ġì¶©ë¶Ħ":3633,"ĠìŀĲê°Ģ":3634,"~!":3635,"ì¶°":3636,"íķĺìĭł":3637,"Ġê°ķìłľ":3638,"ĠìķĦíĶĦ":3639,"íĢ´":3640,"ëĸł":3641,"Ġë²ķìĿĦ":3642,"ëĤĻ":3643,"íĸĪì§Ģ":3644,"ĠìŀĪëĬĶì§Ģ":3645,"ìĸ´ëĤľ":3646,"ĠìķĦê°Ģë¦¬":3647,"íķĺì§Ģë§ĪëĿ¼":3648,"ĠìĿ´ëĨĪ":3649,"ì§Ģë¡ľ":3650,"ĠìłĦëĳĲíĻĺ":3651,"ëĿ¼ëĭĪ":3652,"ë¯¸ìķł":3653,"ìłķë¶ĢëĬĶ":3654,"ĠëĨĵê³ł":3655,"ĠìķĬëĤĺ":3656,"Ġëĵł":3657,"ĠìĿ´ë£":3658,"Ġìĸ´ìĿ´":3659,"ë´Ĳìķ¼":3660,"ĠìŀĪìĸ´ìķ¼":3661,"ë°ĽëĬĶ":3662,"ìłĦìŁģ":3663,"ê¸°ëĵ¤":3664,"ìľłìĭľë¯¼":3665,"Ġê¸°ê°Ģ":3666,"ê°Ģê°Ģ":3667,"ĠëĤĺìĺ¤ëĬĶ":3668,"Ġì£½ìĿĢ":3669,"ĠëĶ°ë¡ľ":3670,"ĠìĥĿíĻľ":3671,"ê°ĦìĹĲ":3672,"ìį":3673,"ĠìĿĺë¯¸":3674,"ĠëĤ¨íİ¸":3675,"Ġë¯¸íĨµ":3676,"ĠìŀĪìĿĦê¹Į":3677,"ìĿ¼ê¹Į":3678,"Ġêµ³":3679,"ĠíķĺëĬĶì§ĵ":3680,"Ġë¯¸ë":3681,"ëħ¸ì¡°":3682,"ë¹¨ë¦¬":3683,"Ġê²½íĹĺ":3684,"Ġë§İìķĦ":3685,"ëŀľ":3686,"ì¹Ń":3687,"ê°ľìĽĶ":3688,"ëįĶë¶Ī":3689,"Ġë¶ĪìķĪ":3690,"´ëķĮ":3691,"Ġì§±ê°ľ":3692,"ìķĹ":3693,"ĠëĤĺëĿ¼ëĥĲ":3694,"ëĤ´ëĬĶ":3695,"íķĺëĬĶê²ĥ":3696,"ëĲĺìĹĪ":3697,"ìĿ¼ìĿĦ":3698,"ĠìĦłëıĻì§Ī":3699,"íĻ©êµĲìķĪ":3700,"ìĿ¸ëıĦ":3701,"Ġê·¸ëłĩì§Ģ":3702,"Ġê´ĳíĻĶë¬¸":3703,"ĠìłĦìĹĲ":3704,"ìĿ´ê¸°":3705,"ĠíıŃë§Ŀ":3706,"Ġë½ĳìķĦ":3707,"ìĤ¬ëŀĮìĿĢ":3708,"Ġ!!":3709,"ĠëĤĺëĿ¼ëĬĶ":3710,"ĠëĮĢíķľë¯¼êµŃìĿĺ":3711,"íĥĦíķµ":3712,"ĠìĦ¸ëł¥":3713,"ĠìĺģìĽĲ":3714,"ì¡°ì°¨":3715,"ê³µìĤ°ëĭ¹":3716,"ìĥģíĻ©":3717,"Ġìĸ´ëĶ":3718,"ë³´ëĤ´":3719,"ĠìķĮëł¤":3720,"ĠìŀĲêµŃë¯¼":3721,"ìĭ¶ëĭ¤":3722,"ì¤Įë§Ī":3723,"Ġë¹ĦìĬ·":3724,"Ġëĭĺ":3725,"Ġë§īë§Ĳ":3726,"ìĺĢëĭ¤":3727,"Ġíĺ¸êµ¬":3728,"ĠìĤŃ":3729,"ĠëıĮëł¤":3730,"ëĭ¤ìĿĮ":3731,"ìĤ¬ê¸°":3732,"Ġê·¸ëŀĺìķ¼":3733,"Ġê¸°ìĤ¬ë¥¼":3734,"Ġ70":3735,"Ġê±°ë¦¬":3736,"Ġë¶ĪëŁ¬":3737,"Ġìĭłê³ł":3738,"ìľĦë¡ľ":3739,"ĠìķĦëĭĮê°ĢìļĶ":3740,"ëĤ¸":3741,"ĠìłķíĻķ":3742,"ìĿ´ë¯¸":3743,"ëĩĮ":3744,"Ġì£¼ëĬĶ":3745,"ĠìĿ´ê±¸":3746,"ìŀĪê³ł":3747,"ìķĶ":3748,"ëĵĿê¶Į":3749,"ĠìķĦíĮĮíĬ¸":3750,"Ġì§Ĳ":3751,"Ġì²ĺë¦¬":3752,"Ġë¶ģíķľìĿ´":3753,"Ġì§ĳìķĪ":3754,"Ġìļ´ìĺģ":3755,"ëĤĺê°Ħ":3756,"ĠìĿ¼ìĸ´ëĤĺ":3757,"Ġì§ĳìĹĲ":3758,"Ġíľĺ":3759,"ĠìķĦë²Ħ":3760,"Ġì§ľì¦Ŀ":3761,"¦´":3762,"Ġì§ĢëĤľ":3763,"ì¹ĺê°Ģ":3764,"¥¸":3765,"ĠíķľêµŃìĿ¸":3766,"ëģĶ":3767,"ĠìĪĺìĭŃ":3768,"Ġë¶Īë§¤ìļ´ëıĻ":3769,"ë¬¸ì£Ħ":3770,"êµ¬ìĦĿ":3771,"Ġãħīãħīãħī":3772,"Ġìĸ´ëłµ":3773,"êµ¬ë¨¼":3774,"ëĭŃ":3775,"Ġë°ľíĳľ":3776,"íĥĢê¸°":3777,"Ġìľłì¹ĺ":3778,"ĠíĪ¬ê¸°":3779,"Ġëĺĺ":3780,"ĠìŀĪìĸ´ìĦľ":3781,"ĠìĿ¸ë¯¼":3782,"ìĪŃìĿ´":3783,"´¤":3784,"Ġë§ĮëĵľëĬĶ":3785,"ìĺ¤ëĬĶ":3786,"ì³Ĳë¨¹":3787,"Ġëª»íķł":3788,"Ġì¡´ëĤĺ":3789,"ĠìķĪëĲľ":3790,"Ġì§Ģê¸Īê¹Įì§Ģ":3791,"Ġê°ĳìŀĲê¸°":3792,"ë¦½ëĭĪëĭ¤":3793,"Ġëĭ¥":3794,"ë²½":3795,"ë¶Ģë¡ľ":3796,"ìŀĪëĥĲ":3797,"ìĶ¨ê°Ģ":3798,"ĠëłĪ":3799,"Ġë§¡":3800,"ì³ĲìĦľ":3801,"ìħĺ":3802,"ĠìĦľìļ¸ëĮĢ":3803,"ĽëĤł":3804,"ĠìĨĮëĵĿ":3805,"íĺĪ":3806,"ì¶ĺ":3807,"Ġëĵ¤ìĸ´ê°Ģ":3808,"ĠíķľêµŃìĿĢ":3809,"ìŀ¥ìĹĲ":3810,"Ġì§Ģê¸ĪëıĦ":3811,"ĠíķĺëĬĶì§Ģ":3812,"Ġê³µê²©":3813,"íķ´ì£¼ìĦ¸ìļĶ":3814,"ĠëĮĢíķľë¯¼êµŃìĿ´":3815,"ë¬¸ìŀ¬ìĿ¸ìĿ´":3816,"ìĨĮëĵĿ":3817,"ëıĦë¡ľ":3818,"Ġìŀ¬íĮĲ":3819,"ìĤ¬ëĬ¥":3820,"ĠìĽĥê¸°":3821,"ìłĢê¸°":3822,"Ġë³¸ìĿ¸ìĿ´":3823,"ĠêµŃë°©":3824,"Ġê·¹ìļ°":3825,"ëĦĪë¬´":3826,"íĸĪê³ł":3827,"ĠíĬ¹ê²Ģ":3828,"ĠìłĦíĻĶ":3829,"Ġì§ģìĽĲ":3830,"Ġìŀ¬ìķĻìĿ´":3831,"íķĺì§ĢìķĬ":3832,"íĺľìĽĲ":3833,"³´ëĭ¤":3834,"ëĭ¹ìĹĲ":3835,"ĠìŁ":3836,"ĠëĪĪë¬¼":3837,"ĠëĴ¤ì§ĳ":3838,"ìł¸ë":3839,"ë½":3840,"Ġíķĺëįĺ":3841,"íķĺëĭ¤ê°Ģ":3842,"ĠìĶ¨ë¶Ģ":3843,"Ġê¸°ì¤Ģ":3844,"ĠíĶĦëłĪìŀĦ":3845,"Ġì¤ĳêµŃìĿ´":3846,"ĠëĤ¨íķľ":3847,"íĶ½":3848,"ĠìĹĨìľ¼ëĭĪ":3849,"Ġìĵ¸ë":3850,"Ġë°ĶëŀĢëĭ¤":3851,"Ġë°ĽìĿĢ":3852,"Ġìľłì§Ģ":3853,"Ŀ¼ê³ł":3854,"Ġìłķê¶ĮìĿ´":3855,"ĠìĪĺìŀħ":3856,"Ġë°ľìĥĿ":3857,"ĠìĮį":3858,"Ġëĭ¤íĸī":3859,"Ġì¹ĺë§¤":3860,"Ġìłľìłķìĭł":3861,"ëĤ©":3862,"Ġì·¨ê¸ī":3863,"Ġíķĳ":3864,"Ġ200":3865,"ĠíĿĺ":3866,"Ġê²½ìłľê°Ģ":3867,"ìķĦëĭĮê°Ģ":3868,"Ġì¯":3869,"ìŀ¥ìĿĢ":3870,"ëĸ¼":3871,"ĠëĦĪë¬´ë":3872,"íķłëĵ¯":3873,"ê°Ĳìłķ":3874,"Ġãħİãħİãħİ":3875,"ĠìłķìĿĢìĿ´":3876,"ìĥĪëģ¼ëĵ¤":3877,"ĩ¬":3878,"Ġìª½íĮĶ":3879,"ìĹĪëĤĺ":3880,"íĬľë¸Į":3881,"Ġëĵ±ëĵ±":3882,"Ġìŀ¥ìĤ¬":3883,"Ġëĸłëĵ¤":3884,"ĠíĨµíķ©":3885,"ì¹ĺë¥¼":3886,"Ġì°¬ìĦ±":3887,"ĠíĿ¬ë§Ŀ":3888,"ĠíħĮ":3889,"ĠíĿĲ":3890,"ĠìĤ´ëł¤":3891,"ĠíķľêµŃìĿ´":3892,"ĠìĥĿìĤ°":3893,"©°":3894,"ì§ĸ":3895,"Ġë°©ìĹŃ":3896,"ĠìĺģíĻĶ":3897,"ê¸°ê´Ģ":3898,"¸ëĦ¤":3899,"ìłĢë¦¬":3900,"Ġê±¸ëł¤":3901,"ëĭĺëĵ¤":3902,"ìĿ´ëĦ¤ìļĶ":3903,"ìŀħëĭĪê¹Į":3904,"íĦ¸":3905,"Ġë²Ķì£ĦìŀĲ":3906,"ìĸ¼ë§Ī":3907,"Ġë¶Ħëħ¸":3908,"ê¹ĢìłķìĿĢ":3909,"Ġìľłê³µìŀĲ":3910,"ĠìłĢì§Ī":3911,"ĠìķĦëĭĪìķ¼":3912,"Ġìĭłë¢°":3913,"ìĭ¬ìĿĦ":3914,"íĪ¬íĳľ":3915,"ĠëĬĲëģ¼":3916,"ĠìļĶêµ¬":3917,"Ġìĵ°ëłĪê¸°ëĵ¤":3918,"Ġì©Ŀ":3919,"ĠìĥĪëģ¼ëĵ¤":3920,"ëĵ¤ìĿ´ëĤĺ":3921,"ë§ĺ":3922,"ĠíĻķì§ĦìŀĲ":3923,"ì±ħìŀĦ":3924,"ĠëĬĲëĤĮ":3925,"ëıĪìľ¼ë¡ľ":3926,"Ġíļ¨":3927,"ìĿ¼ìĿĢ":3928,"Ġì²ŃëħĦ":3929,"ìķħíķľ":3930,"ëł¤ëĤĺ":3931,"ĠìµľìłĢìŀĦê¸Ī":3932,"ł¥":3933,"Ġë¹Ī":3934,"Ġë¯¼ì£¼ëĭ¹ìĿ´":3935,"ĠìķĪê°Ģ":3936,"ĠíĺľíĥĿ":3937,"ìĸ´ì£¼":3938,"ĠìĤ¬ëŀĮëıĦ":3939,"ë¬´ëĬ¥":3940,"ĠëģĬ":3941,"Ġì§Ģê»Ħ":3942,"ìłľê°Ģ":3943,"ëĭĪëĵ¤":3944,"Ġë¯¸ê°ľ":3945,"Ġë§ŀëĭ¤":3946,"Ġìª¼":3947,"ĠëŁ¬":3948,"ëıĦë¥¼":3949,"????????":3950,"Ġ60":3951,"Ġìľ¡":3952,"ê¸¸ëŀĺ":3953,"ĠëĤ¬":3954,"Ġíĳ":3955,"ĠìŀĪëĬĶê±°":3956,"Ġê²½ìļ°":3957,"ĠìķħíĶĮ":3958,"Ġìĭľì§Ħíķĳ":3959,"Ġê°ĲìĦ±":3960,"ðŁĲķ":3961,"ë¯¼ì¡±":3962,"ĠêµŃë¯¼ëĵ¤ìĿĦ":3963,"ĠëıĪìľ¼ë¡ľ":3964,"êµĲíļĮ":3965,"Ġë°Ķê¿Ķ":3966,"ĠíĴĪ":3967,"ìķĪíķĺê³ł":3968,"ìĿ´ì§Ģë§Į":3969,"ë§Įëĵ¤":3970,"Ġíİĺë¯¸":3971,"Ġê°ľê°Ģ":3972,"Ġì§ĸ":3973,"ê¸´ëĭ¤":3974,"Ġêµ¬ëĿ¼":3975,"ĠëĲ©ëĭĪëĭ¤":3976,"Ġì¢Įì¢Ģ":3977,"Ġê²©ë¦¬":3978,"ìŀħêµŃ":3979,"Ġë¯¼ëħ¸ì´Ŀ":3980,"ĠëıĦëĳĳ":3981,"ĠëĮĢíķ´ìĦľ":3982,"ê²Ĳ":3983,"êµĲìĪĺ":3984,"ë²ķìĿĦ":3985,"íĥĢëł¹":3986,"ĠëĤ´ë¦¬":3987,"Ġê°Ģë¥´":3988,"ĠìŀĲê¸°ê°Ģ":3989,"°©":3990,"Ġê°Ĳë°©":3991,"ìĵ¸":3992,"Ġë¯¸ì³¤":3993,"ĠëĤĺëĿ¼ìĹĲìĦľ":3994,"ë¹Ī":3995,"ĠìĪĻ":3996,"Ġë¬¸ë":3997,"Ġë§ĪìĦ¸ìļĶ":3998,"Ġë¹Ħë¡Ģ":3999,"ìĹ°ê¸Ī":4000,"ĠìĿ´ê²ĥ":4001,"ëĦĮ":4002,"ì©Į":4003,"ëĪĦë¦¬":4004,"ĠãħĪãĦ¹":4005,"Ġë¬´ìĭĿíķľ":4006,"ê²°êµŃ":4007,"40":4008,"ì§Ģë§ī":4009,"ëŁ¬ìĽĮ":4010,"Ġëĭ¤ë¥¸ë":4011,"ìĹ¼ë³ĳ":4012,"Ġëįĺ":4013,"ĠìĿ´ëĶ´":4014,"Ġíĺĳë°ķ":4015,"ĠíĻĺê²½":4016,"ëıĦëĮĢì²´":4017,"ìĿ¼ë¿Ĳ":4018,"ê²łìĸ´":4019,"Ġì¢ĭìķĦíķĺëĬĶ":4020,"Ġê¼´íĨµ":4021,"ĠìĹ¬ê¸°ìĦľ":4022,"ĠëŃĶì§Ģ":4023,"Ġíķ´ë³´":4024,"ĠëĭµìĿ´ëĭ¤":4025,"Ġì¦Ĳ":4026,"íķľìĭ¬":4027,"ĠìĳĪ":4028,"ëªĩ":4029,"ìķĮë°Ķ":4030,"ìĨĮëħĦ":4031,"ë§ĮëıĦ":4032,"Ġë§¤ìĿ¼":4033,"ĠëĮĢì²ĺ":4034,"Ġê°Ģë©´":4035,"Ġëĭ¹ìĭľ":4036,"íķľëĭ¤ë©´":4037,"Ġëª°ëĿ¼":4038,"ë¶Ģê°Ģ":4039,"ĠìĿ´ì¤ĳ":4040,"ī¤":4041,"Ġëĭ¤ëħĢ":4042,"Ġë¹ļ":4043,"ĠãĦ´":4044,"ĠìĿ¼ìľ¼":4045,"ëŁ´":4046,"Ġëĭ¬ëĿ¼":4047,"Ġ15":4048,"ë§ĲìĿĦ":4049,"íķĺìħ¨":4050,"ìŀĪëĦ¤":4051,"Ġíķĺì§Ģë§ĪëĿ¼":4052,"ĠíĹ¤":4053,"Ġë§ĲìķĦë¨¹":4054,"Ġì£½ìĿĦ":4055,"Ġìĺ¬ë¦¬":4056,"ĠìłĲìłĲ":4057,"ëłģ":4058,"ĠëĤĺìĻĢìĦľ":4059,"ĠëıĪë²Į":4060,"ìłģíıĲ":4061,"ĠìłĢë¦¬":4062,"Ġë²ķë¬´ë¶Ģìŀ¥ê´Ģ":4063,"Ġë³´ìĿ¸ëĭ¤":4064,"Ġë¶ĢìĤ°":4065,"Ġê°ľë°ľ":4066,"Ġìī½ê²Į":4067,"Ġìĭ¸ìĽĢ":4068,"Ġíķĺê¸°":4069,"Ġë©įì²Ńíķľ":4070,"Ġë¯¼ì£¼íĻĶ":4071,"Ġë§İëĦ¤":4072,"Ġ/":4073,"ë³´ë¥¼":4074,"ëħĦìłĦ":4075,"Ġë¬¼ê³ł":4076,"¹Ħ":4077,"Ġëª¨ìĸĳ":4078,"ì¡¸":4079,"ĠëĤĺë²ł":4080,"Ġì§Ģë°©":4081,"įĶ":4082,"ĠìĿ´íĽĦ":4083,"Ġ!!!":4084,"Ġê²°ìłķ":4085,"íķĦìļĶ":4086,"ĠìĿĺê²¬":4087,"Ġë¯¸ì³Ĳ":4088,"ìĦ¸ìĽĶíĺ¸":4089,"ĠìĦ±ê³µ":4090,"ê²łìĸ´ìļĶ":4091,"ĠíĽĪ":4092,"ìľ¼ëĿ¼ê³ł":4093,"ì¶ľìĭł":4094,"ì¡Įëĭ¤":4095,"ìľĦê°Ģ":4096,"ë§ĲìĿĢ":4097,"ĠìĹĨëĤĺ":4098,"ħìĭľëĭ¤":4099,"ìĦ¸ëĮĢ":4100,"Ġë¹¨ìķĦ":4101,"ìĺ¤ëĬĺ":4102,"Ġëħ¸ìĺĪ":4103,"Ġë§Īì°¬":4104,"ìĦ±ìĿĢ":4105,"Ġì·¨ìĹħ":4106,"ĠëĩĮê°Ģ":4107,"íĦ´":4108,"ģ¼":4109,"ĠìĹĨìĬµëĭĪëĭ¤":4110,"Ħĺ":4111,"Ġë§İìĿĢëį°":4112,"ìļ©ìĿ´":4113,"ìĭ¼":4114,"ë³´ëĭ¨":4115,"Ġë°ľìķħ":4116,"Ġë°ĿíŀĪ":4117,"ĠìĤ´ê¸°":4118,"Ġì°©ê°ģ":4119,"ĠëĤĺìĺ¤ë©´":4120,"Ġê³łë°ľ":4121,"ë¬¸ë":4122,"Ġê¸°ëĵĿê¶Į":4123,"Ġë¬´ì£Ħ":4124,"ë§ŀëĬĶ":4125,"ëĲĺìĦľ":4126,"Ġëĭ¤ë¥¼":4127,"ê°Ħì²©":4128,"ë¹Ħë¦¬":4129,"ħ¸":4130,"ĠëĿ":4131,"Ġì¿":4132,"ìĿĦìĪĺ":4133,"Ġë³´ìŀĲ":4134,"Ġë¬¸ìŀ¬ìķĻìĿ´":4135,"ĠìĭŃ":4136,"ê¼´íĨµ":4137,"ì§ľë¦¬":4138,"ê°Ķëĭ¤":4139,"Ġì²łìłĢíŀĪ":4140,"Ġê´Ģê´ĳ":4141,"ê¸°ëłĪê¸°":4142,"ì¤Ģëĭ¤":4143,"Ġãħ£":4144,"ëħĦê°Ħ":4145,"Ġê±°ëĭ¤":4146,"ĠìķĦëĤĺ":4147,"íķĺê²łì§Ģ":4148,"ī´ëĵľ":4149,"ðŁĴĻ":4150,"ĠëĤĺëĿ¼ìĹĲ":4151,"Ġìĸ¸ìłľê¹Įì§Ģ":4152,"ê±°ì§ĵ":4153,"Ġë³´ìĹ¬ì£¼":4154,"ë·":4155,"ìłģìĿ´ê³ł":4156,"ê±°ê³ł":4157,"ĠíŀĺìĿĦ":4158,"ìĭłëıĦ":4159,"ĠìĨĮë¹Ħ":4160,"ëķĮë¬¸":4161,"ĠëĤ¨íĥĵ":4162,"ĠíĸĪëįĺ":4163,"Ġëªħëĭ¨":4164,"ê½":4165,"Ġíŀ":4166,"ĠìĿ´ë²ĪìĹĲ":4167,"ĠíĹ¬":4168,"Ġë¬¼ìĸ´ë":4169,"ëĲĺì§Ģ":4170,"Ġê°Ģíķ´":4171,"Ġíģ´ë":4172,"ìĻ¸êµĲ":4173,"ìļ´ìłĦ":4174,"Ġê°Ĳìłķ":4175,"ë¿":4176,"ê°Ģë¥¼":4177,"Ġì¡°ì¤ĳëıĻ":4178,"§Ŀ":4179,"Ġë¬´ìĦľìļ´":4180,"ìĨĶì§ģíŀĪ":4181,"Ġíķľëĭ¤ëĬĶ":4182,"Ġì§Ģìĺ¥":4183,"ëħĦìĹĲ":4184,"ê³łìŀĪëĭ¤":4185,"ĠìĿ´ëħ":4186,"Ġë¯¸êµ°":4187,"ĠãħĨ":4188,"ìļ°ë©´":4189,"Ġìłģëĭ¹íŀĪ":4190,"ë³´ëĭ¤ëĬĶ":4191,"ìĭľì¼ľìķ¼":4192,"Ġìį©ìĿĢ":4193,"Ġìħ":4194,"ìŀĪëĤĺ":4195,"ìľ¼ë¡ľìĦľ":4196,"ĠëĥĦìĥĪ":4197,"Ġìļķë¨¹":4198,"Ġìłķì¹ĺë¥¼":4199,"ĠëĭµìĿ´":4200,"ĠíĥĢëł¹":4201,"ĠíķľêµŃìĹĲ":4202,"Ġê°ĸê³ł":4203,"ĠìĹĨëĥĲ":4204,"ĠìĹĨìĿĦ":4205,"ëĿ¼ìĿ¸":4206,"´ë³´":4207,"íĨłì°©ìĻľêµ¬":4208,"ĠíĦ":4209,"íķľíħĮëĬĶ":4210,"íģ´ë¡ľ":4211,"ĠìŀĲë¹łì¡ĮëĦ¤":4212,"ĠìĹĲëĿ¼ìĿ´":4213,"ĠìĿ¸êµ¬":4214,"ĠìķĬìĿĦ":4215,"Ġìĺ·":4216,"ĠìķĪëı¼":4217,"ĠíĻķìĭ¤íŀĪ":4218,"ĠìŀĲìľłë¯¼ì£¼ì£¼ìĿĺ":4219,"Ġëĵ¤ìĿ´":4220,"Ġìļ´ìļ´":4221,"ìĽĮëĿ¼":4222,"ìĿĺë¥¼":4223,"ì¢ĭìķĦ":4224,"ì§ĵê±°ë¦¬":4225,"ìĽĲìłĦ":4226,"ìĹĪëĦ¤":4227,"ìĪĺìĪĺìĥī":4228,"ĠëĤĺëĿ¼ìĿĺ":4229,"ìĹĨìĿĮ":4230,"?????":4231,"íĬ¸ëŁ¼íĶĦ":4232,"ê°Ģì§ľ":4233,"ĠìĥĿê¸°":4234,"ìĥģìĿĢ":4235,"ĠëĮĢíĨµëł¹ìĿĢ":4236,"Ġê°ĸëĭ¤":4237,"Ġë½ĳìĿĢ":4238,"ĠëĮĢíĨµ":4239,"ìłľë¥¼":4240,"ìķĦëĭĪëĥĲ":4241,"ĠìĦ¸ìĥģìĿ´":4242,"ìŁģìĿ´":4243,"ðŁĩ":4244,"Ġê°ĢìĬ´":4245,"ë¡ľì§Ģ":4246,"ìłķê¶ĮìĿ´":4247,"Ġíķ©ìĭľëĭ¤":4248,"Ġê²ĮìŀĦ":4249,"ì¡°ë¦¬":4250,"íĸĪëĭ¤ëĬĶ":4251,"Ġì¡°êµŃìĿĦ":4252,"Ġì´Ŀìŀ¥":4253,"Ġê³łë§Ļ":4254,"ĠëŃĲëĿ¼ê³ł":4255,"íħĮëĭĪ":4256,"ê³µë¬´ìĽĲ":4257,"ê±°ë©´":4258,"ĠìĬ¹ë¦¬":4259,"ĠìĿ¸íĦ°ëĦ·":4260,"ì¸ł":4261,"ãħĬ":4262,"ëĭĿ":4263,"ìĭŃëĭĪëĭ¤":4264,"Ġë¬¼íĥĢê¸°":4265,"ìķĦëĭĺ":4266,"Ġë°Ķê¾¸":4267,"ëĬĶëį°ëıĦ":4268,"Ġëĭ¹ìĭłìĿĢ":4269,"Ġë²łíĬ¸ëĤ¨":4270,"Ġìŀĺíķĺê³ł":4271,"¡Ń":4272,"Ġë°ĶëŀĮ":4273,"ê¹Įìļ´":4274,"ì§ĢëĤĺ":4275,"ĠëĸłëĤĺ":4276,"êµŃë¯¼ëĵ¤":4277,"Ġìļ°ìĬµ":4278,"ìĭľìłĪ":4279,"~~~~~~~~":4280,"ìĵ°ëĬĶ":4281,"ì²ŃìĤ°":4282,"ìķĦëĭĪëĿ¼":4283,"íķĺê¸´":4284,"ĠìŀĲìĭłìĿĺ":4285,"ìĹ¬ë¡ł":4286,"ĠíķĦìļĶíķľ":4287,"íĸĪëĤĺ":4288,"ĠíĸĪìľ¼ë©´":4289,"ĠìłĦêµŃ":4290,"Ġë¬´ë¦¬":4291,"ëĭĲ":4292,"ìľĦë¥¼":4293,"ĠëĤ©":4294,"ë°Ķëĭ¥":4295,"ĠìĪĺê°Ģ":4296,"ëĭĪíģ´ë¡ľ":4297,"ëĬĲëĥĲ":4298,"15":4299,"íĹ¤":4300,"ìĸ´ë¨¹":4301,"¯¸":4302,"Ġì£Ħê°Ģ":4303,"Ġëĺĳëĺĳ":4304,"Ġê°ľëħĲ":4305,"Ġë°ĽìķĦìķ¼":4306,"ë§¤êµŃ":4307,"ĠêµŃê°Ģê°Ģ":4308,"Ġê´ĳê³ł":4309,"ĠìĻ¸ì¹ĺ":4310,"ĠìĹĲíľ´":4311,"Ġë§ŀì§Ģ":4312,"ĠìĿ´ëŁ°ê±°":4313,"ìĽĲìĪľ":4314,"ìķĦëĭĪê³ł":4315,"ìĭľíĤ¤ëĬĶ":4316,"ĠìĽĲìłĦ":4317,"Ġê¼¼":4318,"ê¶ĮìĿĦ":4319,"ëĵ¤ìĹĲ":4320,"ë¬´ìĭľ":4321,"ĠìĦłìĥĿ":4322,"Ġë¯¸ìķĪ":4323,"ìĦľìļ¸":4324,"ìĿĦê¹ĮìļĶ":4325,"ìķĦê°Ģ":4326,"Ġìļ©ìĦľ":4327,"ë³¸ëĭ¤":4328,"ëĪł":4329,"Ġì¡°ì§ģ":4330,"ëĨįëĭ¨":4331,"Ġëĸ¡":4332,"ĠìĿ¼ë³¸ìĿĦ":4333,"ĠíĨµê³¼":4334,"Ġìķłì´ĪìĹĲ":4335,"ìĶ¨ëĬĶ":4336,"Ġë¶ĦìĹ´":4337,"ëĪĦëĿ¼":4338,"íĭĢëĶ±":4339,"ìķĦë¬´ë¦¬":4340,"ĠëĮĢìĭł":4341,"Ġìĭłë¬¸":4342,"ĠëĮĢíĨµëł¹ëĭĺ":4343,"ìĿ´ìŀĲ":4344,"ìħĶìĦľ":4345,"Ġì§ĳìĹĲìĦľ":4346,"ĠëĪĦêµ´":4347,"íĬ¸ë¦¬":4348,"íķľê±°ì§Ģ":4349,"Ġíıīëĵ±":4350,"ì²ŃìĽĲ":4351,"ĠíĴį":4352,"Ġì£¼ìĦ¸ìļĶ":4353,"ëĵ¬":4354,"ë¦¼íĶ½":4355,"Ġ80":4356,"íģ°":4357,"ìĿ´ìĹĲ":4358,"ĠìķĦë¬´ëıĦ":4359,"100":4360,"ĠìĭľìłĪ":4361,"ìĨįìĹĲ":4362,"ëĸ³":4363,"Ġë¯¿ëĬĶ":4364,"Ġê°Ģê³ł":4365,"ëıĦëĬĶ":4366,"ĠìĭľìĽĲ":4367,"ìŀĪìľ¼ë©´":4368,"ĠìĶ¹":4369,"ìĤ¬ëŀĮëĵ¤ìĿ´":4370,"ìķĦëĥĲ":4371,"ĠìĿĺë£Įì§Ħ":4372,"Ġìĺ®":4373,"Ġê·¸ëŁ¬ëĤĺ":4374,"ĠìĿ´ë§Į":4375,"Ġë¹µ":4376,"íļĮìĤ¬":4377,"ëĸ¨":4378,"Ġê¸°ë¶Ħ":4379,"ìĥģìĹĲ":4380,"ìķĺëĬĶëį°":4381,"ĠìĥĿê°ģíķĺê³ł":4382,"ĠìĽĢ":4383,"Ġíķľëªħ":4384,"Ġìłľëª©":4385,"Ġë¬¸ìłľëĭ¤":4386,"Ġêµ³ìĿ´":4387,"ëĭ¹íķĺê³ł":4388,"ĠëıĦë§Ŀ":4389,"ĠìĨ¡":4390,"ì°¸ìĹĲ":4391,"ìĿ¸ëĵ¤ìĿĢ":4392,"ðŁ¤":4393,"¥ĺ":4394,"Ġì§Ħíĸī":4395,"ĠìĿ´ë¯¼":4396,"ë¦¬ìŀĲ":4397,"ĠìŀĲìľłíķľêµŃëĭ¹":4398,"ĠëıĻìĽĲ":4399,"ìĬ¤íħ":4400,"ĠìłĢê±°":4401,"ì§Ģìĸ´":4402,"Ġê·¼ê±°":4403,"íķĺëĭ¤ëĬĶ":4404,"Ġì¡´ê²½":4405,"ìĥģìľ¼ë¡ľ":4406,"Ġê²ģëĭĪëĭ¤":4407,"Ġíģ¬ê²Į":4408,"íĨµíķ©":4409,"ë§İìĿ´":4410,"ìĭľìĹĲ":4411,"ìĭľë©´":4412,"ë©´ëĲĺ":4413,"´ëł¤":4414,"ĠìķĪíĥĢê¹Ŀ":4415,"Ġëª©ìĤ¬":4416,"ĠëĮĢì¶ľ":4417,"Ġìī´ëĵľ":4418,"Ġìļ°ë¦¬ëıĦ":4419,"Ġì¹Ńì°¬":4420,"Ġëĭ¨ìĭĿ":4421,"Ġ0":4422,"ìĿĢëį°":4423,"ë°ĽìĿĦ":4424,"Ġê¸°ìĨĮ":4425,"ëĭĪëĵ¤ìĿ´":4426,"ë¬´ìŀ¥ê´Ģ":4427,"Ġíĺ¹ìĭľ":4428,"ë¶ĦìĹĲ":4429,"ëħĦëıĻìķĪ":4430,"Ġë¬¸ìŀ¬ìĿ¸ë":4431,"ëķĮê¹Įì§Ģ":4432,"ëĦ¤ìĿ´ë²Ħ":4433,"Ġãħľãħľ":4434,"ìĭľê¸°":4435,"ëĪĦêµ¬":4436,"Ġë¬¸ìłľìĿ¸":4437,"Ġìľ¤ë¯¸íĸ¥":4438,"ĠìłĢê²Į":4439,"Ġëĵľë£¨íĤ¹":4440,"ìŀĪëĬĶëį°":4441,"ëķĮëıĦ":4442,"Ġê°ķê°Ħ":4443,"ĠìĶĮ":4444,"Ġê°Ģìķ¼":4445,"´ë°Ľ":4446,"ìĸ´ëĨĵê³ł":4447,"Ġëľ¨":4448,"ìĸ¸ìłľ":4449,"ê¶Įëł¥":4450,"ëĭ¬ëĿ¼":4451,"Ġë´Ĳìķ¼":4452,"ĠêµŃë¯¼ëĵ¤ìĿĺ":4453,"ĠãħħãħĤ":4454,"Ġíĸ¥":4455,"Ġì¤ĳìķĻ":4456,"ĠìĤ´ë¦¬":4457,"ĠìŀĲì¡´":4458,"ĠëĮĵ":4459,"ìĸ´ëĤ´":4460,"Ġì£¼ìĭĿ":4461,"Ġë¯¼ì£¼ëĭ¹ìĿĢ":4462,"ĠìĿ¼ë³¸ìĿĺ":4463,"ìĹĪëĭ¤ê³ł":4464,"ëĭ¹ìĹ°":4465,"Ġíķľê±°":4466,"Ġìĭ¤ë§Ŀ":4467,"Ġë°©ìĤ¬ëĬ¥":4468,"ìŀ¥ìĹĲìĦľ":4469,"ìľ¤ìĦĿìĹ´":4470,"ĠãĦ¹":4471,"Ġêµ°ìĤ¬":4472,"ìľ¼ëĤĺ":4473,"ê¸ĪìĿĦ":4474,"êµŃë¯¼ìĿĦ":4475,"ĠëıĻë§¹":4476,"ëľ»":4477,"ĠìĥĿê°ģìĿĢ":4478,"Ġì³Ĳë¨¹":4479,"Ĳľ":4480,"íĶ¼íķ´":4481,"Ġì¡¸":4482,"ĠíıĲì§Ģ":4483,"Ġìŀħë§Į":4484,"Ġìĸ´ë¦¬":4485,"ìĿ´ìłł":4486,"ìĹĪì§Ģ":4487,"Ġì¤ĳìļĶíķľ":4488,"ë¹Ħê°Ģ":4489,"Ġì©Ŀì©Ŀ":4490,"Ġìĭ¸ìļ°":4491,"Ġìĭ¤íĮ¨":4492,"Ġì§Ģêµ¬":4493,"Ġê±°ë¶Ģ":4494,"ìī½":4495,"íķĺê¸¸":4496,"ê²ĥê°Ļ":4497,"ê»ĺìĦľ":4498,"Ġìłķê¶ĮìĿĦ":4499,"Ġì¢ĭëĭ¤ê³ł":4500,"Ġìłķìŀĳ":4501,"ĠíĨµê³Ħ":4502,"ĠìŀĲê¸°ëĵ¤":4503,"ê¸°ëĤĺ":4504,"ĠëıĻë¬¼":4505,"ĠìŀĪëĭ¤ë©´":4506,"~!!":4507,"ëŃĺ":4508,"´ë©´ìĦľ":4509,"ĠìĹ¬ìŀĲê°Ģ":4510,"íķĺëĬĶêµ¬ëĤĺ":4511,"ĠìĿ´ìłľìĻĢìĦľ":4512,"Ġë§Īì°¬ê°Ģì§Ģ":4513,"Ġìĸ´ìĿ´ê°Ģ":4514,"ëķľìĹĲ":4515,"ĠëĨĶ":4516,"Ġê»":4517,"ì©¡":4518,"ĠëŃĲíķĺëĬĶ":4519,"..?":4520,"ë³ĳìĽĲ":4521,"Ġë¶Ģë¥´":4522,"Ġê³łë§Ī":4523,"¨¸":4524,"ìĿ´ìľł":4525,"Ġíķ´ë´ĲëĿ¼":4526,"Ġì§ĵìĿĦ":4527,"Ġì¹ľì¤ĳ":4528,"íľĺ":4529,"ì´ī":4530,"íķĺëĬĶê±°ì§Ģ":4531,"ĠìŀĲëħĢ":4532,"ëĦĲ":4533,"ĠìĹ°êµ¬":4534,"ĠëĲĺëĬĶëį°":4535,"ìŀ¬ìĤ°":4536,"ê¾¸ë":4537,"Ġê°Ģìłķ":4538,"íĮ©":4539,"Ġë²Įìĸ´":4540,"ĠëĤĺìĺ¨ëĭ¤":4541,"ì§ĪìĿĦ":4542,"ìĺĪìļĶ":4543,"Ġìłķì¹ĺìłģ":4544,"ë³´íĹĺ":4545,"Ġíı¬íķ¨":4546,"Ġì¡°êµŃìĿĢ":4547,"ĠìĿĦ":4548,"ì«":4549,"ì£¼íĥĿ":4550,"ìĿ´ë§Į":4551,"ìľĦìĽĲ":4552,"ĠëıĦëįķ":4553,"ĠëŃĶëį°":4554,"Ġë¬¸ìłľëĬĶ":4555,"ìĺ¤ë©´":4556,"ĠìµľìĨĮíķľ":4557,"ìķĺëĦ¤":4558,"ĠëŁ¬ìĭľìķĦ":4559,"Ġì¢ĭëĭ¤":4560,"ĠìĿ¼ìĿĢ":4561,"ìłľíĴĪ":4562,"Ġëºı":4563,"ê·¸ë¦ĩ":4564,"ëĨĪìĿĢ":4565,"ĠìľłëŁ½":4566,"ë³µìĿĦ":4567,"ìĭłìĿ´":4568,"ìĸ´ëĸ»ê²Į":4569,"Ġì±ħìŀĦìĿĦ":4570,"íĨµìĪĺ":4571,"íĻľëıĻ":4572,"ĠìĻĢìĦľ":4573,"ìľĦê¸°":4574,"Ġì±Ļê²¨":4575,"ëª¨ëĵł":4576,"Ġê³łë¯¼":4577,"ĠìĨĮëĮĢê°Ģë¦¬":4578,"ĠëĮĢëĭ¨íķľ":4579,"ìłķëĭ¹":4580,"ĠìķĦìĽĥ":4581,"ìŀ¥ëĤľ":4582,"Ġë³Ģíĺ¸ìĤ¬":4583,"ê¸°ìłĦìĹĲ":4584,"ĠëĮĢëĭ¤":4585,"íĺĶ":4586,"Ġíĳľì°½":4587,"ìĻĢëĿ¼":4588,"ëł¸ëĭ¤":4589,"ĠìķķìĪĺìĪĺìĥī":4590,"Ġë§Īìķ½":4591,"ĠëĤĺìģĺ":4592,"ĠëĤ¸":4593,"Ġë§ĮëĤĺ":4594,"Ġìĥģíĥľ":4595,"ìĪĺë¡ľ":4596,"ìľ¼ëł¤":4597,"Ġíķľë°ĺëıĦ":4598,"Ġë§Īì§Ģë§ī":4599,"ìĿ¼ìĹĲ":4600,"íĸĪëĬĶì§Ģ":4601,"ë°ĺëĮĢ":4602,"ìłķìĥģ":4603,"ê°ĲìĿ´":4604,"ë¬¼ê³ł":4605,"ĠìĿ´ìľłëĬĶ":4606,"ìĦĿíĿ¬":4607,"ëłĢ":4608,"ĠëŃĲíķĺëĥĲ":4609,"íķĺê³łëĬĶ":4610,"ìĬ¤ëŁ¬ìļ´":4611,"ë¿Ķ":4612,"ĠëĤĺë¶Ī":4613,"ĠíķĺëĿ¼ê³ł":4614,"ĠíķĺëĤĺëĭĺ":4615,"ĠëĲ¨":4616,"±ī":4617,"ëĮķ":4618,"ìį©":4619,"Ġë¹Ħìĭ¸":4620,"ìĹĪëĥĲ":4621,"ëĤ¬ëĭ¤":4622,"Ġíķĺê¸´":4623,"Ġì²¨":4624,"Ġëĭ¨ì²´":4625,"Ġì£¼ë¯¼":4626,"Ġì£Ħë¥¼":4627,"ìĿ´ë©°":4628,"ìłľëıĦ":4629,"Ġë¹¡":4630,"ĠëĤĺíĥĢ":4631,"ë°ĽìĿĢ":4632,"Ġ12":4633,"Ġê¸°ëıħêµĲ":4634,"ĠëĤĺëĪł":4635,"Ġêµ¬ë¶Ħ":4636,"Ġë§Įëĵ¤ìĸ´ìĦľ":4637,"Ġìļ°íķľíıĲëł´":4638,"Ġê°Ĳìĭ¸":4639,"Ġë³´ìĥģ":4640,"Ġê°Ħëĭ¤":4641,"ĠíĮĶìķĦ":4642,"ëĨĪëĵ¤ìĿĢ":4643,"ê¼Ń":4644,"ìķŀìĹĲ":4645,"ĠìĦ¤ëªħ":4646,"ĠìłĦë¬¸ê°Ģ":4647,"êµŃíļĮìĿĺìĽĲ":4648,"ìĺ´":4649,"ìĦ¸ë¥¼":4650,"ëĽ°":4651,"ëĬĶëĭ¤ê³ł":4652,"ĠëĪĪìĹĲ":4653,"ĠëįĶìļ±":4654,"ìĹħìŀĲ":4655,"Ġ518":4656,"ëĭ¤ìĭľ":4657,"ĠìĺĪìłĦ":4658,"íĳ¼":4659,"Ġë§Ĳë§Į":4660,"ĠìĿ´ëħĲ":4661,"ìļ´ëį°":4662,"Ġë§Īì¹ĺ":4663,"ĠìĹŃê²¨":4664,"ĠëĺĲëĿ¼ìĿ´":4665,"ëĵłê°Ģ":4666,"ìĭľìļĶ":4667,"ĠìĹ´ë":4668,"íĸĪìĿĦ":4669,"ĠíĻĶê°Ģ":4670,"Ġë¬´ê¸°":4671,"ì¡°ìĦłìĿ¼ë³´":4672,"ë²ķìĿ´":4673,"ëłĪìĿ´":4674,"Ġ19":4675,"ìķĦì§Ģ":4676,"ëŀı":4677,"Ġë§Įìķ½":4678,"ĠëĮ":4679,"Ġì²łìĪĺ":4680,"ĠìķĪíķĺëĬĶ":4681,"ìĿ¸ê¶Į":4682,"ìŀ¡ìķĦ":4683,"ĠìĹ¬ë¡łì¡°ìĤ¬":4684,"ìķĦë¦¬":4685,"ĠëĶ´":4686,"ëĦĺëĵ¤":4687,"ĠëĺĲíķľ":4688,"Ġëĳĺëĭ¤":4689,"ë¥´ê²Į":4690,"Ġë¬µ":4691,"ĠìķĪëĲł":4692,"ĠìŀĲëıĻ":4693,"Ġìĸ´íľ´":4694,"Ġíķ´ì²´":4695,"Ġë³Ħë¡ľ":4696,"¸ë¹Ħ":4697,"ĠìļķíķĺëĬĶ":4698,"ìŀī":4699,"ìĹĪëįĺ":4700,"íķ´ëĨĵê³ł":4701,"ĠìľłíĬľë¸Į":4702,"Ġíķĳê³Ħ":4703,"ĠìĺĽëĤł":4704,"ìĬ¤ëŁ½ê²Į":4705,"ĠíĶĦë¡ľ":4706,"ì¢ħêµĲ":4707,"ĠíĻľëıĻ":4708,"ìĦĿëł¬":4709,"Ġíķ©ìĿĺ":4710,"ĠëĲĺëĥĲ":4711,"ì§ĢìĹĲ":4712,"ìĵ´ëĭ¤":4713,"ĠíĨłì°©":4714,"ìĽĲëıĦ":4715,"Ġíķľëĭ¬":4716,"ĠíĽĦìĨĲ":4717,"ê²łëĭĪ":4718,"Ġê²½ìŁģ":4719,"ëĮĢê³ł":4720,"ĠëĲĺëĬĶê±°":4721,"ë´Ħ":4722,"ĠìĿ´ëŁ¬ëĭĪ":4723,"Ġì£½ì°½":4724,"ĠìŃ":4725,"ìŀł":4726,"ĠìĪĺêµ¬":4727,"ìŀĦìĿĦ":4728,"ĠëĦĪê°ĻìĿĢ":4729,"Ġì§ģìĹħ":4730,"ìķĪìĿ´":4731,"ì¹ľëĭ¤":4732,"ĠìĽĢì§ģ":4733,"ĠìŀĲì£¼":4734,"ê´ĢìĿ´":4735,"ĠìĦ±íıŃíĸī":4736,"ëĲĺëĥĲ":4737,"ì¤ĺìĦľ":4738,"ĠìŀĪì§Ģë§Į":4739,"´ë°°":4740,"ëıĻëĦ¤":4741,"âĻ":4742,"ë²¼":4743,"ĠëĶ¸ë":4744,"ëİ":4745,"Ġëª»íķ´":4746,"ķëĭĪëĭ¤":4747,"Ġìłķë¶ĢìĿĺ":4748,"Ġì¤¬":4749,"Ġìĺ¤ë¡ľì§Ģ":4750,"ê²Ħ":4751,"Ġìłķê¶ĮìĿĺ":4752,"ĠíĮĶìķĦë¨¹":4753,"ìı":4754,"Ġì«Į":4755,"ĠìķĦì¤Įë§Ī":4756,"êº¼ëĭ¤":4757,"°ëĮĢ":4758,"ê²łëĬĶëį°":4759,"Ġë§ĺëĮĢë¡ľ":4760,"êµ¬ìĨį":4761,"ëĤ¼":4762,"ĠìķĬìľ¼ë©´":4763,"íķ´ê°Ģ":4764,"Ġìłķê¶ĮìĿĢ":4765,"Ġë´ħëĭĪëĭ¤":4766,"ĠëĤ´ê³ł":4767,"ìľ¼ìĦ¸ìļĶ":4768,"Ġì°¸ìĹ¬":4769,"ĠíŀĺëĤ´ìĦ¸ìļĶ":4770,"Ġìĸ´ëł¤ìļ´":4771,"Ġë²Ħíĭ°":4772,"Ġìļ°ë¦°":4773,"Ġë¯¿ìĿĦ":4774,"ĠìµľìķħìĿĺ":4775,"ì¡°ê°Ģ":4776,"ê³¼ëĬĶ":4777,"íĽł":4778,"ĠìĥĿê¸´":4779,"²Į":4780,"ëĭ¤ìļ´":4781,"Ġìļ°ë¦¬ëĤĺëĿ¼ëĬĶ":4782,"Ġì°¬ìĸĳ":4783,"ìķĪìĹĲ":4784,"ĠëĮĢë³ĢìĿ¸":4785,"ĠëĨĢìķĦ":4786,"ĠíĿĳ":4787,"ê°ľëı¼ì§Ģ":4788,"ê·¸ê²Į":4789,"ãħİãħİãħİ":4790,"Ġìłģê·¹":4791,"Ġíķ¨ë¶Ģë¡ľ":4792,"Ġëĭ«":4793,"ĠìķĪì²łìĪĺ":4794,"íķĺìĭľëĬĶ":4795,"ìĻĦìłĦ":4796,"ĠíĮ¬":4797,"ĠíķľêµŃìĿĦ":4798,"ìķĦëĵ¤":4799,"ìĿ¼ìĦ±":4800,"Ġë¬¸ëĮĢíĨµëł¹":4801,"ëĬł":4802,"Ġë¶ģê´´":4803,"Ġê·¸ëŁ°ê±°":4804,"ĠìĿ´ëĤ":4805,"ì§±ê¹¨":4806,"ê²½ìĭ¬":4807,"ìĸ´ì°¨íĶ¼":4808,"ĠëĵĿ":4809,"ìĿĮìĿ´":4810,"Ġë³´ë³µ":4811,"Ġì§¤":4812,"ë¥´ìĬ¤":4813,"ìħĶìķ¼":4814,"Ńë¹Ħ":4815,"Ġìļ°ë¦¬ìĿĺ":4816,"ì°¾":4817,"ĠìŀĪìĸ´ìļĶ":4818,"ĠêµĲíĻľ":4819,"ëĭ¹ìĿĦ":4820,"Ġë¯¸ë¦¬":4821,"ĠìĦ¸ìĽĶ":4822,"ìĬ¤íħľ":4823,"ìĤ¬ìĿ´":4824,"ê²ĥë§Į":4825,"ĠìĪľê°Ħ":4826,"Ġíķĺê²Į":4827,"Ġë¶Ħëĵ¤":4828,"ĠìĹŃê²¹ëĭ¤":4829,"Ġë²ķìĿ´":4830,"Ġê±°ê¸°ìĹĲ":4831,"İĦ":4832,"Ġë§ĪìĿ´":4833,"Ġë§Įíģ¼":4834,"Ġë¬¸ìłķê¶Į":4835,"ĠëĤ´ë¶Ģ":4836,"ìŀ¬íĮĲ":4837,"ĠíķĺëĿ¼":4838,"Ġíķľë²ĪëıĦ":4839,"ĠìĻł":4840,"ĠëĮĢíķľë¯¼êµŃìĿĢ":4841,"ĠìŁ¤":4842,"ĠìĽĲíķĺëĬĶ":4843,"ĠíĹĮë²ķ":4844,"ë¨¹ìĿĢ":4845,"ëľ¯":4846,"ëĿ¼ìĭľ":4847,"ĠìķĮì§Ģ":4848,"ĠìĿ´ì§Ģ":4849,"ë°ľìĿ´":4850,"ìĦľìķ¼":4851,"íķĺëł¤ëĬĶ":4852,"Ġì¤ĳêµŃìĿĢ":4853,"ìĿį":4854,"íķłê²ĥ":4855,"Ġê°ľëı¼ì§Ģëĵ¤":4856,"ĠíķĺëįĶëĭĪ":4857,"ìĬ¤ëŁ°":4858,"Ġëĵ£ê³ł":4859,"¨ìĿ´":4860,"ĳĲ":4861,"ĠìĤ°ëĭ¤":4862,"Ġëª¨ë¥´ê²łëĭ¤":4863,"ì¦ĪìķĦ":4864,"ëĵľë¦½ëĭĪëĭ¤":4865,"ĠëĳĲë²Ī":4866,"ĠìŀĲë³¸":4867,"Ġê¹¡":4868,"ìĸ´ëĮĢ":4869,"íĨµìĿ¼":4870,"ìĹ¬ìķ¼":4871,"ìĽĲìĿĢ":4872,"Ġë¬¸íĻĶ":4873,"íĮ¨ìĬ¤":4874,"~~~~~":4875,"ìĹ¬ëŁ¬":4876,"ĠíĿĶëĵ¤":4877,"Ġë¶Īë¦¬":4878,"ë°©ìĹĲ":4879,"ëĤĺëĦ¤":4880,"Ġìŀ¡ê³ł":4881,"ì´Į":4882,"ì¡°êµŃìĿ´":4883,"ëŁ½ëĭ¤":4884,"ĠìĺģìĽĲíŀĪ":4885,"Ġì«Ħ":4886,"Ġì§ĢëĬ¥":4887,"íķĺì§Ģë§Ī":4888,"Ġìį¼":4889,"Ġê³µì§ľ":4890,"ëĲĺëĬĶëį°":4891,"ìĹĲê²ĮëĬĶ":4892,"ðŁĳį":4893,"ìĿĺìĭĿ":4894,"ĠìĻĦìłĦíŀĪ":4895,"ì¹ĺë©´":4896,"Ġëĭ¬ëł¤":4897,"Ġìĺģíĸ¥":4898,"ìķĮê³ł":4899,"ì±Ļ":4900,"Ġë¬´ì§Ģ":4901,"ìĿ´ì£ł":4902,"Ġì¼":4903,"ìĦ¸ë¡ľ":4904,"Ġê·¸ì§Ģ":4905,"ĠìĹĨëĭ¤ëĬĶ":4906,"Ġì§Ħìĭ¤ìĿĦ":4907,"ĠíķĺëĬĶêµ¬ëĤĺ":4908,"ãħģ":4909,"Ġíķ©ë¦¬":4910,"ĠìŀĲìĹ°":4911,"Ġíķĺìķ¼":4912,"Ġë¨¹ëĬĶ":4913,"Ġì¶©ë¶ĦíŀĪ":4914,"ëį©ìĸ´ë¦¬":4915,"Ġíĺ¸ë":4916,"Ġëĭ¨ìĪľ":4917,"ìľ¼ë¡ľëĬĶ":4918,"ë·°":4919,"ĠëĬĶ":4920,"âĿ":4921,"ë¡ľëĬĶ":4922,"Ġ??":4923,"íĮĲìĤ¬":4924,"ëĭĺìĿĢ":4925,"Ġì°¢":4926,"ë¦¬ê²Į":4927,"Ġë§¹":4928,"Ġê´ľíŀĪ":4929,"ìĮ":4930,"ìķĺìľ¼ë©´":4931,"Ġê²Ģìĥī":4932,"ĠíķľêµŃìĿĺ":4933,"£¨":4934,"ĠíĬ¸":4935,"´ëĮĢ":4936,"ì§ĢìĤ¬":4937,"ë¦¬ìķĦ":4938,"Ġë³Ģëªħ":4939,"Ġì¶Ķì¢ħ":4940,"Ġëª½":4941,"ĠëĬĻìĿĢ":4942,"Ġì§Ŀ":4943,"Ġë°°ìĭł":4944,"Ġìĸĳë°ĺ":4945,"Ġë°°ìļ°":4946,"ĠëĮĢëĭ¨íķĺëĭ¤":4947,"ìĸ¼êµ´":4948,"ëĤĺê°Ģ":4949,"ë¦¬ëĥĲ":4950,"ê±°ë¦¬ëĬĶ":4951,"íĬ¸ëłĪ":4952,"ĠìĪ«":4953,"ĠìŀĪëĬĶê²Į":4954,"ë¶ĢëĬĶ":4955,"êµŃìĿĺ":4956,"ê·¸ëłĩ":4957,"ëĮĢíĨµëł¹ìĿ´":4958,"Ġë²ĮëłĪ":4959,"Ġëĵ±ìĭł":4960,"ê¸°ëĭ¤":4961,"Ġì´ĿìĦłìĹĲìĦľ":4962,"Ġ90":4963,"ĠìĦ¸ìĥģìĹĲ":4964,"Ġêµ¶":4965,"Ġì¸":4966,"ĠëĤĺë¨¸":4967,"ĠìĦ¸ëĩĮ":4968,"Ġë¸Į":4969,"ìĥģíĥľ":4970,"ìĸ´ë´Ĳ":4971,"ĠíĸĪëĭ¤ê³ł":4972,"ìķĪíķ¨":4973,"ĠìĹ¬ëŁ¬ë¶Ħ":4974,"Ġíķ´ë¨¹":4975,"ĠìĨĮë¦¬ë¥¼":4976,"ĠìłķìĿĺëĭ¹":4977,"ë¬¸ë¹ł":4978,"ĠíĿ¥":4979,"Ġìĸ´ë¥¸":4980,"Ġë§Ĳíķľ":4981,"Ġëª¨ë¥¼":4982,"ĠìłĦì²´":4983,"ìĤ¬ì§Ħ":4984,"ìł¸ëıĦ":4985,"Ġë²ķë¬´ìŀ¥ê´Ģ":4986,"ì£¼ê°Ģ":4987,"ê³µìĪĺì²ĺ":4988,"íĮĲìĹĲ":4989,"íĥĢê³ł":4990,"ê´´ë":4991,"ì¹ĺê¸°":4992,"Ġë¬¸ìĶ¨":4993,"ãħīãħīãħī":4994,"ìĪĺìĿĺ":4995,"ĠãħĤãħħ":4996,"ìį¬":4997,"ĠOOOëĵ¤":4998,"ë³´ë¡ľ":4999,"ĠëĩĮë¬¼":5000,"íĿ¥":5001,"ìĨĮë¯¸":5002,"Ġíķ´ë´Ĳ":5003,"ê°ľê°Ģ":5004,"ëĮĢë¥¼":5005,"Ġì°¸ìľ¼ë¡ľ":5006,"ìľłê³µìŀĲ":5007,"ìłľëıĻ":5008,"êµŃë¯¼ëĵ¤ìĿ´":5009,"ĠìłĦë¬¸":5010,"ì´Ľë¶Ī":5011,"ìĸ´ìĿ´":5012,"ë³´ì§Ģ":5013,"Ġãħģ":5014,"Ġê³µì²ľ":5015,"íĹĲ":5016,"Ġëħ¸ëŀĺ":5017,"ĠS":5018,"Ġíľ":5019,"Ġì±Ļê¸°":5020,"Ġíģ°ìĿ¼":5021,"Ġëª°ëł¤":5022,"ìłķëıĦë©´":5023,"Ġê²½ìĥģëıĦ":5024,"ĠëĤ¨ë¶ģ":5025,"Ġìķłëĵ¤ìĿĢ":5026,"Ġê±¸ë¦°":5027,"ëĤĺìĺ¨ëĭ¤":5028,"ĠìĦ±ìŀ¥":5029,"Ĥł":5030,"ëĸ¡":5031,"ĠìĨĮìĦ¤":5032,"ĠìĦłì§ĦêµŃ":5033,"ê²©ìĿ´":5034,"Ġìłķìĭłë³ĳìŀĲ":5035,"Ġê°Ķëĭ¤":5036,"ĠëıĻìĿĺ":5037,"ĠìĦ¸ê¸ĪìĿĦ":5038,"ĠíĺĲìĺ¤":5039,"êµŃë¯¼ìĿĺ":5040,"ĠìĦ¬":5041,"ìķĦíĮĮ":5042,"Ġëª©ìĨĮë¦¬":5043,"Ġëĭ¹íķĺê³ł":5044,"ìĿĢê²Į":5045,"Ġì§ģìŀ¥":5046,"ìĳĪ":5047,"Ġë¶ĢëģĦëŁ¬ìļ´":5048,"Ġê´´ë¡Ń":5049,"ëħĦëıĦ":5050,"ãĦ·ãĦ·":5051,"Ġë¶Īíİ¸":5052,"ë¥¸ëĭ¤":5053,"Ġì¹ĺê³ł":5054,"ëĮĢë³Ģ":5055,"Ġë¬¸ìłķë¶Ģ":5056,"ĠìĨĮë¦Ħ":5057,"ìĸ¼ë§ĪëĤĺ":5058,"ì§Ģëĵ¤":5059,"ĠìĻľê³¡":5060,"ê±±ìłķ":5061,"ĠëĮĢíĨµëł¹ìĿĦ":5062,"ĠìŀĲíķľëĭ¹ìĿ´":5063,"²Ļ":5064,"ìĽĲìĹĲ":5065,"Ġë¹Ļ":5066,"in":5067,"ë¹Ļ":5068,"Ġì§ĲìĬ¹":5069,"Ġìĭľê¸ī":5070,"Ġíį¼ì£¼":5071,"ĠíŀĪ":5072,"ì²ĺë²Į":5073,"ìŀĪìĿĮ":5074,"Ġê°ĲìĤ¬íķ©ëĭĪëĭ¤":5075,"ìĿ´ìĹ¬":5076,"ë¹ĦìĬ¤":5077,"ëĮĵ":5078,"ŁìķĦ":5079,"ĠìĮĵ":5080,"ìĽĲëŀĺ":5081,"ĠëĤľëĭ¤":5082,"Ġìļ¸ë":5083,"ĠíĿī":5084,"ĠìķĦê¹Ŀëĭ¤":5085,"Ġê°ĻìķĦ":5086,"ê³³ìĹĲ":5087,"ëĤ´ëł¤":5088,"ĠëģĮìĸ´ëĤ":5089,"Ġë³´ìĿ´ëĬĶ":5090,"ì³ĲëĿ¼":5091,"Ġëª¨ì¡°ë¦¬":5092,"¼Ī":5093,"ë²Ħë¦¬ê³ł":5094,"ìĦ¸ê°Ģ":5095,"íķĺìĭľê³ł":5096,"................":5097,"ë§¨":5098,"ìĿ´ë¦¬":5099,"ĠëĤ´ëĨĵ":5100,"ĠíĥĢê³ł":5101,"ĠìĽĮ":5102,"ìĿ´ìŀ¬":5103,"Ġë¶Ģëª¨ê°Ģ":5104,"ĠìĺĪìĤ°":5105,"ĠìłķìĥģìłģìĿ¸":5106,"ìĸ´ëĵ¤":5107,"£Į":5108,"ìĦĿìĿ´":5109,"Ġ~~~":5110,"Ġíĺģ":5111,"ë¥Ń":5112,"ĠìŀĦê¸°":5113,"ĠìĿ´ëŀĺìĦľ":5114,"Ġë¯¸íĨµëĭ¹":5115,"ë¬¸ìŀ¬ìĿ¸ìĿĢ":5116,"ĠìĮĢ":5117,"ìŀĪìĸ´":5118,"Ġì£¼ìłľìĹĲ":5119,"ĠëĮĢíĻĶ":5120,"ĠìĺģìĽħ":5121,"Ġë¶ĢíĮ¨":5122,"Ġë°¤":5123,"ĠíķľìĿ¼":5124,"Ġì¢Ģë¹Ħ":5125,"Ġì°½íĶ¼":5126,"íķĺê±°ëĤĺ":5127,"ìĦłìĿĦ":5128,"ĠìĹ´ë°Ľ":5129,"Ġíķĺì§Ģë§Ĳ":5130,"Ġc":5131,"ë°ķìĿ´":5132,"Ġì¯§":5133,"ëĤ´ëĿ¼":5134,"Ġì´Īëĵ±":5135,"Ġì£½ìĿĮ":5136,"ĠìłķëıĦë¡ľ":5137,"Ġìŀ¬ëĤľ":5138,"ĠëĲľëĭ¤ê³ł":5139,"ĠíĹĲ":5140,"íĨµìĿ´":5141,"!!!!!!":5142,"Ġë¯¸êµŃìĿĢ":5143,"Ġê¸°ëıĦ":5144,"ëĬĶê±´ê°Ģ":5145,"ĠìłľíĴĪ":5146,"Ġìļ°ë¦¬ëĤĺëĿ¼ê°Ģ":5147,"ë¯Ħ":5148,"Ġì·¨ìĨĮ":5149,"ìĭłë¬¸":5150,"Ġ300":5151,";;;":5152,"Ġê¹ĢëĮĢì¤ĳ":5153,"ì¹´ë":5154,"ĠìķĪëĭ¤":5155,"íķĻìĿĺ":5156,"Ġê¸´":5157,"ĠìĤ¶ìĿĢ":5158,"Ġë°°ëĭ¬":5159,"ĠìĤ¬ìĭ¤ìĿĦ":5160,"ëħĦìĿĢ":5161,"ëħĦëĮĢ":5162,"íĸĪìĿĮ":5163,"Ġíķ´ì£¼ìĦ¸ìļĶ":5164,"ëĤ´ìĦľ":5165,"ĠìŀĦê¸Ī":5166,"Ġê±°ê¸°ìĦľ":5167,"Ġê·ľìłľ":5168,"ìĭľëĤĺ":5169,"Ġëĸ³":5170,"ĠëĦĲ":5171,"ë§Įê°Ħ":5172,"Ġì§Ģì§Ģíķ©ëĭĪëĭ¤":5173,"Ġì¤ĳìĹĲ":5174,"Ġëĭ¤ëĭĪëĬĶ":5175,"ê°ľë°ľ":5176,"ëįĶëĥĲ":5177,"íķ´ì£¼ê³ł":5178,"ì²´ë¡ľ":5179,"ìĿ¼ë³¸ìĿĢ":5180,"ê°ĢëıĦ":5181,"ë§ĪíĬ¸":5182,"Ġëª°ëĿ¼ëıĦ":5183,"ĠíķľëĳĲ":5184,"ì°¨ë³Ħ":5185,"Ġê¿Ģ":5186,"ìĽĲìĹĲìĦľ":5187,"Ġë³´ëĦ¤":5188,"Ġê·¸ëłĩê³ł":5189,"ĠìķĪëĵ¤":5190,"Ġë¯¼ìĥĿ":5191,"ëª¨ëĳĲ":5192,"ĠíĨµìłľ":5193,"ì£Ħë¡ľ":5194,"ĠíĮĮìķħ":5195,"ĠìĤ´ìĿ¸ë":5196,"ĠíĻįì½©":5197,"Ġì§ĢëĦ¤":5198,"Ġê·¸ë§Įíķ´ëĿ¼":5199,"Ġì§Ģê¸ī":5200,"ĠìĤ¬ìŀ¥":5201,"ĠêµŃë¯¼ìĹĲê²Į":5202,"Ġë§ĪëĪĦëĿ¼":5203,"ĠíĻįì¤Ģíĳľ":5204,"Ġêº¼ìł¸ëĿ¼":5205,"Ġë³´ìľł":5206,"Ġê³µìŀ¥":5207,"Ġëį°ëł¤":5208,"Ġíķĺëł¤ê³ł":5209,"ìĦ±ìŀ¥":5210,"ìĦĿìĿĢ":5211,"ĠìĦ¸ëĮĢ":5212,"ĠìłķìĭłëĤĺê°Ħ":5213,"Ġëĭ¤ìĭľëĬĶ":5214,"ĠëĨĪëĵ¤ìĿĢ":5215,"Ġìıĺ":5216,"ìĹī":5217,"ĠìĹĦì²ŃëĤľ":5218,"ĠìĤ½":5219,"ĠìĿ´ëĤĺ":5220,"ìĿ´êµ¬ëĤĺ":5221,"ìĤ¼ìĦ±":5222,"ĠI":5223,"ëŀ¬":5224,"ìĨĮê¸°ìĹħ":5225,"âĻ¥":5226,"ĠìķĬëĥĲ":5227,"Ġê²ª":5228,"ê³µíĻĶ":5229,"Ġì¦Ŀëªħ":5230,"ĠíĬĢ":5231,"Ġì£½ìĸ´":5232,"ĠK":5233,"ĠíķľêµŃìĹĲìĦľ":5234,"ĠìĥĿëªħ":5235,"Ġëª¨ë¥¸ëĭ¤":5236,"ĥĪ":5237,"íķĺë£¨":5238,"ë¦¬ëĿ¼":5239,"Ġê°ĢëĵĿ":5240,"ìĥĪíĤ¤":5241,"ĠëĤ«ëĭ¤":5242,"ĠìłĢê¸°":5243,"bs":5244,"Ġìłķë¶ĢìĹĲìĦľ":5245,"ĠìĿ´ëĵĿ":5246,"Ġë§ŀìķĦ":5247,"ĠëıĻìķĪ":5248,"ë§¤ë§¤":5249,"ìĿ´ëĵ¤ìĿ´":5250,"íķľì²Ļ":5251,"íķľê°Ģ":5252,"Ġë¬¸ìĬ¬ëŀĮ":5253,"ĠìĹĨìĸ´ìļĶ":5254,"ìĺĢëĬĶëį°":5255,"ì§Ģëª»":5256,"Ġë°ĺëıĦ":5257,"ĠêµŃê°ľìĿĺìĽĲ":5258,"ĠìĥĿê°ģíķĺë©´":5259,"ìľĦëĬĶ":5260,"ĠìĿ¼ë³¸ê³¼":5261,"ë³´ëıĦ":5262,"Ġë²Įê¸Ī":5263,"ê²¨ìĦľ":5264,"ìļ°íķľ":5265,"ëįĶë¶Īìĸ´":5266,"ĠìĹĺ":5267,"Ġë§ĲìĿ´ëĭ¤":5268,"ìķĦëĬĶ":5269,"ĠìĺĪë°°":5270,"êµĲì¡°":5271,"Ġì°¨ë³Ħ":5272,"Ġt":5273,"ĠìĤ¬ì£Ħ":5274,"Ġì²ľë²Į":5275,"Ġ#":5276,"ĠìºĲ":5277,"Ġë´īìĤ¬":5278,"ĠãħħãĦ²":5279,"ĠìŀĲíķľëĭ¹ìĿĢ":5280,"Ġëª¨ë¥´ëĤĺ":5281,"ê³łìŀĪëĦ¤":5282,"ë§Ŀìĭł":5283,"ĠìľĦíĺĳ":5284,"ĠìĿ¼ë³¸ìľ¼ë¡ľ":5285,"ê³µê°Ĳ":5286,"Ġë°ĸ":5287,"ê²½ìĿ´":5288,"ëĤĺë²ł":5289,"ĠìĪĺë°±":5290,"ĠìķĦë¹ł":5291,"ĠãħĲ":5292,"60":5293,"ĠìĨĲíĺľìĽĲ":5294,"ĠìķĪëĤĺìĺ¤":5295,"ĠìĿ¼íķĺëĬĶ":5296,"Ġìľ¼ë¡ľ":5297,"íķ´ì¤Ħ":5298,"ĠëªħìĺĪ":5299,"Ġì¡¸ëĿ¼":5300,"ê²©ë¦¬":5301,"êµŃìľ¼ë¡ľ":5302,"ìĭ±":5303,"ë¥ľ":5304,"ĠìĿ´ìĸ´":5305,"ìĺ¤ê³ł":5306,"Ġìĸ´ìłľ":5307,"ìŃ":5308,"ìłķíķľ":5309,"Ġê·¸ëĨĪ":5310,"ĠìķŀìĹĲìĦľ":5311,"ëģĮ":5312,"ĠìĿ´íĺ¼":5313,"êº":5314,"Ġëĭ¹ëĭ¹":5315,"Ġêµ¬ì¡°":5316,"ëĬ¥ëł¥":5317,"Ġëĭ¹ìĹ°íķľ":5318,"ìľ¼ìĭł":5319,"Įë¥Ń":5320,"Ġì¤ĳêµŃìĹĲìĦľ":5321,"Ġìķłë¹Ħ":5322,"ëļ±":5323,"ìŀĲìĹ°":5324,"Ġë°Ķëĭ¥":5325,"Ġíķĺë©°":5326,"ê´ĳíĽĪ":5327,"ìĿ´ëªħ":5328,"ĠìľĦì¡°":5329,"ëĬĲëĭĪ":5330,"ĠëĴ¤ì§ĳìĸ´":5331,"íķĺì§ĢëıĦ":5332,"Ġx":5333,"ê²½ìĪĺ":5334,"ìĹĲíľ´":5335,"Ġì¶©ìĦ±":5336,"Ġì§Ħì¤ĳê¶Į":5337,"ê±´ê°ĢìļĶ":5338,"ĠìķĪëĭ¬":5339,"Ġê³łëł¤":5340,"Ġê°ĳì§Ī":5341,"Ġê³łìļ©":5342,"íŀĪê³ł":5343,"ĠìĥģíĻ©ìĿ´":5344,"íŀĲ":5345,"ĠíĽĦíļĮ":5346,"ìĹĪê³ł":5347,"Ġë¬¼ê±´":5348,"ĠìļķìĿĦ":5349,"ëıĦìķĪ":5350,"ĠìķĦìĿ´ëĵ¤":5351,"ë³´ëĤ":5352,"íķ¨ìĿĦ":5353,"Ġê³Ħíļį":5354,"Ġë¿ĲìĿ´ëĭ¤":5355,"Ġë¨¹ìĿĦ":5356,"ê´Ģëł¨":5357,"Ġìĸ¸ë¡łìĿ´":5358,"ë³´ë³µ":5359,"ĠìŀħìĹĲ":5360,"ìķŀìľ¼ë¡ľ":5361,"ëĲĺëĬĶê±°":5362,"ìķłëĵ¤ìĿ´":5363,"Ġëħ¼ë¬¸":5364,"Ġë¶ģìľ¼ë¡ľ":5365,"Ġì´ĪëĶ©":5366,"ìĸ¼ë¯¸íĦ°":5367,"Ġì°¨ëĭ¨":5368,"ë¶Ģë¥¼":5369,"Ġë¬´ëĩĮ":5370,"ĠìĭľíĹĺ":5371,"Ġë§ŀê³ł":5372,"ê»Ģ":5373,"Ġê±´ë¬¼":5374,"íķłìĪĺìŀĪ":5375,"ĠëĨĴìĿĢ":5376,"BS":5377,"ìĨĶ":5378,"ê³łìĥĿ":5379,"ìħĪ":5380,"Ġìļ°ëł¤":5381,"Ġìłģìļ©":5382,"ìĹĲê²Ĳ":5383,"ìĦ¸ê¸Īìľ¼ë¡ľ":5384,"ĠìĽĲìĪŃìĿ´":5385,"ì¢ħë¶ģ":5386,"ĠìĿ¼ë¶ĢëŁ¬":5387,"íķ´ì§Ģ":5388,"ì§Ģë¦¬":5389,"Ģë¡ľ":5390,"ĠíĬ¹íĺľ":5391,"ìĿ´íĦ°":5392,"Ġê¸°ê´Ģ":5393,"ëĮĢìĿĺ":5394,"ëĭ¹ìĿĺ":5395,"Ġê±°ìķ¼":5396,"ĠëĬĲê»´":5397,"Ġìłķë¦¬":5398,"bc":5399,"ìĿ´ìĬ¤":5400,"Ġa":5401,"ëĮĢìĿĳ":5402,"ĠëĤĺëĮĢ":5403,"ĠìķĬëĭ¤":5404,"ëĵľëĿ¼":5405,"íħĶ":5406,"ĠìĿ´ëŁ´":5407,"ĠìĥĿê°ģíķľëĭ¤":5408,"Ġê¶Įëł¥ìĿĦ":5409,"ìĨĮìĹĲ":5410,"ë°ľìłĦ":5411,"ĠíĶ¼íķ´ë¥¼":5412,"ĠëĮĢê¹¨ë¬¸ëĵ¤":5413,"ëĬĶê±´ì§Ģ":5414,"ì¶Ķíĸī":5415,"Ġë¸Ķ":5416,"Ġìł¤":5417,"ë¦´ë":5418,"Ġë¹¨ê°±":5419,"ëĨ¨":5420,"Ġê°ľíķĻ":5421,"ëĤ¨ìķĦ":5422,"ĠíıŃíĸī":5423,"ĠíķĺëĭĪê¹Į":5424,"Ġì§ķìĹŃ":5425,"íĬ¸ë¥¼":5426,"ë°Ķë¥¸":5427,"ĠìķĦëĭĮì§Ģ":5428,"ìĬ¥":5429,"Ġë¬¸ê°Ģ":5430,"ĠìĿ¸ì¦Ŀ":5431,"ĠëĲĺëĤĺ":5432,"ê±¸ë¦¬":5433,"ì§Ħì¤ĳê¶Į":5434,"ĠìłĦíĺķ":5435,"ĠìķĮê²Į":5436,"ì¹ĺì§Ģ":5437,"íķĺíķĺ":5438,"Ġëį°ë¦¬ê³ł":5439,"ëº":5440,"ìĿ¼ëıĦ":5441,"ê²°ê³¼":5442,"ĠìĥĿê°ģíķ©ëĭĪëĭ¤":5443,"Ġê²½ìłľëĬĶ":5444,"ë¯¸êµ°":5445,"Ġìľłë¦¬":5446,"Ġëª»íķĺ":5447,"ĠêµŃë¯¼ëĵ¤ìĹĲê²Į":5448,"ìĤ¬ëŀĮëĵ¤ìĿĢ":5449,"Ġíķĺì§Ģë§Ī":5450,"ë¦¬ê¸°":5451,"Ġë¯¼ìĭ¬":5452,"íķĺëĭ¤ëĭĪ":5453,"ĠìłĪëĮĢë¡ľ":5454,"Ġìŀ¥ê¸°":5455,"ĠìķĪëĲĺê³ł":5456,"ëĨĶ":5457,"ìŀĲìĿ¸":5458,"ëĭĪëĦ¤":5459,"¤Ħ":5460,"ĠA":5461,"ĠìĥĪë¡ľìļ´":5462,"Ġë§ĪìĿĮìĿ´":5463,"ĠìķīìķĦ":5464,"Ġê²ģëĤĺ":5465,"ìĭľì£ł":5466,"ë½ķ":5467,"Ġê°ĢìŀĲ":5468,"Ġë³Ģíĺ¸":5469,"Ġëª¨ëĳĲê°Ģ":5470,"Ġíķ´ìķ¼íķľëĭ¤":5471,"ì²ĺë¦¬":5472,"ĠíĸīìĤ¬":5473,"¸ëĥĲ":5474,"Ġì²ĺë¨¹":5475,"ìĿ´ëĭĪê¹Į":5476,"ìłĢëıĦ":5477,"ĠìĭłëıĦ":5478,"Ġì£½ìĸ´ëĤĺ":5479,"Ġì£½ìĿ´ê³ł":5480,"ĠëĳĲëł¤":5481,"ĠìĨįìĿ´":5482,"Ġê·¸ë§Įíķĺê³ł":5483,"ĠìĻ¸êµŃìĿ¸":5484,"ìĿ´ëĿ¼ìĦľ":5485,"êµ¬ëĿ¼":5486,"ëĶ°ëĿ¼":5487,"ìľĦíķľ":5488,"ê¸°ì§Ģ":5489,"ĠìķĦë²Ħì§Ģ":5490,"ĠìĤ¬ìĥģ":5491,"Ġì¶Ķì²ľ":5492,"ĠT":5493,"ìĬ¹ë¦¬":5494,"ĠìľłìĿ¼":5495,"ìĭĿìĿĦ":5496,"Ġì§Ģê¸ĪìĿĺ":5497,"ĠëıĪìĿĢ":5498,"íķĺëĤĺìļĶ":5499,"ìºĲ":5500,"ĠìĿ¼ëıĦ":5501,"ĠìŀĺíķĺëĬĶ":5502,"Ġëĥī":5503,"Ġì§Ģìĭľ":5504,"ìĿ¼ë³¸ìĿ´":5505,"Ġíķ´ëªħ":5506,"ìłķëıĦë¡ľ":5507,"íķľì§Ģ":5508,"Ġê¹ĢìłķìĿĢìĿ´":5509,"ëĩ¬":5510,"Ġíŀĺëĵ¤ìĸ´":5511,"ðŁĴĻðŁĴĻ":5512,"Ġê·¼ë¬´":5513,"ê±¸ëłĪ":5514,"Ġê·¸ê²ĥ":5515,"Ġë»¥":5516,"ìĤ¬ìĹħ":5517,"Ġë¶Ģëĵ¤":5518,"ĠìķĦë²łê°Ģ":5519,"Ġê²¨ìļ°":5520,"Ġë¬´ìĦŃëĭ¤":5521,"==":5522,"Ġë¶ĪìĮįíķľ":5523,"ë¿Į":5524,"Ġìĭ¬ì§Ģìĸ´":5525,"ĠìľłëĭĪíģ´ë¡ľ":5526,"Ġë³µì§Ģ":5527,"ê¸°ìĭ«":5528,"ëŁ½ê²Į":5529,"ìĽĲìĿĦ":5530,"Ġê°ľëı¼ì§Ģë¡ľ":5531,"ìłķê¶ĮìĿĢ":5532,"Ġì§Ģíķĺ":5533,"ëªħíķľ":5534,"Ġë³´ë©´ìĦľ":5535,"ìĦłìĿ´":5536,"ë¬´ìĭĿ":5537,"Ġë¨¸ë¦¬ê°Ģ":5538,"êµ¬ë©į":5539,"Ġê³łìľĦ":5540,"ĠìĭĿë¯¼":5541,"Ġëħ¹":5542,"ìĿĺê°Ģ":5543,"ìĭľì¼°":5544,"ì¡°ìĦłì¡±":5545,"ĠëĤ¨ìĿĢ":5546,"Ġì°Ķ":5547,"ĠìĿ´ëĤĻ":5548,"ìĤ¬ëŀĳ":5549,"ìļ°íĮĮ":5550,"ìĤ´ìķĦ":5551,"Ġíķľê²Į":5552,"íĬ¸ëłĪìĬ¤":5553,"ìĸ´ëĤł":5554,"ĠìĿ´ë§ĮíĿ¬":5555,"Ġê¸°ë¡Ŀ":5556,"¸ë§Į":5557,"ĠëŃĲìķ¼":5558,"ĠíıŃëł¥":5559,"Ġë§İìķĦìĦľ":5560,"ĠìĭľíĤ¤ê³ł":5561,"ĠìĿ¸ê°Ħëĵ¤ìĿĢ":5562,"Ġìļ´ëıĻê¶Į":5563,"Ġëĭ¬ê³ł":5564,"ĠìĿ´ìĬĪ":5565,"Ģëĭ¤":5566,"ìĸ´ëĨĵ":5567,"ìĬ¹ë¯¼":5568,"Ġì¹´ë":5569,"íķ´ë´Ĳìķ¼":5570,"ìĹĦë§Ī":5571,"ëĲĺëĤĺ":5572,"ĠìŀĦëĮĢ":5573,"Ġë¶ģíķľìĿĢ":5574,"ê°ĢìŀĲ":5575,"ĠëĿ¼ëĬĶ":5576,"ìĦ±ìķł":5577,"ì¶©ëĵ¤":5578,"Ġìłķì¹ĺìłģìľ¼ë¡ľ":5579,"ĠìĿ´ëª¨":5580,"ê³łìĭ¶ëĭ¤":5581,"ĠìķĪëĲ¨":5582,"Ġê³µìķ½":5583,"ĠíĤ¤ìļ°":5584,"íķłê²Į":5585,"ìłĲìĿ´":5586,"Ġìłķìĭłì°¨ëł¤ëĿ¼":5587,"ĠìŀĪìĸ´ëıĦ":5588,"ëĮĢëıĦ":5589,"Ġëĸ³ëĸ³":5590,"Ġë²Ħë¦¬ê³ł":5591,"Ġì¶Ķë¯¸ìķł":5592,"ãħĪãĦ¹":5593,"ĠëķĮë¬¸ìĿ´ëĭ¤":5594,"Ġìŀ¬ìĪĺ":5595,"Ġìĸ¸ìłł":5596,"ĠìĿ´ìłĦ":5597,"ê²½ë¶ģ":5598,"ĠíķĺëĬĶê²ĥ":5599,"ĠìŀĲìľĦ":5600,"ìľ¨ìĿ´":5601,"ëĤ¨ìŀĲ":5602,"ìŀ¥ìľ¼ë¡ľ":5603,"Ġì§Ģìłģ":5604,"ì²ĺë¨¹":5605,"Ġë§¤ìļ°":5606,"ì£¼ë¯¼":5607,"ĠìĿ¸ìĦ±":5608,"Ġì²«":5609,"ĠíĽĦë³´":5610,"ëĭĿìį¬":5611,"ĠãĦ²":5612,"Ġë¶ĢìłķìĦłê±°":5613,"Ġëĭ®":5614,"ìĿ¸ìĤ¬":5615,"ĠíĨµíķ´":5616,"ĮĢíĨµëł¹":5617,"Ġì½ĶìĬ¤":5618,"Ġë¬´ìĭľíķĺê³ł":5619,"ãħĲ":5620,"Ġì°¸ê³ł":5621,"Ġì§Īë¬¸":5622,"íıīíĻĶ":5623,"¸ëł¸":5624,"Ġíŀĺëĵ¤ê²Į":5625,"ìĿ¸ìĥĿ":5626,"ëĦĪíĿ¬":5627,"Ġk":5628,"ìĽĮìķ¼":5629,"Ġë¶ĦìĿ´":5630,"ìĹĺëĿ¼":5631,"ë¹¡":5632,"ĠìķĮë©´ìĦľ":5633,"ëĬĶê²ĥìĿ´":5634,"ìĹĪìĿĮ":5635,"ìĿ¸ìľ¼ë¡ľ":5636,"ë¡Ńê²Į":5637,"ìĹĨìľ¼ë©´":5638,"ìľ¼ë¡ł":5639,"Ġë¹¨ê°±ìĿ´ëĵ¤":5640,"Ġê²Ģì°°ìĿĢ":5641,"Ġìĺ¤ì§Ģ":5642,"Ġì¿ł":5643,"ĠìĿ´ê²ĥëıĦ":5644,"Ġë¨¼ì§Ģ":5645,"ĠG":5646,"ìª½ìľ¼ë¡ľ":5647,"Ġìŀ¥ìķħ":5648,"ĠìĿ´ëĭ¤":5649,"...?":5650,"Ġì§Ģëł¹":5651,"ĠìĹ°ê¸Ī":5652,"Ġë§Īìĭľê³ł":5653,"ì¤ĺëıĦ":5654,"ê¸°ìĪł":5655,"ĠíķĺëĬĶê±´":5656,"ìĺ·":5657,"Ġê²½ìłľë¥¼":5658,"Ġê°ľìŀħ":5659,"Ġëª»íķľëĭ¤":5660,"Ġê²ĥëĵ¤ìĿĢ":5661,"ì§ĳìĹĲ":5662,"ê´Ģë¦¬":5663,"ë¡¯":5664,"ëĮĢìĹĲ":5665,"Ġë¬¸ìłľì§Ģ":5666,"ìĭľíĤ¬":5667,"Ġì¢Ĩ":5668,"Ġì²ŃìĤ°":5669,"ĠëģĦ":5670,"ì©Ŀì©Ŀ":5671,"ìĿ¸ëĵľ":5672,"ëħ¸ë¬´íĺĦ":5673,"Ġíģ´ëŁ½":5674,"ĠìĺĪìĥģ":5675,"ëĭ¹ê³¼":5676,"ë¶Ģëĵ¤":5677,"ĠìĹ®":5678,"íķłëł¤ê³ł":5679,"Ġê°ĻìĬµëĭĪëĭ¤":5680,"ìĥģìĭĿ":5681,"ì¹ľêµ¬":5682,"ĠìŀĪëĤĺìļĶ":5683,"Ġê·¸ë§Įíģ¼":5684,"¹ł":5685,"ìĤ¬íĩ´":5686,"Ġê±´ëĵľ":5687,"íķµíĻĶ":5688,"Ġë³¸ë":5689,"Ġì£½ìĿ¼":5690,"ĠìĿ´ê²¨":5691,"ìŀ¥ëıĦ":5692,"ë§Įìľ¼ë¡ľ":5693,"ĠëĤĺëĿ¼ê¼´":5694,"ĠëĸłëĤĺìĦľ":5695,"Ģëĵľ":5696,"íĸĪìľ¼ëĭĪ":5697,"Ġë§ĲëĿ¼":5698,"?...":5699,"Ġê·¸ëŁ¬ëĭĪê¹Į":5700,"ìĭ¸ìĽĢ":5701,"ĠìŀĲì²´":5702,"ëĭ¨ìĿ´":5703,"Ļìĭľëĭ¤":5704,"Ġíķĺìħ¨":5705,"Ġìłķë³´":5706,"ĠìĤ¬íļĮìłģ":5707,"ìķĦëĭĪëĭ¤":5708,"ĠìĭľëģĦ":5709,"ëĭ¤ë¦¬":5710,"ìłķìĪĺ":5711,"ĠêµŃìĤ°":5712,"ĠëĦĪê°Ģ":5713,"ë¹¼ê³ł":5714,"ëĲĲëĭ¤":5715,"ìłĦíŀĪ":5716,"Ġê·¸ëłĩëĭ¤ê³ł":5717,"ëŀĺê¸°":5718,"ëħ¼ë¦¬":5719,"ĠíĭĢë¦°":5720,"Ġì£½ìĿ´":5721,"12":5722,"Ġìłķì¹ĺìĿ¸ëĵ¤":5723,"Ġíķłê¹Į":5724,"Ġê¹ĢìĿ¼ìĦ±":5725,"Ġíķłì¤Ħ":5726,"ĠìĿ´ìĭľ":5727,"Ġìĺ¤ì§ģ":5728,"Ġìĭ¤ìłľ":5729,"íķĺì£ł":5730,"Ġë°ĺë°ķ":5731,"ķĲ":5732,"Ġo":5733,"ìĿ´íķ´":5734,"Ġëį°ëª¨":5735,"ë§ĮìĿĦ":5736,"Ġíķ´ëĮĢ":5737,"ĠíķłëķĮ":5738,"ĠìķĪëĲ©ëĭĪëĭ¤":5739,"ĠìķĪíķĺë©´":5740,"Ġê³µê¸ī":5741,"íķĺìĹĲ":5742,"Ġê°ĻìķĦìļĶ":5743,"ì¾":5744,"ĳ¤":5745,"ì§ĢíĤ¤":5746,"ìķĦëĭĪë©´":5747,"ìĹ¬ìĦ±":5748,"ì¹ľìĿ¼íĮĮ":5749,"ĠìĹ¬ë¡łì¡°ìŀĳ":5750,"Ġë³´ìĨĮ":5751,"ë´ĲìļĶ":5752,"ìĺģìĥģ":5753,"Ġíķ´ëĨĵê³ł":5754,"ìĿ´ëŀĺìĦľ":5755,"¯¼ì£¼":5756,"Ġì§Ģì§ĢìŀĲ":5757,"Ġíķľë¯¸":5758,"ëĪĪë¬¼":5759,"Ġëª¨ë¥´ë©´":5760,"íķĺëĵł":5761,"ëıĪìĿ´":5762,"ĠêµŃìĿµ":5763,"Ġë©Ģì©¡":5764,"ëĤĺëĿ¼ë¥¼":5765,"ĠìĿ´ëŀĢ":5766,"ĠëıĦìĽĢìĿ´":5767,"Ġì´Ŀë¦¬":5768,"ĠìĿ´ëĿ¼ê³ł":5769,"ĠëĤ¨ìķĦ":5770,"ĠëģĮê³ł":5771,"ĠìĤ´ìķĦìķ¼":5772,"íķ¨ìĿ´":5773,"ëĲ¬":5774,"Ġê¹ľë¹µ":5775,"ĠëĦĪê±°":5776,"ĠìŀĲì¡´ìĭ¬":5777,"ê±°ìŀĦ":5778,"ĠìłĦê¸°":5779,"êµŃë¯¼ìĿĢ":5780,"ìłķê¶ĮìĿĺ":5781,"ĠìŀĪê²Į":5782,"Ġìĺ³ìĿĢ":5783,"ĠìĿ´ëĤĻìĹ°":5784,"ìĭľë§Ī":5785,"ìĹĪëĭ¤ë©´":5786,"ĠìĹ¬ê¸°ìłĢê¸°":5787,"Ġìŀ¬ë²Į":5788,"Ġë§ĮìĦ¸":5789,"ĠìķŀìĹĲ":5790,"ìŀĲì²´ê°Ģ":5791,"ĠìľĹ":5792,"êµ¬ë¡ľ":5793,"ê°ĢëĦ¤":5794,"íĸĪìĸ´":5795,"°°":5796,"Ġíķ´ëĭ¹":5797,"Ġê°Ģì¦ĪìķĦ":5798,"ĠìĥģëĮĢë¡ľ":5799,"ĠìĤ°ìĹħ":5800,"Ġê°ģì¢ħ":5801,"ĠC":5802,"ìŀĪì§Ģ":5803,"ëĭµê²Į":5804,"ì¤ĳìĹĲëıĦ":5805,"ì¹ĺíķľ":5806,"ĠíĺĦëĮĢ":5807,"íŀĪëĬĶ":5808,"ìĺģìĽħ":5809,"Ġê°Ģì¹ĺ":5810,"--------":5811,"ê·ľì§ģ":5812,"Ġëĭ¤ê°Ģ":5813,"ìŀĪê²Į":5814,"ĠìĿ´ìĦ±":5815,"ĠíĮĲë§¤":5816,"ë¯¸ìĦ¸ë¨¼ì§Ģ":5817,"ĠìŀĳìĿĢ":5818,"ĠìĹīë§Ŀ":5819,"Ġë¶ķ":5820,"íķĺì§Ģë§Ĳ":5821,"ĠìĿĮì£¼":5822,"Ġë¬¸ìŀ¬ìĿ¸ê³¼":5823,"ĠëĮĢì¤ĳ":5824,"Ġë³´íĨµ":5825,"Ġê½ĥ":5826,"ĠìłľìĻ¸":5827,"Ġì½©":5828,"íĶĦëłĪ":5829,"ĠìĿ¸ê°ĦìĿĢ":5830,"ëĭĺìĿĺ":5831,"ĠìĿĮìĭĿ":5832,"ĠìķĦìĿ´ê°Ģ":5833,"Ġë¶ģíķľìľ¼ë¡ľ":5834,"Ġìļ°ìĬµê²Į":5835,"Ġê°ľëĤĺ":5836,"ëĶĶìĸ´":5837,"ĠëĮĢë°ķ":5838,"íĮĮêµ¬ë¦¬":5839,"¸ı":5840,"ê·¸ëŀ":5841,"ï¸ı":5842,"Ġì¤ĳê³µ":5843,"Ġê±°ëĥĲ":5844,"ìª½ë°Ķë¦¬":5845,"ĠëĤ¨ìŀĲê°Ģ":5846,"Ġë§Ļìĭľëĭ¤":5847,"Ġë¯¼íıĲ":5848,"ìĭľì§Ģ":5849,"Ġíļ¨ê³¼":5850,"Ġê³łì§ĳ":5851,"Ġê¼°ëĮĢ":5852,"ĠëģĮìĸ´":5853,"Ġì¡°ìŀ¥":5854,"ĠìĿ¸ìŀ¬":5855,"ëģ¼ëĵ¤":5856,"Ġë½":5857,"Ġìĭľê°ĦìĿ´":5858,"ĠëĤ¨ëħĢ":5859,"íĢ´ë":5860,"ìłľëª©":5861,"ìŀ¡ìĿ´":5862,"ê²ĥëĭ¤":5863,"ìķĪìĿĦ":5864,"ĠëĤ´ëĬĶ":5865,"ĠìĪĺë§İìĿĢ":5866,"ëĭ¤ëĬĶê±¸":5867,"Ġë§īìķĦ":5868,"Ġì¢ĮíĮĮëĵ¤":5869,"Ġìłģìĸ´ëıĦ":5870,"Ġì§Ģê²¹ëĭ¤":5871,"ĠíĻķìĤ°":5872,"Ġì¶Ķë°©":5873,"Ġêº":5874,"ìĹ¬ëĿ¼":5875,"ĠìŀĪêµ¬ëĤĺ":5876,"ìłģìĿĢ":5877,"Ġìĩ":5878,"~?":5879,"ìĸ´ë³":5880,"Ġê¸°ìĤ¬ëĬĶ":5881,"Ġë¶Īê°ĢëĬ¥":5882,"ëħĦìĿĦ":5883,"Ġì²Ńêµ¬":5884,"Ġìķ½ìĨį":5885,"Ġì°¸ìĦĿ":5886,"Ġì¶ķíķĺ":5887,"Ġìĺ¬ëŀĲ":5888,"Ġìŀĺëª»ìĿĦ":5889,"ëĤ³":5890,"Ġëª»ì°¨":5891,"ĠíĽĮë¥Ń":5892,"Ġê²½ê¸°":5893,"ìĸ´íľ´":5894,"Ġì¡°ë¡±":5895,"ì¨":5896,"Ġm":5897,"ĠìĹ¬ìŀĲëĵ¤":5898,"Ġìĭ¶ìĸ´":5899,"ĠíŀĺìĿ´":5900,"ìĺĢìľ¼ë©´":5901,"ĠìĤ´ìķĺ":5902,"id":5903,"ìĹĪìĸ´":5904,"ĠíĬ¹ì§ķ":5905,"ĠëĤ¨ìĦ±":5906,"ë¬¸ì£ĦìĿ¸":5907,"ê·¸ëŁ°ëį°":5908,"ĠëĮĢíķľë¯¼êµŃìĹĲ":5909,"Ġë¶Ģë¶Ħ":5910,"ĠìĹ°ë´ī":5911,"Ġë°ĶëĢ":5912,"ĠíĮ¨ê±°ë¦¬":5913,"ĠìłķìĿĺë¡ľìļ´":5914,"ìĸ´ëĬĲ":5915,"ìĿ¸ê²Į":5916,"Ġìĸ´ëĸ»":5917,"Ġë³´ìĦ¸ìļĶ":5918,"íķ©ëĭĪê¹Į":5919,"ìł¸ëĤĺ":5920,"ĠìķĪì¢ĭ":5921,"ëĬĶê±°ìŀĦ":5922,"ĠëķĮëĬĶ":5923,"íķĻê¸Ī":5924,"ìĺģíĻĶ":5925,"ëĵ¤ìĿ´ëĦ¤":5926,"Ġë³´ìĿ´ì§Ģ":5927,"ìĿ¼ìĦ¸":5928,"ìĸ´ëĤ¬":5929,"ìĬ¤ê°Ģ":5930,"Ġë¬¸ìŀ¬ìĿ¸ìĿĦ":5931,"Ġìĸ¸ê¸ī":5932,"Ġë¹Ħìĭ¼":5933,"ĠìĹŃíķł":5934,"íĽĦìĹĲ":5935,"Ġìĭłìĥģ":5936,"ìŀĲì²´":5937,"ìĹ¬ëŁ¬ë¶Ħ":5938,"Ġì¸¡":5939,"íĮ¬":5940,"ë¦¬ìĦ¸ìļĶ":5941,"ëŃī":5942,"ĠìŀĲìĭłìĿ´":5943,"Ġìĸ´ì©ĶìĪĺ":5944,"ĠìĿ´ëĶ°":5945,"Ġë¶ĢìŀĲ":5946,"ê°Ģê²Į":5947,"ìĿ¸ê²ĥ":5948,"ìĹŃìĤ¬":5949,"íĮ©íĬ¸":5950,"ë¹łë¦¬":5951,"ìĬ¤ëŁ¬":5952,"ìĹĨëĬĶëį°":5953,"Ġê°Ģê²Į":5954,"ĠëĦĪìĿĺ":5955,"ëĭ¤ëĬĶê±´":5956,"Ġì¢Įë¹¨ëĵ¤":5957,"Ġë§İê³ł":5958,"Ġíķ´ìĤ°":5959,"Ġìŀħìľ¼ë¡ľ":5960,"ëª¸":5961,"ëĤ®":5962,"ëĤ´ìķ¼":5963,"Ġìŀĺíķľëĭ¤":5964,"ĠìĿ¸íķ´":5965,"Ġìį¨ëĿ¼":5966,"ì£¼ì§Ģ":5967,"ĠíĻįìĸ´":5968,"Ġê²ĥìŀħëĭĪëĭ¤":5969,"Ġì§Ģì§Ģìľ¨ìĿ´":5970,"ĠìĺĪìĪĺ":5971,"Ġê¸°ìĤ¬ê°Ģ":5972,"Ġì¼Ģ":5973,"ìĿ¼ëĭ¨":5974,"Ġê°ĲíŀĪ":5975,"Ġë¶Ģì¶Ķ":5976,"ë¶ĦìĹ´":5977,"Ġíķłë§Ĳ":5978,"ĠëĲĺê²łëĦ¤":5979,"ìĨĮë¯¸ìķĦ":5980,"ĠìµľëĮĢ":5981,"Ġë§ĲìŀĲ":5982,"ĠìľĦë°ĺ":5983,"ìĿ¸ëĦ¤":5984,"ìłĢíŀĪ":5985,"ê³¼ìĿĺ":5986,"ê³Ħê°Ģ":5987,"ê¸´ë":5988,"Ġë§Ŀíķĺê²Į":5989,"ĠìķĮìķĦìķ¼":5990,"ĠëŃĲëĭĪ":5991,"Ġê²°ë¡ł":5992,"Ġìĵ¸ëį°":5993,"ë£©":5994,"ìĭ¤ìĿ´":5995,"ê²Ģì°°ê°ľíĺģ":5996,"íİĺë¯¸":5997,"ĠìĽĲì¹Ļ":5998,"Ġë¹Ħíĸī":5999,"Ġëħ¸ë¦ĩ":6000,"¶ĢíĦ°":6001,"ëĺĺ":6002,"Ġíĸīíĥľ":6003,"ìĹĲëĭ¤":6004,"Ġìį":6005,"ì¹¸":6006,"ĠìķĦì¹¨":6007,"ëĬĶê±°ê³ł":6008,"ĠìķĪìĵ°":6009,"Ġêµ¬ë§¤":6010,"ĠìĹ°ê¸°":6011,"ì½ĺ":6012,"ì§Ħë³´":6013,"ĠìĭľêµŃìĹĲ":6014,"ê¸°ë©´":6015,"¼ìĨĲ":6016,"ë§Īë¦¬":6017,"Ġìĺ¬ë¦¼íĶ½":6018,"ì¤ĳìķĻ":6019,"BC":6020,"ĠíķľëĤ¨":6021,"ê°Ģëĭ¤":6022,"ë¹Į":6023,"ì£¼ìĿĺìŀĲ":6024,"ë¶ķ":6025,"Ġì¤ĳëıĦ":6026,"ĠíĹĪìľĦ":6027,"ë§ĪìĿĮ":6028,"Ġë°ķìĽĲìĪľ":6029,"ì¤Ģëĭ¤ê³ł":6030,"íķĺìĭľê¸¸":6031,"ĠìĿ´ëŁ":6032,"ĠìľĦìĹĲ":6033,"Ġê³łìŀĳ":6034,"ĠìĬ¤íĬ¸ëłĪìĬ¤":6035,"ìĸ´ë¦°":6036,"ĠìĿ´ìŀ¬ëªħ":6037,"ë¨¼ìłĢ":6038,"ì»·":6039,"ìĹħì²´":6040,"Ġíĸĩ":6041,"Ġíķĺê³łìĭ¶":6042,"Ġê¶ģê¸Īíķĺëĭ¤":6043,"Ġë¿Įë¦¬":6044,"Ġê²½ì°°ìĿ´":6045,"ĠëĤ¨ìĿĦ":6046,"ĠëĤ¼":6047,"ì§ĢëĭĪ":6048,"ĠìĿ´ëģ":6049,"ĠëĦĪë¬´ëĤĺ":6050,"ĠìłķìĭłìĿ´":6051,"ĠíıĲê¸°":6052,"Ġìľłì¹ĺìĽĲ":6053,"ìĭľìĦ¤":6054,"íķĺëĬĶê±°ìķ¼":6055,"ìľµ":6056,"Ġê³µê³µ":6057,"ĠìŀĲê²©ìĿ´":6058,"ìĬ¤íĥĢ":6059,"ĠíĬ¹ë³Ħ":6060,"Ġë°ĶëĿ¼ëĬĶ":6061,"Ġíģ´ëĿ¼":6062,"ĠìĨĲê°ĢëĿ½":6063,"ê±°ëĬĶ":6064,"ĠìķĦëĭĲê¹Į":6065,"ĠìķĦëĭĮëĵ¯":6066,"Ġì£¼ë©´":6067,"Ġë°¥ê·¸ë¦ĩ":6068,"ĠìĹ°ìĺĪìĿ¸":6069,"ĠëĦĪíĿ¬ëĵ¤":6070,"ìłģìĿĦ":6071,"ìĻ¸êµŃ":6072,"Ġì¯§ì¯§":6073,"Ġì¤ĳìĨĮê¸°ìĹħ":6074,"ĠìŀĪëįĺ":6075,"ĠìłĦìĹ¼ë³ĳ":6076,"ĠìĿ´íķ´ë":6077,"Ġìĭ¹ëĭ¤":6078,"ĠìłĢëĶ´":6079,"ìķĦë¬´":6080,"70":6081,"ìĤŃ":6082,"Ġê¾¸":6083,"Ġìĭ¼":6084,"íĺ¼ìŀĲ":6085,"ê¸°íļĮ":6086,"¦½":6087,"Ġìŀ£":6088,"íķĺëįĺëį°":6089,"ì´Ŀë¦¬":6090,"ìķī":6091,"ĠìĿ´íķ´ì°¬":6092,"íĿī":6093,"ĠìŀĪìĸ´ëĿ¼":6094,"Ġìĸ´ì§¸":6095,"Ġë³´ì§Ģ":6096,"ìĸ´ëĸ¤":6097,"Ġêº¼ìł¸":6098,"ì°¨ê°Ģ":6099,"ìĦľëıĦ":6100,"ëĥĪ":6101,"ë©ĭ":6102,"ìĿ¸ì²Ļ":6103,"Ġì¡°ìŀĳì§Ī":6104,"Ġë¹ķëĭĪëĭ¤":6105,"ê¸°ëĦ¤":6106,"Ġëķ¡":6107,"ë¶Ģìłķ":6108,"ĠëıĦë¡ľ":6109,"ĠëĬĺìĸ´ëĤĺ":6110,"íĥĿìĭľ":6111,"íĪ¬ê¸°":6112,"Ġì¶Ķê°Ģ":6113,"ëŃĲê°Ģ":6114,"Ġê°ĻìĿĮ":6115,"Ġìĭ¤ìĪĺ":6116,"ĠìķĪíķľëĭ¤":6117,"Ġì¤ĳêµŃëª½":6118,"ĠíķĺëĦ¤ìļĶ":6119,"an":6120,"Ġì°¸ë":6121,"ĠëįĶíķľ":6122,"ìĭľê°ĦìĹĲ":6123,"ìĭŃìĭľìļĶ":6124,"ì¤į":6125,"Ġë¯¸ëŀĺê°Ģ":6126,"Ġëªħë³µìĿĦ":6127,"íķ´ì£¼ëĬĶ":6128,"Ġë´Ħ":6129,"Ġë¼Ī":6130,"ĠìĹ¿":6131,"ë³´ëĿ¼":6132,"ëĦĪëĬĶ":6133,"ĠëıĮìķĦëĭ¤ëĭĪ":6134,"Ġë¶ĪìĮįíķĺëĭ¤":6135,"Ġíĩ´ì¶ľ":6136,"ìĸ´ì©Į":6137,"Ġìŀ¥ìķł":6138,"ìŀĶìķĦ":6139,"ĠëĤĺìĦľìĦľ":6140,"Ġ500":6141,"Ġë¯¼ê°Ħ":6142,"ê±¸ê³ł":6143,"Ġë°ķê·¸ëĦ¤":6144,"ĠíıŃëıĻ":6145,"ĠìĦłìłĦ":6146,"ìĭľìŀĳ":6147,"ìīĲ":6148,"ĠëĦĺëĵ¤":6149,"Ġëª»íķĺë©´":6150,"Ġê°ľë¿Ķ":6151,"íģ¬ë¡ľ":6152,"Ġìļķíķĺê³ł":6153,"ëĿ¼ëĿ¼":6154,"Ġíķĺëĭ¤ê°Ģ":6155,"ĠðŁĲķ":6156,"ëĤĺìĻĢ":6157,"ĠëģĮëł¤":6158,"Ġìĸ´ëĶĶë¡ľ":6159,"Ġì£½ìĸ´ëĿ¼":6160,"Ġìķµ":6161,"Ġìĸ´ì©Įê³ł":6162,"ĠìĿ´ì°¸ìĹĲ":6163,"ìĸ´ë¯¼ì£¼":6164,"ĠìĤ¬ëĵľ":6165,"ë¦¬ëĭ¤":6166,"ìĿĦëł¤ê³ł":6167,"ĠëıĪëıĦ":6168,"ëĦ¤ìĪĺ":6169,"ĠêµŃê°Ģë¥¼":6170,"Ġê°Ģì§Ģê°Ģì§Ģ":6171,"ëĮĢëĭ¨":6172,"Ġë¯¸ì¹ĺ":6173,"íĸĪìĬµëĭĪëĭ¤":6174,"Ġíıīê°Ģ":6175,"Ġê°ĢëĤľ":6176,"Ġë¶Ģëĭ´":6177,"ì·¨ê¸ī":6178,"ë¹Ħë¥¼":6179,"ìŀ¬ìķĻìĿ´":6180,"Ġ1000":6181,"ĠìĿ¸ìĥģ":6182,"Ġê°ĻëĦ¤ìļĶ":6183,"ê¶":6184,"íķłë¨¸ëĭĪ":6185,"Ġëª»ëĲľ":6186,"ĠìĿ´ë¶Ħ":6187,"íĮ¡":6188,"Ġìĭłê¸°":6189,"Ġ11":6190,"ĠìĭľíĤ¨":6191,"Ġê³łëĵ±":6192,"ë¦¬ëĤĺ":6193,"Ġì§ĢìĭĿ":6194,"Ġìµľê³łìĿĺ":6195,"íĨ¡":6196,"ë²Ĺ":6197,"ê°Ģë©°":6198,"ë¯¸ê°Ģ":6199,"ëĵ¤ìĿ´ëŀĳ":6200,"ĠëĨĢê³ł":6201,"on":6202,"íĬ¸ë¡ľ":6203,"Ġìĸ´ëĸ»ê²Įëĵł":6204,"ëŀĻ":6205,"íķĺëĬĶê±°ëĥĲ":6206,"ìŀĲê¸Ī":6207,"Ġê³µíıī":6208,"ĠìĪĺì¹ĺ":6209,"ĠíķĺëĤĺê°ĻìĿ´":6210,"ìłĢê²Į":6211,"Ġë¯¸êµŃìĹĲ":6212,"ĠíĴĢìĸ´":6213,"êµ´ë":6214,"ĠìĥĿê°ģëıĦ":6215,"ĠìĮ©":6216,"ì©į":6217,"ëĭ¹ìĭľ":6218,"Ġì°įìĨĮë¦¬":6219,"Ġë§Ŀíķł":6220,"êµ°ìĿ´":6221,"êµŃë¯¼ëĵ¤ìĿĢ":6222,"Ġì¹ľë¶ģ":6223,"Ġì§ķì§ķ":6224,"Ġì¹ł":6225,"ìĹĲëĿ¼ìĿ´":6226,"ë¬»":6227,"ë§Īëĥ¥":6228,"íķĺëįĶëĿ¼":6229,"ê²łìĬµëĭĪê¹Į":6230,"Ġë©Ī":6231,"ì³ĲëıĦ":6232,"ìľ¼ëĿ¼":6233,"Ġêµ´ë":6234,".,":6235,"Ġì¢ĥìĦł":6236,"íķ´ë¨¹":6237,"ĠìĿ´ë¯¸ì§Ģ":6238,"ë©Ģ":6239,"Ġëıħìŀ¬ìŀĲ":6240,"Ġê°ĻëĥĲ":6241,"êµŃìĿĦ":6242,"ãħı":6243,"ëĤ¯":6244,"Ġíķµìĭ¬":6245,"¸ë°Ķ":6246,"ìĸ´ë¥¼":6247,"ìĤ°ìĹħ":6248,"Ġìķķë°ķ":6249,"ĠìŀĲìĭĿëĵ¤":6250,"ĠìłĦëŀµ":6251,"ê±į":6252,"ĠëģĿëĤĺ":6253,"ìĿ¸ê±´":6254,"ëģĪ":6255,"ìĦ¼íĦ°":6256,"ĠìĦ¸ìĥģìĿĦ":6257,"íĻĶìŀĲ":6258,"íķĺìŀĲê³ł":6259,"ë°ĶìĿ´ëŁ¬ìĬ¤":6260,"ê°ĲìĿĦ":6261,"ì¤ĦìķĮ":6262,"ĠêµĲíĨµ":6263,"Ġê³ĦìĤ°":6264,"Ġë¯¸ê°ľíķľ":6265,"ê³ĦìĨį":6266,"ìĸ´ì§Ģ":6267,"Ġì¢ĭìĿĢëį°":6268,"ê°ĢëĤĺ":6269,"Ġëª¨ìķĦ":6270,"ë¯¸ëĶĶ":6271,"Ġíķ´ë³":6272,"ĠìĤ¬ìłĦ":6273,"80":6274,"Ġë¹¤":6275,"ĠëĪĪìĿ´":6276,"ê±°ëĿ¼ê³ł":6277,"Ġëª¨ë¥´ëĥĲ":6278,"ìĿĦê²ĥ":6279,"ìłĢìĶ¨":6280,"ĠíĻĺìŀĲ":6281,"ëĲĺìĸ´ìķ¼":6282,"Ġë¶Īê³¼":6283,"ĠëĤ´ìĦ¸":6284,"ĠìķĪíķĺëĥĲ":6285,"ì°¨ëĿ¼ë¦¬":6286,"ĠëıĻì°¸":6287,"Ġìķħì§Ī":6288,"ìĭłìĿĦ":6289,"Ġìłķì¹ĺìĹĲ":6290,"ĠìĿ¸íĦ°ë·°":6291,"ĠëĤĺìĺ¤ì§Ģ":6292,"Ġê¹Ģìłķ":6293,"íķľê±°ëĭ¤":6294,"ë²Ħë¦¬":6295,"ĠìŀĲë£Į":6296,"Ġíķĺê²łì§Ģ":6297,"ëĤ´ë¦¬":6298,"Ġì¤ĳêµŃìĿĺ":6299,"ĠíĶĮ":6300,"~^^":6301,"íķĺê²łëĦ¤":6302,"Ġìĸ´ëĸł":6303,"ĠìĦ±ì¶Ķíĸī":6304,"íĺĢìĦľ":6305,"ê±°ê°Ļ":6306,"Ġë§¥":6307,"Ġë§ĺìĹĲ":6308,"ĠíĸĪì§Ģ":6309,"Ġìļķìĭ¬":6310,"Ġê°ķíĻĶ":6311,"Ġê°ļ":6312,"ê°ĢëĬĶëį°":6313,"ëĲĺëĭĪ":6314,"Ġê²Ģì¦Ŀ":6315,"ĠìĻķëĶ°":6316,"ĠëĺĲëĬĶ":6317,"ìµľê³ł":6318,"Ġëª°ê³ł":6319,"ìľ¼ëŁ¬":6320,"ë³´ìĨĮ":6321,"ĠëĮĢìļ°":6322,"Ġê±°ëŀĺ":6323,"ê¿Ģ":6324,"ĠìłģíıĲì²ŃìĤ°":6325,"ĠìĿ´ëªħë°ķê·¼íĺľ":6326,"ìļ°ë¦¬ê°Ģ":6327,"ĠëĴ¤ìĹĲ":6328,"ì¢Ģíķ´ëĿ¼":6329,"ëĵ±ëĵ±":6330,"Ġë³´ìĪĺê°Ģ":6331,"Ġë°ķìĤ´ë":6332,"Ġì¶Ķê²½":6333,"ìµľìĪľìĭ¤":6334,"ìĥĿìĿ´":6335,"ìķĺëĤĺ":6336,"Ġìłķê²½ìĭ¬":6337,"íĿĺ":6338,"Ġê·¸ëŁ¬ëĥĲ":6339,"ĠìĥĪíĤ¤":6340,"ëħĶ":6341,"~!!!":6342,"ê°Ģì§ľëī´ìĬ¤":6343,"?..":6344,"ëĤ´ë¡ľëĤ¨ë¶Ī":6345,"Ġëĭ¹ìĭłëĵ¤":6346,"ìĻ¸ë¡ľ":6347,"Ġê°ķìļĶ":6348,"ĠìĨĶ":6349,"\"\"":6350,"íĸĪì§Ģë§Į":6351,"Ġìĭľì¼ľëĿ¼":6352,"ëŀ«":6353,"ĠìĤĲ":6354,"ë©įì²Ń":6355,"íĮį":6356,"Ġê²ī":6357,"ĠìĿ¼ìĿ´ëĭ¤":6358,"Ġíĥľìĸ´ëĤĺ":6359,"ĠëĤĺìķĦ":6360,"ĠíĻ©êµĲíĻľ":6361,"ìĿ¸ë¯¼":6362,"Ġê²ĥìľ¼ë¡ľ":6363,"ë¹ĦëĬĶ":6364,"Ġë©°":6365,"ìĺ¤ì§Ģ":6366,"ìĿ¸ìķĦ":6367,"ëĵ¤ìĿ´ì§Ģ":6368,"Ġíī¤":6369,"ĠìķĦëĭĪì§Ģë§Į":6370,"ëĨĵìĿĢ":6371,"Ġë¡":6372,"ë¬ĺ":6373,"Ġì¡±ìĨį":6374,"Ġê°Ĵ":6375,"ìĿĺìĤ¬":6376,"ĠíķĦìļĶíķĺëĭ¤":6377,"ìłģìĿ´ëĭ¤":6378,"Ġë¹Ħìļ©":6379,"Ġìłľìŀ¬":6380,"Ġì§ĳì¤ĳ":6381,"ìĹĨì§Ģ":6382,"íķĺëł¤ë©´":6383,"ĠìĤ¬ë²ķë¶Ģ":6384,"íĶĶ":6385,"íķłì§Ģ":6386,"Ġëįķë¶ĦìĹĲ":6387,"ĠìĿĺë¬´":6388,"ĠìīĲ":6389,"ëĦ¤ëĵ¤":6390,".........":6391,"íķĺëĿ¼ëĬĶ":6392,"ĠìłĢëĬ¥":6393,"ë§Įíķĺê³ł":6394,"ĠëĤ´ë³´ë":6395,"ìĸĳë°ĺ":6396,"ĠìĪĺìĤ¬ë¥¼":6397,"Ġìłķì±ħìĿĦ":6398,"ĠíĸĪëĥĲ":6399,"Ġ???":6400,"ìłĲìĿĦ":6401,"Ġ.....":6402,"ĠíĻĶìŀ¥":6403,"Ġë¬´ìĹŃ":6404,"Ġê±´ëį°":6405,"ìĿ½":6406,"ĠìķĬìķĦ":6407,"ëĭ«ê³ł":6408,"ë¥´ëĦ¤":6409,"Ġë¹łìł¸":6410,"Ġìĸ´ì¼Ģ":6411,"ĠìĦ¤ë§Ī":6412,"ĠìķĬìĬµëĭĪëĭ¤":6413,"ìĿĦê±°ëĭ¤":6414,"ë³´ìĦ¸ìļĶ":6415,"ëĲľëĭ¤ê³ł":6416,"²ĮëłĪ":6417,"ìĹ´ë":6418,"ì¡°ê¸Ī":6419,"Ġìĺģìĥģ":6420,"ëĨĪìĿĺ":6421,"ìĦ¼ì§ķ":6422,"íĻĶìŀĲì°¬":6423,"íĸīìľĦ":6424,"Ġë³´ëĤ¸":6425,"ĠêµŃìłķëĨįëĭ¨":6426,"ĠìıŁìķĦ":6427,"ĠìĿ¼ëĭ¹":6428,"ìĹŃì§Ī":6429,"ĠíķłìĪĺìŀĪ":6430,"ìĪĺìŀĪëĬĶ":6431,"ĠìĿ¸ëıĦ":6432,"Ġìĥģì²ĺ":6433,"Ġë»ĺ":6434,"Ġê°ĻëĦ¤":6435,"ë²ķìĿĢ":6436,"ĠíķĺìĹ¬ê°Ħ":6437,"ĠíĻĺìŀ¥":6438,"ĠëĿĦ":6439,"ãħĮ":6440,"ëĤłìĿ´":6441,"Ġ25":6442,"ëķĮë§Īëĭ¤":6443,"íĸīëıĻ":6444,"Ġìłķëĭµ":6445,"ë¹Ħë¡ľ":6446,"Ġëĭ¬ì°½ëĵ¤":6447,"ĠëŃ£":6448,"ĠìĭľìĬ¤íħľ":6449,"íĺ¸ë¥¼":6450,"ì°Ĳ":6451,"ìĽĲíķ©ëĭĪëĭ¤":6452,"ĠíĮĮëł´":6453,"ĠëĴ¤ìĹĲìĦľ":6454,"ìĿ¸ê°ĦìĿ´":6455,"ĠìŀĺìĤ´":6456,"ĠìĤŃë°ľ":6457,"ĠíĺĦìłķë¶Ģ":6458,"ĠìĦ±ë²Ķì£Ħ":6459,"ìĤ¶":6460,"ë§ĪìĿ´":6461,"Ġëĭ´ë°°":6462,"Ġìĭľíĸī":6463,"Ġì£¼ëĳ¥ìĿ´":6464,"ìĺµ":6465,"ìĽĲìĪŃ":6466,"íķľê±¸":6467,"ëª»íķĺëĬĶ":6468,"ìĦľë¯¼":6469,"Ġë¶ģíķľìĿĺ":6470,"ëłµ":6471,"ĠìłĢëŀĺ":6472,"Ġë¯¸êµŃìĿĺ":6473,"ĠìŀĲìľłëĭ¹":6474,"Ġíĺ¼ëŀĢ":6475,"ìĭŃìĭľìĺ¤":6476,"ĠìķĪìłķ":6477,"ĠìķĮìķĺëĭ¤":6478,"Ġìĭľì²Ń":6479,"ë§ĮìĿĢ":6480,"ĠëįĶëŁ¬":6481,"ìĿĺë£Į":6482,"Ġë°ķê·¼íĺľê°Ģ":6483,"Ġê²½ë¶ģ":6484,"ì§Ģìĺģ":6485,"Ġë¹Ħë¡ĢëĮĢíĳľ":6486,"Ġë°ĺë¯¸":6487,"êµŃë°©":6488,"ìĿ´ë¦Ħ":6489,"ì¹ĺëĦ¤":6490,"ë¡ľìĦľ":6491,"íĺĦìĭ¤":6492,"ì²Ńìŀ¥":6493,"Ġëĭ¹ìĭłìĿĺ":6494,"ìİĦ":6495,"ìĭľê°Ģ":6496,"ëĭ¤ëĬĶëį°":6497,"ìĺĢëĦ¤":6498,"ĠìķĦëĬĶëį°":6499,"ĠìķĪëĲĺì§Ģ":6500,"Ġê¸°ìĤ¬ìĹĲ":6501,"ĠìłĢëıĦ":6502,"ë°ĶëĢĮ":6503,"Ġë°ľê´ĳ":6504,"ĠëĲĺìĸ´ìķ¼":6505,"ë§ŀê³ł":6506,"Ġíķĺê²łëĭ¤":6507,"ê³Ħë¥¼":6508,"ê°ľìĨĮë¦¬":6509,"ìłľëĬĶ":6510,"ĠìĿ´ìĬ¹":6511,"ëĮĢê°ķ":6512,"Ġë©Ķë¥´ìĬ¤":6513,"ĠëĨĢëŁ¬":6514,"ê²łêµ°":6515,"Ġìĭľì¼°":6516,"ê³³ìĿ´":6517,"Ġì°ĮëĿ¼ìĭľ":6518,"ëł¸ëĦ¤":6519,"ĠìĤ¬ëŀĮëĵ¤ëıĦ":6520,"Ġë°Ķìģĺ":6521,"Ġë²ĦìĬ¤":6522,"ì¥":6523,"ìĦľìĦľ":6524,"êµ¬ê°Ģ":6525,"ĠìĦ±ê³¼":6526,"Ġìĺ¤ë¥´":6527,"§İ":6528,"ì§ĢìķĬê³ł":6529,"ł¸":6530,"Ġìķŀìŀ¥":6531,"ëĵ¤ìĿ´ìķ¼":6532,"ĠêµŃê°ĢìĿĺ":6533,"ì§ĳê°Ĵ":6534,"Ġê²½ìĺģ":6535,"Ġì¢ĭìķĦìļĶ":6536,"ìłľëĮĢë¡ľ":6537,"Ġê¹¡íĮ¨":6538,"ë§ĮìĿĺ":6539,"ì§ĳëĭĪëĭ¤":6540,"Ġê°ĪìķĦ":6541,"ë¬¸ìĿ´":6542,"ëĦ¤ìĪĺìĹĺëĿ¼":6543,"ìĥĪê¸°":6544,"ì³Ĳë¨¹ê³ł":6545,"ĠíĥĪìĽĲìłĦ":6546,"©¸":6547,"ì¹ĺë§¤":6548,"ë²ĮìĿ´":6549,"ë¬´ê¸°":6550,"Ġì¡°ë§Įê°Ħ":6551,"ĠìłĪë°ĺ":6552,"ĠìŀĲë³¸ì£¼ìĿĺ":6553,"Ġë§Ŀê°Ģ":6554,"Ġìłķë¶Ģë¥¼":6555,"Ġíı¬ìŀ¥":6556,"ĠíķĦìļĶê°Ģ":6557,"Ġë°ĺëıĦì²´":6558,"ìĭ¤íŀĪ":6559,"ĠìķĦë¬´ëŁ°":6560,"ê±°íĴĪ":6561,"ìĿ¼ë°ĺ":6562,"Ġì£¼ìĿ¸":6563,"ëĮĢíķĻ":6564,"ĠíıĲìĩĦ":6565,"Ġêµ´":6566,"Ġë³´ëĭĪê¹Į":6567,"íķľíħĮëıĦ":6568,"Ġìĺ¬ë¦¬ê³ł":6569,"ĠM":6570,"ìĸ´ë²Ļ":6571,"ĠìłķëıĦë©´":6572,"ìķĪë³´":6573,"Ġê°Ģê¹Į":6574,"Ġìĸ´ì§Ģ":6575,"Ġìŀħë§Ľ":6576,"ĠêµŃê°ĢìĹĲìĦľ":6577,"ê·¸ëŁ¬ëĭĪê¹Į":6578,"Ġì²ŃìĨĮ":6579,"ì³Ĳìķ¼":6580,"ëĤĺìģľ":6581,"Ġë³´íĹĺ":6582,"ĠL":6583,"Ġíı°":6584,"ķħ":6585,"ëĵľë§Į":6586,"ĠìĽĥê¸°ëĬĶ":6587,"ìĥīíŀĪ":6588,"Ġë°ĿíĺĢëĿ¼":6589,"ìķ¼ëĭ¹":6590,"ìĹĨëĭ¤ê³ł":6591,"ìĦ¸ëģ¼":6592,"ĠìłĦêµŃë¯¼":6593,"ĠíħĮëŁ¬":6594,"Ġì¶ľë§Ī":6595,"Ġì¶Ķì§Ħ":6596,"ì§ģìĽĲ":6597,"ĠìĿ´ë¥¼":6598,"ĠìŀħíķĻ":6599,"ĠìĿ´ìļ©íķ´":6600,"ĠìķĮìķĦëĿ¼":6601,"ëĤ¬ëĦ¤":6602,"ìľłëĿ¼":6603,"ĠëıĦìĻĢì£¼":6604,"ĠëĬ¥ëł¥ìĿ´":6605,"ë¬¸ìŀ¬ìķĻìĿ´":6606,"Ġëª¨ìĹ¬":6607,"ĠíĸĪëĬĶì§Ģ":6608,"¸ëĵľ":6609,"ì£¼ìĤ¬íĮĮ":6610,"ĠëĴĪ":6611,"¨¸ëĭĪ":6612,"Ġì§Ħìŀĳ":6613,"ëª©ìĤ¬":6614,"ëŁŃ":6615,"ë§ĲìĹĲ":6616,"íķ´ë²Ħ":6617,"ëª»íķĺê³ł":6618,"ĠìĤ´ëĭ¤":6619,"ĠìķĬìĿĦê¹Į":6620,"Ġëªħë¶Ħ":6621,"ë¯¸ìĤ¬ìĿ¼":6622,"Ġì§ĳíĸī":6623,"ĠëĪĦêµ¬ëĤĺ":6624,"Ġëħ¼ëŀĢ":6625,"Ġë°ĺëĮĢíķĺëĬĶ":6626,"Ġìĭ¤ìĹħ":6627,"ìĿ¸ê°Ħëĵ¤":6628,"Ġë¹ĦíķµíĻĶ":6629,"ĠìľĦê¸°":6630,"ĠëĲľëĭ¤ëĬĶ":6631,"ì¤ĦìĿ´":6632,"íĮĢ":6633,"Ġë§Īëł¨":6634,"íĥĦìĨĮëħĦ":6635,"Ġ+":6636,"ĠêµĲìĤ¬":6637,"ìŀĲìĹĲ":6638,"ê°ĲìĹ¼":6639,"íĨ±":6640,"ëįĶëŁ¬ìļ´":6641,"ëĭµëĭĪëĭ¤":6642,"ĠìłģíĻĶ":6643,"ì¯¤ëĲĺë©´":6644,"Ġê·¸ëĵ¤ìĿ´":6645,"Ġì¶ľìĤ°":6646,"Ġë¶Ħëĵ¤ìĿ´":6647,"ìĹĪëĬĶì§Ģ":6648,"ìĪľê°Ħ":6649,"ì¿łìĭľë§Ī":6650,"ìĦ±ìĹĲ":6651,"ĠíĺĦê¸Ī":6652,"ìĭľìľĦ":6653,"Ġê·¼ë³¸":6654,"ëıĻë§¹":6655,"Ġì»¨":6656,"Ġëŀ":6657,"Ġë§Ŀìĭł":6658,"ĠìĺĢ":6659,"Ġê°Ŀ":6660,"íī¤":6661,"ëĿ¼ë©°":6662,"ë§ĲëıĦ":6663,"ĠìķĦëŀĺ":6664,"ëĭĺìĿĦ":6665,"Ġë²¼":6666,"Ġê±´ìĦ¤":6667,"ë³´ëĥĲ":6668,"ëĭµëĭ¤":6669,"ì¦Ŀê±°":6670,"Ġìĭ«ìĿĢ":6671,"ì§±ê°ľ":6672,"ê°ķëĤ¨":6673,"ê·¸ëŁ¬ê²Į":6674,"Ġìĺ¤ë¥¸":6675,"ëĤ´ìļ©":6676,"ê°ķê°Ħ":6677,"Ġìłľê°Ģ":6678,"ê²©ìĿĦ":6679,"Ġì¡´ì¤ĳ":6680,"Ġê²Ģì°°ìĿĦ":6681,"ĠëĮĢìĥģ":6682,"ìķŀìĹĲìĦľ":6683,"Ġìľ¤ìĦĿëł¬":6684,"ĠìĿ¼ê´Ģ":6685,"ê°Ģë©´ìĦľ":6686,"ãħħãĦ²":6687,"Ġë§ĲìĿ¸ê°Ģ":6688,"Ġê·¸ê²ĥìĿ´":6689,"ĠëĭĪëĵ¤ëıĦ":6690,"Ġíĥľìĸĳ":6691,"ĠìĤ¬ìĭ¤ìĿ´":6692,"íķĺëħ¸":6693,"Ġë§Īëķħ":6694,"ĠìĿ´ë£¨ìĸ´":6695,"ìĤ´ìĿ´":6696,"Ġë»Ķë»Ķíķľ":6697,"íıŃë§Ŀ":6698,"Ġë°©íķ´":6699,"ĠìĹ¬ìŀĲëĬĶ":6700,"Ġëıħë¦½ìļ´ëıĻ":6701,"íĢ´ë²ĮëłĪ":6702,"ì¶Ķê³ł":6703,"ìĤ¬ëª¨":6704,"Ġì°Įì§Ī":6705,"Ġíļ¡":6706,"ìķĦíĶĦ":6707,"īĺ":6708,"Ġì°¨ëł¤ëĿ¼":6709,"ĠìĹĨìĸ´ìł¸ìķ¼":6710,"ìŀĪëĭ¤ê³ł":6711,"ĠíĺĦìĭ¤ìĿĦ":6712,"Ġì°įìĿĢ":6713,"Ġë¶ģíķľìĿĦ":6714,"Ġë¬¸ìŀ¬ìķĻìĿĢ":6715,"Ġë¶ģíķľê³¼":6716,"Ġë°ĽìķĦìĦľ":6717,"ĠëŃĲíķĺëĤĺ":6718,"íĥĦìĨĮëħĦëĭ¨":6719,"Ġì§Ħìĭ¬ìľ¼ë¡ľ":6720,"ê°Ģë¥´":6721,"ĠíķłìĿ¼":6722,"Ġê°ľë¬´ìĭľ":6723,"Ġëĭ¨ìĸ´":6724,"ëĨĴ":6725,"Ġíŀĺëĵ¤ëĭ¤":6726,"íķĺëĬĶê±°ëĭ¤":6727,"ëıĦìĨĮ":6728,"ê°ĵ":6729,"ĠíĥĪë¶ģ":6730,"Ġë§ĲëĿ¼ê³ł":6731,"ìĹĨìĸ´ìĦľ":6732,"ĠíĸīëıĻìĿĦ":6733,"ĠëĤłëĽ°":6734,"íıīëĵ±":6735,"Ġíķĺëįĺëį°":6736,"ìłĢê±°":6737,"ë¬¸íĻĶ":6738,"ĠìłĦêµĲì¡°":6739,"ì§ĳê¶Į":6740,"ĠìĨĮì¤ĳ":6741,"ìĸ¸ì£¼":6742,"ëĮĢìĥģ":6743,"ì§ĦìĿ´":6744,"ìĸĺê¸°":6745,"ĠëĤĺê°ĢìĦľ":6746,"ìĭľëĦ¤":6747,"ĠíĥĲ":6748,"íıŃíĥĦ":6749,"íķ´ìķ¼íķł":6750,"ĠëĮĢë¹Ħ":6751,"ìĦ±ëıĦ":6752,"ĠìĿ¸ì§Ģ":6753,"Ġê·¸ëĵ¤ìĿĺ":6754,"ê°ľëħĲ":6755,"ĠëĤĺê°Ħ":6756,"Ġíķľê°Ģ":6757,"ì¹ĺë£Į":6758,"íĩ":6759,"ĠĠĠĠ":6760,"Ġë°ĺëĮĢë¡ľ":6761,"ëĵ£ê³ł":6762,"ĠìķŀëĴ¤":6763,"ì§Ģë§ĲìŀĲ":6764,"Ġíķ©ë²ķ":6765,"ĠìĿ´íķĺ":6766,"ë°ķìłķíĿ¬":6767,"Ġì£½ìĸ´ëıĦ":6768,"ìµľìłĢ":6769,"Ġëĺ¥ê¼¬":6770,"ĠíĦ¸ë":6771,"ìŀĲìĹĲê²Į":6772,"Ġê·¸ëĶ´":6773,"ĠìĨĮìĨį":6774,"ĠìĿĺëıĦ":6775,"ĠëĤĺìĺ¤ê³ł":6776,"Ġìĭ¤ìłľë¡ľ":6777,"ĠìĬµ":6778,"Ġì£ĦìĨ¡":6779,"ìĿ´ìĻĢ":6780,"ĠìĦľë¯¼ëĵ¤":6781,"ë¬¼ìĹĲ":6782,"Ġìŀĳìŀĳ":6783,"ë»Ķë»Ķ":6784,"ĠëĤłìĿ´":6785,"ĠìĪĺì²ľ":6786,"ìĿ´ëĤĺëĿ¼":6787,"ĠìĦ¸ê¸ĪìĿ´":6788,"ĠìĿĢíĸī":6789,"ĠíķľìĤ¬ëŀĮ":6790,"ëĲĺê²Į":6791,"Ġìĭ«ìľ¼ë©´":6792,"ĠëĳĶ":6793,"Ġì°įìĸ´":6794,"ì§Ģê¸°":6795,"ĠìľĦë¡ľ":6796,"Ġëĭ¤ë¦Ħ":6797,"íĮĮìķħ":6798,"ĠìķĪíĥĢê¹Ŀëĭ¤":6799,"Ġìĺ¬ë¦°":6800,"ëĤĢ":6801,"Ġëĭ¤ë§Į":6802,"Ġìĭ¤ëł¥":6803,"ĠíıĲëł´":6804,"ìŀĲëĭ¤":6805,"ë§ĪëĭĪ":6806,"ìĪľìĭł":6807,"Ġíĺĳì¡°":6808,"ìķĪëĲĺëĬĶ":6809,"ĠëĮĢíķľë¯¼êµŃìĹĲìĦľ":6810,"Ġì§Ģëĵ¤ëģ¼ë¦¬":6811,"Ġê±°ì§ĵë§ĲìĿĦ":6812,"ìĥĪëģ¼ê°Ģ":6813,"ĠëĦĪëĤĺ":6814,"Ġê¼¼ìĪĺ":6815,"ìķłëĵ¤ìĿĢ":6816,"íĳ¸":6817,"Ġì¢ĭìķĺ":6818,"ĠëĮĢë¶ģ":6819,"Ġë¬´ë¦":6820,"ĠìĿ´ìĽĥ":6821,"ì¢Ĩ":6822,"Ġëª¨ë¥´ê²ł":6823,"Ġëª¨ëĵłê²Į":6824,"Ġê°±":6825,"ĠëĵľëĿ¼":6826,"ì§Ģê¸ĭ":6827,"ìĭľì¼ľìĦľ":6828,"ëªħìĿĢ":6829,"Ġì¤ĺìķ¼":6830,"ëĤ´ëħĦ":6831,"ĠìłĢëĬĶ":6832,"íģ´ë":6833,"ĠìŀĲëıĻì°¨":6834,"ë¶Ģìŀ¥ê´Ģ":6835,"ĠëĤĺëĿ¼ëĭ¤":6836,"Ġëĥħ":6837,"ìĿ´ëĿ¼ë©°":6838,"ëª¨ë¥´":6839,"ìĪĺíĺ¸":6840,"ê¼¬ëĿ¼ì§Ģ":6841,"ê²łì§ĢìļĶ":6842,"Ġëĭ¤ë¥¸ëĤĺëĿ¼":6843,"ëĭ¤ëħĢ":6844,"ìĥģê³µ":6845,"ìĭŃëĭĪê¹Į":6846,"ìĹ¬ëıĦ":6847,"Ġê±´ì§Ģ":6848,"ĠëĮĢì¶©":6849,"ìĿ´ëĿ¼ëĬĶê²Į":6850,"Ġìŀ¥íķĻê¸Ī":6851,"ĠìĨĲìĦĿíĿ¬":6852,"ĠìĿ´ìĤ¬":6853,"Ġìĺ¨ëĿ¼ìĿ¸":6854,"íķ´ë³¸":6855,"ìĤ¬ê³¼":6856,"Ġë§Ĳíķĺê³ł":6857,"ê²Ģì°°ìĿ´":6858,"Ġìĺ¹íĺ¸íķĺëĬĶ":6859,"Ġë§Ĳíķł":6860,"ìłľíķľ":6861,"ìķĦìĿ´ê³ł":6862,"Ġê·¸ë¶Ħ":6863,"ĠìŀĲêµŃ":6864,"11":6865,"ĠëıĦìĭľ":6866,"Ġìĭ¶ìľ¼ë©´":6867,"ìĤ¬ìĹĲ":6868,"ĠD":6869,"ĠëĤĺëĿ¼ë¡ľ":6870,"ì¢ħìĦĿ":6871,"ĠìĿ´ê²ĥìĿ´":6872,"ë¦¬ì¦ĺ":6873,"ê³µë¶Ģ":6874,"ê°ĢëĥĲ":6875,"ìĿ¸ê±¸":6876,"ëĦĪëıĦ":6877,"Ġíĭ°ë¹Ħ":6878,"ê°ĳëĭĪëĭ¤":6879,"ìĿ¸ê³¼":6880,"ìĿ´ëŀĢëĭ¤":6881,"ĠëªĩëħĦ":6882,"ìĦľë¥¼":6883,"ĠìĨĮë¦¬ê°Ģ":6884,"Ġë´īìĩĦ":6885,"ĠìĦ±ë§¤ë§¤":6886,"re":6887,"Ġë°ĺë³µ":6888,"ìłķë³´":6889,"ìĸ´ë´ĲëĿ¼":6890,"Ġê±°íĴĪ":6891,"ì²Ńë¬¸íļĮ":6892,"ê´ĳì£¼":6893,"Ġë°Ķë¥¸":6894,"ìĿĺëıĦ":6895,"Ġê²½ê³ł":6896,"ĠìĹ¼ë³ĳ":6897,"âĿ¤":6898,"ĠíķľëĤĺëĿ¼":6899,"ê¶ĮìĿ´":6900,"Ġë§Įë§Į":6901,"Ġê¶":6902,"Ġì§Ħëĭ¨":6903,"ĠëģĶ":6904,"Ġëĵ¤ìĸ´ìĺ¤":6905,"Ġê³¼íķĻ":6906,"Ġë¨¸ìłĢë¦¬":6907,"ĠìłĢì§Ģë¥¸":6908,"ĠX":6909,"Ġê²°ê³¼ê°Ģ":6910,"ìĿĺíĺ¹":6911,"ĠìĪĺê³ł":6912,"!!!!!!!!!!!!!!!!":6913,"ĠìĥģìĬ¹":6914,"ëŀľëĵľ":6915,"Ġê°ľìĿ¸ìĿĺ":6916,"ĠìĭľíĤ¤ëĬĶ":6917,"ĠìĿ´ëŁ°ê²Į":6918,"ĠìķĪëĲĺë©´":6919,"ëĥĦìĥĪ":6920,"ë¶ĢëŁ¬":6921,"ĠìķĮê³łìŀĪ":6922,"Ġê±´ê°Ģ":6923,"Ġì»¤ëħķ":6924,"ìĪĺì¤ĢìĿ´":6925,"ì¹¼":6926,"ĠìłķìĿĺë¥¼":6927,"ĠìĤ¬ëŀĮëĵ¤ìĿĦ":6928,"Ġìĸ´ë§Ī":6929,"ë°Ŀ":6930,"ê·¸ëŁ¬ë©´":6931,"ĠìĿ¸ëį°":6932,"ë¶ĢëıĻìĤ°":6933,"ì¤ĳìĿ´":6934,"Ġê³µìĤ°íĻĶ":6935,"ĠìĹĨëĦ¤ìļĶ":6936,"Ġëģ¼ë¦¬":6937,"ìķĦë²Ħì§Ģ":6938,"ì§ķìĹŃ":6939,"Ġìĵ°ë©´":6940,"ĠìĿ¸ê°ĦìķĦ":6941,"ë°ĸ":6942,"Ġìŀ¬ë¯¸":6943,"Ġê°ĢëĬ¥íķľ":6944,"Ġíį":6945,"Ġì£½ìĿ¸":6946,"ĠìľłíķĻ":6947,"ëª»íķľ":6948,"Ġê·¸ëłĩëĭ¤":6949,"Ġì§ĳêµ¬ìĦĿ":6950,"ê·¸ëıĻìķĪ":6951,"Ġíķĺëł¤":6952,"ĠìĤ¬ëĿ¼ì§Ģ":6953,"ìłĪëĮĢ":6954,"ëħ¸ëıĻ":6955,"ĠãħĪãĦ´":6956,";;;;":6957,"ĠíĮĮíĥĦ":6958,"ĠìķĬê²Į":6959,"ĠëģĿìĿ´":6960,"ĠìĥĿê°ģíķ´":6961,"íķĺêµ¬":6962,"ì§Ħíĥľ":6963,"ĠëĨĪìĿĢ":6964,"ìŀĲìĻĢ":6965,"ë¯¼ìĿ´":6966,"Ġë¯¼ìĭĿìĿ´":6967,"ĠëªĩìĭŃ":6968,"Ġê±Ķ":6969,"ì¤ĳëĮĢ":6970,"Ġë§ĪìĿ¸ëĵľ":6971,"ê¹¡":6972,"ìĸĳìķĦì¹ĺ":6973,"íķĺê²łëĥĲ":6974,"Ġê¸°ìĹħìĿ´":6975,"íĬĢ":6976,"Ġê°Ģì¡±ìĿ´":6977,"Ġì¹´ëĵľ":6978,"ĠëıĻëĤ¨ìķĦ":6979,"íıŃëł¥":6980,"Ġg":6981,"ĠìĿ´ëĭĪ":6982,"Ġìĺ¤ì§Ģê²Į":6983,"ë°į":6984,"ê²ĥì²ĺëŁ¼":6985,"ìĦ±ê³µ":6986,"ìłķìĿĢìĿ´":6987,"ĠìķĬìķĺëĭ¤":6988,"ĠëįĶëŁ½ê²Į":6989,"Ġê°Ĳìĭľ":6990,"ìķĦëĤĺ":6991,"ìĤ¬ë¡ľ":6992,"ìľĪ":6993,"Ġìłľì£¼ëıĦ":6994,"ĠíķĺëĬĺìĿĦ":6995,"ĠìĤ¬ëŀĮìĿĺ":6996,"Ġë¬¸ìŀ¬ìĿ¸ìĿĺ":6997,"ĠìĹŃëĮĢê¸ī":6998,"ì²¨":6999,"Ġê²ĥìĿ´ê³ł":7000,"êµŃìĿĢ":7001,"ĠìķĪíķ´":7002,"Ġê·¸ëŁ¬ê³ł":7003,"Ġê°Īëĵ±":7004,"ĠìķĪíķł":7005,"ĠíĮĮìĹħ":7006,"ìĹ¬ê¸°ìĦľ":7007,"ĠíĬ¸ëŁ¼íĶĦê°Ģ":7008,"ĠìĥģíĻ©ìĹĲ":7009,"Ġë¶Ģëª¨ëĭĺ":7010,"Ġíģ°ìĨĮë¦¬":7011,"ĠìĿĺíķ´":7012,"Ġë§Ŀíķľëĭ¤":7013,"ĠìĿ´ê¸¸":7014,"Ġë§ŀëĦ¤":7015,"Ġë°°ìļ´":7016,"ĠìĹŃìĤ¬ë¥¼":7017,"ëĭ¤ëĵ¤":7018,"ĠìĤ¥":7019,"ìĹĪìĿĦ":7020,"Ġì«ĵ":7021,"ëķĮê°Ģ":7022,"ë³´ëĭ¤ëıĦ":7023,"ë¡¤":7024,"ë§¤êµŃëħ¸":7025,"ĠëŃĲì§Ģ":7026,"íĽĦë³´":7027,"ĠìĦ¹":7028,"Ĩ¨":7029,"ì§Ģë§ĪìĦ¸ìļĶ":7030,"ìłķìĹĲ":7031,"ì¤ĳêµŃìĿ¸":7032,"Ġìĭ¬ê°ģíķľ":7033,"ĠìĥĪëģ¼ê°Ģ":7034,"ĠìĦľë¹ĦìĬ¤":7035,"Ġê³łíĸ¥":7036,"Ġë³´ê³łëıĦ":7037,"ĠìĥģíĻ©ìĹĲìĦľ":7038,"ë¥´ëĥĲ":7039,"ë§Įíķĺë©´":7040,"Ġìłľíķľ":7041,"ë°ĳ":7042,"Ġì¤ĳêµŃê³¼":7043,"ìĸ´ë¹ł":7044,"Ġê¹Ģìĸ´ì¤Ģ":7045,"ìĿ´ì½Ķ":7046,"ê·¸ëŁ¬ëĭĪ":7047,"Ġê°ĲìĦ±íĮĶìĿ´":7048,"Ġë¬¸ìłľë¥¼":7049,"ìĺ¬ëĿ¼":7050,"ëĳ¬ëĿ¼":7051,"ĠìĽĥê³ł":7052,"ĠëĵľëĿ¼ë§Ī":7053,"Ġê±¸ê³ł":7054,"Ġì§Ħìĺģ":7055,"¸ë²ķ":7056,"ĠíĶ¼ìĿĺ":7057,"ìĤ´ìĿ¸":7058,"ëĮĦ":7059,"Ġë¶ĦëªħíŀĪ":7060,"ŀĻ":7061,"ì§Ģìĺ¤":7062,"ì¡°ìĽĲ":7063,"Ġìĸ¸ë¡łìĹĲ":7064,"ëĭ¤ëĭĪëĬĶ":7065,"Ġì§ľíĮĮêµ¬ë¦¬":7066,"¥´ìĭł":7067,"Ġê³µì§ģ":7068,"ĠëħĢ":7069,"ê¹ľ":7070,"íķĺê²łëĭ¤ê³ł":7071,"ìĦ¸ê¸°":7072,"ë§ĪìŀĲ":7073,"ê±°ëŀĺ":7074,"ì£¼ê¸°":7075,"Ġê¸ĢìĿĦ":7076,"Ġë°ĽìķĦëĿ¼":7077,"ë³´ê¸°":7078,"ìĿĺë¡ľ":7079,"Ġë²Ĺìĸ´ëĤĺ":7080,"Ġì¡°íıŃ":7081,"ĠìĽĥê¸´":7082,"ì¤ĺìķ¼ì§Ģ":7083,"ìĤ¬íļĮì£¼ìĿĺ":7084,"ĠìŀĲíĻĶìŀĲì°¬":7085,"Â·":7086,"ĠìĿ´ìľłë¡ľ":7087,"Ġëª»íķĺë©´ìĦľ":7088,"íķľìĭ¬íķľ":7089,"Ġíķľëį°":7090,"ìĹŃëĮĢ":7091,"ĠëĭĪëĦ¤ê°Ģ":7092,"Ġëĭ¨ìĨį":7093,"ìļ©ìľ¼ë¡ľ":7094,"ì§ĢëıĦìķĬ":7095,"ìĩł":7096,"íĸĪëĭ¤ë©´":7097,"ĠìķĦë¶Ģ":7098,"ê²łëĬĶê°Ģ":7099,"ĠìĽ¬":7100,"ĠìļĶì²Ń":7101,"íļĮê²¬":7102,"Ġë§īê³ł":7103,"Ġìķłê°Ģ":7104,"ëĤ«":7105,"ĠëıħìĿ¼":7106,"Ġëª»ìĤ´":7107,"Ġë¯¸ëŀĺë¥¼":7108,"ì´Ŀìŀ¥ëĭĺ":7109,"ëĤĺìĿ´":7110,"Ġìĺ¥":7111,"ê²łêµ¬ëĤĺ":7112,"ìĸ´ì§Ħ":7113,"ë²ķìĽĲ":7114,"ëĤĺëĭĪ":7115,"ĠìĿ´ëŁ°ìĭĿìľ¼ë¡ľ":7116,"Ġëį¤":7117,"Ġì£½ëĬĶ":7118,"ĠìłĢê±´":7119,"Ġê¼´ë":7120,"ë§ģ":7121,"ĠíķĺëĬĶê±°ì§Ģ":7122,"Ġìĺ¤ìĹ¼":7123,"Ġê°Ĳìĺ¥ìĹĲ":7124,"ê±¸ê¹Į":7125,"Ġëª©íĳľ":7126,"ëŀ´":7127,"Ġìļ°ë¦¬ëĤĺëĿ¼ìĹĲ":7128,"Ġì§Ģëĵ¤ìĿĢ":7129,"Ġë¹¨ê°Ħ":7130,"Ġê¹ĢíķĻìĿĺ":7131,"Ġì¶Ķìŀ¡":7132,"Ġìĺ¤ëĬĺëıĦ":7133,"Ġë³´ëĤ´ê³ł":7134,"ë¶Īë§¤":7135,"ĠëĦĺê²Į":7136,"ì¶¤":7137,"Ġì´ī":7138,"ĠíķĺìĪĺ":7139,"ĠìŀĪìĹĪëĭ¤":7140,"Ġë§Ĳíķĺë©´":7141,"ë°ĺìĿ¼":7142,"Ġê·¸ëĦ¤":7143,"ĠìłĦíĮĮ":7144,"ìĿ´ìĭľ":7145,"ëŀĳìĬ¤":7146,"ĠìŀĲìľłëĮĢíķľë¯¼êµŃ":7147,"ì¦ī":7148,"ĠìĿ´ë²ĪìĹĶ":7149,"Ġì§Ģê¸ĪìĿ´ëĿ¼ëıĦ":7150,"ĠëģĶì°į":7151,"ëł¤ëıĦ":7152,"ĠìĬ¤íĥĢ":7153,"ĠíĪ¬ëªħ":7154,"Ġì²ĺëĭ¨":7155,"ë¬¼ìĿ´":7156,"ĠíıŃëĵ±":7157,"Ġíĳľì°½ìŀ¥":7158,"íĻĺê²½":7159,"ì§Ģì§Ģìľ¨":7160,"Ġë¹Ľ":7161,"Ġì¡°ê¸Īë§Į":7162,"ĠìĹĲìĿ´":7163,"ns":7164,"ĠëŃĲíķĺëŁ¬":7165,"Ġëĭ¬ëĿ¼ê³ł":7166,"ĠëĮĵê¸ĢìĿ´":7167,"Ġì¢Įíĳľ":7168,"ĠëģĿëĤ¬":7169,"ë¯¼ëħ¸ì´Ŀ":7170,"ë°Ľìķĺ":7171,"ĠìĤ´ê²Į":7172,"Ġê´Ģì¢ħ":7173,"ìĥĿê¸´":7174,"ëĦ¤ãħĭãħĭ":7175,"ĠëĤĺë¨¸ì§Ģ":7176,"ìĿ¸ë§Į":7177,"ìĿ´ëŀĢê²Į":7178,"ìª¼":7179,"Ġìĵ°ì§Ģ":7180,"Ġìłķê¶ĮìĹĲ":7181,"ĠìĥīíŀĪ":7182,"ìĤ¬ë²ķ":7183,"Ġë¯¼ëĤ¯":7184,"ĠìĹĨìĹĪëĭ¤":7185,"ĠìĿ¼ë³¸ëĨĪ":7186,"ìĽĲë´ī":7187,"Ġëĸ¨ìĸ´ì§Ħ":7188,"Ġë¬´ìĦľìĽĮ":7189,"ĠìķħìĿĺ":7190,"ìĻĶëĭ¤":7191,"Ġë°ĺìĿĳ":7192,"Ġê·¼ë¡ľ":7193,"ê²Łëĭ¤":7194,"ì»¨":7195,"Ġê°ĪìĪĺë¡Ŀ":7196,"ìĪĺëĭ¹":7197,"Ġë§ĲìĿ´ìķ¼":7198,"Ġ14":7199,"ëģ¼ê³ł":7200,"ĠêµŃë¯¼ìĹ°ê¸Ī":7201,"ë¯¸ëŀĺ":7202,"Ġêµ¬ë¦°":7203,"ìį¨ëĿ¼":7204,"Ġë°©íĸ¥":7205,"ë¯Ģë¡ľ":7206,"Ġëªħëł¹":7207,"ĠìĿ´ëŁ°ëį°":7208,"Ġë³´ìŀ¥":7209,"Ġìĭłì²ľì§Ģê°Ģ":7210,"Ġê°ľê°ĻìĿĢ":7211,"ìĸ´ì£½":7212,"ìŀĲëĵ¤ìĿĺ":7213,"Ġê°Ģê´Ģ":7214,"±ĥ":7215,"ĠìĿ¼ìĥģ":7216,"ĠëĤŃë¹Ħ":7217,"ìłķìĭłë³ĳ":7218,"ìĭľê¸ī":7219,"Ġì¡°ì¹ĺ":7220,"Ġì§ľê³ł":7221,"ĠìĿ´ìĿµìĿĦ":7222,"íķ´ë´¤":7223,"ëĮĢë³ĢìĿ¸":7224,"ĠìķĦëĭĻëĭĪê¹Į":7225,"ĠëĮĵê¸ĢìĿĦ":7226,"Ġê°ľìĦł":7227,"ê²½ìłľê°Ģ":7228,"ĠíĹĪêµ¬":7229,"ĠëĦĺì³Ĳ":7230,"ì§Ģëĭ¤":7231,"ìĸ´ì°Į":7232,"ĠëĦ¤ê°Ģ":7233,"ìĿ´ëŁ¬ëĭĪ":7234,"Ġëª¨ìĬµìĿĦ":7235,"Ġíķłê²ĥ":7236,"ĠìĺģìĹħ":7237,"êµŃìĹĲìĦľ":7238,"ĠëĳĺìĿ´":7239,"Ġ21":7240,"ìĭ¬ìľ¼ë¡ľ":7241,"íķ´ìķ¼íķ¨":7242,"ê±´ë¹Ħ":7243,"ì¿¨":7244,"ìľ¼ìħ¨":7245,"ĠëĦĪíĿ¬ëĵ¤ìĿ´":7246,"Ĳľëĭ¤":7247,"ìĿ´êµ¬ë§Į":7248,"Ġì¤Ħìĸ´":7249,"ìĭłê³ł":7250,"Ġìĭłê²½ìĵ°":7251,"ìľ¼ë¡ľìį¨":7252,"Ġìłķë¶ĢìĹĲ":7253,"ĠìķĦëĭĮê±°":7254,"Ġëªĩëªħ":7255,"ìĸ´ëĶĶìĦľ":7256,"ĠëŃĲëĵł":7257,"Ġë¹łëĬĶ":7258,"ìĦľìļ¸ëĮĢ":7259,"ìĤ¬ëıĦ":7260,"ĠìĿ´ëª¨ìĸĳ":7261,"ì¡°ì¹ĺ":7262,"ĠëĤĺëĿ¼ëıĦ":7263,"ëĵŃ":7264,"Ġìĸĳìĭ¬ìĿ´":7265,"ĠìŃī":7266,"ëĨĪìķĦ":7267,"ĠìĹ´ë©´":7268,"ìłĵ":7269,"ĨĶ":7270,"ìłĦìŀĲ":7271,"Ġê³Ħìķ½":7272,"Ġëĵ¤ìĸ´ìĦľ":7273,"Ġíķ´ìĦĿ":7274,"ĠìĹŃê²¨ìļ´":7275,"êº¼ìķ¼":7276,"ì½ľ":7277,"ëĵ¤ë¡ľ":7278,"ìĦ°":7279,"Ġë°Ģìĸ´ë":7280,"ëħģ":7281,"ĠìĪľìĪĺ":7282,"Ġëª¨ì§Ģë¦¬":7283,"ĠëĮĵê¸Ģì¡°ìŀĳ":7284,"ĠëĤĺëŀı":7285,"ìĥģìłķ":7286,"Ġë°°ìĥģ":7287,"ĠìĪĺìĦĿ":7288,"½ìĿ´":7289,"Ĳëĭ¤":7290,"ë¹Ľ":7291,"ëĭ¤ëĭĪìĹĺ":7292,"Ġê²ĥì²ĺëŁ¼":7293,"ê³µìłķ":7294,"Ġëħ¸ìĿ¸ëĦ¤":7295,"Ġì§ĢìĹŃêµ¬":7296,"Ġì²ĺìĿĮë¶ĢíĦ°":7297,"ì§ĪìĿĢ":7298,"Ġíķłë°°":7299,"ĠíĥĪíĥĪ":7300,"ê²¨ëĿ¼":7301,"ĠëĮĢíķĻìĥĿ":7302,"ìĸ´ë¡ľ":7303,"ëŀŃ":7304,"íķľë§ĪëĶĶ":7305,"ĠìłĦëĿ¼":7306,"ë¦¬ëĭĪ":7307,"Ġì´ĿìĦłëķĮ":7308,"ëĲľê±°":7309,"ëĤ¨íİ¸":7310,"Ġê²Įëĭ¤ê°Ģ":7311,"ëĬĶê±°ì£ł":7312,"Ġìĭľì¼ľìķ¼":7313,"Ġê¸°ìĸ´":7314,"íķłì¤Ħ":7315,"Ġì½Ķë¡ľëĤĺë¡ľ":7316,"ìļ´ìĺģ":7317,"ë°ĶëĿ¼":7318,"°Ķ":7319,"íİĻ":7320,"ĠëĮĢê°Ģë¦¬ê°Ģ":7321,"ìŀĲìĭł":7322,"Ġë°Ł":7323,"Ġì¤ĳêµŃìĿĦ":7324,",,,,,":7325,"Ġë²ĦëĭĿìį¬":7326,"ì¹´íİĺ":7327,"Ġíģ´ëĿ¼ìĬ¤":7328,"Ġìķłê¸°":7329,"Ġë§ĲìķĦëĿ¼":7330,"Ġìĸ´ëĬĲìłķëıĦ":7331,"ëĭ¹íķĺëĬĶ":7332,"ìłĦëĳĲíĻĺ":7333,"ĠìĹĨêµ¬ëĤĺ":7334,"ĠìķĬìĿĮ":7335,"Ġê³łìľł":7336,"Ġì½ĶìĬ¤íĶĦëłĪ":7337,"ê¸°ìľĦíķ´":7338,"ĠO":7339,"Ġì§Ħìĥģ":7340,"Ġëĸ¨ìĸ´ì§Ģ":7341,"ë¥łìĿ´":7342,"ĠìŀĪìĹĪëĬĶëį°":7343,"ëĬĶê²ĥëıĦ":7344,"Ġìĺ¤ë§Į":7345,"ĠëıħëıĦ":7346,"ë¶ĪìĮį":7347,"ëĵłëĭ¤":7348,"Ġíĳ¸":7349,"íķĺìŀĲëĬĶ":7350,"Ġìĭ¤íĹĺ":7351,"íķľìĤ¬ëŀĮ":7352,"ëħĦë§ĮìĹĲ":7353,"Ġë¥¼":7354,"ĠìĿ¼ë²łì¶©":7355,"ĠëĮĢíĺķ":7356,"ä¸":7357,"Ġëĵłëĭ¤":7358,"Ġê°Ħìĭł":7359,"ĠìĿ´ìļ©íķ´ìĦľ":7360,"ãħĩãħĩ":7361,"ì¢Įì¢Ģ":7362,"ĠìĥģíĻ©ìĿĦ":7363,"íĿĲ":7364,"ìłģëıĦ":7365,"ĠìĪĺëł¹":7366,"Ġêµ½":7367,"íĸīìĿĦ":7368,"Ġëªĩë²Ī":7369,"ìŀ¥ëĭĺ":7370,"Ġê¹Ģê²½ìĪĺ":7371,"Ġë¨¹ìĹ¬":7372,"ĠìŀĲìľłë¥¼":7373,"Ġëª¨ìĬµìĿ´":7374,"ë¦¬ëĬĶëį°":7375,"ĠìķĦë¬´ë§Ĳ":7376,"Ġê°Ģëł¤":7377,"ê°ľìĿ¸":7378,"ĠìĿ´ëģĮ":7379,"Ġê·¸ëĮĢ":7380,"ĠN":7381,"ë²ķìľ¼ë¡ľ":7382,"Ġë§¤ë²Ī":7383,"ĠíĪ¬ìŁģ":7384,"ĠìĻľìĿ´ë¦¬":7385,"Ġìŀħê³ł":7386,"Ġíĸīìłķ":7387,"Ġê²Ģì°°ìĿĺ":7388,"ðŁĺ±":7389,"Ġê¸°ìŀĲê°Ģ":7390,"Ġìĺ¤ì£½":7391,"Ġíĺĳìĥģ":7392,"Ġìĭłì²Ń":7393,"ìļ¸ë¦¬":7394,"ĠìĿĺìĭĿ":7395,"ì£¼ë³Ģ":7396,"Ġi":7397,"ĠìĿ´ìľłë¥¼":7398,"ê·¸ëŀ¨":7399,"ĠìķĦëĵ¤ìĿ´":7400,"ĠìĹĨìķłê³ł":7401,"ìĺĢëįĺ":7402,"Ġê°Ĳëĭ¹":7403,"Ġì§Ģê¸ĪìĿ´":7404,"MF":7405,"Ġë°°ëł¤":7406,"Ġê¹ĢìłľëıĻ":7407,"íķľê±°ìķ¼":7408,"ëį°ë¡ľ":7409,"Ġë§ŀì¶°":7410,"Ġê¶Įë¦¬":7411,"Ġëĭ¹ìĭłëĵ¤ìĿ´":7412,"íķĺëĬĲëĿ¼":7413,"Ġì¦Ŀê±°ê°Ģ":7414,"ĠìłĦíĺķìłģìĿ¸":7415,"Ġì§ĢìĨĮë¯¸ìķĦ":7416,"ĠìŀĲìłľ":7417,"ëķĮë¶ĢíĦ°":7418,"ĠëĤ¨ìĿ´":7419,"ìĤ´ëĭ¤":7420,"Ġë°Ģìĸ´":7421,"ë§ĮìĽĲìĶ©":7422,"Ġëĵ¤ìĹ¬":7423,"ĠìĭĿë¯¼ì§Ģ":7424,"íĥľê·¹ê¸°":7425,"ê²¨ëłĪ":7426,"ë°ĽìķĦìķ¼":7427,"Ġn":7428,"ë»¥":7429,"Ġìĸ´ëĶĶìĹĲ":7430,"ĠìŀĲìĭĿìĿ´":7431,"ĠìĹ¬ê²½":7432,"Ġìľłëªħ":7433,"ìĿ¼ë¡ľ":7434,"ìĦľë¡ľ":7435,"Ġëĵ¤ìĿĢ":7436,"ĠìĤ¼ìĦ±ìĿ´":7437,"ĠíĹ¬ì¡°ìĦł":7438,"ê¹Įì§ĢëĬĶ":7439,"Ġë½ĳìķĺ":7440,"ë¬´ë¥¼":7441,"Ġë¬´ìĹĩìĿĦ":7442,"Ġê³µíı¬":7443,"ê°ĦìĿ´":7444,"ĠíķĺìĹ¬íĬ¼":7445,"ìĹ¿":7446,"ĠìŀĲê·¹":7447,"ĠìĨĮìĭł":7448,"ĠìĿ¼ë³¸ìĹĲìĦľ":7449,"Ġëª»íķ´ìĦľ":7450,"ìĺĢìĿĮ":7451,"ĠíĻįë³´":7452,"ĠíħĲ":7453,"ìķĦíĮĮíĬ¸":7454,"Ġì¦Ŀê°Ģ":7455,"ì¡°ì¤ĳëıĻ":7456,"Ġê¸¸ê±°ë¦¬":7457,"!!!!!!!":7458,"ëª°ìĿ´":7459,"ê²½ìĺģ":7460,"¬¸":7461,"ê²¸":7462,"Ġë¹ĦìĬ·íķľ":7463,"Ġëª¨ìļķ":7464,"ĠíĿ¡":7465,"íķłíħĲëį°":7466,"ì§ĪëŁ¬":7467,"ĠìĨĮìĨ¡":7468,"ðŁĺ¡":7469,"xx":7470,"ĠìŀĲë°ľ":7471,"Ġë¶ĦìľĦê¸°":7472,"ĠìĽĲìĪŃ":7473,"ĠíĿł":7474,"OOOëĵ¤":7475,"ĠìĹĲìĦľ":7476,"ìĿ´ìłľëĬĶ":7477,"Ġê¼´ë³´":7478,"íĪ":7479,"Ġëĭ¹íķľ":7480,"ĠìĨĮë¦¬íķĺê³ł":7481,"ê°ľìŀħ":7482,"ëıĪìĿĦ":7483,"ĠìĤ¬ìĦľ":7484,"Ġë¬´ëĬ¥ëł¥":7485,"ĠìłĦê´ĳíĽĪ":7486,"ĠìłģìĿ´":7487,"---":7488,"ìĽĢìĿĦ":7489,"Ġê°ķìłľë¡ľ":7490,"ë¶ĢëģĦ":7491,"Ġp":7492,"Ġê±¸ëłĪ":7493,"Ġìĭľë¯¼ëĭ¨ì²´":7494,"ìŀĪìľ¼ëĭĪ":7495,"Ġê·¸ìª½":7496,"ëĦ¤ê°Ģ":7497,"ìĭ¹":7498,"ĠìĹĨì§Ģë§Į":7499,"ĠìŀħìĿĦ":7500,"ĠíķĺëĬĶì§ĵìĿ´":7501,"íŀĮëĭ¤":7502,"ë¶Ħëĵ¤ìĿ´":7503,"ĠëıĻìĸĳ":7504,"ĠìĪĺíĺ¸":7505,"ìŀĲë§Į":7506,"ìĦ¸ìĥģìĹĲ":7507,"ì§Ģëĵ¤ìĿ´":7508,"ĠìĤ´ë©´":7509,"ĠìŀĲê°Ģê²©ë¦¬":7510,"ìķĪëĲĺ":7511,"Ġëľ¬":7512,"ê·¸ê±´":7513,"Ġëł":7514,"ĠìĥĪëĪĦë¦¬":7515,"ìķłì´ĪìĹĲ":7516,"ëľ©":7517,"ê¸°ë¶Ģ":7518,"Ġê²ł":7519,"Ġìĥģìĥģ":7520,"Ġê³µìŀĳ":7521,"ëĤĻìĹ°":7522,"ê±°ì§ĵë§Ĳ":7523,"Ġê²½ê¸°ëıĦ":7524,"ë¬¸íĨµ":7525,"Ġìĸµì§Ģ":7526,"ëĶ±ìĿ´":7527,"íİĢëĵľ":7528,"ë°ı":7529,"ĠìŀĪëĬĶê°Ģ":7530,"ëĵ¤ìĹ¬":7531,"Ġì¢Įìļ°":7532,"ìłĢëłĩê²Į":7533,"ĠìĤ´ì§Ģ":7534,"Ġì°¨ì§Ģ":7535,"ĠìĦľì´Ī":7536,"ê³§":7537,"ëĵľëł¤":7538,"íķ´ìķ¼íķ©ëĭĪëĭ¤":7539,"Ġë§ĲìĹĲ":7540,"Ġë¹Ħë¡¯":7541,"Ġëħ¸ëĭµ":7542,"ĠìĤ´ìķĦìŀĪëĬĶ":7543,"ĠìĦłê±°ë²ķ":7544,"ë¹łì§Ħ":7545,"ì°¨ëĬĶ":7546,"Ġìĸ´ëĬĲëĤĺëĿ¼":7547,"Ġì¹¨ëŀµ":7548,"ìłĢëŁ¬":7549,"ĠìĿ´ëĭ¨":7550,"ê²½íĻĶ":7551,"Ġëħ¸ìĿ¸":7552,"ĠëĴ¤ë¡ľ":7553,"íķĺê²łëĭ¤ëĬĶ":7554,"Ġëª°ëŀĺ":7555,"Ġë³´ëĤ´ë":7556,"ĠëıĻìĿ¼":7557,"Ġëļ«":7558,"ìĤ¬ëĥ¥":7559,"Ġë§¤ëĭ¬":7560,"ëªħìĿĺ":7561,"ĠëĮĢëĭµ":7562,"ìĿĦì§Ģ":7563,"ĠìĥĿê°ģì¢Ģ":7564,"Ġë³´ëĤ´ëĿ¼":7565,"ĠìłĦìŀĲ":7566,"ĠãĦ·ãĦ·":7567,"ë°Ń":7568,"ĠíĬ¹ìłķ":7569,"íķ´ì¤Ģ":7570,"Ġìĸ´ëĸ¨":7571,"ĠëĮĢê°Ī":7572,"Ġíķłë§ĲìĿ´":7573,"ëĵľëŁ¬":7574,"Ġê°Ļìľ¼ëĭĪ":7575,"íķĺëĬĶê²ĥëıĦ":7576,"ĠìĬĪ":7577,"ê°ĴìĿĦ":7578,"Ġë©´ìĥģ":7579,"Ġë°ķìĪĺ":7580,"ê´Ģê´ĳ":7581,"ê²ģëĭĪê¹Į":7582,"íķĺê³łìĭ¶":7583,"Ġë§ĲìķĦìķ¼":7584,"Ġë¶Īêµ¬":7585,"Ġìķłìĵ´ëĭ¤":7586,"ĠíĥĪì¶ľ":7587,"Ġë¶Ģë¶Ģ":7588,"Ġê¹Ĭ":7589,"ìŀĸìĸ´":7590,"ëª»íķ´":7591,"ìķĪíĥĢ":7592,"ìĦłìĥĿ":7593,"Ġë¶Ģëĵ¤ë¶Ģëĵ¤":7594,"ĠìĤ´ë©´ìĦľ":7595,"íĥľìļ°":7596,"ìłķë¶ĢìĿĺ":7597,"ìĸ´ë§Ī":7598,"Ġìĭ¶ìĸ´ìĦľ":7599,"ĠìķĪëĲľëĭ¤ê³ł":7600,"¸ëĵľíı°":7601,"ðŁĳı":7602,"ìĤ°ëĭ¤":7603,"ëĭĪëĵ¤ìĿĢ":7604,"16":7605,"ìķ¼ë§Ĳë¡ľ":7606,"ìĦ±íĥľ":7607,"Ġêµ¬ìŀħ":7608,"ĠëĪĦêµ¬ë¥¼":7609,"ìĸĳìĭ¬":7610,"ĠíĽĦì§ĦêµŃ":7611,"ê°ĻëĦ¤":7612,"ĠìĹ¬ìłĦíŀĪ":7613,"ĠëĳĲëĳĶ":7614,"ìĹ°ìĺĪ":7615,"Ġêµ°ìĿ¸":7616,"ê·¸ëķĮ":7617,"ĠìĹ°ê²°":7618,"ìĿ¼ëĵ¯":7619,"ìĪĺìłĢ":7620,"Ġìłľê±°":7621,"ëĨĪëĵ¤ìķĦ":7622,"ĠìĿ¸ê¸°":7623,"Ġë§Īêµ¬":7624,"Ġíĥģ":7625,"Ġë°Ľìľ¼ë©´":7626,"ì§ĳìĹĲìĦľ":7627,"Ġë°ķë©¸":7628,"Ġê±¸ë¦¬ë©´":7629,"ĠìĤ¬ë¦¬":7630,"Ġê¸°ì¡´":7631,"Ġíİ¸íķĺê²Į":7632,"Ġëĭ¹ìĤ¬":7633,"ì¡°ì§ģ":7634,"ìŀĲëĵ¤ìĿĦ":7635,"ĠìŀĶìĿ¸":7636,"ĠëĮĢëĭ¤ìĪĺ":7637,"ì¤Ģë¹Ħ":7638,"Ġë¬´ìĦľìĽĮìĦľ":7639,"ìĻ¸ë":7640,"Ġì§ĢëĤĺê°ĢëĬĶ":7641,"ë¯¸ë¡ľ":7642,"Ġë°©ìľĦ":7643,"Ġë¬´ë£Į":7644,"ì¯Ķ":7645,"Ġëĸ¨ìĸ´ì§ĢëĬĶ":7646,"ĠìĻĶëĭ¤":7647,"ëĭ¹ìŀ¥":7648,"ĠìłĦìĹ¼":7649,"ì¡°êµŃìĿĢ":7650,"ðŁĶ":7651,"ĠëıĮëĮĢê°Ģë¦¬":7652,"Ġê·¸ìłķëıĦ":7653,"ê³¼ê±°":7654,"ĠìĿ¸ìĭĿ":7655,"ë°Į":7656,"ĠìłģìŀĲ":7657,"Ġíķĺì§ĢìķĬ":7658,"íķĺìŀĸìķĦ":7659,"ìĿ¼ë³¸ë":7660,"ëĤ´ìŀĲ":7661,"ĠíĸĪëĤĺ":7662,"Ġë°©ë¬¸":7663,"ĠìĭĿìľ¼ë¡ľ":7664,"ìłĲìĹĲ":7665,"Ġê·¸ìĹĲ":7666,"Ġê¹į":7667,"Ġë¹łì§Ħ":7668,"Ġì£½ê³ł":7669,"ĠìŀĲë¦¬ìĹĲ":7670,"ê°ĢëĬĶêµ¬ëĤĺ":7671,"ĠíĽĪëł¨":7672,"Ġ13":7673,"ëıĦëĳĳ":7674,"ĠìĺĨìĹĲ":7675,"íķŃê³µ":7676,"ìĽ¨ìĿ´":7677,"ĠìŀĪëĦ¤ìļĶ":7678,"Ġìĺ¬íķ´":7679,"ë¦ĩ":7680,"ĠìĻ¸ì¹ĺëĬĶ":7681,"Ġë°Ķë¥¸ë":7682,"ìĿ´íĽĦ":7683,"ĠìĹŃê²¹":7684,"ĠìķĦëĭ¥":7685,"ĠíĥĦìķķ":7686,"ìĿ´ëªħë°ķ":7687,"ì²ĺìĿĮ":7688,"Ġì¹ĺìļ°":7689,"ê±°ë¶Ģ":7690,"ë¦¬ëĬĶê²Į":7691,"Ġìŀ¥ìŀĲìĹ°":7692,"Ġì¡°êµŃìĿĺ":7693,"Ġì¢ĮìĿµ":7694,"íļĮëĭ´":7695,"Ġì§ĢëĬĶ":7696,"Ġìŀħìĭľ":7697,"íķłëŀĺ":7698,"Ġëĭ¹ëĮĢíĳľ":7699,"Ġêµ¬ìĹŃì§Ī":7700,"Ġëª¨ë¥´ê²łëĦ¤":7701,"ĠëĪĦêµ°ê°Ģ":7702,"Ġì½ľ":7703,"ìĬ¤íĦ°":7704,"ĠíĮĮë©´":7705,"Ġì´Īê¸°":7706,"Ġê³µìĭĿ":7707,"Ġë°ĶëĢĮë©´":7708,"ĠìķĦíĶĪ":7709,"Ġë§Ŀíķ´":7710,"ì¶Ķë¯¸ìķł":7711,"Ġê¸°ë¦Ħ":7712,"Ġê·¸ëŁ¬ë©´ìĦľ":7713,"ëĭ¨ìĿĦ":7714,"Ĥľ":7715,"ĠìłĦìĪĺ":7716,"ìĹĪìľ¼ëĭĪ":7717,"Ġì£¼ë³ĢìĹĲ":7718,"ì£Ħë¥¼":7719,"ìķĮìķĦ":7720,"ĠãĦ¹ãħĩ":7721,"ìĨĮê°Ģ":7722,"Ġìĺ¤ëĬĶ":7723,"Ġë©¸":7724,"íķĺëıĦë¡Ŀ":7725,"Ġíķľì°¸":7726,"ê°ľë¥¼":7727,"êµ°ëĮĢ":7728,"Ġëĭ¤ê°ĻìĿ´":7729,"ê¹Įë¦¬":7730,"ĠìĿ¼ìľ¼íĤ¤":7731,"ê¼Ī":7732,"Ġìĭľê°ĦìĹĲ":7733,"ëĿ¼ëĬĶê²Į":7734,"ĠíĤ¤ìĽĮ":7735,"ê³łê¸°":7736,"ëıħë¦½":7737,"Ġë§ŀê²Į":7738,"Ġì¤ĳêµŃìľ¼ë¡ľ":7739,"ĠíĸĪëĦ¤":7740,"Ġíĺĳëł¥":7741,"Ġìĸ¸ë¡łìĤ¬":7742,"Ġë§Įëĵ¤ìĸ´ìķ¼":7743,"Ġì§Ģê²½":7744,"ĠëķĮê°Ģ":7745,"Ġíķľëĭ¤ë©´":7746,"Ġìĸ¸ìłľë¶ĢíĦ°":7747,"íŀĺëĵ¤":7748,"ìĤ¬ëŀĮìĿĦ":7749,"Ġê¼¬ëĿ¼":7750,"ĠíĽĦì¿łìĭľë§Ī":7751,"ĠìŀĲìĺģìĹħìŀĲ":7752,"ĠìĤ¬ëĬĶê²Į":7753,"Ġìł¸":7754,"ì§ĢëĤľ":7755,"Ġìĸ´ìĦľ":7756,"ĠìŀĺëĤľ":7757,"Ġì§Ģì§ĢìŀĲëĵ¤":7758,"ĮĢíĳľ":7759,"Ġë³´ëĥĪ":7760,"Ġëªħë°±":7761,"Ġë©įë©į":7762,"ëĤĺëĭ¤":7763,"ĠëıĪë§Į":7764,"ìľ¤ë¯¸íĸ¥":7765,"Ġë§ŀëĭ¤ê³ł":7766,"Ġì¢ħìĭĿ":7767,"Ġê³µëıĻ":7768,"ë¬¼ìĿĦ":7769,"ìľ¼ë¡ľë§Į":7770,"ĠëĤĺëĪĦ":7771,"ë©ĺ":7772,"ĠìķĪë¨¹":7773,"íķľê±°ëĥĲ":7774,"ìĿ´ìĿµ":7775,"ĠíĬ¹ìĪĺ":7776,"ĠíĥĢìĿ´":7777,"ìĿ´ì§ĢìļĶ":7778,"ĠëĨĢëŀį":7779,"ë¡ľë§Į":7780,"ĠíĨłë¡ł":7781,"Ġ//":7782,"Ġì¤ĳê°Ħ":7783,"Ġë²łëĦ¤ìĪĺìĹĺëĿ¼":7784,"ĠìĪĺìŀĳ":7785,"Ġê³µê¸°":7786,"Ġë¹ĦìĦľ":7787,"Ġëĵ¤ìĸ´ê°Ħ":7788,"Ġíį¼ëľ¨":7789,"ĠìĤ´ìŀĲ":7790,"ì£Ħê°Ģ":7791,"ĠìĹ°ëĿ½":7792,"ĠìĻ¸ë©´":7793,"Ġì¤ĺëĿ¼":7794,"Ġë¬¼ê°Ģ":7795,"Ġë¯¸êµŃê³¼":7796,"ëĭ¹ìĹ°íŀĪ":7797,"ìĦ±ê³¼":7798,"íķĺê³łìŀĪëĦ¤":7799,"ĠìĦľìĦľ":7800,"ì¤ĳêµŃìĿĢ":7801,"ìĺģìĦł":7802,"ê·¸ëĤĺ":7803,"ê²°íĺ¼":7804,"Ġë¬¶":7805,"Ġëıķ":7806,"Ġê·¸ëŁ°ê°Ģ":7807,"ìĿ´ìļ©":7808,"ìłľìĽĲ":7809,"ĠìľłìĬ¹ë¯¼":7810,"Ġë³´ìĹ¬ì£¼ëĬĶ":7811,"ìĿ¸ëį°ëıĦ":7812,"ë³´ìĿ´":7813,"ĠëĤ¨ìŀĲëĵ¤":7814,"ĠíĽĦìĽĲ":7815,"ì¤ĳìĿ¸":7816,"Ġì§ĵìĿ´":7817,"ãħĨ":7818,"ìĽĲìĪŃìĿ´":7819,"ĠìĦłìĪĺ":7820,"ì§ĢìĽĲê¸Ī":7821,"íķľë¯¸êµ°":7822,"Ġ17":7823,"Ġìĺ¬ë°Ķë¥¸":7824,"ëĬĻ":7825,"ë¹Ħìļ©":7826,"Ġëĭµë³Ģ":7827,"Ġì£¼ëıĦ":7828,"Ġìĸ´ëĶľ":7829,"Ġë¹ĦìĹ´":7830,"ĠìĦ¸ê¸ĪìĿĢ":7831,"Ġì²ľìķĪíķ¨":7832,"Ġë¬¼ìĸ´ë³´":7833,"Ġì½Ķë¯¸ëĶĶ":7834,"Ġê°Ģíķ´ìŀĲ":7835,"ë³Ģíĺ¸ìĤ¬":7836,"Ġ16":7837,"Ġë¬¸ì£ĦìķĻ":7838,"ì¥¬":7839,"Ġê³±":7840,"Ġê¹Ŀ":7841,"Ġë°ľëª©":7842,"Ġì§Īì§Ī":7843,"Ġìķłë¥¼":7844,"Ġì¹ĺëĬĶ":7845,"ìĤ¬ê¸°ê¾¼":7846,"ìĸ´ë¹łì§Ħ":7847,"Ġê¸°íļĮìĹĲ":7848,"518":7849,"Ġë§ŀëĬĶëį°":7850,"ĠëĮĢêµŃë¯¼":7851,"Ġêµ¬ëĤĺ":7852,"ĠìĿĺë¬¸":7853,"Ġëĵ¤ë¨¹":7854,"íĨµíķ©ëĭ¹":7855,"Ġìłľê³µ":7856,"ĠìĿ¸ìłķíķĺê³ł":7857,"Ġëĭ¥ì¹ĺê³ł":7858,"íķĺêµ¬ëĤĺ":7859,"íķĢ":7860,"ĠìĹİ":7861,"ìĹĪìĬµëĭĪëĭ¤":7862,"ì°¨ë¥¼":7863,"Ġd":7864,"Ġíķłê±°":7865,"ĠìĥĪëģ¼ëĵ¤ìĿ´":7866,"ì§ķê¸Ģ":7867,"ĠìĥģìĭĿìłģìľ¼ë¡ľ":7868,"Ġë¸ĶëŀĻ":7869,"ëłī":7870,"Ġê°ķëł¥íķľ":7871,"ì¢ĥìĦł":7872,"ĠëĮĢíĨµëł¹ìĿĺ":7873,"íĭ°ë¹Ħ":7874,"Ġë¶Īë§Į":7875,"ìĤ¬íĺķ":7876,"Ġë°ķíĥĪ":7877,"ĠìķĦëħĢ":7878,"ê±¸ìĿ´":7879,"ìĹĲê²ĮëıĦ":7880,"ĠìķĮìķĺëĬĶëį°":7881,"Ġìĭľê¸°":7882,"Ġê°ķíķľ":7883,"ĠìłķìĭłìĿĦ":7884,"ĠëĤĺëĿ¼ë§Ŀ":7885,"Ġë¨¹ìĿĢ":7886,"ĠìłķíĻķíŀĪ":7887,"ìĺĪìĤ°":7888,"ĠìľłíĪ¬":7889,"ĠìĹ¬íĥľ":7890,"ë²Ħë¦°":7891,"ê±¸ëł¤":7892,"Ġíķłëł¤ê³ł":7893,"Ġíķľíĳľ":7894,"ĠìĿ´ìłķëıĦë©´":7895,"íĬ¸ëŀĻ":7896,"ĠíķŃìĿĺ":7897,".?":7898,"ëĬ¦":7899,"Ġëĺĳê°Ļëĭ¤":7900,"ĠìĪĺìĭľ":7901,"ĠëģĿëĤł":7902,"ĠìĽĥê¸´ëĭ¤":7903,"ë¯¿ê³ł":7904,"ìĿ´íĶĦ":7905,"Ġë¬¼ëł¤":7906,"Ġê³µìĤ°êµŃê°Ģ":7907,"Ġì°¨ê³ł":7908,"ë¯¸êµŃìĿ´":7909,"ë´ħëĭĪëĭ¤":7910,"Ġê²¬ìłľ":7911,"ĠìľĦìĦłìŀĲ":7912,"Ġë¶ĢëģĦëŁ¬":7913,"íĮĲê²°":7914,"ì²ĺêµ¬":7915,"200":7916,"ìłķíķĺê³ł":7917,"Ġì¤ĳëĭ¨":7918,"ìļ°ë¦¬ëĬĶ":7919,"ëĤĺëĿ¼ëıĦ":7920,"ìĸµìĿ´":7921,"Ġë¬´ë¦İ":7922,"~~!!":7923,"ì£¼ë¥¼":7924,"Ġìµľê·¼":7925,"ĠìĤ¬ìĭľ":7926,"ê³łìŀĪëĬĶëį°":7927,"ê³łë§Į":7928,"Ġê¶¤":7929,"ê¶Ī":7930,"ì§ľíĶ¼":7931,"ê²łêµ¬ë§Į":7932,"Ġì°¨ìĿ´":7933,"ĠìĪĺìĿµ":7934,"ë³´ìĹ¬":7935,"Ġìĸ¸ìłľëĤĺ":7936,"ĠìķĦëĭĪëĦ¤":7937,"íĨłì°©":7938,"ĠíĻĺìĺģ":7939,"ĠìĿ´ê¸°ìłģìĿ¸":7940,"Ġê·¸ëĵ¤ìĿĢ":7941,"Ġì§ĢìĽĲê¸Ī":7942,"Ġë¶ĢëĶĶ":7943,"Ġìŀĺëª»ìĿ´":7944,"ìŀĲê¾¸":7945,"ĠëĲĺìĹĪëĭ¤":7946,"Ġíľ´ê°Ģ":7947,"ìļ°ìĦł":7948,"ìĤ¬ëŀĮëıĦ":7949,"¬´":7950,"ĠìĪĺìĹħ":7951,"ë§ŀìķĦ":7952,"ĠíķĻìĥĿëĵ¤":7953,"Ġë°Ķëĭ¤":7954,"ìĨĲíĺľìĽĲ":7955,"íĻįì¤Ģíĳľ":7956,"Ġë§ĪìĿĮëĮĢë¡ľ":7957,"ë¯¸ë¥¼":7958,"Ġì¤ĳë¦½":7959,"ĠëĬ¬":7960,"Ġë¹Ħíĺ¸":7961,"Ġì§Ģíķĺì²ł":7962,"ìĦłìĸ¸":7963,"Ġë¨¸ë¦¬ìĹĲ":7964,"íĸĪìĸ´ìļĶ":7965,"ë°¤":7966,"ĠëĶ¸ìĿ´":7967,"ìĤ¬ìĥģ":7968,"ìķ¼ìĿ´":7969,"ë¿ĲìĿ´ëĭ¤":7970,"ĠëįĶëŁ½ê³ł":7971,"ĠìĿµ":7972,"ë¦¬ìĬ¤íĬ¸":7973,"Ġë±ī":7974,"ĠìĿ´ì§Ģê²½":7975,"ìĦ¹":7976,"ĠíĮĮê´´":7977,"Ġëª»ë°Ľ":7978,"Ġë¹Ħíķĺë©´":7979,"ĠìĿ´ë£¨":7980,"Ġê²ĥìĿ¸ê°Ģ":7981,"Ġb":7982,"Ġìłľìĭľ":7983,"ë¯¼ì£¼ëĭ¹ìĿĢ":7984,"Ġê°Ŀê´Ģ":7985,"17":7986,"ë¦¬ëıĦ":7987,"ĠëĮĢíĨµëł¹ëıĦ":7988,"Ġì¡°ìĦłìĭľëĮĢ":7989,"ë´¤ëĭ¤":7990,"ĠìĿĮì£¼ìļ´ìłĦ":7991,"Ġëį©":7992,"Ġëª¨ìĹ¬ìĦľ":7993,"ê»į":7994,"Ġê°ķíķĺê²Į":7995,"ĠëĲłê¹Į":7996,"ì¹ĺê²Į":7997,"ìĥģê´Ģ":7998,"íĹĽ":7999,"ë¶ĦìĿĢ":8000,"Ġì§§":8001,"Ġë¶ĢëĮĢ":8002,"Ġë¹Ħíķĺ":8003,"Ġê°Ģì¡±ëĵ¤":8004,"ì²ľë§Į":8005,"??????":8006,"ĠëĤĺìĺ¤ëĦ¤":8007,"ĠìĤ´ìĿ¸ë§Ī":8008,"ê³³ìĹĲìĦľ":8009,"Ġìĸ´ë¦°ìĿ´":8010,"ĠìĿ¸ê°Ģ":8011,"ĠêµŃë¯¼ëĵ¤ëıĦ":8012,"ĠëĮĢíĨµëł¹ìľ¼ë¡ľ":8013,"ëŁīìĿ´":8014,"ĠìĿ¼ì£¼":8015,"ëĦĺìĿ´":8016,"Ġì¤ĳêµŃìĿ¸ëĵ¤":8017,"Ġëĭ¤ë¥¼ê²Į":8018,"Ġë°°ìĽł":8019,"ĠìĤ¬íļĮìĹĲ":8020,"íķĺëĬĶê°Ģ":8021,"íıīìĥĿ":8022,"ìĻĪ":8023,"Ġë°ľìķħìĿĦ":8024,"Ġëĺĳê°ĻëĦ¤":8025,"ĠìĦĿë°©":8026,"ê°Īëĵ±":8027,"ĠíĶ¼ëĪĪë¬¼":8028,"ê¾¸ëĿ¼":8029,"ë¶ģíķľìĿ´":8030,"Ġë¶ĢëģĦëŁ½ëĭ¤":8031,"íģĲ":8032,"ĠìĹĨìķłëĿ¼":8033,"Ġì²´ë":8034,"ìĹ¬ëĭ¹":8035,"Ġìłķë¶ĢìĻĢ":8036,"Ġë§Ŀìĸ¸":8037,"ìĺĢìĸ´":8038,"ìľ¼ëł¤ëĬĶ":8039,"ìłĲìĹĲìĦľ":8040,"ĠìĤ¬ìľł":8041,"Ġê·¸ìŀĲë¦¬":8042,"Ġì§Ģë°°":8043,"Ġë§ĪëħĢ":8044,"Ġë§ĲëĮĢë¡ľ":8045,"ìłĲìĿĢ":8046,"Ġë°ĳìĹĲ":8047,"Ġì»´":8048,"Ġë§īìķĦìķ¼":8049,"ëĤ´ëĮĢíĳľ":8050,"ê±°ë¦¬ê³ł":8051,"Ġìĸ¼êµ´ìĹĲ":8052,"Ġíľĺëĳĺ":8053,"íħĮê³ł":8054,"ëģ¼ëĬĶ":8055,"ĠìŀĪìĹĪëįĺ":8056,"Ġìĺģíĺ¼":8057,"íĽłíĽł":8058,"ĠëŃĲê³ł":8059,"ëĮĢì±ħ":8060,"ĠìŀĳìĹħ":8061,"ë¦¿":8062,"Ġë¹łìł¸ëĤĺ":8063,"ëĬĶê±°ëĦ¤":8064,"ì½§":8065,"ìĹ½":8066,"Ġìľłê°Ģì¡±":8067,"ê¸°ìķ¼":8068,"ĠìĹ¬ìķ¼":8069,"ëıĻìĽĲ":8070,"ìļķìĿĦ":8071,"Ġì°©íķľ":8072,"ĠìĿ´ëĤĺëĿ¼ê°Ģ":8073,"ìĤ¬ë¬´":8074,"Ġìłķìĭłì¢Ģ":8075,"Ġì°¨ê¸°":8076,"Ġë²ķìłģ":8077,"ĠëıĦìłĢíŀĪ":8078,"ë§Įíķ´ëıĦ":8079,"ëĦĪìĬ¤":8080,"ĠìĤ¬ë§ĿìŀĲ":8081,"Ġê·¹íĺĲ":8082,"Ġë¬¸ìŀ¬ìĿ¸ëĮĢíĨµëł¹":8083,"ĠêµĲëıĦìĨĮ":8084,"ĠìĻĪ":8085,"ìĨĮëĤĺ":8086,"ë²ĮëłĪ":8087,"Ġíķľë§ĪëĶĶë¡ľ":8088,"ê³µíĻĶêµŃ":8089,"ĠìłľëıĦ":8090,"©´ë":8091,"ĠìķĦëıĻ":8092,"ĠìĿ¸ê°ĦìĿĺ":8093,"ĠìĿ´ëŁ´ëķĮ":8094,"ĠìĿ´íĥĪ":8095,"ĠíĪ¬ìŀħ":8096,"Ġë¬¸ëĭ«":8097,"íĪ¬ìŀĲ":8098,"íķłêº¼":8099,"Ġê´ĳìĭłëıĦ":8100,"Ġ180":8101,"íķľêµŃëĭ¹ìĿĢ":8102,"Ġãħĩãħĩ":8103,"Ġê¸Īë°©":8104,"Ġëĭ¤ì£½":8105,"ĠëĦĵ":8106,"ìĺĢê³ł":8107,"ì¡Įìľ¼ë©´":8108,"ìŀĲíķľëĭ¹ìĿĢ":8109,"Ġíķľìª½":8110,"ĠìŀĲê¸°ëĵ¤ìĿ´":8111,"Ġìĸĳë³´":8112,"ĠìķĪëĲĺëĤĺ":8113,"ëª¨ìĬµ":8114,"..........":8115,"íķľê²ĥëıĦ":8116,"ì²ľìĽĲ":8117,"ê¶ĮìĿĢ":8118,"ðŁĳįðŁĳį":8119,"ĠìĥĿê°ģíķ´ë³´":8120,"ĠëıĻìĥĿ":8121,"ë¨¹ìĿĦ":8122,"ĠãħĬ":8123,"ê¸°ì¤Ģ":8124,"ĠêµŃë¯¼ìĦ¸ê¸Ī":8125,"ĠëĤ´ìĿ¼":8126,"Ġê¸°ì´Ī":8127,"ì¡°ë¥¼":8128,"ìıĺ":8129,"ì£¼ëĳ¥":8130,"ëĬĶê²ĥìĿĢ":8131,"Ġì²ŃìĻĢëĮĢê°Ģ":8132,"ìļ°ì§Ģ":8133,"ìķłê°Ģ":8134,"ëĭ¹ìĭłìĿ´":8135,"Ġë§İìĿĮ":8136,"ĠìķĦë¬´ëĤĺ":8137,"Ġìŀ¡ìķĦìĦľ":8138,"Ġê³łìĬ¤":8139,"ĠìĿ¸ê°ĦìĿĦ":8140,"ĠìķĦëĭĪìŀĸìķĦ":8141,"íķ´ë³´ë©´":8142,"ĠìķĪê°Ħëĭ¤":8143,"ìĦ¸ëĬĶ":8144,"Ġì¢ĭê²łìĬµëĭĪëĭ¤":8145,"ì¶©ìĿ´":8146,"ì¼ĵ":8147,"ë°°ëĬĶ":8148,"Ġëª°ëĿ¼ìĦľ":8149,"ìļ°ë¦¬ëıĦ":8150,"ĠìĭľëĮĢìĹĲ":8151,"Ġê°ģìĺ¤":8152,"Ġê±¸ë¡ľ":8153,"ìĸĳìĿ´":8154,"ìĭ«ëĭ¤":8155,"''":8156,"ë¯¸íĨµ":8157,"Ġì¢ĭê²Į":8158,"Ġê³µìłķíķľ":8159,"´ëĮĢíı°":8160,"ĠêµŃë¯¼ì²ŃìĽĲ":8161,"Ġê·¸ëŁ¬ì§Ģ":8162,"ìĿ¸ìĹĲ":8163,"ìłķìĭłì°¨":8164,"er":8165,"ê°Ģê²©":8166,"íĬ¸ë¡":8167,"Ġê²°êµŃìĿĢ":8168,"ĠìķĦìĭľìķĦ":8169,"Ġëĭ¤ëĬĶ":8170,"ĠìłķìĪĺ":8171,"ĠíĺĢ":8172,"ê²ĥëĵ¤ìķĦ":8173,"Ġì¢ĭê³ł":8174,"ĠìĭľëıĦ":8175,"ê³µìŀ¥":8176,"Ġì³Ĳëĭ¤":8177,"ìĭľíĹĺ":8178,"Ġìŀĺíķ´":8179,"ìĦ±ëħĦ":8180,"ìĿ¸ë©¸":8181,"ĠìķĪëĲĺëĬĶëį°":8182,"Ġíİ¼":8183,"Ġë§ĪìĿĮìĹĲ":8184,"ìľłì¹ĺ":8185,"ĠìĦ¸ìĽĮ":8186,"íĺĦìŀ¬":8187,"ĠìĥĿìĥī":8188,"ìĪĺìŀĪëĭ¤":8189,"ìĦľê°Ģ":8190,"ĠëįĶëĵ¬":8191,"ìŀĲë¦¬ê°Ģ":8192,"ĠìĿ´ëķĮ":8193,"ëĦ¨":8194,"ĠìĻľëĥĲ":8195,"ĠìĿ¼ë³¸íķľíħĮ":8196,"ĠëıĻìĦ±ìķł":8197,"ìłģìĿ´ì§Ģ":8198,"ĠìĤ¬ìĭ¤ìĥģ":8199,"ĠìĤ¬ë¬´":8200,"ê´Ģìĭ¬":8201,"Ġì§Īë³ĳ":8202,"ĠíĭĢëĶ±ëĵ¤":8203,"ìĸ´ë¯¼ì£¼ëĭ¹":8204,"íħħ":8205,"ìĿ´ëĵľ":8206,"ìĶĮ":8207,"ì²ľë§ĮìĽĲ":8208,"Ġv":8209,"ĠìĤ´ìķĦëĤ¨":8210,"ê³µìĤ°ì£¼ìĿĺ":8211,"ĠìĿĺìłĦ":8212,"Ġë¹¼ìķĹ":8213,"ìľ¼ìĭľ":8214,"ĠëĶ´ë":8215,"ì¦Į":8216,"ĠìĹĦë²Į":8217,"ê·ľëª¨":8218,"ìĿ´ê±¸":8219,"ãħĹ":8220,"ë²ĪìĹĲ":8221,"Ġê·¸ëŁ¬ëĭ¤":8222,"íī":8223,"ĠëģĿëĤĺë©´":8224,"Ġê·¹ë³µ":8225,"ê°ĻìķĦ":8226,"ë¶ĢìĤ°":8227,"ëħ¸ë¦ĩ":8228,"ĠìĿ´ìĪľìĭł":8229,"Ġê±¸ëł¸":8230,"ĠìĤ¬íļĮê°Ģ":8231,"Ġìļ¸ìĤ°":8232,"ĠìĿ¼ìĤ¼":8233,"ĠìĤ¬ë¡Ģ":8234,"Ġë¯¸êµŃìĹĲìĦľ":8235,"Ġìĭ«ìĸ´íķĺëĬĶ":8236,"ĠìķĪíķ´ëıĦ":8237,"ĠëĤ´ëł¤ìĻĢëĿ¼":8238,"ê²½ìļ±":8239,"Ġë¹Ħìĥģ":8240,"Ġê³łë§Ļëĭ¤":8241,"Ġëĭ¤ìĬ¤":8242,"Ġê³³ìĿ´":8243,"Ġíķłëĵ¯":8244,"ìŀ¥ìĤ¬":8245,"íĥ±ìĿ´":8246,"ëĵľë£¨íĤ¹":8247,"ìļ°ë¦¬ëĤĺëĿ¼ëĬĶ":8248,"Łê°ĢëĿ½":8249,"ĠëĦĺìĸ´ê°Ģ":8250,"ì¹´ëĵľ":8251,"Ġíķ´ìĻ¸ìĹ¬íĸī":8252,"ĠìĹĨìĸ´ëıĦ":8253,"ê¸į":8254,"Ġì£½ìĿ´ëĬĶ":8255,"ĠìłĦìłķê¶Į":8256,"Ġìĭ¸ì§Ģ":8257,"íķĺê¸°ëıĦ":8258,"Ġê¶Įëł¥ìĹĲ":8259,"ë¦¬ìĺ¤":8260,"ëĤĺì§Ģ":8261,"ë³¸ìĿ¸":8262,"ê°Ļìľ¼ë©´":8263,"ìĨįìľ¼ë¡ľ":8264,"³ĳ":8265,"ìĺĨ":8266,"ìļ°ë³ĳ":8267,"Ġìĸ´ëĸ¡":8268,"Ġë§¤ëħĦ":8269,"Ġë³´ëĭ¤ëĬĶ":8270,"ĠëĲľìŀ¥":8271,"ĠìĿ´ìŀ¬ìļ©":8272,"Ġìļ°ë¡±":8273,"ë¹Ħë¡Ģ":8274,"ĠìłģìĿĢ":8275,"íĻĺìŀĲ":8276,"êµŃëĭ¹":8277,"Ġê¶Įíķľ":8278,"ĠêµŃíļĮìĿĺìĽĲìĿ´":8279,"íĨµìĹĲ":8280,"ë©ĶëĶĶ":8281,"ìŀħê³ł":8282,"Ġê¹Ģì¹ĺ":8283,"ê¿Ķ":8284,"ĠìĽĥìĿĮ":8285,"@@":8286,"ĠíĨµíķ©ëĭ¹":8287,"ĠëķľìĹĲ":8288,"ìłĬìĿĢ":8289,"ì§Ģê¸ĪìĿĢ":8290,"ĠìŀĲëĵ¤ìĿ´":8291,"Ġë§Ĳíķ´":8292,"ë¦¬ë©°":8293,"Ġìķŀìľ¼ë¡ľëıĦ":8294,"ĠêµŃë¯¼ê³¼":8295,"ê·¸ê±¸":8296,"ŃĲ":8297,"Ġìłķì²´":8298,"Ġë§īìĿĦ":8299,"ìĪĺë°ĸìĹĲ":8300,"Ġë§ŀëĬĶë§Ĳ":8301,"Ġê²Ģì°°ì´Ŀìŀ¥":8302,"íķĺìĹ¬ê°Ħ":8303,"ĠëĤĺë©´":8304,"ĠìľĦìŀ¥":8305,"©ĶëĿ¼":8306,"ë¦¬ëĬĶê±°":8307,"ìŀĲê²©":8308,"°Ľ":8309,"ìľĦíķ´ìĦľ":8310,"Ġìļ°ë¦¬ë¥¼":8311,"Ġìłķê¶Įìŀ¡":8312,"Ġíĺ¸ëĤ¨":8313,"Ġìĺ¬ë¦¬ëĬĶ":8314,"ì§ĢìķĬìĿĢ":8315,"ðŁĺ±ðŁĺ±":8316,"ĠìĹĨëĬĶê±°":8317,"Ġë²Ķë²ķ":8318,"Ġë§Ŀì¹ĺ":8319,"Ġíĳľë¥¼":8320,"Ġë¬´ìĹĩìĿ´":8321,"?.":8322,"Ġë¹½":8323,"ê¶Ĳ":8324,"ĠìĹŃìłģ":8325,"ê²ĮìŀĦ":8326,"ĠíķĦìļĶìĹĨëĭ¤":8327,"ë¦¬ì¹´":8328,"Ġì«Ĵ":8329,"ë¬´ëĬ¥íķľ":8330,"íļ¨ê³¼":8331,"ĠìĤ¬ë©´":8332,"Ġì³ĲëĦ£":8333,"ĠíıīìĨĮ":8334,"Ġ99":8335,"ìĹĲìĦľë§Į":8336,"Ġê°ķíĸī":8337,"ĠëĮĵê¸ĢìĹĲ":8338,"ëĤĦ":8339,"ĠíĸīìľĦ":8340,"Ġë²ķìķĪ":8341,"ĠìĪĺìŀ¥":8342,"ëıĦìĹĨëĬĶ":8343,"ĠëĦĺëĬĶ":8344,"ĠìłľëĮĢë¡ľëĲľ":8345,"ĠìĤ¶ìĿĦ":8346,"Ġìĭľì²´":8347,"Ġì¢ĭì§Ģ":8348,"Ġëĭ¤ìĿ´":8349,"Ġìłľì¡°":8350,"ë¯¸ì³¤":8351,"Ġê°ľëı¼ì§Ģëĵ¤ìĿ´":8352,"ĠìĭĿëĭ¹":8353,"Ġì¹¨ë¬µ":8354,"Ġì¢ĭê²łëĦ¤ìļĶ":8355,"ë§ĪìłĢ":8356,"Ġì°¸ëĤĺ":8357,"ĠìŀĪëıĦë¡Ŀ":8358,"ì¤ĳêµŃìĿ´":8359,"Ġë¶Ħë¦¬":8360,"ìĮĢ":8361,"Ġíķĺë£¨ë¹¨ë¦¬":8362,"êµŃëĤ´":8363,"Ġìĸ¼ë¥¸":8364,"Ġìļ°ë°©":8365,"ê°ľëĬĶ":8366,"ĠìķĦìĿ´ëĵ¤ìĿ´":8367,"ĳ¥":8368,"ëĤ¨ìĿĺ":8369,"Ġì£¼ëĳ¥ìķĦë¦¬":8370,"ĠëįĶëįĶ":8371,"ìŁ¤":8372,"ĠíıŃíĥĦ":8373,"Ġíĥľìĸĳê´ĳ":8374,"ìĹĪëĭ¤ëĬĶ":8375,"ĠëĴ¤ì§Ģ":8376,"ĠëĥĦìĥĪê°Ģ":8377,"Ġë§Ĳìŀ¥ëĤľ":8378,"Ġíİ¸ë²ķ":8379,"ì°įê³ł":8380,"ĠëĶ°ì§Ģ":8381,"ĠìķīìķĦìĦľ":8382,"ë¬¸ìĦľ":8383,"ĠëĭĪëĬĶ":8384,"Ġì°Ĳ":8385,"êºĦ":8386,"ĠëıĦìŀħ":8387,"Ġì¢ĢëįĶ":8388,"ĠìķĪë°Ľ":8389,"Ġê°ĵ":8390,"Ġì·¨ìŀ¬":8391,"Ġë¦¬ëįĶ":8392,"Ġìĸ´ë¥´ìĭł":8393,"Ġëª¨ë¥´ê²łì§Ģë§Į":8394,"ìĤ½":8395,"ë²ħ":8396,"íķĺê³łëıĦ":8397,"ëĮĢíĨµëł¹ëĭĺ":8398,"ĠëĤĺë§Į":8399,"Ġìłķì¹ĺëĬĶ":8400,"Ġëĭ´ë":8401,"ĠìĪĺìĪł":8402,"Ġìĭľë¹Ħ":8403,"Ġì¡°êµŃê³¼":8404,"Ġê¸Īìľµ":8405,"Ġë¹Ħíĸīê¸°":8406,"Ġê±°ëįľ":8407,"ĠíĸĪìľ¼ëĭĪ":8408,"ĠëĬĺìĸ´":8409,"ĠìĿĮëª¨":8410,"ĠìĿ¸ê±´ë¹Ħ":8411,"ìłķìĪĺìĦĿ":8412,"ê¸¸ë":8413,"Ġì¹¨ëª°":8414,"ë§ŀëĬĶë§Ĳ":8415,"tbc":8416,"ĠëĤ¯":8417,"Ġìĭ¸ê·¸ë¦¬":8418,"ë¶Īë²ķ":8419,"Ġìŀ¥ê´ĢìĿ´":8420,"ìŀĥ":8421,"ĠìķĪë¯¿":8422,"ĠìĿĺë¯¸ê°Ģ":8423,"ì§ĪìĹĲ":8424,"ëİħ":8425,"ĠìĥĿê²¨":8426,"Ġì£¼ë²Ķ":8427,"ìĦ¸ìĽĶ":8428,"ĠìĿ¼ìĸ´ëĤľ":8429,"Ġë¦¬ìĸ¼ë¯¸íĦ°":8430,"Ġê¼´ìĿ´":8431,"Ġë°ĶíĢ´ë²ĮëłĪ":8432,"ĠìķĦê¹Į":8433,"ì¡ĮëĬĶëį°":8434,"ë§¥":8435,"ĠëĤ®ìĿĢ":8436,"ĠìŀĪìŀĸìķĦ":8437,"Ġëª¨ë¥´ì§Ģ":8438,"Ġì¡Į":8439,"ì£¼ëĥĲ":8440,"ìĵ¸ë":8441,"Ġìĸ´ëĶ¨":8442,"ãĨįãĨį":8443,"ĠíĸīëıĻìĿ´":8444,"íĮĮíĥĦ":8445,"ĠìŀĳëħĦ":8446,"Ġì¢ĭìķĦìĦľ":8447,"ĠíĮį":8448,"ĠìĥĪë²½":8449,"ĠìĬ¬íĶĦ":8450,"ë©´íĶ¼":8451,"ĠëĤ«ì§Ģ":8452,"Ġíĥľê·¹ê¸°ë¶ĢëĮĢ":8453,"Ġê¸°ìŀĲíļĮê²¬":8454,"ìĽĲëĵ¤":8455,"ĠëģĿëĤľ":8456,"Ġíıīê·ł":8457,"íĨµìĿĦ":8458,"ëĤ´ë©´":8459,"ĠìŀĲì§Ħ":8460,"Ġìĭ«ìĸ´ìĦľ":8461,"ìŀĲëĿ¼":8462,"ìĽĶê¸ī":8463,"ĠìķĪë³´ê³ł":8464,"ĠëĲ¬":8465,"Ġìĸ´ì¨":8466,"ìŀĦëªħ":8467,"ì§Ħìĭ¤":8468,"ê¹Įì§ĢëıĦ":8469,"ìĹĲìĿ´":8470,"Ġìĸ´ì©Įêµ¬":8471,"Ġëª©ìĪ¨ìĿĦ":8472,"Ġê·¸ë¦¼":8473,"ëħĦëĵ¤":8474,"Ġê¼¬ë¦¬":8475,"Ġì²ľì§Ģ":8476,"ìĸ´ìłľ":8477,"ìĭľì§Ħíķĳ":8478,"ĠëĮĢë§Į":8479,"Ġì§Ģê¸ĭ":8480,"Ġëĭ¹ìĹ°íķľê±°":8481,"ëĮĢê°Ī":8482,"ĠëĤ´ëł¤ìĺ¤":8483,"ĠìĤ¬ìĦ¸ìļĶ":8484,"ĠìĿ¸ë¥ĺ":8485,"ë¬¸ìŀ¬ìĿ¸ë":8486,"ë³´íĺ¸":8487,"êµ¬ëł¤":8488,"Ġê°Ģìŀħ":8489,"ĠìłĦìĦ¸":8490,"Ġëª¨ëĵłê±¸":8491,"ê²Łì§Ģ":8492,"ìĺ¹":8493,"Ġíķ´ìļĶ":8494,"íķłê±°ëĭ¤":8495,"ìĻĶëĬĶëį°":8496,"ëĭ¬ì°½ëĵ¤":8497,"ĠìŀĺëĿ¼":8498,"ìķĺëĥĲ":8499,"Ġë§ĲìĿ´ëĥĲ":8500,"Ġê¸°ëłĪê¸°ëĵ¤":8501,"ãħħãħĤ":8502,"ë§Ļìĭľëĭ¤":8503,"ê°ĦíŀĪ":8504,"Ġë¹ĦìĽĥ":8505,"ë¬¸ìłľëĬĶ":8506,"Ġê°ĢëĬ¥ìĦ±ìĿ´":8507,"ĠëĿ¼ëıĦ":8508,"ĠìķĦìī½":8509,"ĠìĨĲìŀ¡ê³ł":8510,"ìŀĲë£Į":8511,"ĠíķĻë¶Ģëª¨":8512,"ê±´ê°ķ":8513,"Ġìłľì¶ľ":8514,"ĠëĮĢìłĳ":8515,"íĨłë¡Ŀ":8516,"ĠìķĦëĭĪëĿ¼ëĬĶ":8517,"ìĥģìĹĲìĦľ":8518,"Ġë¶ģì¡°ìĦł":8519,"ê°Ģë§Į":8520,"Ġj":8521,"ĠìĹħë¬´":8522,"Ġíķ´ì¤Ħ":8523,"Ġë°Ľì§Ģ":8524,"!?":8525,"ê°Ģì§Ħ":8526,"Ġê·Ģì¡±":8527,"ëıĪìĿĢ":8528,"ĠëĥĦ":8529,"ìµľìłĢìŀĦê¸Ī":8530,"Ġëĭ¨ì§Ģ":8531,"ë§ĺëĮĢë¡ľ":8532,"íķľêµŃìĿĢ":8533,"ìħĶìļĶ":8534,"ľ¨":8535,"86":8536,"ĠìĹĨëĬĶê²Į":8537,"Ġíķľê±´":8538,"ĠìĥĢ":8539,"Ġê°ĪëĿ¼":8540,"Ġë¶ģìĹĲ":8541,"Ġìłķì¹ĺìĿ¸ìĿ´":8542,"Ġë³´ê²Į":8543,"ìľłëŁ½":8544,"Ġë¶Īê°Ģ":8545,"Ġìĵ°ëŁ¬":8546,"Ġê´´ë¬¼":8547,"Ġë¯¸êµŃëıĦ":8548,"Ġë°¥ë¨¹":8549,"Ġíķľë°©":8550,"ìº¬":8551,"ĠìĹīëļ±":8552,"ìķłë¹Ħ":8553,"Ġì§ĳìĿĦ":8554,"ĠìŀĲìĭłëĵ¤ìĿĺ":8555,"²¨":8556,"ìĹ°íķ©":8557,"Ġêº¼ì§Ģ":8558,"ĠìĿ¼ë°©":8559,"ê²ĥê°Ļëĭ¤":8560,"Ġì£¼ì§Ģ":8561,"Ġìĭ¸ìĿ´ì½Ķ":8562,"ĠìĤ°ë¶Ī":8563,"ìķĺëĭ¤ê³ł":8564,"Ġë§Ŀì³Ĳ":8565,"ìĻĦìļ©":8566,"Ġì¡°ìĤ¬íķ´ìĦľ":8567,"ëį°ì²´":8568,"Ġìŀĺíķľ":8569,"ĠìłķìĿĺê°Ģ":8570,"ëĸ¨ìĸ´ì§Ħ":8571,"ĠìĹħì²´":8572,"Ġê¸°ìĹħëĵ¤":8573,"ê±°ëĵłìļĶ":8574,"ĠíķĺëıĦ":8575,"Ġì§ĢìĨį":8576,"ĠëĥĪ":8577,"ìĦłìĪĺ":8578,"ì¯§ì¯§":8579,"ĠìĿ¼ë³¸ëıĦ":8580,"ĠìŀĪëĭ¤ê°Ģ":8581,"ëķ¡":8582,"ê²ĥëĦ¤":8583,"Ġæ":8584,"Ġìļ°ëįľ":8585,"Ġê°Ĳë¹µ":8586,"ĠíĸĪìĿĦ":8587,"ìĿ´ìļĶ":8588,"ĠìĿ´ëĦĺ":8589,"ìĬ¤ëŁ½ê³ł":8590,"ê¸°ê°Ħ":8591,"ìĤ¬ë¦¬":8592,"ìłĢë¶Ħ":8593,"Ġë¹Ħìłķìĥģ":8594,"ê±¸ë¦°":8595,"Ġë§¨":8596,"ĠìķĦë¦Ħ":8597,"Ġêµ¬ê²½":8598,"ì¹ĺëıĦ":8599,"ë§¨ëĤł":8600,"ĠìķĦëĭĪëĭĪ":8601,"Ġê±°ê¸°ëĭ¤":8602,"Ġì¶ľê·¼":8603,"ê°ĸê³ł":8604,"ĠìłĦë©´":8605,"ê·¸ëĿ¼":8606,"ĠìŀĲìĭłìĿĦ":8607,"Ġë§Įëĵ¤ìĸ´ëĿ¼":8608,"ëĬĶê±¸":8609,"ĠíļĮë³µ":8610,"Ġì½Ķë¡ľëĤĺê°Ģ":8611,"Ġë°±ìĪĺ":8612,"íķ´ì§Ħ":8613,"ĠìĪĺê¼´":8614,"ĠìĽĲìĿ¸":8615,"ìĭľíĤ¤ë©´":8616,"ĠìķĮê²łëĭ¤":8617,"ĠìłĪëĿ¼ëıĦ":8618,"ĠìŀĪê²łì§Ģ":8619,"ĠìĭľëĮĢê°Ģ":8620,"Ġìłķì¹ĺíķĺëĬĶ":8621,"ĠìĪĺëĭ¨":8622,"ĠíĻķì§ĦìŀĲê°Ģ":8623,"ìĨĮë¥¼":8624,"ĠìĨĮë°©":8625,"ĠìĿ¸ë¬¼ìĿ´":8626,"ìĿ¸ìłķ":8627,"ìŀĲëĿ¼ê³ł":8628,"ìĸ»":8629,"ĠìĬ¤ë§ĪíĬ¸":8630,"Ġì³Ĳë¨¹ê³ł":8631,"ĠìĥĪëģ¼ìķ¼":8632,"ì§ĢìķĬëĤĺ":8633,"ìĸ´ë´Ĳìķ¼":8634,"ìĿ´ëĤĻìĹ°":8635,"Ġíķ¸ëĵľíı°":8636,"ĠëĴ¤íĨµìĪĺ":8637,"ĠìķĬëĤĺìļĶ":8638,"Ġë°ĺìĿ¼ê°Ĳìłķ":8639,"ìĤ´ë¦¬":8640,"ĠìķĪíķĺ":8641,"ĠìŀĺíĸĪëĭ¤ê³ł":8642,"ëĭ¬ê³ł":8643,"ĠìĹŃìĤ¬ìĹĲ":8644,"ĠìķĪíķľ":8645,"ĠìĨĲíķ´":8646,"ĠìĨĮë¦´":8647,"ĠëıĮìķĦê°ĢëĬĶ":8648,"ë´¤ìŀĲ":8649,"ì¾Į":8650,"£¹":8651,"Ġë¶ĢìĿ¸":8652,"ĠëĤłëł¤":8653,"ĠíĻķìĭ¤íķĺê²Į":8654,"ì£¼ë¡ľ":8655,"Ġì§Ģì§Ħ":8656,"ìĿ´íģ¬":8657,"ĠìĿ´ëŀĺëıĦ":8658,"ĠìĽĥê¸°ëĦ¤":8659,"ëį¸":8660,"ìĸµìĶ©":8661,"ĠëĤĺìĺ¤ëĥĲ":8662,"Ġë©Ģë¦¬":8663,"ĠëıĦë°ľ":8664,"ìĭłë¶Ħ":8665,"ĠíĸĪê³ł":8666,"ĠìķĦìī¬":8667,"ĠëĮĵê¸Ģë¶ĢëĮĢ":8668,"Ġë§Ĳë¡ľë§Į":8669,"Ġì»¤íĶ¼":8670,"Ġì£¼ìŀ¥íķĺëĬĶ":8671,"ëĩ":8672,"ëıĦìĻĢ":8673,"íĶĦëłĪìŀĦ":8674,"ìłĦë¶Ģ":8675,"Ġë§ĲìĿ´ì§Ģ":8676,"ìĨįìĹĲìĦľ":8677,"Ġìłķì¹ĺê°Ģ":8678,"ĠìĥĪë¡ľ":8679,"Ġëĭ¹ëĭ¹íķĺê²Į":8680,"ĠìķłíĶĮ":8681,"Ġì§ĳìĸ´":8682,"ĠOOOìķĦ":8683,"į¤":8684,"ĠìĿ´ëŁ°ê±¸":8685,"Ġë¹Ħê²ģ":8686,"ĠêµŃíļĮìĹĲìĦľ":8687,"ëĵ¤ìĿ´ê³ł":8688,"ĠëĲĺëĭĪ":8689,"ìģ¨":8690,"Ġìłķì§ģ":8691,"ì§ĳìķĪ":8692,"ê¾¸ë¡ľ":8693,"ìķĦëŀĺ":8694,"Ġê¹¨ëģĹíķľ":8695,"Ġì¡¸ìĹħ":8696,"Ġìį¨ìķ¼":8697,"Ġëĭ¹íķĺëĬĶ":8698,"íĦ°ë¦¬":8699,"ĠìłķëıĦëĬĶ":8700,"ìĿ¼ìŀĲë¦¬":8701,"Ġì¢ĭìľ¼ë©´":8702,"íķ´ì£¼ë©´":8703,"ĠìľĦíĹĺíķľ":8704,"ì²ĺë¨¹ê³ł":8705,"Ġë³´ê³łìĭ¶":8706,"ëĦ¹":8707,"Ġëª»íķ¨":8708,"Ġëª»íķĺëĥĲ":8709,"ìĹ°êµ¬":8710,"Ġì¡°ìĦ¼ì§ķ":8711,"~~~~~~":8712,"ĠìĨĮëĵĿì£¼ëıĦ":8713,"Ġê±¸ëł¤ìĦľ":8714,"ìļ°ê¸°":8715,"ìŀĲìľłíķľêµŃëĭ¹":8716,"Ġìłķì¹ĺê¶Į":8717,"ĠìķĦê¹Ŀ":8718,"Ġìŀ¬ë°Į":8719,"ĠìĤ¬ëĥĲ":8720,"ìĿ¸ë¬¼":8721,"ĠëĤĺë¹ł":8722,"ĠíĹĪìļ©":8723,"ëĶ°ìľĦ":8724,"ë°Ł":8725,"ìĹĪì§Ģë§Į":8726,"Ġë§Īëĥ¥":8727,"ĠíķĻìĤ´":8728,"Ġë§ĪìĬ¤íģ¬ë¥¼":8729,"íģ´ëŁ½":8730,"ê¸°ìĥĿì¶©":8731,"ĠìŀĪìľ¼ëĭĪê¹Į":8732,"ìĨĮëĮĢê°Ģë¦¬":8733,"ĠìĹ°íķ©":8734,"ĠìŀĲì¹Ń":8735,"ĠìĹ¬ìŀĲëĵ¤ìĿ´":8736,"ê±·":8737,"ì§Ħìĭ¬":8738,"íĪ¬ìŁģ":8739,"Ġë°ľìĤ¬":8740,"ìķĦë§Ī":8741,"ĠìķĪëĵ¤ìĸ´":8742,"íĭ´":8743,"ë¬¸ëĮĢíĨµëł¹":8744,"ĠìŀĺëıĦ":8745,"ê°ĻìĿĮ":8746,"Ġë¶Īë¥ľ":8747,"ìĹĨìľ¼ëĭĪ":8748,"Ġë²ķìĿĢ":8749,"Ġëª©íı¬":8750,"ìĥĪëģ¼ëĬĶ":8751,"ĠìĿ¼ë³¸ìĿ¸":8752,"Ġíĺģìĭł":8753,"ê»ĺìļĶ":8754,"íķĺê²łìĬµëĭĪëĭ¤":8755,"Ġì¡°ê±´":8756,"ê³łë¡ľ":8757,"ê·ľìłľ":8758,"Ġê°Ģìķ¼ì§Ģ":8759,"ĠìĹ¬ê¸°ìĹĲ":8760,"ë°ľìĸ¸":8761,"Ġê³łìĿ¸ìĿĺ":8762,"Ġê¸Ģë¡ľ":8763,"ê¸°ìĻĢ":8764,"ĠíĺĦìłķê¶Į":8765,"ê²łìĿĮ":8766,"ĠíķĺëĤĺìļĶ":8767,"Ġíį¼ì£¼ê³ł":8768,"ë¥Ļ":8769,"Ġëĭµëĭµíķĺëĭ¤":8770,"ëŁīíķľ":8771,"ë¥´ì§Ģ":8772,"ĠíĻ©êµĲìķĪìĿ´":8773,"Ġë°©ë²ķìĿ´":8774,"Ġë¶ĢíĻľ":8775,"Ġê°Ģì¦Ŀ":8776,"Ġíķľê¸Ģ":8777,"ìĦľìĹĲ":8778,"ëĮĢêµŃ":8779,"Ġë²ķìĽĲ":8780,"ĠíķĻìĽĲ":8781,"ĠíĸĪëĭ¤ëĬĶ":8782,"ĠìĿ½ê³ł":8783,"ìĤ¬ìĿ´ë¹Ħ":8784,"Ġêµ¬ê±¸":8785,"Ġì¢ĮíĮĮê°Ģ":8786,"ĠëĮĢíķ´ìĦľëĬĶ":8787,"ëĵ±ê¸ī":8788,"ìłĦìĦ¸ê³Ħ":8789,"ĠìķĦëĭĪëĿ¼ë©´":8790,"ìĬ¤íĬ¸íĬ¸ëŀĻ":8791,"Ġì£½ìĿĦëķĮ":8792,"Ġíķĺëĵł":8793,"Ġíķĺëĭ¤ëĭĪ":8794,"ìĥĿê²¼":8795,"ë²ķë¬´ë¶Ģ":8796,"ì§ĵìĿĢ":8797,"Ġë¶Ģíĥģëĵľë¦½ëĭĪëĭ¤":8798,"ĠìĿ´ê°Ħ":8799,"ĠíĪ¬ê¸°ê¾¼":8800,"ê¸ĪìĿ´":8801,"Ġë³´ìĪĺëĬĶ":8802,"ìłķìľ¼ë¡ľ":8803,"ê·¼ìĦ±":8804,"ìķĦë¨¹ëĬĶ":8805,"Ġì¢ģ":8806,"Ġë§ĿíķĺëĬĶ":8807,"ìŀĲëŀĳ":8808,"ĠìłĦë²Ķ":8809,"Ġãħı":8810,"Ġë§¤ì¶ľ":8811,"íķĺìĭ¤":8812,"Ġëª»ë¯¿":8813,"µĪ":8814,"ìĺĢëĤĺ":8815,"ĠëıĻì¡°":8816,"Ġìĸĳìĭ¬ëıĦ":8817,"Ġê³µì§ľë¡ľ":8818,"ĠìĿ¸ê°Ħëĵ¤ìķĦ":8819,"Ġìŀ¬ìķĻìķĦ":8820,"ëĮĢê¹¨ë¬¸ëĵ¤":8821,"ĠëĮĵê¸Ģëĵ¤":8822,"Ġëħ¸ë¦¬":8823,"ĠíĮĮíĹ¤":8824,"íĤ¤ëĵ¤":8825,"Ġìĭ¤ì²ľ":8826,"ìŀ¥ìķł":8827,"Ġìĺ¤ë©´":8828,"Ġë²ķìľ¼ë¡ľ":8829,"ì´īìĥĪ":8830,"ìĶ¹":8831,"Ġê°Ħëĭ¨":8832,"Ġì¡°ìĤ¬íķ´ëĿ¼":8833,"Ġê²¸":8834,"Ġê¸´ê¸ī":8835,"ì£¼ìŀĲ":8836,"ĠìłĦìĽĲ":8837,"Ġíİ¸ìĿĺ":8838,"ì§Ħëĭ¹":8839,"Ġìĸ´ìļ¸ë¦¬":8840,"ĠíĻķìĭ¤íķľ":8841,"íĻķì§Ħ":8842,"ìłĦìĿ´":8843,"ìĹĨìķł":8844,"íĿĶ":8845,"Ġê·¼íĺľ":8846,"ìĦ¬":8847,"ëĤĺìĺ¨":8848,"Ġìŀ¡íĺĢ":8849,"ĠëĳĲëłµ":8850,"Ġë§ĪìĿĮìĿĦ":8851,"ê²½ìļ°":8852,"ĠìŀĪìĸ´ìķ¼ì§Ģ":8853,"ĠíĻ§":8854,"Ġìĸ´ë¦¬ìĦĿìĿĢ":8855,"ê°Ģë¡ľ":8856,"ĠìĺĪìłĦìĹĲ":8857,"Ġê¹Įê³ł":8858,"íĸĪìĿĦê¹Į":8859,"Ġë§¤ìŀ¥":8860,"ĠëįĶë¶Īëĭ¹":8861,"Ġì¡°ìĥģ":8862,"ĠB":8863,"ìķĪì²łìĪĺ":8864,"ê²Ģì°°ìĿĢ":8865,"ëĵľëĦ¤":8866,"Ġê¸Īìķ¡":8867,"Ġëĵ¤ìĸ´ê°Ķ":8868,"Ġìĺ¨íĨµ":8869,"Ġìķ¼ëĭ¹ìĿ´":8870,"ĠJ":8871,"Ġê²Ģì°°ìĹĲ":8872,"ëģĿê¹Įì§Ģ":8873,"ĠëĪĮ":8874,"Ġìĸ´ëĶĶê¹Įì§Ģ":8875,"ë¦¬ë©´ìĦľ":8876,"Ġëĭ¤ëĭĮ":8877,"Ġìĸ´ë§Īìĸ´ë§Ī":8878,"ĠíķĺëįĶëĿ¼":8879,"íķ´ìĻ¸":8880,"ĠëĤ´ëŀĢ":8881,"íķľì¤Ħ":8882,"ìĿ¸ì§ĢëıĦ":8883,"ĠëĦĪíĿ¬ëĵ¤ìĿĢ":8884,"Ġë°°ê¸ī":8885,"Ġì¡°ê¸ĪìĿ´ëĿ¼ëıĦ":8886,"ĠíĮĶê³ł":8887,"ìĸ´ì©":8888,"Ġìĭ¸ê²Į":8889,"ĠìĥģëĮĢë°©":8890,"³´ë©´":8891,"ì§ĢìķĬëĬĶ":8892,"Ġê±¸ëŁ¬":8893,"Ġê½ģ":8894,"ëŀįìĭľê³ł":8895,"ĠìĿ´ë¤Ħ":8896,"ìĿ¼íħĲëį°":8897,"ê³³ìĿĢ":8898,"ĠìĦ±ìłģ":8899,"ĠìĤ¬ëĬĶëį°":8900,"Ġì¢ĮíĮĮëĬĶ":8901,"Ġìĸ´ì©ľ":8902,"ë²łíĬ¸ëĤ¨":8903,"ĠìĨĲìĿĦ":8904,"ĠíķĺëĿ½":8905,"ìĪĺíķĺê³ł":8906,"Ġëª»íķĺì§Ģ":8907,"ĠëĲĺëĬĶì§Ģ":8908,"ìľĦë°ĺ":8909,"Ħ£":8910,"ê³łê°Ģ":8911,"ë¬¸ìĶ¨":8912,"ĠêµŃê°ĢìĹĲ":8913,"ĠìĦ¤ëĵĿ":8914,"êµŃìłķ":8915,"Ġìı´":8916,"Ġê²ĥë§Į":8917,"ĠëĤ´ìķ¼":8918,"ì¶ľìĤ°":8919,"ĠìĤŃìłľ":8920,"Ġì£½ìľ¼ë©´":8921,"ë²Īì§¸":8922,"Ġê°ĳëĭĪëĭ¤":8923,"ĠëĦĺìĿ´":8924,"Ġê·¸ëĤł":8925,"Ġê´Ģìĭ¬ìĿ´":8926,"ĠìļĶì¦ĺìĿĢ":8927,"ĠìĿ´ëĤĺëĿ¼ëĬĶ":8928,"ĠíĶĦëŀĳìĬ¤":8929,"ĠëĤĺë°ľ":8930,"ëĭĺëıĦ":8931,"Ġíķłë¨¸ëĭĪëĵ¤":8932,"Ġë§ĪìĿ´ëĦĪìĬ¤":8933,"Ġíķ´ìĻ¸ë¡ľ":8934,"ìĦ¸íĽĪ":8935,"ìľ¼ëł¤ë©´":8936,"Ġë¯¼ì£¼ëĭ¹ê³¼":8937,"Ġë§ŀëĤĺ":8938,"ĠìķĶíĬ¼":8939,"ĠëĤĺë¦Ħ":8940,"Ġë°©ì¹ĺ":8941,"ëĦĪëĦ¤":8942,"ĠíĬ¹ê¶Į":8943,"ĠìķĦìĿ´ë¥¼":8944,"Ġêµ¬ë©į":8945,"įĶëĿ¼":8946,"Ġë§İìķĺ":8947,"Ġë¨¼ìłĢëĭ¤":8948,"ìĺ¬ë¦¼íĶ½":8949,"ĠíĺĪìĦ¸":8950,"ĠìĿ¼ìłľìĭľëĮĢ":8951,"ë©´ëĲĺì§Ģ":8952,"Ġì¶ĶëĿ½":8953,"Ġì¶©ê²©":8954,"ìĭ¸ë":8955,"ĠìĹ´ëĵ±":8956,"íĿ¡":8957,"Ġëĭ¤ë¥¸ëį°":8958,"ĠìŀĲì²´ë¥¼":8959,"ìĹĨëĤĺ":8960,"ì°¨ê³ł":8961,"Ġì°Įê·¸ëŁ¬":8962,"ì§ĵìĿ´":8963,"ĠëĤĺìĺ¤ëĬĶëį°":8964,"ĠëķĮëıĦ":8965,"ê¼´ë":8966,"ì¸µìĿ´":8967,"ĠP":8968,"Ġëĭµëĭ¤":8969,"ìĹĨëĥĲ":8970,"ìĨĮìĹĲìĦľ":8971,"Ġìķŀìŀ¡ìĿ´":8972,"?)":8973,"íķĺìĿĺ":8974,"Ġê²¬ì°°":8975,"ëıĻìĿ´":8976,"ê±´ë§Į":8977,"ľ¯":8978,"ĠìłĬ":8979,"Ġë¬´ê¸°ì§ķìĹŃ":8980,"íķĺìĹ¬íĬ¼":8981,"Ġê³µìľł":8982,"ìĿ¼ìĿ´ëĭ¤":8983,"ìĹĲëĤĺ":8984,"ìĪĺìŀĳ":8985,"ĠìķĪìĤ¬":8986,"ì·":8987,"Ġë¬¸ì²ľì§Ģ":8988,"Ġì£¼íĥĿ":8989,"ĠíķľêµŃëĭ¹ìĿ´":8990,"Ġëĵ¤ìĸ´ê°ĢìĦľ":8991,"Ġë²¤":8992,"ìĥĪëģ¼ìķ¼":8993,"ìłĢëŀĺ":8994,"Ġíĥĳ":8995,"Ġìŀ¬ìĿ¸ìĿ´":8996,"Ġë²ķì¹ĺ":8997,"ë°°ê°Ģ":8998,"ìłĪíķľ":8999,"ìĿ´ëŀĢê±¸":9000,"ĠìłĢê±¸":9001,"ĠìľĦëĮĢíķľ":9002,"ë³´ìľł":9003,"ĠíķľêµŃìĿ¸ìĿ´":9004,"Ġ!!!!":9005,"ìĹ°íŀĪ":9006,"he":9007,"ë©´ëĲ":9008,"ëĦĪê°ĻìĿĢ":9009,"ĠëĮĢêµ¬ê²½ë¶ģ":9010,"ê°ĲìĤ¬":9011,"Ġê±´ëĵ¤":9012,"íĸ¥ìĿ´":9013,"ĠíĿĺëŁ¬":9014,"ĠìĿ¸ì²ľ":9015,"Ġê¹½":9016,"ª»":9017,"ìŀ¬ëĤľ":9018,"ìľĦìĦł":9019,"Ġì£½ìĸ´ìķ¼":9020,"ëĿ¼êµ¬":9021,"Ġì²ĺë²ĮìĿĦ":9022,"ĠìĦłê´Ģ":9023,"ìłķìĿĺëĭ¹":9024,"ĠìŀĲë¹łì¡Į":9025,"ĠìŀĪëĬĶê²ĥ":9026,"ĠëĤĺìĿĢ":9027,"ĠIMF":9028,"ĠìķĪë§ŀ":9029,"ëĵ¤ëģ¼ë¦¬":9030,"ìĭ¤íķľ":9031,"íķľíħĲ":9032,"ì¿Ħ":9033,"ëıĻë¬¼":9034,"Ġìĸµì§Ģë¡ľ":9035,"íķĺì§Ħ":9036,"ìĨĮë¦¬ë¥¼":9037,"ĠOOOëĵ¤ìķĦ":9038,"±Ģ":9039,"Ġå":9040,"ìķĦì¹¨":9041,"ê°Ħëĭ¤ê³ł":9042,"Ġì¡°ë¯¼":9043,"Ġë³¸ìĿ¸ìĿĺ":9044,"ĠìķĪëĤ¨":9045,"Ġíİ¸ê°Ģë¥´":9046,"ë°ĶëŀĮ":9047,"ëª»ì°¨":9048,"ĠìĿ¼ë³¸ìĹ¬íĸī":9049,"ĠìłĢëĬ¥ìķĦ":9050,"Ĥ´ë":9051,"ĠìĨĮìļ©":9052,"ĠíĬ¸ì§ĳ":9053,"ìĤ¬íķŃ":9054,"Ġë¬´ìŀ¥":9055,"Ġëª¨ìŀĲëĿ¼":9056,"Ġìĸ¸ë¡łìĿĢ":9057,"ìķĦì¤Įë§Ī":9058,"ìłķê·ľì§ģ":9059,"ĠìĤ¬ëŀĮë§Į":9060,"ìĤ¬ê´Ģ":9061,"ê·¹ìļ°":9062,"ìĿ¸ê±°ì§Ģ":9063,"íķ´ì§Ī":9064,"Ġë³´ìĿ´ëĬĶëį°":9065,"ìĿ´ëŀĺëıĦ":9066,"ìľ¼ë¡ľëıĦ":9067,"ìĻĢëıĦ":9068,"Ġsns":9069,"ìŀĲìĺģìĹħ":9070,"ĠíĶ¼íķ´ìŀĲê°Ģ":9071,"ìľłì´Ŀ":9072,"ì§Īë¡ľ":9073,"ĠëĬ¥ëł¥ëıĦ":9074,"ĠìĹĨìľ¼ë©´ìĦľ":9075,"ìĺĢì§Ģ":9076,"ĠíĺĦìŀ¥":9077,"íĴĢìĿ´":9078,"ê¸¸ë°Ķ":9079,"Ġìĸ´ì²ĺêµ¬":9080,"ë¯¼ì£¼ëĭ¹ìĿ´":9081,"íķłê²ĥìĿ´ëĭ¤":9082,"ìłĦìĿĦ":9083,"ë§īê³ł":9084,"Ġì°¨ëŁī":9085,"ĠëĨĵìĿĢ":9086,"ëĦĪëĤĺ":9087,"Ġë§ŀìĿĮ":9088,"¹¨":9089,"Ġë°Ľê²Į":9090,"ĠëģĿëĤĺê³ł":9091,"ĠìŀĪê¸´":9092,"ìĦ¸ìĹĲ":9093,"ĠìĪĺìĥģ":9094,"Ġ24":9095,"ê´ľ":9096,"Ġê²ĥìŀĦ":9097,"ĠìķĦìłĢìĶ¨":9098,"ë¯¸êµŃìĿĢ":9099,"¸ë¹¨":9100,"ĵ¨":9101,"ìĿ´êµ¬":9102,"ì¡°ìĭ¬":9103,"ĠíĮ½":9104,"ĠìłĦêµŃë¯¼ìĿ´":9105,"¸ëł¨":9106,"ĠíĶ¼íķ´ë³´":9107,"ĠìĿ¸íĦ´":9108,"ì¤ĳìļĶ":9109,"ĠìĥĿê°ģíķĺì§Ģ":9110,"Ġìŀĺëª»íķľ":9111,"ĠëĮĢê°Ģë¦¬ìĹĲ":9112,"ĠìĿ´ìĭľêµŃìĹĲ":9113,"Ġìłĵ":9114,"ĠìķŀìĦ¸":9115,"ĠëĤłìķĦ":9116,"ĠìĿ¸íķľ":9117,"Ġë§İìķĦìļĶ":9118,"Ġë¨¸ê°Ģ":9119,"ìŀĲë¹ł":9120,"ìĽ¨":9121,"ìĺ¬ëł¤":9122,"Ġë¹¼ëıĮ":9123,"ãħĤãĦ·":9124,"Ġë£¨":9125,"ìķµ":9126,"Ġê³¤":9127,"ìłĦë¬¸ê°Ģ":9128,"ëĮĢìĦł":9129,"ðŁĮ":9130,"Ġê²°ê³¼ëĬĶ":9131,"ĠìłĢê²ĥëĵ¤":9132,"ĠìĤ¬ëŀĮìĹĲê²Į":9133,"ĠíĽĮë¥Ńíķľ":9134,"ëĭī":9135,"ĠìķĪì¢ĭìĿĢ":9136,"Ġê¹ĮëĬĶ":9137,"Ġê¸°ìĥĿ":9138,"²ł":9139,"íĶĮëłĪìĿ´":9140,"ìĭľìĽĲ":9141,"Ġë²ķëĮĢë¡ľ":9142,"Ġì°¨ìĿ´ê°Ģ":9143,"ë³´ëĤĺ":9144,"un":9145,"íĵ°":9146,"ëł¸ëĬĶëį°":9147,"ĠëĲĲëĭ¤":9148,"Ġìį©ìĿĦ":9149,"500":9150,"ë°©íĥĦìĨĮëħĦëĭ¨":9151,"ĠìļĶìĥĪ":9152,"ìĿ´ìłķëıĦë©´":9153,"Ġëª©ìłģ":9154,"Ġì§Ģê¸ĭì§Ģê¸ĭ":9155,"Ġìĥ¤":9156,"ĠìĭłëħĲ":9157,"Ġìĳ¤":9158,"Ġì¢ĮíĮĮëĵ¤ìĿ´":9159,"Ġì§Ħìĭ¤ìĿ´":9160,"al":9161,"Ġíķĺê²łëĥĲ":9162,"ĠìľĦìĽĲ":9163,"ĠëĤĺíĮĶ":9164,"ëĨĢìĿ´":9165,"Ġê¸°ìĸ´ëĤĺ":9166,"Ġì¦īê°ģ":9167,"Ġì¡°ì°¨":9168,"Ġëĵ¤ìĸ´ê°ĢëĬĶ":9169,"ì§Ħìĺģ":9170,"ìĵ°ëłĪê¸°ëĵ¤":9171,"ì¢ĭëĭ¤":9172,"ìŀĲë³¸":9173,"ĠìĤ¬ëŀĮëĵ¤ìĿĺ":9174,"ëªħëĭ¨":9175,"Ġì§Ħì§ľë¡ľ":9176,"êµŃìłľ":9177,"Ġê¸°íļį":9178,"ĠìĨĮíĨµ":9179,"ëĤ´ì§Ģ":9180,"ê¶ģì°½":9181,"ĠìĻĦë²½":9182,"tv":9183,"ĠëıĻê¸ī":9184,"Ġì²łìłĢíķĺê²Į":9185,"ĠìĿ´ëĮĢë¡ľ":9186,"Ġë§ĮìĽĲ":9187,"Ġë§ŀëĥĲ":9188,"ĠëĶ¸ìĿĢ":9189,"ĠìłķìľłëĿ¼":9190,"Ġëªħìĭ¬":9191,"ìľłì§Ģ":9192,"Ġì±Ħìļ©":9193,"ho":9194,"ê³łë°ľ":9195,"êµŃê°Ģê°Ģ":9196,"ë¡ľëĤ¨ë¶Ī":9197,"Ġê±°ê³ł":9198,"íķľêµŃëĭ¹ìĿ´":9199,"ë¦¬ìĹĲ":9200,"ë°ķìĽĲìĪľ":9201,"ì²Ńêµ¬":9202,"Ġì¶Ķìķħíķľ":9203,"ĠëĤĺê°Ī":9204,"ì£¼ëĭĪ":9205,"ĠëĮĢìķĪ":9206,"Ġë§Īìĭľ":9207,"ëĨĪìĿĦ":9208,"Ġíķĺê³łëĬĶ":9209,"íı¬ê¸°":9210,"ĠíĿ¬ë§ĿìĿ´":9211,"ì§Ģë¶Ģ":9212,"ìĿ¸ìĸĳ":9213,"ìŀĲëĵ¤ìĹĲê²Į":9214,"ĠëĤłëĿ¼":9215,"Ġì²´íı¬":9216,"íĸĲ":9217,"ìĨįìĿ´":9218,"ĠìĤ¬ëª¨":9219,"êµ¬ì¡°":9220,"ĠìĽĲëĤ´ëĮĢíĳľ":9221,"ìŀ¬ê°Ģ":9222,"Ġëĵ¤ìĸ´ê°Ī":9223,"ëıĦëįķ":9224,"ĠìĿ¸ì¢ħ":9225,"ĠíĹĪê°Ģ":9226,"ĠìĿ¸ëł¥":9227,"Ġë§Įëĵ¤ì§Ģ":9228,"ìŀħìŀ¥":9229,"ĠíķĺëĬĶê°Ģ":9230,"Ġìľłíı¬":9231,"ĠëĲłëĵ¯":9232,"13":9233,"íĺģëªħ":9234,"ê·¸ëŁ´":9235,"ar":9236,"Ġë©ĺ":9237,"ĠìĥĿê²¼ëĦ¤":9238,"Ġìĸ´ìļ©":9239,"ìłĦíĺķ":9240,"âľ":9241,"Ġê´Ģìĭ¬ëıĦ":9242,"Ġìŀ¡ëĬĶ":9243,"ĠìĪĺìļ©":9244,"Ġìĭ¶ëĦ¤":9245,"Ġì²ŃìĻĢëĮĢìĹĲ":9246,"Ġê¸°ëĭ¤ëł¤":9247,"Ġë¯¿ìĸ´":9248,"ĠíıĲê°Ħ":9249,"Ġëĭ¤ìĿĮìĹĲ":9250,"Ġë³¸ìĿ¸ëĵ¤":9251,"ëĺĲëĿ¼ìĿ´":9252,"Ġê½Ĥ":9253,"Ġë§Įì¡±":9254,"ĠëĦĪíĿ¬ê°Ģ":9255,"ìĿ´íķ´ì°¬":9256,"Ġìŀħìŀ¥ìĹĲìĦľ":9257,"Ġë©Ģì©¡íķľ":9258,"ĠìľłìĿ¼íķľ":9259,"ê³µì§ģ":9260,"Ġë°ľê²¬":9261,"Ġë»ĶíŀĪ":9262,"ĠëĮĢë¡ľ":9263,"Ġëĸ¨ìĸ´ì§Ī":9264,"ëĭ¬ëŁ¬":9265,"Ġë¯¼ì£¼ì£¼ìĿĺë¥¼":9266,"íĸĪëĭ¤ê°Ģ":9267,"ë°ķíķľ":9268,"Ġìŀ¥êµ°":9269,"Ġë§Īëĭ¹ìĹĲ":9270,"Ġì¤Ģëĭ¤":9271,"ìĺµëĭĪëĭ¤":9272,"ëĮĢíķ´":9273,"Ġë¬¸ìŀ¬ìķĻê³¼":9274,"ìħ¨ëĦ¤":9275,"ë¬¸ìĿĦ":9276,"Ġëª¨ë¦Ħ":9277,"Ġê±°ìŀĦ":9278,"ëįĺê±°":9279,"Ġê·¼ì²ĺ":9280,"ĠíĽĦìĹĲ":9281,"ìĹ°ëĮĢ":9282,"íİĳ":9283,"ê²½ìłľëĬĶ":9284,"Ġìŀĺíķ´ëĿ¼":9285,"Ġëĺ¥ê°ľ":9286,"Ġë´¤ëĬĶëį°":9287,"ëī´":9288,"ìĪĺìĹĲ":9289,"ĠìĤ´ë§Į":9290,"Ġëª¨ìŀĦ":9291,"Ġê¹Įë°ľ":9292,"Ġë¬´ìĨĮ":9293,"Ġê¸°ëłĪê¸°ìķ¼":9294,"ìĤ¶ìĿĢ":9295,"Ġê¹İ":9296,"ê°ĦìĿĺ":9297,"ìĿ¼ìłľ":9298,"ìĿ´ëĵ¤ìĿĢ":9299,"ë°Ķë³´":9300,"Ġë¡¯":9301,"ìķĦìĽĥ":9302,"ĠíĥľíĴį":9303,"ê¿Ī":9304,"ĠìĤ¬ëĿ¼ìł¸ìķ¼":9305,"Ġëªĩë°±":9306,"ĠìŀĪê¸°":9307,"ìĿ´ì°¸ìĹĲ":9308,"Ġë¶ĢíĴĪ":9309,"Ġê³łë§Į":9310,"ê³łìĭ¶ìĿĢ":9311,"ëĲĺìĹĪëĭ¤":9312,"Ġëĵ£ëĬĶ":9313,"Ġëĵ¤ìķĦ":9314,"Ġê¸°ìĤ¬ë¡ľ":9315,"Ġíıīë²Ķ":9316,"ĠìĬ¬ìĬ¬":9317,"Ġëª¨ëıħ":9318,"ĠìĿ¼íķĺê³ł":9319,"ìĥĿìĤ°":9320,"ĠìĹ°ê´Ģ":9321,"âĻ¥âĻ¥":9322,"ĠëĮĢê¶Į":9323,"ë²Ħëł¤":9324,"ĠíĮĮëł´ì¹ĺíķľ":9325,"§¤":9326,"ĠìĨĮìĥģê³µ":9327,"Ġì§ĢíĤ¬":9328,"Ġì¢ĮíĮĮëĵ¤ìĿĢ":9329,"ĠìķĦìļ°":9330,"ìŀħíķĻ":9331,"¸ë§Ŀ":9332,"Ġê·ł":9333,"ë¶ĵ":9334,"Ġëĭ¤ëħĶ":9335,"Ġë²Ķì£Ħë¥¼":9336,"ì¢ħìĿ¼":9337,"ĠìĿ´ìļ©íķĺëĬĶ":9338,"ì¤Ģìĺģ":9339,"ĠìķĦìĿ´ëĶĶ":9340,"ì¹ĺëĭ¤":9341,"Ġë¶ĦìĦĿ":9342,"Ġë¶Ħëĵ¤ìĿĢ":9343,"ĠìĻĢì¤ĳìĹĲ":9344,"Ġëĭ¤ìĸĳ":9345,"Ġìĭ¶ëĦ¤ìļĶ":9346,"Ġìļ°ë¦¬ëĤĺëĿ¼ë¥¼":9347,"Ġê·¸ìĿĺ":9348,"ìŀ£":9349,"ìĬ¤ë¥¼":9350,"ĠìĹ°ìŀ¥":9351,"ĠìłķíĻķíķľ":9352,"ĠíķĺëĤĺë¡ľ":9353,"Ġìŀĺíķ´ìĦľ":9354,"Ġì¤ĳìķĻìĿ¼ë³´":9355,"Ġëĵľë¦½":9356,"ĠìķĦìĿ´íı°":9357,"ìµľìķħ":9358,"Ġë¬¸ìłľìķ¼":9359,"Ġíĺ¹ìĿĢ":9360,"íĵ¨":9361,"ĠìĥģìľĦ":9362,"Ġì¤Ģëĭ¤ê³ł":9363,"ĠìĿ´ìĤ¬ëŀĮ":9364,"ĠëĤ¨ìŀĲëĬĶ":9365,"Ġë§ĲìķĦë¨¹ê³ł":9366,"ë¬´ì¡°ê±´":9367,"ë³¸ìĿ¸ìĿ´":9368,"ĠìĺĪìĿĺ":9369,"Ġìľłì¡±":9370,"Ġë°ĺëĤ©":9371,"ĠìĿ´ëķħ":9372,"Ġëľ»ìĿĦ":9373,"ĠìķĦëĭĪì£ł":9374,"ëĵ±ìĭł":9375,"ĠìłĲëł¹":9376,"ìĿ´ìŀĸìķĦ":9377,"ëł·":9378,"Ġì£¼ëĮķ":9379,"ĠìĪ¨ìĸ´":9380,"ìĥ¤":9381,"Ġë¶Ļìĸ´":9382,"êµ°ëį°":9383,"Ġì°įê³ł":9384,"Ġê¸°ê°ģ":9385,"ĠìľłìĤ¬":9386,"Ġëľ¯ìĸ´":9387,"Ġë§ĪíĬ¸":9388,"Ġê°Ļìľ¼ë©´":9389,"ìħľ":9390,"Ġë¶ĢëģĦëŁ¬ìļ´ì¤Ħ":9391,"ĠìµľëĮĢíķľ":9392,"ëªħëıĦ":9393,"Ġë§Įëĵ¤ë©´":9394,"ëĬĲê·¸":9395,"Ġìĸ´ì©ĮëĿ¼ê³ł":9396,"ĠìķĪì¤ĳìĹĲëıĦ":9397,"Ġë¨¸ê°Ģë¦¬":9398,"ĠíĨµíĻĶ":9399,"Ġë©°ì¹ł":9400,"Ġl":9401,"ìĤ¬ìŀ¥":9402,"ë§Įìķ½":9403,"ëĵľëĥĲ":9404,"ĠíķĺëĤĺë§Į":9405,"ĠëıĪì£¼ê³ł":9406,"Ġìĸ¹":9407,"ĠãħĹ":9408,"Ġì£ĦìĿ¸":9409,"ìĥĪëģ¼ëĵ¤ìĿ´":9410,"ìĬ¤ëĬĶ":9411,"ìĿĮìĿĦ":9412,"Ġíľ´ëĮĢíı°":9413,"se":9414,"ĠìĪŁê°ĢëĿ½":9415,"ĠTV":9416,"íĹ¬":9417,"Ġê·¸ëŁ":9418,"ëĭµëĭµ":9419,"Ġë§İìĬµëĭĪëĭ¤":9420,".\"":9421,"ĠìĿĺíķľ":9422,"Ġìĺ¤ì§ĢëĦ¤":9423,"ëĮĢíĨµëł¹ìĿĢ":9424,"ìŀĲìĤ´":9425,"ĠìŀĺíĸĪëĭ¤":9426,"Ġìĭ¬íĮĲìĿĦ":9427,"Ġìĩł":9428,"ĠW":9429,"ìĹĲëĮĢíķľ":9430,"Ġìłĸ":9431,"ëĳĲë£©":9432,"Ġë°Ģê³ł":9433,"Ġìĸ´ëĶĶê°Ķ":9434,"Ġë¬´ëĬ¥íķĺê³ł":9435,"êµ¬ëĬĶ":9436,"ê²ĮìĿ´íĬ¸":9437,"Ġë¬¼ìĸ´":9438,"Ġê³µíķŃ":9439,"ëĭ·":9440,"ìľĦë³ĳ":9441,"ĠìĿ´ëŁ°ê±´":9442,"Ġë§ĪëħĢìĤ¬ëĥ¥":9443,"ëŁ½ê³ł":9444,"¸ëĿ¼ê³ł":9445,"ĠìĪĺêµ¬ê¼´íĨµ":9446,"ì§¤":9447,"Ġì£¼íķľë¯¸êµ°":9448,"Ġë¬¸ë¹łëĵ¤":9449,"Ġë§ŀì¶Ķ":9450,"Ġì½ĺ":9451,"Ġë²łëĮĵ":9452,"ĠëĤĻíĥľ":9453,"íĸĪê²łì§Ģ":9454,"Ġì£¼ìŀĳ":9455,"Ġê²½íĺ¸":9456,"Ġì°¨ìĿ´ëĤĺ":9457,"ì£½ìĿĢ":9458,"ìŀħêµŃê¸Īì§Ģ":9459,"Ġíİ¸íĮĮ":9460,"ìĤ¬ëĵ¤":9461,"ìĤ¬ëĥĲ":9462,"Ġ,,":9463,"Ġì±ħìŀĦìĿĢ":9464,"ĠíĪ":9465,"ĠëıĦë°°":9466,"ì§ķìļ©":9467,"íĵ°ë¦¬ì¦ĺ":9468,"ë¦°ëĭ¤ê³ł":9469,"ĠìĤ¬ëŀĮìĿ´ëĭ¤":9470,"Ġë¬¼ëŁ¬ëĤĺ":9471,"ĠìĿ´ìĬ¹ë§Į":9472,"Ġê°Ģì¹ĺê°Ģ":9473,"ê·¸ëĨĪ":9474,"ë¦¬ìĸ¼ë¯¸íĦ°":9475,"ìĬ¤ìĬ¤ë¡ľ":9476,"ĠìĺģêµŃ":9477,"ë§Įëĵł":9478,"ĠìĤ´ìķĦìĦľ":9479,"Ġëĩ¬":9480,"Ġë¹¨ê°±ìĿ´ê°Ģ":9481,"Ġëļľ":9482,"Ġëª¬":9483,"Ġê³µìķĪ":9484,"ë¬´ìĭĿíķľ":9485,"Ġìłķë§Ĳë¡ľ":9486,"ĠíķĺìĭľëĬĶ":9487,"ãħį":9488,"ìķĪíķľ":9489,"ĠëĪĦêµ°ì§Ģ":9490,"Ġë°ĽëĬĶëĭ¤":9491,"ĠëĤĺëĿ¼ê¼´ìĿ´":9492,"Ġë·":9493,"ìĸ´ìķ¼íķľëĭ¤":9494,"Ġëĭ¤ëĭĪê³ł":9495,"ëª¨ìĸĳ":9496,"ìłľìŀ¬":9497,"ĠìłķìĭłìĬ¹ë¦¬":9498,"ëĴ¤ìĹĲ":9499,"ì´Ŀìŀ¥ìĿ´":9500,"ìłķë¶ĢíĮ¨":9501,"Ġì§ķê¸Ģ":9502,"ĠìŀĪì£ł":9503,"ĠìĤ´ê¸¸":9504,"Ġìłķë¶Ģíĥĵ":9505,"ê±°ëĭĪ":9506,"ĠìĿ´ëĦ¤":9507,"ìĭ¤íĮ¨":9508,"ëª¨ë¥´ëĬĶ":9509,"ĠìĿ¼ë§Į":9510,"ë®":9511,"ĠìĥĪëģ¼ëĵ¤ìĿĢ":9512,"ĠìĤ¬ê³łë¥¼":9513,"ĠëĮĢëĮĢ":9514,"Ġìĭľë°ľ":9515,"ãĦ´ë":9516,"ĠíķĺëĬĶê±°ìķ¼":9517,"ĠêµŃìłģ":9518,"ìķħë§Ī":9519,"ëıĻìĿĦ":9520,"Ġìĭłë¶Ħ":9521,"Ġìĺģìĸ´":9522,"ĠìķĻ":9523,"ìķĦë¹ł":9524,"ëĨĪëıĦ":9525,"Ġë¨¹ê³łìĤ´":9526,"íķĺê¸°ëĬĶ":9527,"ëĤ©ëĭĪëĭ¤":9528,"ĠíķľëĳĲë²Ī":9529,"íķ´ê²°":9530,"Ġë³¸ìĿ¸ìĿĢ":9531,"Ġìļķíķł":9532,"ĠF":9533,"Ġë°©êµ¬ìĦĿ":9534,"íķĺëįĺê°Ģ":9535,"ĠìĤ¬ìķħíķľ":9536,"ĠìķĪì°į":9537,"Ġìĭ¸ê°Ģì§Ģ":9538,"ĠìķĦìŀĳ":9539,"ĠìłĢíĿ¬":9540,"ìĹĪêµ¬ëĤĺ":9541,"íĻĶë¬¸ìĹĲ":9542,"íĸīìĿ´":9543,"ê±°ë¦¬ê°Ģ":9544,"íĻĶìĿ´íĮħ":9545,"Ġíķĺëįĺê°Ģ":9546,"Ġê°ĢìĦ¸ìļĶ":9547,"ĠìĭľíĤ¬":9548,"Ġìī¬ìļ´":9549,"Ġë¯¼ìłķìĪĺìĦĿ":9550,"ĠìĹĨëįĺ":9551,"ìķĪíķĺë©´":9552,"ĠëĮĵê¸ĢìĿĢ":9553,"ĠìŀĲê¸Ī":9554,"Ġëĵ±ë¡Ŀ":9555,"ĠëĵľëĬĶ":9556,"ĠêµŃê°ĢìĻĢ":9557,"Ġìľłì£Ħ":9558,"ĠëĤ´ë³´ëĤ´":9559,"ë§Įëĵ¤ìĸ´":9560,"Ġë¹Ħë°Ģ":9561,"Ġíķ©ê²©":9562,"ìĭľíĤ¤ìŀĲ":9563,"ìĿ´ë²ĪìĹĲ":9564,"Ġëĭ¤ëĭĲ":9565,"íĺķìĿ´":9566,"ĠìŀĲìĦ¸":9567,"Ġì²ĺë¨¹ê³ł":9568,"ĠìĹĦì¤ĳ":9569,"ëĭ¹ìľ¼ë¡ľ":9570,"Ġë¹¨ê°±ìĿ´ëĵ¤ìĿ´":9571,"Ġìĸ´ì©Įëĭ¤":9572,"Ġw":9573,"Ġê²ĥìĿ´ì§Ģ":9574,"Ġê³łì³Ĳ":9575,"ĠìĿ´ê²ĥëĵ¤ìĿĢ":9576,"ëĪĪì¹ĺ":9577,"ìľĦìķĪë¶Ģ":9578,"ĠëĦĪëĦ¤ê°Ģ":9579,"ê¹Įì§Ħ":9580,"ĠêµŃë¯¼ëĵ¤íķľíħĮ":9581,"Ġì§ĢëıĦìŀĲ":9582,"ĠëĤĺê°Ķ":9583,"ë¯¼ëĵ¤":9584,"Ġìĭľê¸°ìĹĲ":9585,"ë¦ħëĭĪëĭ¤":9586,"Ġì£¼ë¨¸ëĭĪ":9587,"íĽ¼ìĨĲ":9588,"ìĦ±ìľ¼ë¡ľ":9589,"Ġê³³ìĹĲ":9590,"ìĿ¼ê°Ģ":9591,"ìľĦì¡°":9592,"Ġì£½ê²Į":9593,"ëª¨ë¡ľ":9594,"ìĽĶìĹĲ":9595,"Ġì©Ķ":9596,"ìį¼":9597,"ìŀħë§Į":9598,"ì²´íģ¬":9599,"ê°ĢëĭĪ":9600,"ĠíĮĮê¸°":9601,"Ġë¡¯ëį°":9602,"ëģ¼ìķ¼":9603,"Ġë¹Ħë¦¬ê°Ģ":9604,"Ġëĭ¨ì²´ë¡ľ":9605,"ĠìĬĪíį¼":9606,"ĠìĥĿê°ģíķ´ë´ĲëĿ¼":9607,"ìĹ´ìĭ¬íŀĪ":9608,"90":9609,"ëĮĢê¸°ìĹħ":9610,"ĠìŀĪê²łëĥĲ":9611,"ĠìķĪìĹĲ":9612,"ìĤ°ìĿ´":9613,"Ġì²ŃìĻĢëĮĢìĹĲìĦľ":9614,"Ġì¢ĭìĿĦ":9615,"ë°©ìĭĿ":9616,"Ġë¯¿ì§Ģ":9617,"ìĭłêµĲ":9618,"íķ´ìķ¼ëĲľëĭ¤":9619,"Ġëĭ¤ë¥´ëĭ¤":9620,"ĠëĤĺëª°":9621,"ĠìĨĮíĻĺ":9622,"),":9623,"Ġë°ķê·¼íĺľëĬĶ":9624,"Ġê¸¸ìĿĦ":9625,"ĠêµĲì²´":9626,"ĠíĥĪìĿĦ":9627,"íŀĺëĤ´":9628,"Ġì¦īìĭľ":9629,"ê³µê²©":9630,"ì¢ĥëĭ¹":9631,"Ġë¯¸íĪ¬":9632,"ĠìĥģíĴĪ":9633,"Ġë¹¨ê³ł":9634,"ĠìĶģ":9635,"ĠìłĦë¶Ģëĭ¤":9636,"Ġì§ĢìĹŃê°Ĳìłķ":9637,"Ġê³µë¬´ìĽĲëĵ¤":9638,"ĠíķĦë¦¬":9639,"ĠìĿ´ëĿ¼ëĬĶ":9640,"Ġë°Ķê¿ĶëĿ¼":9641,"ë³´ë©´ìĦľ":9642,"Ġê±¸ìĸ´":9643,"Ġê²ĥìĹĲ":9644,"ëħ¸ìĺĪ":9645,"ìĪĺì¶ľ":9646,"Ġë§¤ëıĦ":9647,"ĠìĿ´ëŁ¬ëĭ¤":9648,"ë§Įëĵ¤ê³ł":9649,"ĠëĦĺëĵ¤ìĿ´":9650,"Ġìĭ«ê³ł":9651,"ĠìĦ¼":9652,"Ġìłķì±ħìĿ´":9653,"Ġê°Ģê¹Įìļ´":9654,"Ġëª»íķĺëĭĪ":9655,"ì°¨ë¡Ģ":9656,"Ġë§Įëĵ¤ëł¤ê³ł":9657,"ĠìľĦíķĺëĬĶ":9658,"Ġë¬´ìĭľíķĺëĬĶ":9659,"ëĦĺìĸ´":9660,"ë¹ĦëıĦ":9661,"ĠëŃĲíķĺê³ł":9662,"ëŀĺìļĶ":9663,"ë¶Ģì¡±":9664,"Ġìľłì¶ľ":9665,"Ġê½¤":9666,"íĮ½":9667,"íĥĦìķķ":9668,"Ġëĭ¦":9669,"ìŀ¥êµ°":9670,"Ġíķľë§ĪëĶĶëıĦ":9671,"ìĪĺêµ¬":9672,"ìłķìĹĲìĦľ":9673,"ĠìľłíķĻìĥĿ":9674,"ĠìĹ°ìķł":9675,"ê¸°ìĤ¬ë¥¼":9676,"Ġìłķìĭłì°¨ëł¤":9677,"ĠìĪĺëıĦê¶Į":9678,"êµĲíĨµ":9679,"ĠìĹ¬ìľł":9680,"Ġìŀ¥ëª¨":9681,"íķľë¯¼êµŃ":9682,"ĠìłĢëħģ":9683,"Ġëī´ìĬ¤ìĹĲ":9684,"ëĤŃë¹Ħ":9685,"Ġë²Ħëł¤":9686,"Ġìĭ¶ìĿĢëį°":9687,"ĠêµĲì£¼":9688,"Ġê¸°ê°Ģë§ī":9689,"Ġê°¤":9690,"ë¬´ìĦľ":9691,"Ġê°ģìŀĲ":9692,"ĠëªħíĻķ":9693,"ĠìķĦìĭľ":9694,"ĠíĶ¼íķ´ê°Ģ":9695,"ĠíķľëħĢ":9696,"ëĲĺëĦ¤":9697,"ë°°ë¡ľ":9698,"ĠíĶ¼ê³¤":9699,"ĠëķĮëł¤ìŀ¡":9700,"ĠìĨĲíķ´ë":9701,"êº¼ë©´":9702,"Ġë¬¼ìĸ´ëľ¯":9703,"Ġf":9704,"Ġì§Ģìłķ":9705,"ê²ĥì§Ģ":9706,"ìĸ´ëł¤":9707,"Ġìļ°ë¦¬ëĤĺëĿ¼ìĹĲìĦľ":9708,"ĠìĤ¬ê³¼ë¥¼":9709,"ĠíĺĦìĭ¤ìĿ´":9710,"ĠìĤ¬íļĮìĹĲìĦľ":9711,"Ġê°ľíĺģìĿĦ":9712,"ë§ĮëªħìĿ´":9713,"Ġì½Ķë©ĶëĶĶ":9714,"Ġê°Ļê³ł":9715,"ìĭľëıĦ":9716,"ĠíĮĮëĬĶ":9717,"¥´ë":9718,"ëıĻìĥĿ":9719,"ìĹ¬ìŀĲê°Ģ":9720,"ĠìķĦë§ĪëıĦ":9721,"Ġíķ´ë´¤":9722,"ĠìŀĲê¸°ëĦ¤":9723,"íĬľë²Ħ":9724,"ĠìĿ´ëŁ¬ë©´":9725,"ĠëĮĢê¹¨":9726,"ĠìĪĺëĳĲë£©":9727,"¶Ļ":9728,"Ġë¹Ħíķ´":9729,"ì¢Įë¹¨ëĵ¤":9730,"ê¶ģê¸Ī":9731,"ĠìŀĪëĬĶê±°ì§Ģ":9732,"ë¹ĦìĹĲ":9733,"ë¥´ë¥´":9734,"ë»Ĳ":9735,"ì«Į":9736,"ĠìĨĮë¦¬ëĬĶ":9737,"ëĶĶìĸ¸":9738,"ìĸ´ë²Ħë¦¬ê³ł":9739,"Ġì²łë©´íĶ¼":9740,"ìł¸ë²Ħ":9741,"ĠìĭľëĤĺ":9742,"ĠíĽĶ":9743,"Ġë¶ĢìĹŃ":9744,"ëĪĮ":9745,"Ġê¸īìĹ¬":9746,"Ġëª°ëĿ½":9747,"Ġì²ľêµŃ":9748,"ĠíķŃê³µ":9749,"ì§Ģë°©":9750,"Ġë§ĪìĬ¤íģ¬ëıĦ":9751,"ìĪľìľĦ":9752,"Ġíŀĺëĵ¤ê³ł":9753,"ìĦ±ê³µëĭ¨":9754,"ĠìŀĪìľ¼":9755,"Ġìĸ´ëł¤ìĽĮ":9756,"Ġê¸į":9757,"ìĤĲ":9758,"ë³´ëĭĪê¹Į":9759,"Ġíį¼íĬ¸ë¦¬":9760,"ĠìĺĽ":9761,"Ġë§Ĳëĵł":9762,"Ġë§ĮëĤĺìĦľ":9763,"ëł¥ìĿĢ":9764,"ëĮĢì§Ģ":9765,"ĠìĿ´ëłĩ":9766,"Ġë°©ë²ķìĿĦ":9767,"íķ´ëĮĢ":9768,"Ġëªĩê°ľ":9769,"Ġëį®ìĸ´":9770,"ì§ĳìĿĢ":9771,"ìĸµìĽĲ":9772,"ĠìĥĿê°ģíķ¨":9773,"ê·¸ê±°":9774,"êµ¬ëħķ":9775,"ĠíĽł":9776,"ìłķìĭłëĤĺê°Ħ":9777,"ìĿ´ëĵ¤ìķĦ":9778,"ë¯¼ëĭ¹":9779,"ìĿ´ê²łì§Ģ":9780,"ĠìĦłê±°ìĹĲ":9781,"Ġì¦Ŀê±°ìĿ¸ë©¸":9782,"íĮĲìĿĦ":9783,"ĠìĪĺì¤ĢìĿĺ":9784,"Ġê·¸ëĶ°":9785,"Ġë°Ķë³´ë¡ľ":9786,"Ġì²ŃìĨĮëħĦ":9787,"¦°ëĭ¤":9788,"Ġê°ķëł¥íķĺê²Į":9789,"Ġì£¼ìľĦ":9790,".!":9791,"Ġíķĺìĭł":9792,"Ġê°ľê²Ģ":9793,"ĠíķĺëĤĺëĬĶ":9794,"Ġì£½ëĬĶëĭ¤":9795,"Ġíį¼ì§Ģ":9796,"íĽĪëł¨":9797,"ì§Ģê¸ĪëıĦ":9798,"ìĿ¼ë§Į":9799,"Ġì£¼ì°¨":9800,"Ġìĵ°ëłĪê¸°ëĵ¤ìĿ´":9801,"Ġë²Ħë¦°":9802,"Ġëĵ¤íĨµ":9803,"ĠìķĦíĶĶ":9804,"ĠëĲľê±°":9805,"Ġìŀ¡ìĿĦ":9806,"ĠëĲĺìĦľ":9807,"Ġê³Ħìĭľ":9808,"ĠìŀħìĽĲ":9809,"Ġì°įìĨĮë¦¬ëıĦ":9810,"ĠëĸłëĤĺëĿ¼":9811,"ìĳ¤":9812,"Ġ31":9813,"ëĤĺìĺ¬":9814,"ëĤ´ëĤ´":9815,"Ġì²łíļĮ":9816,"ĠëķĲ":9817,"íķľëĵ¯":9818,"Ġíķľê°ķ":9819,"Ġê°ľëıħ":9820,"ë¬´ì§Ģ":9821,"ĠìĽĲìŀĲ":9822,"ĠëĮĵê¸ĢìķĮë°Ķ":9823,"ĠíĸĪì§Ģë§Į":9824,"ĠëĪĦêµ¬ëĥĲ":9825,"Ġê²ĢíĨł":9826,"ĠëĪĪê¹Ķ":9827,"Ġë¬´ìĥģ":9828,"Ġëĭ¹ìĭłìĿĦ":9829,"ĠìĥĿê°ģíķ´ìĦľ":9830,"ìĵ°ë©´":9831,"ĠìķĪíķ¨":9832,"íĬ¸ê°Ģ":9833,"Ġíķ©ëĭĪê¹Į":9834,"ĠìķĪëĲĺëĭĪ":9835,"ĠìĦłëıĻìĹĲ":9836,"ë¶ĢëıĦ":9837,"ĠìŀħìĿ´":9838,"Ġë°±ìĦ±":9839,"ĠìµľìĨĮíķľìĿĺ":9840,"ĠìĿ´ëıĻ":9841,"ìŀĪìĿĦ":9842,"Ġë©ĭì§Ħ":9843,"íĺĳíļĮ":9844,"Ġê¹ĢìłķìĪĻ":9845,"ìĿ´ê²ĥëıĦ":9846,"Ġëª½ëĳ¥":9847,"ìĿ´ìĺ¤":9848,"ìĭ¬ìĿĢ":9849,"ĠìĦŀ":9850,"ĠìŀĲìĬ¥":9851,"´ë¦¬ëĬĶ":9852,"ê°Ģëįĺ":9853,"íħ¨":9854,"ë¶ĢíĦ°ê°Ģ":9855,"Ġìĭ¤ì§Ī":9856,"ìĺ³":9857,"Ġìļ´ë":9858,"ĠìĮĪ":9859,"ĠìŀĦëĮĢë£Į":9860,"Ġìĵ¸ëį°ìĹĨëĬĶ":9861,"Ġìª½ë¹łë¦¬":9862,"Ġê¸°ìŀĲëĵ¤":9863,"ë³´ëĤ´ê³ł":9864,"ìŀĪìĸ´ìĦľ":9865,"ĠíıŃëĿ½":9866,"Ġìµľì´Ī":9867,"Ġê·¹ëĭ¨":9868,"ìĿ¸ëĭ¹":9869,"Ġëª¨ë¥´ëĭĪ":9870,"Ġë³´ìĿ´ëĥĲ":9871,"Ġìĭ¶ì§Ģ":9872,"ê¸°íļĮìĹĲ":9873,"íĵ¨íĦ°":9874,"ì¡ĭ":9875,"Ġìĭ¸ìĽĮ":9876,"ĠìĿ¸ê²©":9877,"ĠëıĻìĺģìĥģ":9878,"Ġë¬´ì±ħìŀĦ":9879,"ë°ĽìķĦìĦľ":9880,"Ġíİ¸íĸ¥":9881,"Ġêµ¿":9882,"Ġê°ľìłķ":9883,"Ġë§ŀëĬĶê±°":9884,"ĠëĦĺê²¨":9885,"ĠëĮĢë¶Ģë¶ĦìĿ´":9886,"ĠíĽĦìĺĪ":9887,"íĥĲ":9888,"ì§Ģê¸Īê¹Įì§Ģ":9889,"íķĺëįĺì§Ģ":9890,"Ġë²ķìĿĺ":9891,"Ġê³Ħìĭł":9892,"Ġëĺĺëĺĺ":9893,"ĠìĪ«ìŀĲ":9894,"ë¡ľë¶ĢíĦ°":9895,"Ġëĭ¬ë¦¬":9896,"Ġë®":9897,"íķĺëĬĶê±¸":9898,"íģ´":9899,"Ġì°¨ë¦¬":9900,"ĠìĬ¤íİĻ":9901,"ìłĪíŀĪ":9902,"ìĭľëĮĢìĹĲ":9903,"ĠíĺĦìĭ¤ìĿĢ":9904,"ì²ĺë¶Ħ":9905,"Ġì¶Ķêµ¬":9906,"Ġìŀ¬ìķĻìĿ´ê°Ģ":9907,"ìĹ´ë©´":9908,"ĠìĹĶ":9909,"ĠëĤĺê²½ìĽĲìĿ´":9910,"§¹":9911,"ĠìĿ¼ìĹĲ":9912,"Ġê¸°ëħĲ":9913,"íĸĪêµ¬ëĤĺ":9914,"íķ´ìĦľëĬĶ":9915,"ĠìłĢëŁ°ê²Į":9916,"ĠìĤ¬ê±´ìĿĦ":9917,"Ġë¯¸ìĦ±ëħĦ":9918,"Ġ52":9919,"íĪ¬ë¦¬":9920,"ê³ĦëĬĶ":9921,"ë»ĺ":9922,"ĠìĿ´ê¼´":9923,"ĠìķĮìķĦìķ¼ì§Ģ":9924,"Ġë¬´ê³ł":9925,"Ġíķĺìĭľê³ł":9926,"Ġë¬´íķľ":9927,"¸ë¬¸":9928,"ĠìłĦê³¼":9929,"ê²½ìłľë¥¼":9930,"ĠíĦ°ì§Ħ":9931,"Ġë³ĳìĹŃ":9932,"ìĨĮíķľ":9933,"ëĲĺëĬĶê²Į":9934,"ìļ¸ëķĮ":9935,"ìĪĺìĹĨëĬĶ":9936,"Ġê³łëĮĢ":9937,"ê»Ģëį°":9938,"ìłķë¶ĢìĹĲìĦľ":9939,"Ġê´Ģê´ĳê°Ŀ":9940,"ìĿ´ìĹĪëĭ¤":9941,"Ġëª»ë°°":9942,"Ġì§Ģì§Ģíķľëĭ¤":9943,"ĠìĿ´ë¦Ħìľ¼ë¡ľ":9944,"ê³µìŀĳ":9945,"ê·¸ëŀ¬":9946,"ĠëĤĺê°ĢëĬĶ":9947,"ĠìĿ¼ê°ľ":9948,"ĠíĹĪëĿ½":9949,"êµŃê°ľ":9950,"Ġì§ľì¦ĿëĤľëĭ¤":9951,"ì§ĢëĥĲ":9952,"ë¬¸ëĮĢ":9953,"Ġê·¸ëŁ¬ê³łëıĦ":9954,"Ġìĸ»ìĸ´":9955,"ê²ĥìĿ´ê³ł":9956,"ìŀĪëĬĶì§Ģ":9957,"ìłķê¶ĮìĹĲ":9958,"ĠëģĮìĸ´ëĤ´ëł¤":9959,"ê¹Įê³ł":9960,"ĠëĪĦê°Ģë´ĲëıĦ":9961,"ê¸°ìłĦ":9962,"Ġìĭ¤ì²´":9963,"ĺ¥":9964,"ĠìĥĿê°ģíķĺëĥĲ":9965,"ĠíķĺëĤĺê°Ģ":9966,"ĠìļĶê¸Ī":9967,"ê²ŁëĦ¤":9968,"¸Į":9969,"Ġê·¸ëķĲ":9970,"ì¤Ģìļ©":9971,"Ġìĸ´ëķĮ":9972,"ëª©ìĪ¨":9973,"ëįĶëŁ¬":9974,"Ġëĵ±êµĲ":9975,"Ġíİĳ":9976,"íķĺëĵ¯":9977,"Ġëª¨ë²Ķ":9978,"ìłķê¶ĮìĿĦ":9979,"Ġê°ľëı¼ì§Ģëĵ¤ìĿĢ":9980,"ĠëĶ°ëĿ¼ìĦľ":9981,"Ġê·¸ë°":9982,"Ġëĵ±ìĹĲ":9983,"ìĺĽëĤł":9984,"Ġëĭ¬ëŁ¬":9985,"Ġì´ĿìĦłìĹĲ":9986,"ĠìĤ¬íĥľê°Ģ":9987,"íķĺëĬĶê²ĥìĿ´":9988,"ìķĪëĲľëĭ¤":9989,"ëŀ©":9990,"ì£¼ìłľìĹĲ":9991,"ë£°":9992,"ĠìŀĪëĬĶê±´":9993,"Ġì´ĿìĤ´":9994,"ìĦ¸ìĹ¬":9995,"Ġìĸ´ë¨¸ëĭĪ":9996,"Ġê·¸ëķĮëĬĶ":9997,"ê±°ìļ´":9998,"ì¤ĳìĿ¸ëį°":9999,"ĠìĸĳìĦ±":10000,"ĠìĿ´ê²ĥëĵ¤":10001,"ë¹ļ":10002,"ìĤ¬ëĤĺ":10003,"íĻ©êµĲíĻľ":10004,"Ġíķ´ìķ¼íķł":10005,"ĠëĵĿìĭ¤":10006,"Ġë¶Īêµ¬íķĺê³ł":10007,"Ġíķĺëł¤ë©´":10008,"ĠìĪĺìļĶ":10009,"ê¶Įë¶Ħ":10010,"Ġëħ¸ì¶ľ":10011,"Ġê½ī":10012,"ìĿ´êµ°":10013,"Ġê°Ļì§Ģ":10014,"ĠìĦ¸ìļ°":10015,"ëĵľëĭĪ":10016,"Ġë°ĺìĹŃ":10017,"ì§Ģì¼ľ":10018,"ĠìłĢíķŃ":10019,"Ŀ½":10020,"ê³łëĮĢ":10021,"Ġë°Ķê¾¸ë":10022,"ëĵľë¦½":10023,"Ġìļ°ë¦¬ëĤĺëĿ¼ëıĦ":10024,"ãĦ¹ãħĩ":10025,"ìĸ´ë²Ħë¦°":10026,"ìļĶê¸Ī":10027,"ìĥģìĬ¹":10028,"Ġì§Ģê¸Īì²ĺëŁ¼":10029,"ê¸īíķľ":10030,"Ġì¤Ħì¤ĦìĿ´":10031,"Ġê¹Įë¶Ī":10032,"ê¼½":10033,"ĠíıŃë°ľ":10034,"ĠìĿ¼ë³¸ìłľíĴĪ":10035,"Ġìŀħëĭ¤":10036,"ëĤ¨ìļ©":10037,"ëĭ¹ìĭłìĿĢ":10038,"ìĿ´ì¯¤ëĲĺë©´":10039,"ìĬ¤ëŁ¬ìĽĮ":10040,"ĠìĨĮìľł":10041,"ĠíķĺëĬĲ":10042,"Ġë´ħìĭľëĭ¤":10043,"ĠìłķìĿĺë¡Ń":10044,"ĠìĶ»":10045,"ĠìĿ´ìģĺ":10046,"ĠëĨĴìķĦ":10047,"Ġëĭ¤ë¬¼":10048,"ĠëĪĪìĿĦ":10049,"ĠìĤ¬ê±´ìĿ´":10050,",.":10051,"ìľĹ":10052,"ĠìĿ¸ìĥĿìĿĦ":10053,"§ī":10054,"ì§ĳíĸī":10055,"ĠíķľìŀĲë¦¬":10056,"ìª½ìĹĲ":10057,"Ġêµ¬ìĨįìĪĺìĤ¬":10058,"ìľłëĭĪíģ´ë¡ľ":10059,"Ġíķ´ë°©":10060,"ĠìĪ¨ê¸°ê³ł":10061,"ĠìĹ¬ê¸°ëĬĶ":10062,"ëĦĺìĿĢ":10063,"ìŀĲíķľëĭ¹ìĿ´":10064,"ĠìķĦëĵ¤ìĿĢ":10065,"Ġë°©ìĸ´":10066,"ìķĦë²łê°Ģ":10067,"ĠìŀĲëĬĶ":10068,"ì¦Ŀìĥģ":10069,"Ġì§ĢíĤ¤ê³ł":10070,"ê½ĥ":10071,"ê°Ģë¦¬ê³ł":10072,"Ġë§Ŀì¹ĺê³ł":10073,"Ġìĸ¸ë¡łìĿĺ":10074,"Ġê³łíĨµìĿĦ":10075,"ê³łë¯¼":10076,"ĠëĦĪë¥¼":10077,"Ġíķ´ì£¼ê³ł":10078,"Ġë§Ŀíķĺê³ł":10079,"ĠìłĦìŁģìĿĦ":10080,"Ġì§ĦìŀĳìĹĲ":10081,"Ġë¯¼ì£¼ëĭ¹ìĹĲ":10082,"Ġê¸°íļĮë¥¼":10083,"ë¹¨ê°±ìĿ´ëĵ¤":10084,"ĠíķłíħĲëį°":10085,"ĠíĹĺ":10086,"ë§Ĳë§Į":10087,"ĠìĪĺëĬĶ":10088,"Ġê³±ê²Į":10089,"ĠëĳĲëł¤ìĽĮ":10090,"ëĭĻ":10091,"ì¢ĮíĮĮëĵ¤":10092,"ĠìĥģìĨį":10093,"ë¬¸ìĬ¬ëŀĮ":10094,"ĠìĿĺëıĦê°Ģ":10095,"ĠëĮĢíĨµëł¹ê³¼":10096,"ì¿¡":10097,"ë¶ĦìĿĺ":10098,"Ġíī":10099,"Ġìĭľê°ģ":10100,"ìĪľìĿ´":10101,"ëĵ¤ë§ĮìĿĺ":10102,"ë§¤ëıĦ":10103,"Ġë§Ŀì¹ĺëĬĶ":10104,"Ġê¹¨ì§Ħ":10105,"ðŁĺĤ":10106,"Ġë¬¸ì£ĦìĿ¸ìĿ´":10107,"ëĳĲë©´":10108,"Ġëĺ¥ìĿĦ":10109,"ĠëŃĺê¹Į":10110,"ĠìŀĳìłĦ":10111,"ĠíĻĢ":10112,"ìłķëıĦëĬĶ":10113,"ê°ĲìĿĢ":10114,"ĠìĦ¸ëģ¼":10115,"Ġëª¨ìĿ¸":10116,"ĠìĤ¬ëŀĮìľ¼ë¡ľ":10117,"ĠíĥĦìĥĿ":10118,"Ġê¾¸ë":10119,"ìĦ¯":10120,"Ġìª½ë°ľìĿ´":10121,"...........":10122,"ìĽĲìľ¼ë¡ľ":10123,"ĠìłķìĿĺìĹ°":10124,"ìĭłìĿĢ":10125,"ĠíĻķë³´":10126,"Ġë³´ìĿ´ì½§":10127,"íķĺëįĶë§Į":10128,"ìĿ´íĥĪ":10129,"ĠìĪ¨ê¸°":10130,"ë³´ìĿ¸ëĭ¤":10131,"ĠìĪŃ":10132,"íķľê±°ê³ł":10133,"Ġê¶Įëł¥ìĿĺ":10134,"Ġë¨¹ìľ¼ë©´":10135,"íķłëķĮëĬĶ":10136,"Ġê°ľê±°íĴĪ":10137,"ëĲĺê¸¸":10138,"ìĻĢì¤ĳìĹĲ":10139,"Ġì±ħìŀĦì§Ģê³ł":10140,"Ġíŀĺëĵłëį°":10141,"ë¦Ń":10142,"ëŃĲëĥĲ":10143,"ë°ĶëĢĮë©´":10144,"íĻįìĸ´":10145,"ĠëįĶëŁ½ëĭ¤":10146,"ìŀ¬ìķĻìķĦ":10147,"ĠìĪĺìĪĺ":10148,"Ġê°ľìĿ¸ìĿ´":10149,"ì¢Ģë¹Ħ":10150,"Ġë¹łë¥¸":10151,"ĠìĽĥê²¨":10152,"Ġì¶ľìĹ°":10153,"ĠìĿ´ëĤĺëĿ¼ë¥¼":10154,"ĠìķħíĶĮëŁ¬":10155,"ëĭ¨ê³Ħ":10156,"ĠìĤ¬ê³łê°Ģ":10157,"ĠìķĦëĬĶê²Į":10158,"Ġë¬¼ëŁ¬ëĤĺëĿ¼":10159,"ëĮĢê¸°":10160,"ĠìĨĮìĪĺ":10161,"ĠìķĦëĭĮê²ĥ":10162,"ĠëĤĺìĻĢëıĦ":10163,"ëŁ¿":10164,"ê²½ê¸°":10165,"Ġë°Ķìģľ":10166,"íĺ¹ìĭľ":10167,"Ġì±ħìŀĦìĿ´":10168,"ì§ĪíķĺëĬĶ":10169,"ĠìıĻ":10170,"³´ê³ł":10171,"Ġë³Ģíĥľ":10172,"ĠìķĪíĥĢê¹Į":10173,"ĠìĿ¼ìĸ´ëĤł":10174,"ìĨĮìĦľ":10175,"ĠìĥģìĭĿìĿ´":10176,"ĠëĤ¨ëĵ¤":10177,"ì¶Ķìĸ´":10178,"ĠìĿĺíĺ¹ìĿ´":10179,"Ġìŀ¡ìľ¼ë©´":10180,"ĠãħĤãĦ·":10181,"Ġìľ¤ì´Ŀìŀ¥":10182,"Ġìĭ±":10183,"Ġëª»ìŀ¡":10184,"ĠìĹ¬ëĭ¹ìĿ´":10185,"ëĤĺëĿ¼ìĹĲ":10186,"ìĿ´ìľłê°Ģ":10187,"Ġê·¸ê±¸ë¡ľ":10188,"Ġì§ĦìĪł":10189,"Ġì§Ģì¼ľìķ¼":10190,"ĠêµŃë¯¼ëıĦ":10191,"ĠëĮĢë¦¬":10192,"ĠìĨĮë¦¬íķĺëĦ¤":10193,"íĳľê°Ģ":10194,"Ġì¶Ķëª¨":10195,"Ġíİĺë¯¸ëĭĪ":10196,"ĠëĮķ":10197,"ì¡Įëĭ¤ê³ł":10198,"Ġëª°ëŀĲëĭ¤":10199,"ìĥĪëģ¼ëĵ¤ìĿĢ":10200,"Ġìłķì¹ĺìĿ¸ëĵ¤ìĿ´":10201,"ëĮĢì¶ľ":10202,"Ġíĳ¼":10203,"Ġë²ķìłģìľ¼ë¡ľ":10204,"ë¬¸ìłľìĿ¸":10205,"ãħĤãħħ":10206,"ĠìĿĢíıĲ":10207,"Ġëª»ëĤľ":10208,"ê³µíķŃ":10209,"Ġê°ĢëĬĶëį°":10210,"Ġì¹´ë©ĶëĿ¼":10211,"Ġìĺ¤ë°Ķ":10212,"ìłĢëĬĶ":10213,"ëįĶêµ°ìļĶ":10214,"ë¬¼ë¡ł":10215,"ìĥīìĿ´":10216,"ê´ĳíĻĶë¬¸":10217,"íĺľíĥĿ":10218,"ëĴ·":10219,"ìķĦìķ¼ì§Ģ":10220,"ĠìľłíĨµ":10221,"ìķłêµŃ":10222,"ë§ĿìĿ´":10223,"Ġë²Ħë¦¬":10224,"Ġì¶¤":10225,"ĠëĶ°ì§Ģë©´":10226,"ĠìķħëŀĦ":10227,"ì°¨ë¡ľ":10228,"ĠìĦ¸ê¸Īë§Į":10229,"Ġë¯¼ì£¼íĻĶìļ´ëıĻ":10230,"Ġëª¨ë¥´ë©´ìĦľ":10231,"Ġë¯¼ì£¼ëĭ¹ìĿĦ":10232,"ĠíĥĦíķµìĿ´":10233,"Ġê¶¤ë³Ģ":10234,"ĠìĹĨìŀĸìķĦ":10235,"ëĲĺìķ¼":10236,"Ġê³łë¬¸":10237,"ë³¸ëį°":10238,"ìĿ¸ìĺģ":10239,"Ġê³łê°ľ":10240,"ì¤ĳêµŃìĹĲ":10241,"ĠìĹĨìķłìķ¼":10242,"ëĭĪëĬĶ":10243,"ĠìŀĳìĦ±":10244,"ìĺģìĤ¼":10245,"Ġê³µìĿµ":10246,"ìĿĳìĽĲíķ©ëĭĪëĭ¤":10247,"Ġê¹ľë°©":10248,"Ġë°°ê°Ģ":10249,"Ġë¯¸êµŃìĿĦ":10250,"ĠìĨĶì§ģ":10251,"ê°ĢëĬĶê±°":10252,"ĠìĿ´ìŀĲ":10253,"ĠìĤ¬ê³¼íķĺê³ł":10254,"ìŀĲë§ĪìŀĲ":10255,"íıĲê¸°":10256,"Ġë§İìľ¼ëĭĪ":10257,"Ġì£½ìĹĪëĭ¤":10258,"ì°¬ëĭ¤":10259,"ĠìĪľì§Ħ":10260,"ìĤ¬ìļ©":10261,"ĠíĤ¤ìļ°ëĬĶ":10262,"ìŀĪëĬĶê±°":10263,"ĠíıīíĻĶë¥¼":10264,"íĳľì°½":10265,"ëĿł":10266,"ĠìĦľì´ĪëıĻ":10267,"ĠìĬ¤ë§ĪíĬ¸íı°":10268,"Ġëª«":10269,"ĠìĸĳìĤ°":10270,"Ġëĸ¨ê±°ì§Ģ":10271,"Ġê³łê°Ŀ":10272,"ĠìĦłìĸ¸":10273,"Ġê¼¬ëĿ¼ì§Ģê°Ģ":10274,"íĥĳ":10275,"Ġìĭľê¶ģì°½":10276,"Ġì£ĦìĿ¸ìĿ´":10277,"íİ¸ìĿ´":10278,"ìĿ´ìŀ¬ëªħ":10279,"íķĺê¸°ìłĦìĹĲ":10280,"ĠìĤ´íķ´":10281,"ìķĦìĿ´ê°Ģ":10282,"ë´ĲìĦľ":10283,"Ġë¬´ëį¤":10284,"íį¼ìĦ¼":10285,"ìļ±ìĿ´":10286,"ë²ĦëĬĶ":10287,"Ġë¶ģíķľìĹĲìĦľ":10288,"ĠìķĬì§Ģë§Į":10289,"íĿĳ":10290,"ë²Ħëł¤ëĿ¼":10291,"ê°ĲìĿ´ëĭ¤":10292,"ĠìĦ±ë³Ħ":10293,"ĠìłľìłķìĭłìĿ´":10294,"ëĶĶìĺ¤":10295,"Ġëĵ£ì§Ģ":10296,"ĠKBS":10297,"ìĿ¼ëķĮ":10298,"ĠìłķëıĦê»ı":10299,"ëł¸ìľ¼ë©´":10300,"ĠìĥĿëªħìĿĦ":10301,"ë¶Ħëĵ¤ìĿĢ":10302,"ĠëĤ´ìļ©ìĿ´":10303,"ĠíķľêµŃëĭ¹ìĿĢ":10304,"ëĭ¤ëĭĪê³ł":10305,"Ġìĸ¸ìłľê³ł":10306,"Ġëª©ìĪ¨ê±¸ê³ł":10307,"ëĵ¤ìĸ´ìĦľ":10308,"ë²Ķì£ĦìŀĲ":10309,"ĠìĤ¬íĥľë¥¼":10310,"ĠëįĶë¸Ķ":10311,"ë°ĺíķĺ":10312,"ĠìµľìĦłìĿĦ":10313,"ĠíĨµìĭł":10314,"14":10315,"ëĤ¬ëĬĶëį°":10316,"ë°°ìļ°":10317,"ĠìĽĥê²łëĭ¤":10318,"ëĿ¼ëĬĶëį°":10319,"ĠëıĪìĹĲ":10320,"ĠìĹĦë§Īê°Ģ":10321,"Ġê³µíĻĶ":10322,"ĠìĦ¸ê³Ħê°Ģ":10323,"ìľ¤ìĦĿëł¬":10324,"Ġê¶ģê¸ĪíķĺëĦ¤":10325,"ĠìİĦ":10326,"íĮĶìķĦ":10327,"ë§Ĳì¢ħ":10328,"Ġ503":10329,"Ġê³µìĨĮ":10330,"ìĨįëıĦë¡ľ":10331,"Ġëĭ¹ìĭłëıĦ":10332,"íķ´ì¤ĺìķ¼":10333,"~~^^":10334,"ëį°ëıĦ":10335,"Ġëª»íķĺëĦ¤":10336,"ì°¸ë":10337,"ĠíļĮëĭ´":10338,"ìĿ¼ëĭ¹":10339,"Ġìĺģìŀ¥":10340,"ĠêµŃë¬´":10341,"íĬ¸ë¡¤":10342,"Ġì¢ĭê²łëĦ¤":10343,"ĠíĸĪìĿĮ":10344,"Ġë¬´ëł¥":10345,"Ġë¬¸ìĸ´ë²Ļ":10346,"ĠìĤ¬ëŀĮëĵ¤ìĹĲê²Į":10347,"ë³´ë©°":10348,"Ġê³µì¤ĳ":10349,"ĠìĤ¬ëŀĳíķĺëĬĶ":10350,"ĠìĿ¸ë¯¼ìŀ¬íĮĲ":10351,"Ġëª¸ë":10352,"ìĿ¸ìĥģ":10353,"ĠìķĮë©´ìĦľëıĦ":10354,"íķĺê³łìŀĪëĭ¤":10355,"Ġê·¸ë§Įì¢Ģ":10356,"Ġìŀħë§ĽìĹĲ":10357,"ĠìŀħìĹĲìĦľ":10358,"Ġëª¨ë¥´ê²Į":10359,"Ġì¤ĦìĿ´ê³ł":10360,"ë°Ķê¾¸":10361,"Ġíģ¬ëĭ¤":10362,"ì¤¬ìľ¼ë©´":10363,"Ġê°ĻìķĦìĦľ":10364,"Ġìĭ¤íĸī":10365,"ĠìĿ´ë¦ĦìĿĦ":10366,"Ġìłķê·ľì§ģ":10367,"ê¸°ë³¸":10368,"ë°Ķëĭ¥ìľ¼ë¡ľ":10369,"íĹĪíĹĪ":10370,"ĠìľłíĪ¬ë¸Į":10371,"Ġìĺ¨ëĭ¤":10372,"ĠëĽ°ìĸ´":10373,"§ŀ":10374,"ê¸¸ìĿ´":10375,"ĠìķĮë°Ķëĵ¤":10376,"ĠìķĪëĲĺëĥĲ":10377,"Ġê¸¸ìĿ´":10378,"Ġì£¼ìłľ":10379,"Ġì¢ĭëĥĲ":10380,"ĠëģĿíĮĲ":10381,"Ġìĸµìļ¸íķľ":10382,"ħ¼":10383,"íĨµìłľ":10384,"ìĤ¬ìĿĺ":10385,"ìł¸ìķ¼ì§Ģ":10386,"ìļ°íķľíıĲëł´":10387,"Ġë¨¸ë":10388,"ľìĭľ":10389,"ê°ĢëĬĶê²Į":10390,"ë§ĮíķĺëĬĶ":10391,"Ġì¦Ī":10392,"Ġìļ°ê¸°":10393,"Ġìŀĺëª»ìĿĢ":10394,"Ġìĸ´ëĶĶëĭ¤":10395,"Ġìĺ³ê³ł":10396,"ĠìĤ¬ìŀ¬":10397,"ĠìĤ¬ìĥĿíĻľ":10398,"Ġë§İìĿĦ":10399,"Ġìĭľì¼ľìĦľ":10400,"Ġì§ĵìĿĢ":10401,"ĠìĦłê±°ëķĮ":10402,"ĠìĭľìĦ¤":10403,"Ġ2000":10404,"ĠìĽĥìĿĦ":10405,"Ġíİ¸íŀĪ":10406,"ĠëĴ·íĨµìĪĺ":10407,"Ġì¹´íİĺ":10408,"ìĤ´ìĿ¸ë":10409,"Ġë³´ëĤ¼":10410,"Ġë¬´ëĦĪëľ¨":10411,"ĠìĥĿê¸°ë©´":10412,"ëĭ´ë":10413,"ĠëĪĦêµ¬ëĬĶ":10414,"ëĦĪê°Ģ":10415,"ĠëıĮìķĦê°Ħëĭ¤":10416,"Ġê³µë²Ķ":10417,"ìĦ¸ëł¥ìĿ´":10418,"íķ´ë³¼":10419,"ĠìĥĿê°ģëĤĺëĦ¤":10420,"Ġë¯¸ì¹ľê±°":10421,"Ġìĸ¼êµ´ìĿ´":10422,"ðŁĳıðŁĳı":10423,"ëį°íĥĢ":10424,"ĠìĦłì§Ħ":10425,"ì¤įìĭľëĭ¤":10426,"ĠìĿ´ìłľìķ¼":10427,"ê²ĥëĥĲ":10428,"ĠìķĬìķĦìļĶ":10429,"Ġë³¸ìĿ¸ëĵ¤ìĿ´":10430,"ou":10431,"ëıĦíķľ":10432,"ĠëĲĺëĬĶê²Į":10433,"ëĩ¨":10434,"Ġê°ľëıĦ":10435,"ĠëĺĲëĿ¼":10436,"ì¹ľì¤ĳ":10437,"Ġëĵ±ìŀ¥":10438,"ĠìłĦìĦ¸ê³Ħê°Ģ":10439,"ëĤĺë´Ĳ":10440,"ĠìĹĨìķ":10441,"ĠìĦłë¬¼":10442,"ëĦĺëĵ¤ìĿ´":10443,"ĠëĤ¨ì¡°ìĦł":10444,"ĠíĸĪìĿĦê¹Į":10445,"ĠìĥĪíĢ´":10446,"Ġë²ĮìĿĦ":10447,"ìĥĿê°ģìĿ´":10448,"Ġíĩ´ì§ģ":10449,"ĠìŀĪëĭ¤ëĬĶê²Į":10450,"ĠìĿ¼ì°į":10451,"ìĻĢëĬĶ":10452,"ì§ĢëĬĶëį°":10453,"ëł¤êµ¬":10454,"íĹĮëĤł":10455,"ìłĦë¶ĢíĦ°":10456,"Ġê³µìĤ°ëĭ¹ìĿ´":10457,"Ġê¸Ģê³ł":10458,"ì·¨ìĨĮ":10459,"or":10460,"ë±ħ":10461,"ĠìľłìłĦ":10462,"Ġê²°ì½Ķ":10463,"Ġìħĭ":10464,"ë¬»ìĿĢ":10465,"Ġì§ĢìĿĢ":10466,"ëĮĪ":10467,"ìĸ´ëĦ£":10468,"Ġê³°":10469,"íķ´ë³´ì§Ģ":10470,"Ġê·¸ë¦ĩ":10471,"ĠìłĦíĻĺ":10472,"ëĵ¤íķĺê³ł":10473,"ĠíķľìĪ¨":10474,"Ġë¶Ģë¥ĺ":10475,"Ġë¶Ģì±Ħ":10476,"Ġìĺ¤ëŀľ":10477,"Ġëģ¼ë¦¬ëģ¼ë¦¬":10478,"ì£¼ìĹĲ":10479,"ĠìĨĲìĹĲ":10480,"Ġë¶Ģì¹¸":10481,"íķĺëĬĺ":10482,"ĠëĬł":10483,"ì£½ìĿ¼":10484,"Ġ[":10485,"ê¼¼":10486,"ëĦ£ê³ł":10487,"Ġìŀłìĭľ":10488,"ĠìĦ¸ìĽĶíĺ¸ë":10489,"Ġëĸµ":10490,"ìĭ¬ìĹĲ":10491,"Ġë§Īë¬´ë¦¬":10492,"ë²ķëıĦ":10493,"ê²ĥìŀħëĭĪëĭ¤":10494,"Ġê²½ìłľëıĦ":10495,"ĠíĮįíĮį":10496,"Ġìłķìĭłëª»ì°¨":10497,"ĠìĤ¬ìĿ´ì½Ķ":10498,"ĠìłĢì§ĪëŁ¬":10499,"ĠìķĮë©´":10500,"íĺ¸ê°Ģ":10501,"ĠëĶ°ëľ»":10502,"ĠìķĪëĲĲ":10503,"ĠíĥĢê²©":10504,"Ġ625":10505,"Ġê°Ģê¹ĮìĿ´":10506,"ĠëĪĪê°Ĳ":10507,"ë¬¸ìłľê°Ģ":10508,"Ġìķ¼ë¹Ħ":10509,"ìĤ¬íķľ":10510,"ìĭľë¦¬":10511,"ëĬĶì§ĢëıĦ":10512,"ê¶Įë¶Ħë¦½":10513,"ìĿ¸íĦ°":10514,"Ġìĸ¼êµ´ë":10515,"ê²ĮìļĶ":10516,"Ġëĵ±ìĿĦ":10517,"Ġë±ĥ":10518,"Ġë³´ëĥ":10519,"at":10520,"ĠìłĢëŁ´":10521,"ĠìĹ°ìĦ¤":10522,"ĠíķĺëĬĶê±°ëĭ¤":10523,"įĶëĭĪ":10524,"Ġìłľê¸°":10525,"ë¶Ħê°Ħ":10526,"ëł¥ìľ¼ë¡ľ":10527,"Ġìĭ«ìĸ´ìļĶ":10528,"Ġê³łë§ĪìĽĮ":10529,"ë¶ĢìĿ¸":10530,"ìĦ±íĸ¥":10531,"ĠìłĦìĪĺì¡°ìĤ¬":10532,"Ġë¬¸ìŀ¬ìĿ¸ëıĦ":10533,"ì£¼ëĿ¼":10534,"ìĸµìĿĦ":10535,"Ġìĸĺê¸°ë¥¼":10536,"ìłĦíĻĶ":10537,"ì§ĳìĿ´":10538,"íķľê±´ëį°":10539,"ê°ĪìĿ´":10540,"íĮĮëĬĶ":10541,"ìŀħìľ¼ë¡ľ":10542,"ĠìĥĿê°ģíķĺëĭĪ":10543,"Ġíķĺëįĺì§Ģ":10544,"ĠêµŃë¯¼ìĦ¸ê¸Īìľ¼ë¡ľ":10545,"ĠëĲĺëıĦ":10546,"ĠìķĪíĸĪ":10547,"Ġë»Ķë»Ķíķĺê²Į":10548,"ìĿįëĭĪëĭ¤":10549,"ĠìĤ¬íĩ´íķ´ëĿ¼":10550,"ĠìµľìłĢìĭľê¸ī":10551,"Ġë§Īëĭ¤":10552,"ĠìĦ¸ìĬµ":10553,"íŀĪë©´":10554,"Ġìį©ìĸ´ë¹łì§Ħ":10555,"ì£¼ëĤĺ":10556,"ĠìĹĨê²Į":10557,"HO":10558,"ìĿ´ëĬĶëį°":10559,"ê±´ëª¨":10560,"Ġë³´ëĤ´ìķ¼":10561,"ĠìłĦëĭ¬":10562,"ìĹĪìĿĦê¹Į":10563,"íĬ¸ëĿ¼":10564,"Ġê¸Ģë¡ľë²Į":10565,"ìłĦíĻĺ":10566,"ìĸ´ë´¤":10567,"ĠìŀĺìĤ¬ëĬĶ":10568,"Ġê°Ĳì¶Ķ":10569,"ĠíĮĶìķĦìĦľ":10570,"ĠìłĢëł´":10571,"Ġë§ĲìĿ´ëĲĺëĥĲ":10572,"Ġìį¨ìĦľ":10573,"íħĮëĭĪê¹Į":10574,"ĠíĸĪëįĶëĭĪ":10575,"ĠíĪŃ":10576,"ĠìķĪíĥĢê¹Įìļ´":10577,"Ġë°ĳìĹĲìĦľ":10578,"Ġê¸°ìĤ¬íĻĶ":10579,"íĺĲìĿĺ":10580,"ĠíıĦ":10581,"ëĤ´ê¸°":10582,"ëĮĢíķľë¯¼êµŃìĿĢ":10583,"Ġíķľê±¸ëłĪ":10584,"ì¹ĺìĹĲ":10585,"ìĨĲìĦĿíĿ¬":10586,"Ġíķ©ë¦¬ìłģ":10587,"ê¸°ìŀĲê°Ģ":10588,"íķłëķĲ":10589,"ì¹ĺëĬĶëį°":10590,"ìĨĮìĪĺ":10591,"ìĭ¤íĹĺ":10592,"Ġì¶ķêµ¬":10593,"ì¹ĺëĥĲ":10594,"Ġì£¼ëĳĶ":10595,"Ġê¹Ģì¢ħ":10596,"ĠëĮĵê¸Ģë¡ľ":10597,"ìĿ´ë§ĮíĿ¬":10598,"Ġê²ĥê³¼":10599,"ĠìĨĮìŀ¬":10600,"Ġì¤ĳìŀ¬":10601,"Ġë°ī":10602,"ìĦ¸ìĥģìĿ´":10603,"ì°¨ìĿ´":10604,"ë³´ëĿ¼ê³ł":10605,"Ġì¢ħíĬ¹":10606,"ĠìĥĿê²¼ëĭ¤":10607,"Ġìŀĺë¨¹ê³ł":10608,"ë¶ģíķľìĹĲ":10609,"ë¬¸ìŀ¬ìķĻìĿĢ":10610,"ìłľìĿ¼":10611,"ì°Ķ":10612,"ìĿ¸ìĿ´ëĿ¼ê³ł":10613,"ĠëĵľëĶĶìĸ´":10614,"ĠëŀĦ":10615,"Ġì²ŃìĻĢëĮĢëĬĶ":10616,"300":10617,"Ġíķľê²ĥ":10618,"ìĿ´ë©´ìĦľ":10619,"ìĭ«ìĸ´":10620,"ìķĦë¬´ë":10621,"Ġê°ĲìĪĺ":10622,"Ġ)":10623,"ìŁĪ":10624,"Ġê³µê¸°ìĹħ":10625,"Ġë°©ìľĦë¹Ħ":10626,"ĠëĤĺìĺ´":10627,"ĠìĽħ":10628,"Ġê°ĦìĦŃ":10629,"Ġëĸ¨ê³ł":10630,"ìĹħìŀĲëĵĿ":10631,"Ġê°ĢìĬ´ìĿ´":10632,"Ġëīĺ":10633,"ê±°ê¸°":10634,"Ġì¤ĳêµŃíķľíħĮ":10635,"ĠëıĦëį°ì²´":10636,"ìĽĢìĿ´":10637,"ë²¨":10638,"ĠëĲĺê²Į":10639,"ĠëĤ¨íİ¸ìĿ´":10640,"ĠìłķìĿĺëĬĶ":10641,"íķĺìĭľëĦ¤":10642,"Ġê°ĲëıĻ":10643,"Ġì±ħìŀĦì§Ī":10644,"Ġê²°ê³¼ë¥¼":10645,"ĠìħĢ":10646,"ìĹĨê²Į":10647,"Ġìĺ¤ë¦¬":10648,"ëĲłëĵ¯":10649,"Ġë¯¸ëŀĺëĬĶ":10650,"ĠìĪĻì²Ń":10651,"ë¦¬ìĬ¤":10652,"ë¬´ìĦŃ":10653,"ĠëĤĺëĿ¼ìĻĢ":10654,"Ġê²½ìłľìłģ":10655,"Ġì¹ĺíĤ¨":10656,"ë³Ħë¡ľ":10657,"Ġìļ´ëªħ":10658,"įķ":10659,"ĠìķłêµŃìŀĲ":10660,"ĠíķľëĮĢ":10661,"ĠìĿ¸ê°ĦëıĦ":10662,"Ġì¢ĮíĮĮìĿĺ":10663,"Ġëª©ìĿĦ":10664,"ê°ľíĳľ":10665,"Ġìĭ¤ì»·":10666,"ëĭµìĭľê³ł":10667,"ĠíļĮìĤ¬ê°Ģ":10668,"¬ìĺģ":10669,"ĠìķĪìĵ°ê³ł":10670,"ĠìŀĲëĿ¼":10671,"ĠìĤ¬ëŀĮíķľíħĮ":10672,"Ġì²łê±°":10673,"ë°ķê·¸ëĦ¤":10674,"Ġì¢ĮíĮĮëĵ¤ìĿĺ":10675,"ĠëĮĢì±ħìĿĦ":10676,"Ġì¤ĦìĦľ":10677,"ë¦¬ë¡ľ":10678,"Ġë§İì§Ģ":10679,"ì°¸ìľ¼ë¡ľ":10680,"Ġì«ĵìķĦ":10681,"ìĭĿìĿĢ":10682,"ê´ĢìĿĦ":10683,"Ġë½Ģ":10684,"ëĬĶê²ĥëĵ¤ìĿ´":10685,"íķłìĪĺëıĦ":10686,"ìĭĿìĿĺ":10687,"ĠìĥĿê°ģë§Į":10688,"Ġìĸ´ì§ľíĶ¼":10689,"íĸīìĤ¬":10690,"Ġê±´ëĦĪ":10691,"ëıĦìĹĨê³ł":10692,"ĠìĹ¬ê¸°ê°Ģ":10693,"ìķħíĶĮ":10694,"ê°Ģë¶Ģ":10695,"ëĤĺëĿ¼ìĹĲìĦľ":10696,"ìĦłíĥĿ":10697,"ëĤĺìĺ¤ëĦ¤":10698,"ëıĭ":10699,"Ġê°ľëı¼ì§Ģëĵ¤ìķĦ":10700,"Ġê·¸ëĵ¤":10701,"ĠìĤ¬íļĮë¥¼":10702,"ëıĦìĭľ":10703,"íķłìĪĺìŀĪëĬĶ":10704,"Ġì§ĢíĤ¤ëĬĶ":10705,"Ġíķłì§Ģ":10706,"Ġíķĺëł¤ëĬĶ":10707,"ĠìķĪë½ĳ":10708,"Ġëĵ¤ìĿĦ":10709,"Ġì§ĳíķ©":10710,"ê¸°ëıħêµĲ":10711,"ê³¼ìĹ°":10712,"ĠìĿ´ëŁ¬ê³ł":10713,"Ġëĺĳëĺĳíķľ":10714,"ê¸Īìľ¼ë¡ľ":10715,"Ġìĭ¬íķľ":10716,"ìŀĺíķľëĭ¤":10717,"ãĦ¹ãĦ±":10718,"ìŀĲëıĻ":10719,"ìĿ´ëŁ°ê²Į":10720,"Ġë³Ħê±°":10721,"ĠëĦ£ê³ł":10722,"ĠãħģãħĬ":10723,"Ġíıīìĸĳ":10724,"ĠêµŃë¡ł":10725,"ì¡°ëĬĶ":10726,"ìŀĦìĿ´":10727,"ë§¤íķľ":10728,"ĠìĻ¸ë¶Ģ":10729,"ëĤĮ":10730,"ëĵľëĤĺ":10731,"ëª¨ë¥´ê³ł":10732,"Ġë¶Ģìłķë¶ĢíĮ¨":10733,"ĠëĲĺëĭĪê¹Į":10734,"Ġì±Ļê¸°ëĬĶ":10735,"Ġë¯¸ìĽĮ":10736,"Ġë§ĪëĭĪ":10737,"ĠíĮĲìĤ¬ê°Ģ":10738,"Ġëª¨ë¥´ì§Ģë§Į":10739,"ĠëĵľëŁ½ê²Į":10740,"Ġì¶ľëıĻ":10741,"íķ´ì§Ģê³ł":10742,"Ġê³µíĨµ":10743,"Ġë¶Ħìĸĳ":10744,"Ġë¬¸íĨµìĿ´":10745,"Ġì§Ħìĭ¤ìĿĢ":10746,"ĠìķīíĺĢ":10747,"Ġê²½ìļ°ê°Ģ":10748,"Ġìĵ°ëĥĲ":10749,"Ġ2019":10750,"ì¹´ìĺ¤":10751,"Ġìļ©ê¸°":10752,"ëıł":10753,"Ġì£¼ì²´":10754,"ĠíĮ¨ìĬ¤":10755,"Ġë¹Ħìľ¨":10756,"ĠìĿ¸ê³µ":10757,"ìķĪíķĺëĬĶ":10758,"Ġì¡°ì¹´":10759,"íķ´ìķ¼ì£ł":10760,"ĠìĦľë¥ĺ":10761,"ĠìĪĺì¤ĢìĿĦ":10762,"Ġê¸°ìĹ¬":10763,"ìķĪë¬´":10764,"ĠìŀĪëĭ¤ëĭĪ":10765,"ĠëĤ©ëĵĿ":10766,"ê¸°ëķĮë¬¸ìĹĲ":10767,"Ġìłķê¶ĮìĹĲìĦľ":10768,"ë©´ëĲľëĭ¤":10769,"ìĿ¸êµ¬":10770,"Ġê¹Ģì§Ħíĥľ":10771,"Ġì¡°ìĤ¬ë¥¼":10772,"Ġì§ķê¸Ģì§ķê¸Ģ":10773,"ĠãħĤãĦ·ãħĤãĦ·":10774,"ĠëĮĢë²ķìĽĲ":10775,"ĠìķĪìĭ¬":10776,"ì°¸ëĤĺ":10777,"ĠëĤ´ëĿ¼":10778,"Ġëĭ¤íķĺê³ł":10779,"ĠêµĲë¬ĺ":10780,"Ġë°ĽìķĦìķ¼ì§Ģ":10781,"ĠìĪĺì¤Ģìľ¼ë¡ľ":10782,"Ġëĵ¤ìĸ´ìĺ¨":10783,"ë¬´ìĦ±":10784,"Ġë§ŀìĿĦ":10785,"ê¹Ģìĸ´ì¤Ģ":10786,"Ġê¹¨ëĭ¬":10787,"Ġìłķìĭłì°¨ë¦¬ê³ł":10788,",,,,,,,,":10789,"ĠìķĪëĿ½":10790,"ë¹¤":10791,"ĠëĲĺìĸ´ìĦľ":10792,"ĠìĿĢíĩ´":10793,"ê¹Ł":10794,"ëĮĢìĭł":10795,"ëªħì§Ħ":10796,"TBC":10797,"²Ķ":10798,"ê°Ļì§ĢëıĦ":10799,"ìĸ´ëľ¨":10800,"ãħ¡ãħ¡ãħ¡":10801,"ĠëĲĺìķ¼":10802,"ĠìĿ´ëŁ°ìĿ¼ìĿ´":10803,"ë¹łëĬĶ":10804,"Ġì±ĦëĦĲ":10805,"Ġìļ¸ëĤĺëĿ¼":10806,"Ġê°ľê³łìĥĿ":10807,"ĠíķĺìŀĲê³ł":10808,"ĠìłķíĻ©":10809,"ĠìĻĢìĿ´íĶĦ":10810,"ĠíĻĶìŀ¥ìĭ¤":10811,"ĠíķĺëįĶëĿ¼ëıĦ":10812,"Ġë§ĺì¶©":10813,"íķľìĿ¼":10814,"Ġì§ĢëĤ´":10815,"Ġ;":10816,"Ġê·¸ëŀ":10817,"Ġë³´ìĿ´ëĦ¤":10818,"ĠíĶ¼íķ´ë":10819,"Ġë¯¼ì£¼ëĭ¹ìĿĺ":10820,"ĠëĪĦêµ¬ëıĦ":10821,"ì§¸ë¡ľ":10822,"Ġê°Ģë¦¬":10823,"¦´ëķĮ":10824,"ëģ¼ê°Ģ":10825,"ĠëªħíĴĪ":10826,"Ġì´Ľë¶Īì§ĳíļĮ":10827,"Ġ150":10828,"ĠìĨĮì£¼":10829,"Ġì£ĦìĹĨëĬĶ":10830,"ìłĢê±´":10831,"Ġê³¡":10832,"Ġíķĺë£¨ìĹĲ":10833,"Ġì§Ģì§Ģíķĺê³ł":10834,"ìĽĥê¸°ëĦ¤":10835,"Ġìľłê³µ":10836,"ëł¥ëıĦ":10837,"ĠìĤ¬ê±´ìĿĢ":10838,"Ġë²Ļ":10839,"íŀĪì§Ģ":10840,"Ġë³ĢíĻĶ":10841,"Ġëª¨ë¥´ëĦ¤":10842,"ë£¡":10843,"ë²Īë°©":10844,"Ġë¯¿ìĿĮ":10845,"ĠìŀĳíĴĪ":10846,"°Ģ":10847,"ĠìŀĲëĵ¤":10848,"ëĵ¤ìĿ´ëĥĲ":10849,"Ġëĭ¹ìĿ´":10850,"ĠìĽĲë§Ŀ":10851,"ĠëĤ¨ìķĺ":10852,"ĠìĦłê±°ìĹĲìĦľ":10853,"Ġê°ĲìĹ¼ìŀĲ":10854,"ìĿ´ëĿ¼ëĬĶëį°":10855,"ìķĪíķĺëĥĲ":10856,"ĠìĭľëĤĺë¦¬ìĺ¤":10857,"ê±°ëĦ¤":10858,"Ġìŀłê¹Ĳ":10859,"ĠíĸĪìĸ´ìķ¼ì§Ģ":10860,"ĠíĭĢëĶ±ìĿ´":10861,"ðŁ¤£":10862,"ĠëģĮìĸ´ëĤ´ë¦¬":10863,"íļĮìĿĺ":10864,"ĠìĤ¬ëĿ¼ì§Ī":10865,"ĠìĪĺìĬµ":10866,"ĠìĥĪê¸°":10867,"Ġìĭ¶ëĥĲ":10868,"ĠëıĻìĭľìĹĲ":10869,"ĠìĦłëıĻíķĺëĬĶ":10870,"ĠëĦĪíĿ¬ëĬĶ":10871,"Ġì§ĢëĤĺë©´":10872,"Ġì§ĢìŀĲì²´":10873,"Ġì·¨ì§ģ":10874,"ĠêµŃë¯¼íĺĪ":10875,"Ġëĭ´ëĭ¹":10876,"ìłĦë¬¸":10877,"ĠìĿ´ìĥģíķĺê²Į":10878,"ĠìĪ¨ê²¨":10879,"ĠíķĻìĥĿëĵ¤ìĿ´":10880,"ĠíıĲìĹħ":10881,"Ġê·¸ëł¤":10882,"ëĭ¹ìĹĲìĦľ":10883,"ðŁı":10884,"ĠìĹŃìĤ¬ìĿĺ":10885,"Ġy":10886,"ë¦½ìĭľëĭ¤":10887,"Ġë§Īê·Ģ":10888,"Ġê°Ģê²©ìĿ´":10889,"Ġëĺĺë§ĪëĭĪ":10890,"Ġíķ´ì³Ĳë¨¹":10891,"ĠíĮ¨ìĬ¤íĬ¸íĬ¸ëŀĻ":10892,"ë¦¬ëĵ¤":10893,"ìĤ¬ìĺ¤":10894,"ì¡°ê¸°":10895,"ëĶ¸ë":10896,"íķŃìĥģ":10897,"ĠëĪĪë¬¼ìĿ´":10898,"ìķĪíķ´":10899,"Ġëĭ¤ë¥´ê²Į":10900,"Ġìĺ¬ëł¤ìĦľ":10901,"Ġëĸłìĺ¤":10902,"ĠëıĮìķĦìĺ¤":10903,"Ġìĸ´ì¨Į":10904,"ë¬´ê°Ģ":10905,"Ġìĸ¸íĶĮ":10906,"ìĥĿê°ģìĿĦ":10907,"ĠëĮĢê¸°":10908,"ĠìĿ¸ìĽĲ":10909,"ĠìĹŃìĤ¬ê°Ģ":10910,"ì¢ħìŀĲ":10911,"Ġìĭľê³Ħ":10912,"ëĳĺìĿ´":10913,"Ġìŀłìŀ¬":10914,"Ġê´Ģëł¨ëĲľ":10915,"ë©įì²Ńíķľ":10916,"ìļĶìĿ¼":10917,"íĤµ":10918,"ìŀĸìĿĢ":10919,"ĠìĽĮëĤĻ":10920,"Ġë°ĶëĢĲ":10921,"ĠìŀĲìľłê°Ģ":10922,"ìĿ¸íķ´":10923,"ìĤ¬ëĿ¼":10924,"ĠìĿ¼ë³¸ìĹĲê²Į":10925,"Ġëĭ¤ìĿĮìĿĢ":10926,"ì¤ĦëıĦ":10927,"ĠìĽĥëĬĶëĭ¤":10928,"ë§Įê°ľ":10929,"ĠìķĪë´ĲëıĦ":10930,"ìĦłìĹĲìĦľ":10931,"íĻįì½©":10932,"©ëĭĪê¹Į":10933,"ìķĦëĭĪìķ¼":10934,"ì£½ìĿ´ê³ł":10935,"īìŀ¥":10936,"ĠíķĺëĤĺëĿ¼ëıĦ":10937,"ĠëĤĺì¤ĳ":10938,"ìĿ¸ìĹĲê²Į":10939,"ĠëĿ¼ë©´":10940,"ëį´":10941,"íĺĦëĮĢ":10942,"Ġê°ĢëģĶ":10943,"Ġìłķì¹ĺíĮĲ":10944,"Ġê´ĳíĻĶë¬¸ìĹĲ":10945,"Ġìĭ«ì§Ģë§Į":10946,"Ġê³¨ë¡ľ":10947,"íĬ¹íŀĪ":10948,"ĠìķĦíĶĦë¦¬ì¹´":10949,"ìķĪìĹĲìĦľ":10950,"ĠìĦ±ìĹŃ":10951,"ĠìķĪëĤĺìĺ¨ëĭ¤":10952,"Ġë§Ĳê³¼":10953,"Ġê¸°ìŀĲìķ¼":10954,"ĠëĨĢëĿ¼":10955,"ĠìĿ´ëĶ°ìľĦ":10956,"Ġìłľìķķ":10957,"Ġê³µê°ľíķ´ëĿ¼":10958,"ê¸°ì°¨":10959,"ĠëķĮê¹Įì§Ģ":10960,"ëĭ¤ëĭĮ":10961,"ìĿ´ëŁ°ê±°":10962,"ìį©ìĿĢ":10963,"Ġìłľë¡ľ":10964,"ĠìĿ´ë²ĪìĹĲëĬĶ":10965,"ĠìĦ¸ê³ĦìĹĲìĦľ":10966,"ĠíķµìĿĦ":10967,"Ġë©¸ë§Ŀ":10968,"Ġì´Īëĵ±íķĻìĥĿ":10969,"ìĶ¨ëıĦ":10970,"Ġêµ½ìĭł":10971,"Ġìĵ°ëłĪê¸°ê°Ģ":10972,"íķłê±°ë©´":10973,"ì§Ħìłķíķľ":10974,"Ġë§ŀìĬµëĭĪëĭ¤":10975,"Ġëª©ìłģìĿ´":10976,"Ġíĥľìĸ´ëĤľ":10977,"ĠíĺĲíķľ":10978,"íīģ":10979,"ĩê³ł":10980,"Ġë¬»ê³ł":10981,"ĠëļĿ":10982,"¼ãħĭãħĭ":10983,"ĠìĤ´ë¦¼":10984,"ê³µëıĻ":10985,"ìĿ¸ëį°ìļĶ":10986,"ê°ĻìĿĢìĨĮë¦¬":10987,"ĠíĨłëĤĺìĺ¨ëĭ¤":10988,"Ġê·¸ê²ĥìĿĦ":10989,"ĠìķĦìĿ´ê³ł":10990,"ëł¤ëĭĪ":10991,"ì¡°ìļ©":10992,"ĠìłķëıĦê°Ģ":10993,"Ġì¤ĳêµŃëıĦ":10994,"Ġë§ĲíķĺëĬĶê±°":10995,"êµĲìĤ¬":10996,"Ġìłĳì´ī":10997,"ĠêµŃêµ°":10998,"ë¶ģíķľìĿĢ":10999,"52":11000,"ĠíıŃë¡ľ":11001,"Ġìłķì¹ĺê²Ģì°°":11002,"íķ¨ìĹĲ":11003,"ĠíķĺëĤĺìĶ©":11004,"ĠíĻķëĮĢ":11005,"Ġìĭ¤íĺĦ":11006,"ĠëıĻìĸĳëĮĢ":11007,"ĠìĿ¸ìĦ±ìĿ´":11008,"Ġêµ°ëĮĢê°Ģ":11009,"Ġì¦Ŀê±°ë¥¼":11010,"ìĸ¸ë¡łìĿ´":11011,"ìŃĪ":11012,"ĠìĿ´íĥĪë¦¬ìķĦ":11013,"Ġíķĺê²łëĭ¤ê³ł":11014,"ĠìĥĿì¡´":11015,"Ġê°ķìķĦì§Ģ":11016,"ĠìĻľì¼Ģ":11017,"ëĵ£ëĬĶ":11018,"ĠêµŃíļĮìĿĺìĽĲëĵ¤":11019,"ĠëĸłëĵľëĬĶ":11020,"ĠëĤ´ìĪĺ":11021,"ĠëĨĪëĵ¤ìķĦ":11022,"ë¯¼ì£¼íĻĶ":11023,"íķĺê²łì§Ģë§Į":11024,"íķĺì§ĢëĬĶ":11025,"ë°ķê·¼íĺľê°Ģ":11026,"ĠLG":11027,"Ġíķľê³Ħ":11028,"Ġë¹Ħë¦¬ë¥¼":11029,"ĠìĤ¬ì£¼":11030,"ëĺĲíķľ":11031,"Ġê±·ìĸ´":11032,"ĠìĿ´ê°Ħì§Ī":11033,"ê²½ìŁģ":11034,"ĠíľĺëĳĲ":11035,"ìĺĢëĭ¤ê³ł":11036,"Ġìłķìĭłëĵ¤":11037,"Ġì¢ħë¶ģì¢ĮíĮĮ":11038,"ĠìĹł":11039,"íĸĪìĸ´ìķ¼":11040,"ê²ĮìĿ´":11041,"ëĬĶê²ĥëĵ¤":11042,"ĠìĿĺì§Ģ":11043,"ĠìĦĿíĥĦ":11044,"íķĺëĭĪê¹Ĳ":11045,"TV":11046,"Ġë§īìĥģ":11047,"ĠíķľíĨµ":11048,"Ġê°ľê·¸":11049,"Ġë¶Īíĸī":11050,"ëķĢ":11051,"Ġìĭľë¯¼ëĵ¤":11052,"ëĦ¤ëĬĶ":11053,"ĠìĤ´íİ":11054,"ðŁĩ°":11055,"´ëł¤ê³ł":11056,"ĠëĤ¨ìŀĲëĵ¤ìĿ´":11057,"ìĥģìĿĺ":11058,"Ġìĭľê³¨":11059,"ĠíĸĪëĭ¤ë©´":11060,"Ġë°Ķë¥¸ë§Ĳ":11061,"..!":11062,"ëĦĺê²Į":11063,"Ġì¡°ê³µ":11064,"Ġë§Ĳíķ´ëĿ¼":11065,"ëĿ¼ìĹĺ":11066,"ìĤ¬ë§Ŀ":11067,"Ġë³´ëĬĶëį°":11068,"Ġì§Ģì§Ģë¥¼":11069,"ì°¬ìĦ±":11070,"ĠìłĢëŁ¬ê³ł":11071,"ĠìĨįìĿ´ê³ł":11072,"ĠíĸīëıĻìĿĢ":11073,"Ġì§ĳê°ĴìĿ´":11074,"ëªħìľ¼ë¡ľ":11075,"ĠëŃĲëĿ¼ëıĦ":11076,"ìĺģë°©ìĨ¡":11077,"Ġê¿Īê¾¸":11078,"Ġëª»íķĺëĤĺ":11079,"ë¶Īë§¤ìļ´ëıĻ":11080,"Ġë§º":11081,"ëĭ¹íķ´ìĦľ":11082,"Ġê°ľëĺ¥":11083,"ĠìłĦëĿ½":11084,"Ġê·¸ëĨĪìĿĺ":11085,"ìĸ´ëĤ¸":11086,"Ġê¸°ê°Ħ":11087,"ìĨĮë¦´":11088,"Ġíķ´ê³¨":11089,"Ġìĭłì¤ĳ":11090,"Ġë¦¬ìĸ¼":11091,"????????????????":11092,"Ġì£½ìĿĦëķĮê¹Įì§Ģ":11093,"ĠëĤļ":11094,"Ġë³´ìŀħëĭĪëĭ¤":11095,"Ġë´Ĳì£¼":11096,"Ġëħ¸ëıĻìŀĲ":11097,"ĠìķĬìĿĦê¹ĮìļĶ":11098,"ĠíĳľíĺĦìĿĺ":11099,"ĠëıĮë¦¬":11100,"Ġë¬´ëĮĢ":11101,"ĠëĬĲëĤĮìĿ´":11102,"Ġìłķê²½":11103,"êµ¬ë¥¼":11104,"Ġì¤ĳêµŃë°ľ":11105,"íĮ¨ê±°ë¦¬":11106,"ĠëĤ´ìļ©ìĿĦ":11107,"ê°ľë¡ľ":11108,"íİ¸ë":11109,"ìŀ¥ë©´":11110,"íķľìĭ¬íķĺëĭ¤":11111,"ĠíĨµíķ´ìĦľ":11112,"ìĿ´ìĦ±":11113,"ëŀĦê¹Įë´Ĳ":11114,"ĠìĿ´ëĵ¤ìĿ´":11115,"ìĭľëĦ¤ìļĶ":11116,"ëĲĺëıĦ":11117,"ðŁĩ°ðŁĩ":11118,"ĠìĺģìĽĲíķľ":11119,"ĠëįĶë¶Īìĸ´ë¯¼ì£¼ëĭ¹":11120,"ìĿ¼ê¹ĮìļĶ":11121,"Ġëħ¸ë§Ŀ":11122,"ëıĮëł¤":11123,"ëļľ":11124,"Ġìŀĺë§Į":11125,"ĠìłĢëŁ°ê±°":11126,"ìĿ´ëŁ´":11127,"ê±°ëĬĺ":11128,"ìķĪëĭ¤":11129,"ĠìĦ±ìĿ¸":11130,"ë³ĳìĿ´":11131,"ìĹĨìĸ´ìļĶ":11132,"ìĦ¤ë§Ī":11133,"ìħĭ":11134,"Ġê°ĢìĬ´ìĹĲ":11135,"Ġì§ĢìłĢë¶Ħ":11136,"Ġë¬¸ìŀ¬ìĿ¸ìłķë¶Ģ":11137,"Ġë³´ìĪĺìĿĺ":11138,"Ġìķ¡":11139,"Ġê³ĦìĹĦ":11140,"ĠìłķìĪĺê¸°":11141,"ĠìĿ´ìĻĦìļ©":11142,"ê·¸ë¡ľ":11143,"ìľĦìĿĺ":11144,"Ġì²ĺíĺķ":11145,"Ġì§ķê³Ħ":11146,"ìķĦê°Ģë¦¬":11147,"ĠìĿ´ë§Ĳ":11148,"ĠíĮĲìĹĲ":11149,"ĠëŃĺë¡ľ":11150,"Ġì²Ļê²°":11151,"íķłìĪĺê°Ģ":11152,"Ġì¤ĳêµŃìĤ°":11153,"Ġì²ľë§ī":11154,"ĠíĺľíĥĿìĿĦ":11155,"ĠìĹĨìľ¼ëĭĪê¹Į":11156,"Ġëª¨ìķĦìĦľ":11157,"Ġëĺ¥ë§Į":11158,"Ġëĭ«ê³ł":11159,"Ġíķĺê²łëĭ¤ëĬĶ":11160,"ì¾ħ":11161,"°°ìĥģ":11162,"ê¹ĥ":11163,"Ġíķľê²¨ëłĪ":11164,"Ġì¢ħìŀĲëĵ¤":11165,"ìĿ¸ì§ĢëĬĶ":11166,"ĠëĤ´ëł¤ìĻĢ":11167,"ĠëįĶëįĶìļ±":11168,"Ġì§ĢëŀĦìĿĦ":11169,"ĠëĤ´ëħĦìĹĲ":11170,"Ġë§Ĳíķĺì§Ģ":11171,"íķłê±¸":11172,"ìĿ¸ëĮĢ":11173,"ëĵľë¡ľ":11174,"Ġíı¬íĵ°ë¦¬ì¦ĺ":11175,"ĠìĹĺì§Ģ":11176,"Ġìĭłìĥģê³µê°ľ":11177,"ëĵ¤ê°ĳ":11178,"Ġê°ľìłķìĿĢ":11179,"ê·¸ëĮĢë¡ľ":11180,"ì²ŃëħĦ":11181,"ĠíĽ¼ìĨĲ":11182,"ĠìĹŃìĭľëĤĺ":11183,"ĠíķĺëĬĺìĿ´":11184,"ĠëĮĢê¹¨ë¬¸ëĵ¤ìĿĢ":11185,"ì¹ĺìķĬ":11186,"ĠìĥĿê¸¸":11187,"ĠëķĮë¦¬ê³ł":11188,"Ġë¶Ħìķ¼":11189,"Ġìĺ¬ë¦¬ì§Ģ":11190,"Ġìĺ¤ë¥¼":11191,"Ġëª¨ë¥¼ê¹Į":11192,"ĠíħĲëį°":11193,"ìį¨ìĦľ":11194,"¦¿":11195,"ĠìķķëıĦ":11196,"Ġëª¨ìŀĲëŀĢ":11197,"Ġ......":11198,"Ġìĺ¤ë¥´ê³ł":11199,"Ġë´Ĳìķ¼ì§Ģ":11200,"Ġì¦Ŀìĸ¸":11201,"ìłķìĭłìĿ´":11202,"Ġì¹´íĨ¡":11203,"ĠìĿ´íķ´ë¥¼":11204,"ëĳĲê¸°":11205,"Ġë³´ëĤĺ":11206,"ìĨĮìĦ¤":11207,"ĠìĿĺê²¬ìĿĦ":11208,"ĠìĦłìĥĿëĭĺ":11209,"ìľłíĬľë¸Į":11210,"ĠìķĮìĪĺ":11211,"Ġìłĳê·¼":11212,"ĠìķĪíĥĢê¹ĿëĦ¤ìļĶ":11213,"Ġ*":11214,"ëł¤ëĭ¤":11215,"ĠìĦ¤ëłĪ":11216,"ê·¸ê²ĥëıĦ":11217,"Ġëħ¸íĽĦ":11218,"ĠìĿ¼ìľ¼íĤ¨":11219,"íĮĮìĿ´":11220,"ĠìĹ¬ìŀĲë¥¼":11221,"Ġì³¤":11222,"ê°Ģìķ¼ì§Ģ":11223,"ëĬĶê±°ëŀĳ":11224,"ê·¼ë¬´":11225,"ĠíĶĦë¡ľê·¸ëŀ¨":11226,"ĠìĤ¬ìłĦíĪ¬íĳľ":11227,"ĠìĿĺíķĻ":11228,"ëĤĺë³´ëĭ¤":11229,"ĠíķĺëĿ¼ëĬĶ":11230,"ĠìĿ¼ë³¸ê°ĢìĦľ":11231,"íĺ¸êµ¬":11232,"Ġê³łìłķ":11233,"Ġëĭ¬ìķĦ":11234,"ĠìĨĲìłĪ":11235,"ĠëĮģ":11236,"ĠìĽĥê¸°ê³ł":11237,"ĠêµĲìľ¡ìĿĦ":11238,"ìĭľìĬ¤íħľ":11239,"ëĤĺëĿ¼ë¡ľ":11240,"ì²ľëªħ":11241,"ëĮĢë©´":11242,"ĠìĦ¸ë¹Ħ":11243,"ë°©ìĹŃ":11244,"Ġêµ¬ë³Ħ":11245,"ĠëĦĺìĿĢ":11246,"Ġìĵ°ëłĪê¸°ê°ĻìĿĢ":11247,"íĶ¼ìħľ":11248,"ĠíĻįìľĦë³ĳ":11249,"Ġê²ĥëĵ¤ìķĦ":11250,"ëĮĢëĭ¤":11251,"ë¹ĦíĮĲ":11252,"ë¬´ëĿ¼":11253,"ê°Ģíķ´":11254,"Ġë¹ħ":11255,"ìĿ¸ê°ĦìĿĢ":11256,"ìĿ´ëĶ´":11257,"ëıĮìĿ´":11258,"ìĬ¤ì¿¨":11259,"ìłĦíķľ":11260,"ëª»íķĺê²Į":11261,"Ġë¬¸ìłľì§Ģë§Į":11262,"ĠìłķìĿĢìĿ´ê°Ģ":11263,"ĠëĬĲê¼Ī":11264,"Ġìĵ¸ëª¨":11265,"ìĿĢíĸī":11266,"ë¦ī":11267,"Ġê°ľíĥĦ":11268,"ĠìĹīëļ±íķľ":11269,"ĠìķĪëĲľëĭ¤ëĬĶ":11270,"Ġì¸¡ê·¼":11271,"Ġëĵ¤ìĸ´ìĻĢìĦľ":11272,"Ġë²ķì¡°":11273,"ĠìĤ´ìķĦìĺ¨":11274,"ĠìĿ´ê²ĥëĵ¤ìķĦ":11275,"ĠìĤ¬íĳľ":11276,"ĠìĥĿê°ģíķĺëĤĺ":11277,"Ġìŀħë²ķ":11278,"Ġê±¸ë¦´":11279,"Ġë¹¤ìĬ¤":11280,"ĠíĻĶìĽ¨ìĿ´":11281,"íĹĽìĨĮë¦¬":11282,"Ġíŀĺìľ¼ë¡ľ":11283,"ìĭľíĤ¤ëĵ¤":11284,"Ġì§ģë¬´":11285,"om":11286,"ĠìľĦíķĺìĹ¬":11287,"Ġê±°ì§Ģê°ĻìĿĢ":11288,"ðŁİ":11289,"Ġì§ģê¶Į":11290,"ĠìĹĦì²ŃëĤĺê²Į":11291,"Ġëĭ¤íķ´":11292,"ì§Ħê²Į":11293,"íĨ¤":11294,"Ġë¬ĺ":11295,"Ġë¶ĢëŁ¬":11296,"ĠìĻľëĨĪ":11297,"ĠìĥĿê°ģìľ¼ë¡ľ":11298,"íĩ´ë":11299,"Ġìª¼ê°ľ":11300,"Ġìĭ¸ë":11301,"Ġìķłëĵ¤ëıĦ":11302,"ĠìķĦì§ģê¹Įì§Ģ":11303,"Ġë¹Įë¶Ļ":11304,"ëĦ¤ëĵ¤ìĿĢ":11305,"Ġìĺ¤ì¤Į":11306,"!~":11307,"ì§ĢìĿĢ":11308,"ĠìķĪì¢ĭìķĦ":11309,"ëħĢê°Ģ":11310,"ĠìŀĺëıĮìķĦ":11311,"ìķĪíķľëĭ¤":11312,"ë§¤ìĿ¼":11313,"ê·¸ëĭĪê¹Į":11314,"ĠìĿ¸ìĥĿìĿ´":11315,"ìļ°ìĻĢ":11316,"Ġìķłë¯¸":11317,"ë£Įë¥¼":11318,"ëĵ¯íķľ":11319,"NS":11320,"Ġìŀĺíķľëĭ¤ê³ł":11321,"ĠìĤ¬íļĮìķħ":11322,"ìĿ¸ì¦Ŀ":11323,"ĠêµŃíĨł":11324,"ĠìĥĿê°ģíķ´ëĿ¼":11325,"ĠìĤ´ìĪĺ":11326,"íĳľíĺĦ":11327,"ĠìµľíĽĦ":11328,"Ġëĭ¹ìĭłëĵ¤ìĿĢ":11329,"ĠëģĿíĮĲìĻķ":11330,"Ġëª¨ê°Ģì§Ģ":11331,"Ġìĺģìŀħ":11332,"Ġê¸°ìļ¸":11333,"ĠëĴ¤ì§Ī":11334,"ĠìĦłëıĻíķĺê³ł":11335,"ëıĦìĹĲ":11336,"ĠëĤ´ë¦°":11337,"Ġãħ¡ãħ¡ãħ¡":11338,"ëĲĲëĦ¤":11339,"ëłĮ":11340,"Ġìĸ´ì©ĮëĥĲ":11341,"ãĦ±ãĦ±":11342,"ĠëĤĺëª°ëĿ¼ëĿ¼":11343,"íĺ¸ë¡ľ":11344,"Ġíķľë°©ìĹĲ":11345,"Ġì»´íĵ¨íĦ°":11346,"ĠìĦ±íĸ¥":11347,"Ġê³Ħì¢Į":11348,"Ġê²ĮìĿ´":11349,"íĨµìĿĢ":11350,"Ġì§ģìĽĲëĵ¤":11351,"ĠëĥĦë¹Ħ":11352,"ìĦ±íĻĶ":11353,"Ġìŀħì¦Ŀ":11354,"Ġê´ĢìĹ¬":11355,"ìķħì§Ī":11356,"Ġë½ĳìķĦìĦľ":11357,"Ġì£½ìĹ¬ìķ¼":11358,"Ġíİĳíİĳ":11359,"ì§ĢëĿ¼":11360,"Ġìļ°ìĿµ":11361,"Ġë§Ĳì¢ħ":11362,"ĠìĿ´ëłĩê²Įê¹Įì§Ģ":11363,"ĠíıīíĻĶê°Ģ":11364,"ĠìĦ¸ê¸ĪëıĦ":11365,"êµŃê°ĢìĹĲìĦľ":11366,"Ġê²½ì°°ìĿĢ":11367,"Ġê±±ìłķìĿ´ëĭ¤":11368,"ĠíķĺëĬĶê±°ëĥĲ":11369,"ë§Įíķĺëĭ¤":11370,"Ġê°ľìĨĮë¦¬ë¥¼":11371,"Ġíķĺìĭľê¸¸":11372,"ëĭ¤ë©°":11373,"Ġì¢ĭê²łìĸ´ìļĶ":11374,"Ġìĺģêµ¬":11375,"ê¸°ë¡Ŀ":11376,"Ġë°Ķê¿Ģ":11377,"ĠëĬ¦ê²Į":11378,"ĠìĿĺì¡´":11379,"Ġê¸°ìĤ¬ëĿ¼ê³ł":11380,"Ġê¼´ë³´ê¸°":11381,"ìŀ¬ìĿ¸":11382,"ëĲľëĭ¤ëĬĶ":11383,"ĠìŀĦìĺģìĽħ":11384,"Ġìĭľê°ĦìĿĦ":11385,"ĠëĦĺìĸ´ìĦľ":11386,"ìĭ¤ìŀ¥":11387,"Ġìĭłì²ľì§ĢëĬĶ":11388,"ĠìŀĲìĤ°":11389,"ê²½ìĿĦ":11390,"ëĭ¬ëĿ¼ëĬĶ":11391,"ìħ¨ëĤĺ":11392,"Ġì½©ë°¥":11393,"ĠëĤĦ":11394,"Ġë¬¸ìłľëĥĲ":11395,"Ġë©ĭëĮĢë¡ľ":11396,"ëįĶëĿ¼ê³ł":11397,"Ġìĥīê¹Ķ":11398,"Ġì©Į":11399,"ê¸°ëĥĲ":11400,"ë°ĽìķĦëĿ¼":11401,"Ġì°¨ë¦¬ê³ł":11402,"Ġì¡´ë":11403,"ĠêµŃíļĮìĹĲ":11404,"ĠëĤĺìĻĢìķ¼":11405,"ê³łìŀĪëĬĶ":11406,"ĠìĻľìĿ´ëłĩê²Į":11407,"Ġë°°ìĽĮ":11408,"ê°ĢìĹĲ":11409,"ĠìŀĪëįĺëį°":11410,"Ġì§ĦëıĻ":11411,"ìĭľíĤ¤ì§Ģ":11412,"°ľ":11413,"ìĪĺìŀħ":11414,"ë²ķìĹĲ":11415,"ê¹½":11416,"ĠìĻ¸ëª¨":11417,"ĠìĦłìłĦìĦłëıĻ":11418,"ë¤Ħ":11419,"ìĸ´ì£¼ê³ł":11420,"Ġê¹¨ìĸ´":11421,"ëĮĢíķľë¯¼êµŃìĿĺ":11422,"ĠìĿ¼ë°ĺìĿ¸":11423,"ê°ľëıĦ":11424,"ĠëŃĶì§ĢëıĦ":11425,"ìª½ìĿĢ":11426,"ëĬĶê²ĥìĿĦ":11427,"Ġìį©ìĸ´":11428,"ëĤĺìĻĢìĦľ":11429,"Ġìłģê²Į":11430,"Ġì§ĳëĭ¨ìĿ´":11431,"ĠìĦľìļ¸ìĭľ":11432,"Ġëī´":11433,"Ġíķ´ì¤ĺìķ¼":11434,"ìľĦìĽĲíļĮ":11435,"ĠìĤ¬ëŀĮìĿ¸ëį°":11436,"ì¼ĢìĿ´":11437,"ê°ķìĤ°":11438,"ê´ĳê³ł":11439,"ª°":11440,"ëħĦë§Į":11441,"ĠíĥĢëĭ¤":11442,"ĠìĿ´ê²ĥëĵ¤ìĿ´":11443,"ëĵ¤ìĹĲê²ĮëĬĶ":11444,"íķ´ëĭ¬ëĿ¼ê³ł":11445,"ìķĺì§Ģ":11446,"Ġìłķë¶ĢëıĦ":11447,"Ġê°ķì¡°":11448,"ìĬ¹ì¤Ģ":11449,"Ġìķ½êµŃ":11450,"ëª°ëĿ¼":11451,"ĠëĲĺê¸¸":11452,"Ġë°Ľìľ¼":11453,"ĠìĹ°íıī":11454,"ĠìĹ¬ë¦Ħ":11455,"Ġë§Įëĵ¤ìĸ´ëĨĵê³ł":11456,"Ġìľłíĸī":11457,"ë¨¸ë¦¬ê°Ģ":11458,"Ġê°ķìĹ°":11459,"ê¹ĢëĮĢì¤ĳ":11460,"ëĭ¤ëĭĲ":11461,"ëĤĺìĺ¤ë©´":11462,"ĠëıĻìĽĲíķ´ìĦľ":11463,"Ġë£":11464,"Ġëĸłëĵ¤ê³ł":11465,"ĠìĤ¬ë²ķê°ľíĺģ":11466,"íķĺìĭŃëĭĪëĭ¤":11467,"ìľĦìĹĲìĦľ":11468,"ĠëĶ°ë¥¸":11469,"Ġë¿":11470,"Ġê¸°íĥĢ":11471,"ĠíĻľìļ©":11472,"ë§ĪëĤĺ":11473,"ĠìĻĦìĦ±":11474,"íķ´ë³´ê³ł":11475,"Ġíķĺìĭ¤":11476,"ê±´ëĦĪ":11477,"Ġëħ¼ë¦¬ê°Ģ":11478,"Ġì£Ħê°Ĵ":11479,"ìŀĶì¹ĺ":11480,"ìĿ´íķĺ":11481,"ìķĦìĿ´ëĵ¤":11482,"ëĭ¹íķł":11483,"Ġê³¨ëĿ¼":11484,"ĠìŀĳìĤ´ë":11485,"Ġë°ĿíŀĪê³ł":11486,"ìĿ¼ìľ¼":11487,"Ġë¯¿ëĬĶëĭ¤":11488,"ìĿĺë¯¸":11489,"ĠìĦ¤ì³Ĳ":11490,"Ġë¹ĦìķĦ":11491,"ĠêµŃìłķìĽĲ":11492,"ëĭ¨íŀĪ":11493,"Ġê³łê¸ī":11494,"íĿ¬ë¡±":11495,"ìª½íĮĶ":11496,"Ġê¶Įëł¥ìĿ´":11497,"Ġëħ¸ë²¨":11498,"ìĹİ":11499,"ìĬ¤ëŁ½ëĦ¤":11500,"Ġê°ľíĺģìĿ´":11501,"ĠíĺĦìĭ¤ìĿ´ëĭ¤":11502,"Ġkbs":11503,"Ġê²ĥìĿ¸ì§Ģ":11504,"ĠíĦ¸ìĸ´ìĦľ":11505,"(?)":11506,"ë¡ľëĭ¹":11507,"íķ¨ê»ĺ":11508,"ìĺ¤ê²Į":11509,"ĠìµľìĦł":11510,"íĬ¹ê²Ģ":11511,"ĠìŃĪ":11512,"Ġê·¸ë§Ĳ":11513,"ĠìŀĲìĭĿìĿĢ":11514,"ë§İëĭ¤":11515,"ĠíĹĮê¸Ī":11516,"ìĨĮëĬĶ":11517,"ĠíĥĿë°°":11518,"ĠìĤ¬ëª¨íİĢëĵľ":11519,"ĠíķĺëĬĶê±´ì§Ģ":11520,"Ġê·¸ëıĪ":11521,"ê°ķëĭ¤ëĭĪìĹĺ":11522,"Ġìłķìĭłì°¨ë¦¬":11523,"ĠìĪĺì¤ĢìĿ´ëĭ¤":11524,"Ġì¤ĳëıħ":11525,"Ġê³łìĤ¬":11526,"Ġìļ°ë¦¬ìĹĲê²Į":11527,"Ġë½ĳëĬĶ":11528,"Ġíĺ¸ëıĦ":11529,"íĺ¸ìĭĿ":11530,"Ġê·¸ëłĩëĭ¤ë©´":11531,"ĠìłģíĻĶíĨµìĿ¼":11532,"ĠìķĪíķĺì§Ģ":11533,"ëįĶëĿ¼êµ¬ìļĶ":11534,"íļĮìŀ¥":11535,"ì§Īë§Į":11536,"Ġê·¸ë¦¬ëıĦ":11537,"ë¶ĢìłķìĦłê±°":11538,"Ġë¯¿ìĿĮìĿ´":11539,"Ġë²Ħë¦¬ëĬĶ":11540,"ĠìķĦë²łëĬĶ":11541,"ĠìĽĶìĦ¸":11542,"ĠìĶĮìļ°":11543,"ì²łìĪĺê°Ģ":11544,"Ġëĭ¤íĸīìĿ´ëĭ¤":11545,"ì¤ĳìķĻìĿ¼ë³´":11546,"Ġìĺ¬ë¦¬ë©´":11547,"ì£¼ëĬĶê²Į":11548,"ĠìĨĮë¦¬ë§Į":11549,"ëĤĺìĺ¤ëĬĶ":11550,"ĠìĹĳ":11551,"ĠìĿ¸ìłķíķĺëĬĶ":11552,"Ġë§ĽìĿ´":11553,"Ġê±°ê¾¸ë¡ľ":11554,"ĠëıĦì¿Ħ":11555,"íĮĲëĭ¨":11556,"Ġë°ĺìĦ±íķĺê³ł":11557,"ëŃĶê°Ģ":11558,"ìĻĵ":11559,"Ġ5000":11560,"íķľë²ĪëıĦ":11561,"ĠìķĪíĨµ":11562,"Ġë°°ë¶Ģ":11563,"ĠìķĪíķĺëĤĺ":11564,"íı´":11565,"ĠìķĬëĬĶëį°":11566,"Ġìŀ¥ìłľìĽĲ":11567,"ë²Ħëł¤ìķ¼":11568,"ĠìŀĦìĭł":11569,"Ġì§Ģë¡¤":11570,"ê²łê³ł":11571,"²Ħëł¤":11572,"Ġì²Ńíĥģ":11573,"Ġìĥīì¶ľ":11574,"ĠìĿ´ìłķë¶Ģ":11575,"ĠìĥĪëģ¼ëĬĶ":11576,"Ġì°¸ê³łë¡ľ":11577,"Ġë¬¸ìŀĲ":11578,"ĠíĮĲìĿĦ":11579,"ĠìĥĪëģ¼ëĵ¤ìķĦ":11580,"ìĥĪíĢ´":11581,"Ġê±´ê°ĢìļĶ":11582,"Ġìĸ´ëĶĶê°Ģ":11583,"ëŀĸ":11584,"ì°¨ìĹĲ":11585,"Ġìļ´ìłĦìŀĲ":11586,"Ġê°ĩ":11587,"Ġëĭ¹íķł":11588,"ì¤Ģê±°":11589,"ìĻľëŀĢ":11590,"ĠìĪĺëĬ¥":11591,"êµŃìĿ¸":11592,"ë³´ê°Ģ":11593,"ê²ĥìŀĦ":11594,"ĠìŀħìĿĢ":11595,"Ġì¤Ħìĸ´ëĵ¤":11596,"Ġìŀ¡ìĿĢ":11597,"Ġê³¼ê±°ìĹĲ":11598,"ĠëĲłê²ĥìĿ´ëĭ¤":11599,"Ġë°ĺìĦ±íķ´ëĿ¼":11600,"ëĮĢíĻĶ":11601,"Ġìłķì¹ĺê¾¼":11602,"ĠìķĪë§ī":11603,"ê°ľíĮĲ":11604,"ĠìĹ¬ìŀĲëĵ¤ìĿĢ":11605,"ë¶Ģë¶Ģ":11606,"ëĬ¥ëł¥ìĿ´":11607,"Ġë³´ìŀĦ":11608,"ë³µì§Ģ":11609,"Ġê°ĳìĭľëĭ¤":11610,"ìĹł":11611,"ë¬´ìŀ¥":11612,"ĠíļĮìĿĺ":11613,"ëį©ìĿ´":11614,"ê³łì§ĳ":11615,"ëħ¸ë¬´":11616,"ĠëģĪ":11617,"ĠëĮĵê¸Ģëĭ¬":11618,"ĠìĨįìķĦ":11619,"ê°Ģìŀ¥":11620,"ĠìĿ´ëħĦ":11621,"Ġë¯¼ìĭ¬ìĿĦ":11622,"Ġìĭ¸ê³ł":11623,"Ġë¬´ìĹĩìĿ¸ì§Ģ":11624,"Ġëª¨ìĪľ":11625,"ì§ĪìĿ´ëĤĺ":11626,"ĠëĤľë¯¼":11627,"Ġëªĩëªĩ":11628,"Ġìĸ´ëłµê²Į":11629,"ê½Ī":11630,"ìĿ´ëįĺ":11631,"íķ©ìĿĺ":11632,"Ġëĵłëĵł":11633,"ĪĪ":11634,"Ġìĵ´ëĭ¤":11635,"~~!":11636,"Ġë¹Ħìłķê·ľì§ģ":11637,"ĠìłĢìłķëıĦ":11638,"ëĤĺëĿ¼ëĬĶ":11639,"Ġë°ķì¥Ĳ":11640,"ĠíļĮìŀ¥":11641,"Ġëĸ¨ìĸ´ì§Ģê³ł":11642,"Ġëħ¸ëŀĢ":11643,"Ġë²ķëıĦ":11644,"ĠíĮĮìĿ´íĮħ":11645,"Ġvs":11646,"ì§Īíķĺê³ł":11647,"ĠìĭłìĨį":11648,"Ġê¹ĢìĽĲë´ī":11649,"ĠìļķëıĦ":11650,"ĠìĦ¸ìĥģìĹĲìĦľ":11651,"ĠìĩĦ":11652,"ê¸°ìĤ¬ê°Ģ":11653,"ĠëĤĺë¥¼":11654,"ĠëįĶëŁ¬ìĽĮ":11655,"ĠíķĦìĪĺ":11656,"ĠìŀĲìĭĿëĵ¤ìĿ´":11657,"Ġê¸°ìŀĲëĭĺ":11658,"st":11659,"ë¬´ìĥĪ":11660,"Ġë§Ĳíķľë§ĪëĶĶ":11661,"ìĸ´ë©´":11662,"íķłë°°":11663,"ë¦°ê±°":11664,"Ġì¡°ìĶ¨":11665,"Ġìĭ¸ìļ°ê³ł":11666,"íķĻê·ľ":11667,"ì»´":11668,"ëĵ¤ìŀĦ":11669,"Ġê³łìĿĺ":11670,"Ġê·¸ëŁ¬ëĬĶ":11671,"ìĦ¤ì¹ĺ":11672,"ë©´ìłľ":11673,"Ġìµľì¢ħ":11674,"ĠìĨĲëĭĺ":11675,"ĠìŀĲíķľëĭ¹ê³¼":11676,"ëĮģ":11677,"âĸ":11678,"ĠëĤĺìĿĺ":11679,"Ġë§İìľ¼ë©´":11680,"ĠìŀĲìĭĿìĿĦ":11681,"Ġë§Įëĵ¤ìĹĪ":11682,"ìĹ¬ë¡łì¡°ìĤ¬":11683,"ëįķìĹĲ":11684,"Ġìŀ¬ìłķ":11685,"Ġë°°ìĽĮëĿ¼":11686,"Ġê¼¬ë°ķ":11687,"ĠíķĺëĤĺíķĺëĤĺ":11688,"Ġì±ĻíĶ¼":11689,"ìĸĺëĬĶ":11690,"~~!!!":11691,"ĠìĥĿê°ģìĹĨìĿ´":11692,"Ġì¹ĺì¡¸":11693,"ĠìĿ´ëĬĶ":11694,"Ġê°ľë°ķ":11695,"Ġë¸ħ":11696,"ë¬¸ìŀ¬ìĿ¸ê³¼":11697,"Ġì³Ĳë°ķ":11698,"Ġì±ĦìĽĮ":11699,"Ġì§Ģê²¨":11700,"ì¤ĳìĿĺ":11701,"Ġìĸ¸ë¡łìĹĲìĦľ":11702,"ìķĦëĭĮê°ĢìļĶ":11703,"Ġíıīë²Ķíķľ":11704,"Ġíķĺê²łëĦ¤":11705,"ê°ĻìĿĢê±°":11706,"Ġë¯¸êµŃìľ¼ë¡ľ":11707,"Ġëħ¸ëĬĶ":11708,"Ġëħ¸ìĿ¸ëĵ¤":11709,"Ġì¢ĥêµŃ":11710,"ĠìķĦê¹Įìļ´":11711,"ĠëĶ°ê¹Įë¦¬":11712,"Ġêµ°ë¦¼":11713,"ìĿ¸ê±°ìķ¼":11714,"Ġê¼¬ë´ī":11715,"ë¸Ķë¦¿":11716,"Ġì°¢ìĸ´":11717,"Ġê²ĥìĿ¸ëį°":11718,"Ġì¡°êµŃëĶ¸":11719,"ìĨĮë¦¬ê°Ģ":11720,"ë¶Īê°Ģ":11721,"ĠëĲĺëĬĶê±°ì§Ģ":11722,"ĠìĿĺìĭ¬ìĿ´":11723,"ĠíĤ¹":11724,"ë²Ļ":11725,"Ġë¶Ģë¥¼":11726,"Ġìĭ¤ìĹħìŀĲ":11727,"Ġë°°ë¶Ī":11728,"ĠìłķëıĦìĿĺ":11729,"Ġëº¨":11730,"Ġì²ľë²ĮìĿĦ":11731,"Ġê³¨íĶĦ":11732,"Ġê³łìľłìłķ":11733,"ëĭ¹ëıĦ":11734,"Ġì³Ĳë§ŀ":11735,"ĠìĺĪë°©":11736,"ĠëģĿëĤ´":11737,"Ġìķ¼ëıĻ":11738,"Ġìĥģê´ĢìĹĨìĿ´":11739,"ĠíĬĢìĸ´ëĤĺ":11740,"íķĻìĽĲ":11741,"íķĺìĭľë©´":11742,"ĠìĿ´ìļ©íķ´ë¨¹":11743,"Ġì°¸ëª¨":11744,"íĸĪìŀĸìķĦ":11745,"Ġë¹Ħìľł":11746,"Ġê°ľìĦ±ê³µëĭ¨":11747,"ìĿĺìĽĲëĭĺ":11748,"Ġëħ¼ë¦¬ë¡ľ":11749,"Ġì¡´ê²½íķ©ëĭĪëĭ¤":11750,"Ġê¸°ê³Ħ":11751,"Ġëª»ìĤ¬":11752,"ìĺ¤ëĭĪ":11753,"ë¦¬íĬ¸":11754,"ĠëĮĢìĥģìĿ´":11755,"ĠíĻķìłķ":11756,"mf":11757,"ëŃĲìķ¼":11758,"ĠëĪĮëŁ¬":11759,"ĠëĪĦêµ¬íķľíħĮ":11760,"ĠìŀĲë¦¬ìĹĲìĦľ":11761,"Ġì©Ŀì©ĿìĿ´":11762,"§¥":11763,"Ġë¹Ħì°¸":11764,"Ġìĭłë¢°ê°Ģ":11765,"ĠìľłëıĦ":11766,"ê°Ģì¡±ìĿ´":11767,"ĠìķŀìĦľ":11768,"ìĸ´ë³¸":11769,"Ġìļ°ìļ¸":11770,"ê²½ìĿĢ":11771,"íķ´ë³´ìŀĲ":11772,"Ġíķĺë£¨ì¢ħìĿ¼":11773,"ĠíĺĦëªħ":11774,"ìĿ¼ë³¸ìĹĲ":11775,"ê³łëĵ±":11776,"ĠìłĦì²´ê°Ģ":11777,"íĤ´":11778,"Ġë²Ħíħ¨":11779,"ĠìŀĪìĹĪìľ¼ë©´":11780,"Ġë³´ìĹ¬ì£¼ê¸°":11781,"ê°Ģë³´ëĦ¤":11782,"ìĤ¬ìľł":11783,"ĠíķľêµŃìĿ¸ëĵ¤":11784,"Ġì¹ĺë°Ģ":11785,"íķ´ì¤ĺ":11786,"Ġê°Ģìĭľ":11787,"Ġì£¼ìļĶ":11788,"ìŀ¥ìķħ":11789,"ĠìĤ¬ëŀĮìĿ´ëĥĲ":11790,"ëĮĢë¹Ħ":11791,"ëį°ê¸°":11792,"ĠìŀĪê²łì§Ģë§Į":11793,"ìĺ¤ëŀĺ":11794,"Ġë§İëĭ¤ê³ł":11795,"ëĪĶ":11796,"íķĺëĥĲê³ł":11797,"Ġë²Ħë¦ĩ":11798,"ĠìĿ¸ê¶ĮìĿĦ":11799,"ĠìĿĢê·¼":11800,"Ġê°ľìĨĮë¦¬ìķ¼":11801,"ëĥī":11802,"ĠíĸĪìĸ´ìķ¼":11803,"ĠìķķìĪĺ":11804,"Ġì¶ķìĨĮ":11805,"ĠíĹĪìľĦìĤ¬ìĭ¤":11806,"ĠìķĦëĭĪê²łì§Ģ":11807,"ĠìĹĨëĭ¤ë©´":11808,"íķĺê¸°ë¥¼":11809,"ĠëĤĺìģľëĨĪ":11810,"Ġë¹Įëł¤":11811,"Ġíķĺëĭ¤íķĺëĭ¤":11812,"Ġíķ´ë´Ĳìķ¼":11813,"ëĤĺì¤ĳìĹĲ":11814,"ĠìĨĮëıħ":11815,"Ġë¶ĢìĹī":11816,"ëħĦìłĦìĹĲ":11817,"ì±Ħë¡ľ":11818,"Ġë°ĶëĢĶ":11819,"íĸĪìĿĦëķĮ":11820,"Ġì°¨ë¡Ģ":11821,"íıīê°Ģ":11822,"ì§ĢìķĬìķĦ":11823,"Ġë©´íĹĪ":11824,"Ġë°Ķê¿Ķìķ¼":11825,"íķłìĿ¼":11826,"íķ¨ìĿĢ":11827,"ìŀĸëĥĲ":11828,"íı¬ì¸ł":11829,"ĠY":11830,"ĠìĦľìļ¸ìĭľìŀ¥":11831,"ë´¤ëĬĶëį°":11832,"ë§ĲìķĦ":11833,"ĠìĦľë¯¼ëĵ¤ìĿĢ":11834,"ĠìķĦëĭĲê¹ĮìļĶ":11835,"ìĭľë¯¼ëĵ¤":11836,"Ġì¶Ķíķĺëĭ¤":11837,"ìĺĢëĥĲ":11838,"ìłĦê´ĳíĽĪ":11839,"Ġì°¨ëł¤":11840,"Ġíķĺì§ĢëıĦ":11841,"Ġëģ¼ê³ł":11842,"ĠìĪľìĭ¤ìĿ´":11843,"íķĺëĭ¤ë©´":11844,"ëĲłê¹Į":11845,"Ġëįĺìł¸":11846,"Ġì¾":11847,"ì±ħìĿĦ":11848,"Ġíĺ¸ìĨĮ":11849,"Ġíķľë¯¼ì¡±":11850,"Ġì¢ħë¡ľ":11851,"ĠëĤ´íİ¸":11852,"Ġë°ķìĤ¬ëª¨":11853,"ìĿ´ê²ĥìĿ´":11854,"ì£¼ìĭĿ":11855,"ëĤ¬ëĭ¤ê³ł":11856,"Ġì¶ľìŀħ":11857,"íķľë§ĪëĶĶë¡ľ":11858,"ĠëĤĺë°ľìĿ´ê³ł":11859,"21":11860,"ĠëıĦìĽĢìĿĦ":11861,"Ġê¹ĶëģĶ":11862,"Ġì²ľìŀ¬":11863,"ĠêµŃìĤ°íĻĶ":11864,"Ġìľ¤ì§Ģìĺ¤":11865,"Ġë¶Ģëª¨ëĬĶ":11866,"le":11867,"ê¸°ìĹħìĿ´":11868,"Ġíĩ":11869,"ë§Īìĭľê³ł":11870,"ĠëĮĢë¶Ģë¶ĦìĿĺ":11871,"ĠíĺĦíĺ¹":11872,"ì§Ģì§Ħ":11873,"ê·¸ìłĢ":11874,"ìŀ¡ëĬĶ":11875,"Ġì°½ì¶ľ":11876,"ĠëįĶë¶Īìĸ´ê³µìĤ°ëĭ¹":11877,"ìĤ´ëł¤":11878,"Ġë°ķìĤ´ëĤ´":11879,"ëĵ¤ë©´":11880,"ĠìĦ±ê²©":11881,"Ġëª¸ìĹĲ":11882,"Ġê°ľìĪĺìŀĳ":11883,"Ġìłķë³´ë¥¼":11884,"êµ¬ìŀ¥":11885,"Ġëªĩëĭ¬":11886,"Ġìŀ¬ìķĻìĿ´ëĭ¤":11887,"ĠíķłìĪĺìŀĪëĬĶ":11888,"Ġê°ĢëĬĶê²Į":11889,"Ġêµ¬ì²´":11890,"Ġë²ĦëĬĶ":11891,"íĸĪìĸ´ìķ¼ì§Ģ":11892,"ĠìĥĪìĤ¼":11893,"ĠìĿĮìĦ±":11894,"ĠìĿ´ìĸ¸ì£¼":11895,"ì¿µ":11896,"ëĲľê²Į":11897,"ĠëģĿëĤ¬ëĭ¤":11898,"Ġë³´ìĿ´ê³ł":11899,"´ëĿ¼ê³ł":11900,"ĠìĹĲíļ¨":11901,"ìĿ´ëŁ":11902,"ĠìłĦíĪ¬":11903,"ĠìĭľìĦł":11904,"Ġëĸ¨ìĸ´ìł¸":11905,"ì·¨ìĹħ":11906,"Ġëĭ¤ë¥´ì§Ģ":11907,"ìŀĪìĬµëĭĪëĭ¤":11908,"ì§ľì¦Ŀ":11909,"ëĤľë¦¬":11910,"ë³´ê²Į":11911,"Ġíĺķíıī":11912,"ĠêµĲíĻľíķľ":11913,"Ġë²ķê³¼":11914,"íŀĺëĵł":11915,"ë¯¼ìĭĿìĿ´":11916,"Ġì¹ľë°ķ":11917,"ĠìłģíıĲë¡ľ":11918,"ĠíĭĪ":11919,"ĠëģĿìŀ¥":11920,"ìĿĺìĽĲìĿ´":11921,"ĠìĤ¬íļĮìĿĺ":11922,"Ġëª¨ìŀĲëŀĦ":11923,"Ġê·¸ë¦½":11924,"Ġê°ľë§Ŀìĭł":11925,"ê·¸ëĤĺë§Ī":11926,"ĠíĭĢë¦¼":11927,"ĠìĿ´ëŁ°ê¸°ìĤ¬":11928,"Ġê·¸ëŁ°ë§Ĳ":11929,"ì°ĮëĿ¼ìĭľ":11930,"ìłķê²½ìĭ¬":11931,"ìĪĺìĦĿ":11932,"ĠìķĪìĿ¼":11933,"ĠíĺĳìĿĺ":11934,"ìĸ¸ìłľê¹Įì§Ģ":11935,"íķĺìĤ°":11936,"ĠìĿ´ìłķê¶Į":11937,"Ġìłľì£¼":11938,"Ġìĺ¤íĶĪ":11939,"ĠìĿ´ë²ĪìĹĲëıĦ":11940,"Ġì§ľì¦ĿëĤĺ":11941,"Ġëĭ¤ë¦¬":11942,"ĠìĦłëŁīíķľ":11943,"ĠìĹ¬ëŁ¬ê°Ģì§Ģ":11944,"ĠëĤĺíĮĶìĪĺ":11945,"ë³į":11946,"ëŁ¬ìĭľìķĦ":11947,"ìĤ°ë¬¼":11948,"ĠëĤ¨ê²¨":11949,"Ġìįª":11950,"ì¤Ħê»ĺ":11951,"Ġê±°ì§ĵìľ¼ë¡ľ":11952,"ìķĦíĶĪ":11953,"ë¡ľìį¨":11954,"ĠëĮĢíıŃ":11955,"ĠíķľêµŃëıĦ":11956,"Ġì¹ĺê°Ģ":11957,"ëĨĶëĿ¼":11958,"Ġê³¨ëĿ¼ìĦľ":11959,"âĸ¶":11960,"ĠìĤ¬ëĮĢ":11961,"Ġì£¼ë¬¸":11962,"ë°©ìĤ¬ëĬ¥":11963,"Ġìļ°ë¦¬ëĤĺëĿ¼ìĿĺ":11964,"Ġì¢Įë¹¨ëĵ¤ìĿĢ":11965,"Ġëľ¬ê¸Ī":11966,"ëĪĦêµ°":11967,"ĠìĹĲê²Į":11968,"ĠOOOìĿ´":11969,"ìŀĲëĵ¤ëıĦ":11970,"ĠìŀĥìĿĢ":11971,"ĠìĦľìĦľíŀĪ":11972,"ìŀ¬ìĪĺ":11973,"ê°ľëĤĺ":11974,"Ġì¢Įë¹¨ëĵ¤ìĿ´":11975,"ĠëĤ´ëĤ´":11976,"ìĺĪìłĦ":11977,"íĺķìĿĦ":11978,"ì§ĢëĬĶê²Į":11979,"ìŀĦìĺģìĽħ":11980,"ìļ°ëĭĪ":11981,"ê°ĲëıĦ":11982,"Ġë°ľìĥģ":11983,"Ġëĭ¤ë¥¸ê²Į":11984,"ĠìĤ¬ìķĪ":11985,"ë¯¼ìĦĿ":11986,"ëĬĶê±´ê°ĢìļĶ":11987,"Ġë§ĪìĿĮìľ¼ë¡ľ":11988,"ìŀĲìķ¼":11989,"íĶĦë¡ľê°Ģ":11990,"ëĬĶê±°ëĬĶ":11991,"ĠêµŃë¯¼ëĵ¤ë§Į":11992,"ĠëķĢ":11993,"Ġë³´ìĿ¼":11994,"ì¤ĳëıħ":11995,"ì¶ľë§Ī":11996,"íŀĺëĤ´ìĦ¸ìļĶ":11997,"ĠìľłíĬľë²Ħ":11998,"ì¢ĭê²Į":11999,"ëĤ¨ë¶ģ":12000,"Ġìĵ°ëłĪê¸°ëĵ¤ìķĦ":12001,"ĠìĤ¬íĥĦ":12002,"Ġì¡°ìłķ":12003,"ë°Ľì§Ģ":12004,"ëĿ¼ëĬĶê±¸":12005,"ģëĭĪëĭ¤":12006,"Ġëª»ìĤ¬ëĬĶ":12007,"Ġë§ĮëĵľëĦ¤":12008,"ĠìķĪíķĺëĬĶëį°":12009,"Ġê³µìĪĺì²ĺê°Ģ":12010,"?....":12011,"Ġë§īìŀ¥":12012,"ëĭ¦":12013,"Ġë¹¨ê°ľ":12014,"ĠìķĬëĦ¤":12015,"ë°ĽëĬĶëĭ¤":12016,"ĠíĭĢëĭĪ":12017,"???????":12018,"ĠìĪľìĭ¤":12019,"ê²½ì°°ìĿ´":12020,"ë³´ìŀ¡":12021,"ĠìłĢì£¼":12022,"ĠëĲĺìŀĸìķĦ":12023,"Ġíĺ¸êµ¬ë¡ľ":12024,"ë§Ĳëĵł":12025,"ìļ´ìļ´":12026,"ìķĦëĭĮëį°":12027,"ĠëĤĺê°ĢëĿ¼":12028,"Ġêµīìŀ¥":12029,"Ġê´ľì°®ìĿĢ":12030,"ðŁĴĻðŁĴĻðŁĴĻðŁĴĻ":12031,"Ġíķłê²Į":12032,"Ġê°ķê²½":12033,"Ġìļķíķĺë©´":12034,"Ġìŀ¡ìķĦìķ¼":12035,"íķľêµŃìĿ´":12036,"Ġê°ķìłľì§ķìļ©":12037,"ĠìĿ´ì¤ĳìĦ±":12038,"ĠêµŃë¯¼ìĹĲ":12039,"ìĸ´ë§Į":12040,"Ġë¬¼ë¦¬":12041,"Ġìĩ¼ë¥¼":12042,"ĠìĺĨìĹĲìĦľ":12043,"NA":12044,"ê¹ĢìłľëıĻ":12045,"Ġê²½ìłľìĹĲ":12046,"Ġíķłë§¤":12047,"Ġë¶ĪíĨµ":12048,"ëºı":12049,"Ġëª»íķĺëĬĶëį°":12050,"ìĹĨìĬµëĭĪëĭ¤":12051,"íķ´ì§ĢëĬĶ":12052,"ðŁĺ¡ðŁĺ¡":12053,"Ġë¶ģíķľëıĦ":12054,"Ġíĺ¸ëĵ¤ê°ĳ":12055,"ëıĦëª»":12056,"ĠìĦŃ":12057,"ê°ĴìĿ´":12058,"ĠðŁĲ":12059,"ìĺ¤ëĥĲ":12060,"Ġë¯¼ì£¼ëħ¸ì´Ŀ":12061,"Ġíĺ¸ì£¼":12062,"ĠìŀĪìĹĪëĤĺ":12063,"ĠìķĬìķĺëĤĺ":12064,"Ġê°ĢëĤľíķľ":12065,"ëīĺ":12066,"Ġìĭłì¢ħ":12067,"ĠëĳĺëŁ¬":12068,"ĠìĹ¬ë¡łìĿ´":12069,"ìľĦíĦ°":12070,"ìĭ¤ìĹĲ":12071,"ìĪ«":12072,"ĠëĶ°ìľĦ":12073,"ĠìĿ´ëĵ¤ìĿĢ":12074,"ĠëĤ´ë©´":12075,"ìĹ°ê¸°":12076,"Ġì¤ĳìļĶíķľê²Į":12077,"ĠìĿ¼ì£¼ìĿ¼":12078,"íķ´ì§Ħëĭ¤":12079,"Ġìĵ°ëĤĺ":12080,"Ġë¬¸ìłľë¡ľ":12081,"Ġìĭ¤ê²Ģ":12082,"Ġê·Ģì°®":12083,"ĠìĿĺìĽĲëĵ¤":12084,"Ġë¶Ģì¡±íķľ":12085,"Ġì§ĢíĤ¨":12086,"ë¬´ì£Ħ":12087,"ìĭ¬íĮĲ":12088,"Ġìĭ¤íĻĶ":12089,"Ġìłķëĭ¹íķľ":12090,"Ġìµľê°ķ":12091,"Ġë¶ĦìľĦ":12092,"ìĸ´ìĿ´ê°Ģ":12093,"ĠëĪĪìĹĲëĬĶ":12094,"ĠëĮĢìĥģìľ¼ë¡ľ":12095,"ĠìķĪê°Ģê³ł":12096,"íĨµê³Ħ":12097,"ë°©ìĹĲìĦľ":12098,"ê¼´ìĿ´":12099,"ĠìĹŃìĤ¬ìĥģ":12100,"ëĵ¤ìĿ´ëĿ¼":12101,"ê²½ìĥģëıĦ":12102,"ĠìĤ´ëįĺ":12103,"Ġëī´ìĬ¤ë¥¼":12104,"Ġìĸ´ëłµëĭ¤":12105,"ĠìŀĪëĬĶê±°ëĭ¤":12106,"ìłķì¹ĺìĿ¸":12107,"ĠëıĻìķĦ":12108,"Ġì¦Ŀìĺ¤":12109,"Ġì¤ĺëıĦ":12110,"ĠìĿ´ê¸°ì£¼ìĿĺ":12111,"§¨":12112,"ë¶ĦìĿĦ":12113,"Ġë°Ķê¾¸ê³ł":12114,"ĠìĤ¥ëľ¯":12115,"ħĢ":12116,"ìĿ´ê¸´":12117,"ì°¾ìķĦ":12118,"ĠìķłëıĦ":12119,"ĠìĤ¬ëĿ¼ìł¸ëĿ¼":12120,"ê¶ĮëıĦ":12121,"ĠìŀĪìľ¼ë©´ìĦľ":12122,"ĠìĹĨìĹĪìľ¼ë©´":12123,"ĠìľłíĿ¥":12124,"íķĻëħĦ":12125,"Ġë³´ë©°":12126,"Ġë¶ģíķµ":12127,"ĠëıĪë°Ľê³ł":12128,"Ġ36":12129,"ëĵ¤ìĸ´ê°Ģ":12130,"ëĬĻìĿĢ":12131,"ìĭľìłģ":12132,"ê³µì§Ģìĺģ":12133,"ĠìĭľìĽĲíķĺê²Į":12134,"ĠëĺĲëĭ¤ìĭľ":12135,"ĠìĿ´ëŀ¬":12136,"Ġê³µìłģ":12137,"ë°©ìľĦ":12138,"ìĪĺì§Ģ":12139,"Ġê°Ĳëıħ":12140,"Ġë¯¼ì£¼ëĭ¹ë§Į":12141,"íķĺëĬĶê±´ëį°":12142,"Ġëĭ¤ë£¨":12143,"ê·¸ëŁ½":12144,"ĠìĤ´ëł¤ê³ł":12145,"ĠëĤĺìĿ´ê°Ģ":12146,"ĠìķĪê°Ħ":12147,"ĠëĤ´ëĨĵê³ł":12148,"Ġìĭ¬íķĺê²Į":12149,"ĠìłķíĻķíķĺê²Į":12150,"Ġê¸°ì¤ĢìĿ´":12151,"ì£¼ëĦ¤":12152,"¡ëĭĪê¹Į":12153,"Ġì§ĳì°©":12154,"Ġì¹ľë¬¸":12155,"ê³łë¥¼":12156,"Ġì´Į":12157,"Ġê°ĲìĨĮ":12158,"Ġì°¸ê°Ģ":12159,"íļ¡":12160,"ìłĢëĤĺ":12161,"Ġê´ĳìļ°ë³ĳ":12162,"Ġê¸°ì¤Ģìľ¼ë¡ľ":12163,"Ġìŀī":12164,"Ġê°Ģë²¼":12165,"ë§ĲìĶĢ":12166,"ëĳĺëĭ¤":12167,"ĠìĹ¬ìłģ":12168,"ĠìĦ¸ìĥģìĿĢ":12169,"ĠëĮĢíĳľê°Ģ":12170,"ê¹ĮëĬĶ":12171,"Ġê±°ëĿ¼ê³ł":12172,"ĠíĿ¬ëĮĢìĿĺ":12173,"Ġì§ĿìĿ´":12174,"Ġì§Ģíľĺ":12175,"Ġìĸ´ë²Ļ":12176,"ĠìłĦì§ģ":12177,"Ġë¹Ħìĭ¸ê²Į":12178,"ĠíĹĪêµ¬íĹĮëĤł":12179,"ĠíĻ§íĮħ":12180,"íķĺëįĶëĿ¼ëıĦ":12181,"Ġë§ĪìĬ¤íģ¬ëĬĶ":12182,"Ġë§ĲëıĦìķĪëĲĺëĬĶ":12183,"ĠíķĦë¦¬íķĢ":12184,"Ġëĭ¤ìĪĺ":12185,"Ġìĵ°ëŀĺê¸°":12186,"Ġê¹ĢíĺĦ":12187,"ĠìŀĲê¸°ëĬĶ":12188,"ĠìķĮê³łëĤĺ":12189,"Ġê³µë¬´ìĽĲìĿ´":12190,"ë²ĦìĬ¤":12191,"ëħ¸ë¥¼":12192,"ë³´ìĿ´ëĬĶ":12193,"Ġê²½ìľł":12194,"Ġìĺ¬ìĿ¸":12195,"Ġê¸°ìĸµìĿ´":12196,"Ġìľ¤ìĦĿìĹ´ìĿ´":12197,"ëĵ¤ìĿ¸ëį°":12198,"ëĮĢíķľë¯¼êµŃìĿ´":12199,"Ġë§Įëĵłëĭ¤":12200,"ĠìĿ´ëĨĪìĿĺ":12201,"ĠìŀĪìĿĦëķĮ":12202,"Ġê°Ģë¥´ì¹ĺ":12203,"ì£¼ìĿ¸":12204,"Ġìłķë¶Ģìķ¼":12205,"ĠíĿĲë¦Ħ":12206,"ìŀĲëħĢ":12207,"ëĲĺìĸ´ìĦľ":12208,"ĠìĹ¬ë¡łìĿĦ":12209,"Ġê°ľëĤĺìĨĮëĤĺ":12210,"ê²ĥìĿ¸ê°Ģ":12211,"íģ¬ëŀ©":12212,"ĠíĨłìĻľ":12213,"ĠìĹ´ìĿ¼":12214,"ìĭ¸ê³ł":12215,"Ġì°Įê·¸ëŁ¬ìł¸":12216,"ë±ī":12217,"ì³":12218,"ì§Ħê±°":12219,"ìŀ¬ë¯¼":12220,"ĠìĿ¸ìĭł":12221,"ë°Ķê¿Ķ":12222,"Ġë°ĽìķĦëĵ¤":12223,"Ġëĸ¨ìĸ´ëľ¨":12224,"ĠëĨĢìķĦëĤĺëĬĶ":12225,"ĠëĦĪë¬´ë§İ":12226,"ĠìŀĦì¢ħìĦĿ":12227,"Ġë§ĪìĬ¤íģ¬ê°Ģ":12228,"ê°ĶëĬĶëį°":12229,"ĠíĺķìĤ¬":12230,"Ġìĺģíĸ¥ìĿĦ":12231,"ĠíĢ":12232,"ë¯¸ëĤĺ":12233,"Ġê·¸ëĵ¤ìĿĦ":12234,"ìľłì¹ĺìĽĲ":12235,"ëĭ¹ê»ĺ":12236,"ì¤ĳê³µ":12237,"ìľĦíĹĺ":12238,"Ġìľłì°©":12239,"ĠëĤ¯ì§Ŀ":12240,"ëĭ¤êµ¬":12241,"Ġë§ĲìŀħëĭĪëĭ¤":12242,"Ġëĭ¨ëıħ":12243,"ìħ¨ìľ¼ë©´":12244,"Ġíĸ¥íķ´":12245,"Ġì²Ńëł´":12246,"ĠêµŃê°ĢëĬĶ":12247,"ĠìĹ¬ìŀĲëıĦ":12248,"ê¸°ê¹Įì§Ģ":12249,"Ġê°ľëĪĦë¦¬":12250,"ëł¸ëĭ¤ê³ł":12251,"ĠìłģìĻĢëĮĢ":12252,"ìĺ¬ë¦¬ê³ł":12253,"ìĿ´ìĤ¬ëŀĮ":12254,"ìª½ìĹĲìĦľ":12255,"ĠìĤ¬ìĭ¤ìĿĢ":12256,"Ġë°ķìĺģìĦł":12257,"ĠíķĦìļĶíķ©ëĭĪëĭ¤":12258,"Ġì°įìĿĦ":12259,"ĠëĮĢëŁī":12260,"ĠìĦ¸ë¬´":12261,"Ġê¸°ëĬ¥":12262,"íĥ±":12263,"Ġê¸°ìĤ¬ëıĦ":12264,"ëħĦìķĦ":12265,"ĠìķħíĻĶ":12266,"ëĿ¼ë©´ìĦľ":12267,"ìĿ¸ëĭ¤ê³ł":12268,"íķ´ì¤¬":12269,"íĬ¸ëĬĶ":12270,"Ġìĸ¸ìłłê°Ģ":12271,"ìķĺëįĺ":12272,"ë¸Ĳ":12273,"Ġì°°":12274,"Ġê·¸ì¹ĺ":12275,"Ġë°°ì¹ĺ":12276,"Ġìĸ´ëĶĺ":12277,"ê·¸ëłĩì§Ģ":12278,"ĠìĤ´ìķĦê°ĢëĬĶ":12279,"Ġê³³ìĹĲìĦľ":12280,"Ġë¶ĻìĹ¬":12281,"ĠìłĢì§Ģë¥´ê³ł":12282,"ëĮĢìłĦ":12283,"ĠìĹĨì£ł":12284,"ëħĦíĽĦ":12285,"ĠìĿį":12286,"ë¶ĢëŀŃ":12287,"êµ°ìĤ¬":12288,"Ġê¸°ë³¸ìłģìĿ¸":12289,"ë°°ë¥¼":12290,"ĠãĦ·ãħħ":12291,"ìĿ´ê·¸":12292,"Ġëĵ£ê¸°":12293,"ë¶ĢìĹĲ":12294,"Ġìłľìŀĳ":12295,"ë°ĺìĦ±":12296,"ĠëĨĪìĿĦ":12297,"ĠíĻĶëł¥":12298,"Ġì§Īë³¸":12299,"ĠìĿ´ìłĦìĹĲ":12300,"Ġëģĵ":12301,"Ġë§ŀì§Ģë§Į":12302,"ì§ĳìĿĦ":12303,"ìĿ´ìķ¼ê¸°":12304,"Ġê¹¨ëĭ«":12305,"ìŀĲìľĦ":12306,"ĠíĻĪ":12307,"ĠìĿ¼ê°Ģ":12308,"Ġìļ°ë¦¬êµŃë¯¼":12309,"ĠìĿ¼ë³¸ìĿ´ëŀĳ":12310,"ê±°ë¦¬ë©°":12311,"ĠìŀĪìĿĦê¹ĮìļĶ":12312,"Ġ^":12313,"ĺĲ":12314,"Ġíķłê²ĥìĿ´ëĭ¤":12315,"Ġìļķë§Į":12316,"ìĺĢêµ¬ëĤĺ":12317,"ĠìĿĺë£Įë³´íĹĺ":12318,"Ġë¨¸ëĥĲ":12319,"***":12320,"ĠíĶ¼íķ´ëĬĶ":12321,"ĠìŀĲëĵ¤ìĿĢ":12322,"ĠíĶ¼ê°Ģ":12323,"ĠìĹĨìĸ´ì§Ī":12324,"ĠìĦľìļ¸ìĹĲ":12325,"ë¯¸ë¦¬":12326,"ëª«":12327,"ì¡°êµŃìĿĦ":12328,"ĠìķĪìĹĲìĦľ":12329,"ìļ°ë¦°":12330,"Ġëĵ¤ìĸ´ëĿ¼":12331,"ì¹ľë¶ģ":12332,"ì¦ĿìĿ´":12333,"ĠíĺĪìķĪìĿ´":12334,"ë¡ľëıĦ":12335,"ë°Ľìľ¼ë©´":12336,"Ġë³´ëĿ¼":12337,"Ġê±±ìłķëĲľëĭ¤":12338,"Ġì±Ļê¸°ê³ł":12339,"Ġì´Īëĵ±íķĻêµĲ":12340,"ë°Ķëĭ¤":12341,"ĠëĤ´ë±ī":12342,"ìłĦêµŃ":12343,"ê±´ë¬¼":12344,"ĠëªĩìĿ¼":12345,"Ġë§İëĥĲ":12346,"ìĹĦì²Ń":12347,"ĠíŀĺìĹĨëĬĶ":12348,"Ġë§¤íģ¬ë¡ľ":12349,"ĠìĨįìĹĲ":12350,"ìŀĲë¦¬ìĹĲ":12351,"ĠêµŃê²©":12352,"Ġíĥľê·¹":12353,"¸ë°Ľ":12354,"Ġì§¤ëĿ¼":12355,"ìĿ¸ë¶Ħ":12356,"ĠìĨĮë¦Ħëģ¼":12357,"Ġë°Ģìĸ´ë¶Ļ":12358,"Ġìĸ´ìļ¸ë":12359,"Ġë¿Ĳë§Į":12360,"ì§Ģìĺ¥":12361,"ĠìŀĪêµ¬ë§Į":12362,"ìľ¼ëĿ¼ëĬĶ":12363,"...!":12364,"ĠìŀĪëĭĪ":12365,"ìļ©ìĦĿ":12366,"ìķĺìĸ´":12367,"ĠìĹ¬ë¡łëª°ìĿ´":12368,"Ġë³´ëĤ´ëĬĶ":12369,"Ġê¼´ìĿĦ":12370,"ĠíĦ°ì§Ī":12371,"ì§Ģê¸¸":12372,"ĠìĿĳì§ķ":12373,"ê°ľíķĻ":12374,"Ġì£¼ê°Ģ":12375,"Ġì¡°êµŃëıĦ":12376,"ë¿Ĳë§Į":12377,"ĠìµľìĪľìĭ¤ìĿ´":12378,"Ġìłķìĭłì°¨ë¦¬ì§Ģ":12379,"ìħĶìķ¼ì£ł":12380,"ëĬ¬":12381,"Ġì°ĲëĶ°":12382,"ðŁĺĤðŁĺĤ":12383,"Ġê·¸ëĭ¤ìĿĮ":12384,"ìłĢìŀĲ":12385,"Ġëªħë°±íķľ":12386,"ĠíķłìķĦë²Ħì§Ģ":12387,"Ġì§ĸìĸ´ëĮĢ":12388,"ĠìĹŃíķłìĿĦ":12389,"Ġìĸ´ëĸłíķľ":12390,"ìĥģê¶Į":12391,"íķ©ë¦¬":12392,"ì¦Ĳ":12393,"ëıĪëıĦ":12394,"ìĥīìĿĦ":12395,"Ġìĸĺê¸°ê°Ģ":12396,"Ġëıħìŀ¬ë¥¼":12397,"ĠëĦ£ìĸ´":12398,"©Ķ":12399,"Ġìĸ´ì©Įë©´":12400,"Ġë¶Ħëħ¸ê°Ģ":12401,"ìĿįìĭľëĭ¤":12402,"ĠìĭľêµŃ":12403,"Ġë°ĺìĺģ":12404,"Ġê°Ģì¡±ìĿĦ":12405,"Ġëĭ¤ëĭĪë©´ìĦľ":12406,"ĠíĮ©íĬ¸ë¥¼":12407,"ĠìķĦëĭĪëŀĢ":12408,"ĠìĨĮìĭĿ":12409,"ĠìĭłìĿĺ":12410,"Ġì¤ĳêµŃìĿ¸ìĿ´":12411,"ĠìķĦëĤ´":12412,"ìĦ¸ìĹ°":12413,"Ġë¯¸íĻĶ":12414,"ì¢ħìĿ´":12415,"Ġê´´":12416,"ĠíĴįëħĦ":12417,"ĠìķĦëŀ«":12418,"ëª¬":12419,"Ġ,,,":12420,"íķľëĭ¤ëĬĶê²Į":12421,"ì§Ħìłķ":12422,"ëĭĪê¹ĮìļĶ":12423,"ĠìķĦë²Ħì§Ģê°Ģ":12424,"Ġë¬´ì§Ģíķľ":12425,"Ġìļ°ëıĻ":12426,"Ġìľłëıħ":12427,"ëŁīìĿĦ":12428,"ĠëĲłê±°":12429,"Ġíķľíĳ¼":12430,"ë°©ìłľ":12431,"ìķĦëĭĪì§Ģ":12432,"íı¬íķ¨":12433,"ìŀĲëĦĪ":12434,"ìķĦëĭĻ":12435,"ë©Ķë¥´ìĬ¤":12436,"Ġê³µìłķíķĺê²Į":12437,"Ġê²½ê³Ħ":12438,"ìĸµì§ľë¦¬":12439,"Ġ400":12440,"ë¶Ģëª¨ê°Ģ":12441,"ìĹĪìĸ´ìļĶ":12442,"ëŁ¬ëĭĪ":12443,"............":12444,"Ġíĺ¸íħĶ":12445,"ìķĦíľ´":12446,"ê¼¬ë¦¬":12447,"Ġì´Ŀìŀ¥ëĭĺ":12448,"ì§ĦìĻľëŀĢ":12449,"ëĲĺëĬĶì§Ģ":12450,"ë¦´ëķĮ":12451,"Ġìŀłìŀł":12452,"ĠëĤĺê°Ģë©´":12453,"ĠëĮĢë§Ī":12454,"Ġìľłê¶Į":12455,"Ġì¹¼ìĿĦ":12456,"Ġ~~~~":12457,"ĠìĿ´ê²ĥìĿĢ":12458,"íķ´ìķ¼íķĺëĬĶ":12459,"ĠíĸĪìĬµëĭĪëĭ¤":12460,"Ġìĭ¤ìĭľ":12461,"ĠëŃīê°Ģ":12462,"ìĿ´ë¶Ħ":12463,"ê°Ļì§Ģ":12464,"ìĿ´ëĿ¼ë©´ìĦľ":12465,"ìķħìĿĦ":12466,"en":12467,"ĠìĴ":12468,"ĠìĹŃíĴį":12469,"ëı¼ìĦľ":12470,"ê³łìļĶ":12471,"Ġíķ´ì¤Ģ":12472,"Ġê¹Ģê²½":12473,"Ġë§Ŀì¹ľ":12474,"Ġãħħãħĭ":12475,"Ġì°¾ìķĦìĦľ":12476,"ĠìĤ¬íķŃ":12477,"Ġëª»íķĺê²ł":12478,"ëĤ´ëĤĺ":12479,"ĠìĪĺíĸī":12480,"ĠëıĦìĭľëĿ½":12481,"ĠìĤ´ëĭ¤ê°Ģ":12482,"Ġë¸Įëŀľëĵľ":12483,"ëĵ±ìĿĦ":12484,"Ġë°ĿíĺĢìķ¼":12485,"ðŁĴľ":12486,"Ġë¹ĦìĹ´íķľ":12487,"Ġ22":12488,"Ġë´¤ëĭ¤":12489,"Ġì¥Ĳìĸ´":12490,"ĠíĦ¸ìĸ´":12491,"ëıĦìķĦëĭĪê³ł":12492,"ëĭ¨ì²´ê°Ģ":12493,"ìł¤":12494,"ĠìķĪê·¸ëŀĺëıĦ":12495,"ĠíķĺëĤĺìĿĺ":12496,"ĠìŀĬì§Ģ":12497,"Ġíķĺê³łìĭ¶ìĿĢ":12498,"ĠíĽĦìķĪë¬´":12499,"Ġìĸ¸íĸī":12500,"Ġì¡°ìĤ¬íķĺê³ł":12501,"ê±°ì£ł":12502,"ê¸ĪìĿĢ":12503,"ìķ¼ì§ĢìļĶ":12504,"ìĺĢëĭ¤ë©´":12505,"ĠìĦłì¡°":12506,"Ġêµ¬ìĦ±":12507,"ëıĦìĹĨìĿ´":12508,"ìķĦë¹Ħ":12509,"íĻĢ":12510,"ĠìĿĺìĤ¬ê°Ģ":12511,"Ġê°ĦìłĪíŀĪ":12512,"ĠìĨĮì¤ĳíķľ":12513,"íķĺì§Ģë§ĪìĦ¸ìļĶ":12514,"Ġì§Ģê²¹":12515,"íĮĶê³ł":12516,"ĠíļĮê³Ħ":12517,"ë¥´ëĤĺ":12518,"Ġë°ĺë°ľ":12519,"Ġìĭ«ëĭ¤ê³ł":12520,"ĠìľĦë²ķ":12521,"Ġë°ľìĸ¸ìĿĦ":12522,"ĠìķĦëĭĪìĹĲìļĶ":12523,"Ġëª¨ë¥´ëĬĶëį°":12524,"ëĥĦ":12525,"ìĿ´ìĹĲìļĶ":12526,"Ġë¶ģëı¼ì§Ģ":12527,"Ġìĸĺê¸°ëĬĶ":12528,"ìĬ¤ëŁ½ìĬµëĭĪëĭ¤":12529,"ĠêµŃìłľìĤ¬íļĮ":12530,"ðŁ¤¬":12531,"Ġì§ĵê±°ë¦¬ë¥¼":12532,"ĠëĬĲëģ¼ëĬĶ":12533,"ë°Ľê²Į":12534,"ëİĮ":12535,"Ġë¶ĢëŁ½":12536,"ĠëĲĺëĤĺìļĶ":12537,"Ġ2020":12538,"ĠëĶ¸ëħĦ":12539,"Ġíİ¸ê°Ģë¥´ê¸°":12540,"ëĤ´ìļĶ":12541,"ìĺģìŀ¥":12542,"ĠìĺĪì¸¡":12543,"ìĿ´ëĿ¼ê³¤":12544,"ĠìĹŃìĤ¬ëĬĶ":12545,"Ġìĭ¬ìĥģìłķ":12546,"ĠìĿĺìĭ¬ìĬ¤ëŁ½ëĭ¤":12547,"íĺĲìĺ¤":12548,"äº":12549,"Ġë§Įëĵ¤ìŀĲ":12550,"Ġìķ½íķľ":12551,"ìĹĲëĭ¤ê°Ģ":12552,"Ġê¸¸ë¡ľ":12553,"ê¾¸ëĿ¼ì§Ģ":12554,"ìľłìĬ¹ë¯¼":12555,"ìĻľê³¡":12556,"ìĦ¸ëĭ¤":12557,"Ġê¸°ë°ĺ":12558,"íķĺìĭľìĺ¤":12559,"ĠìĤ¬íĩ´íķĺê³ł":12560,"Ġì¡°íĺĦ":12561,"ëĭ¨ë§Ĳ":12562,"ì´Īëĵ±":12563,"ĠìĦ¤ëłĪë°ľ":12564,"ĠìĿ´ìĥģíķĺëĭ¤":12565,"ìĬ¹íĥľ":12566,"ëĮĢíĳľëĭĺ":12567,"ĠìĿ¼ìŀĲë¦¬ê°Ģ":12568,"Ġìĥģëĭ¹íŀĪ":12569,"Ġê¸°ë¶ĦìĿ´":12570,"ë¥´ê¸°":12571,"Ġê²½ìłľë³´ë³µ":12572,"Ġíĺķìłľ":12573,"ìĭłì²ľì§Ģê°Ģ":12574,"ĠìŀĲì¤ĳ":12575,"Ġì§Ħë£Į":12576,"ĠìķĪê³ł":12577,"ë¬¸ìłķë¶Ģ":12578,"Ġ54":12579,"íķĺê¸°ê°Ģ":12580,"ĠëĪĪì¹ĺë³´":12581,"ĠëĮĵê°Ģë¥¼":12582,"ĠìĿ¼ëĵ±":12583,"Ġê°ľë¥¼":12584,"ë°ľíĳľ":12585,"ĠìĺĪë¹Ħ":12586,"ì¢ĭê²łëĭ¤":12587,"Ġë¹Ħë°©":12588,"ìķĺìľ¼ëĭĪ":12589,"ĠìĤ¼ê°Ģ":12590,"ëĥħìĭľëĭ¤":12591,"Ġê°ľìĭłêµĲ":12592,"ŀĺëıĦ":12593,"ìĿ´ìķ¼ë§Ĳë¡ľ":12594,"ëĵ¤ë³´ëĭ¤":12595,"Ġìłķì²´ê°Ģ":12596,"ìĪĺê³ł":12597,"ĠìĿ¼ìĸ´ëĤ¬":12598,"ĠìĨĮê°ģ":12599,"ĠìĦłìĭ¬":12600,"ìħ§":12601,"Ġê¸°ìĹħìĿĦ":12602,"Ġëĺ¥ìĿ¸ì§Ģ":12603,"íĭĢëŁ¬":12604,"ì¹ĺìŀĲ":12605,"ë§ĲëĮĢë¡ľ":12606,"ĠëĨ¨":12607,"ĠëªħìłĪ":12608,"ë´ĩ":12609,"Ġíį¼ì¤Ħ":12610,"ĠìĪ¨ìī¬":12611,"ĠìľĦíķ´ìĦľëĬĶ":12612,"Ġë°Ķê°Ģì§Ģ":12613,"ì§ģìĿĦ":12614,"ĠëıĮë¦¬ê³ł":12615,"ĠëĲłìĪĺ":12616,"ĠìŁģ":12617,"Ġì¡°ìĦ±":12618,"ê³Ħìķ½":12619,"ëĤĺëĦ¤ìļĶ":12620,"íĦ°ì§Ħ":12621,"ĠìķķìĬ¹":12622,"Ġíİ¸ìĿĺìłĲ":12623,"Ġì¤į":12624,"Ġë¶Ģìŀĳ":12625,"ìĸµìļ¸":12626,"Ġë¨¸ë¦¬ë¥¼":12627,"Ġë°ĶìĿ´ëŁ¬ìĬ¤ê°Ģ":12628,"Ġê²¨ìļ¸":12629,"ìľłìĺĪ":12630,"Ġë°Ķê¾¼":12631,"Ġìĺ¬ëł¤ëĿ¼":12632,"ìĵ°ëĦ¤":12633,"ĠìĿ´ìĥģíĻ©":12634,"Ġê¸ģ":12635,"ë°°ëĭ¬":12636,"íĬ¸ëŁ¼íĶĦê°Ģ":12637,"Ġë¹¡ëĮĢê°Ģë¦¬":12638,"ìĭ¤ìĿĦ":12639,"ĠíĤ¤ìļ´":12640,"Ġê°ĢëıĦ":12641,"ìĭ¤ìĹĲìĦľ":12642,"Ġìŀĳìłķ":12643,"Ġëª¨ë¥¸ì²Ļ":12644,"ĠíĨłì°©ìĻľêµ¬ëĵ¤":12645,"ĠëĮĢì±ħìĿ´":12646,"īìĿĢ":12647,"ê°Ģë£¨":12648,"ĠëĲľëĭ¤ë©´":12649,"Ġë°ķê·¼íĺľëķĮ":12650,"ëļ¤":12651,"Ġíħħ":12652,"âľĶ":12653,"ãħĵ":12654,"Ġëĵ¤ìĸ´ìķ¼":12655,"ë²Įìį¨":12656,"ê¼¬ë°ķ":12657,"Ġë°Ķë³´ê°Ģ":12658,"Ġê·¸ëĭ¹ìĭľ":12659,"ê¸ĢìĿĦ":12660,"êº¼ëĥĲ":12661,"ĠêµŃë¯¼ìĦ±":12662,"ĠìĿ´ìłľë¶ĢíĦ°":12663,"ĠìĨįì§Ģ":12664,"Ġì¤ĳìļĶíķĺì§Ģ":12665,"íķĺê³¤":12666,"Ġê°ľëı¼ì§Ģê°Ģ":12667,"ë¯¼ì£¼ëĭ¹ë§Į":12668,"~~~~~~~~~~~~~~~~":12669,"Ġë¯¼ìĭ¬ìĿ´":12670,"ĠëıĦë°ķ":12671,"ĠêµĲìĪĺê°Ģ":12672,"ìłģëĭ¹íŀĪ":12673,"ĠìĪĺìĪĺë£Į":12674,"Ġê³µì§Ģìĺģ":12675,"ĠìľłìĹĶ":12676,"ìĥĪê¸°ëĵ¤":12677,"íĥľìĦŃ":12678,"íĭ°ë¸Į":12679,"¡Ģ":12680,"ë¶ģê´´":12681,"Ġë§īëĬĶ":12682,"Ġê²Ģì°°ê°ľíĺģìĿĦ":12683,"ìĿ¸ê²©":12684,"êµĲì²´":12685,"Ġíļ¡ëł¹":12686,"ìĸ´ëĳĲ":12687,"Ġì²ĺë²Įíķ´ìķ¼":12688,"ê¸´ëį°":12689,"ê¸īìĿ´":12690,"ĠìŀĦëªħíķľ":12691,"ĠìķĪíĿ¬":12692,"Ġê·¸ëŁ°ê²Į":12693,"Ġíĳľìłķ":12694,"Ġë§Ĳê³łëĬĶ":12695,"ìĸ´ë³´ê³ł":12696,"ìĦłìĹĲ":12697,"ëįĶìĿ´ìĥģ":12698,"ĠìĿ¼ìľ¼ì¼ľ":12699,"ëĿ¼ëĤĺ":12700,"ë¦¬ì§Ģë§Ĳê³ł":12701,"ĠìŀĲì£¼êµŃë°©":12702,"Ġë¯¼ì¢ĥëĭ¹":12703,"ĠíĥĿìĭľê¸°ìĤ¬":12704,"ĠëªħìĺĪíĽ¼ìĨĲ":12705,"ëĮĦëĭ¤":12706,"íľ":12707,"ëĭ¨ì²´ë":12708,"ĠëĦĺê¸°":12709,"ĠëĵľëŁ¬ìļ´":12710,"ìĽĥê¸°":12711,"ĠëĬĲëĤĢëĭ¤":12712,"íĬ¸ë§Į":12713,"ëĤĺëĿ¼ëĥĲ":12714,"ĠíĻķìĭł":12715,"Ġê°ľíĳľ":12716,"ìĿ¸ëĲĺ":12717,"Ġíĺ¸ìĿĺ":12718,"Ġë°ĸìĹĲìĦľ":12719,"..,":12720,"íķłê¹ĮìļĶ":12721,"ĠëĤ´ì§Ģ":12722,"Ġìķħìļ©":12723,"íķ´ë³´ìĦ¸ìļĶ":12724,"ìĸ´ë³´ìŀĲ":12725,"Ġê²°ë¡łìĿĢ":12726,"ìľ¼ë¡ľë¶ĢíĦ°":12727,"ìĤ´ê³ł":12728,"êµŃê°Ģë¡ľ":12729,"Ġê°Ģìł¸ëĭ¤":12730,"ê¸°ìĤ¬ëĬĶ":12731,"ë²Ħë¦¬ëĬĶ":12732,"ĠìĻ¸ì¶ľ":12733,"ìłķì¹ĺë¥¼":12734,"ĠëĤĺìĻĶëĬĶëį°":12735,"Ġì¡°êµŃìĪĺíĺ¸":12736,"ê°ĪëķĮ":12737,"Ġê°ľìĿ¸ìłģìľ¼ë¡ľ":12738,"Ġëĭ¹ìĿĦ":12739,"ë§ĲíķĺëĬĶ":12740,"ĠëĶ¸ëŀĳ":12741,"ut":12742,"Ġìŀĺíķĺë©´":12743,"ĠìķĬëıĦë¡Ŀ":12744,"ë§Ŀìłķ":12745,"Ġìĭľë¯¼ëĵ¤ìĿ´":12746,"Ġê³³ìĿĢ":12747,"ì§Ģë§ĲëĿ¼ê³ł":12748,"Ġìĺ¨êµŃë¯¼ìĿ´":12749,"Ġì£¼ìłģ":12750,"ìłĢì§Ģ":12751,"ìĭľê°ĦìĿ´":12752,"ê¸°ìŀĲìķ¼":12753,"ìĬ¤ëıĦ":12754,"ĠìķĦëĭĪëŀĦê¹Įë´Ĳ":12755,"ë°ĺëĵľìĭľ":12756,"ĠìĤ¬íĩ´íķĺëĿ¼":12757,"Ġìłģê·¹ìłģìľ¼ë¡ľ":12758,"ê²°ë¡ł":12759,"Ġê²Ģì°°ìĪĺìĤ¬":12760,"ĠíĶĦë¦¬":12761,"ĠíĬ¸ëŁ¼íĶĦëĬĶ":12762,"Ġìľłìĭľë¯¼ìĿ´":12763,"Ġë½ķ":12764,"ê·¸ë£¹":12765,"ê°ĳìŀĲê¸°":12766,"ë¬´ìĤ¬":12767,"Ġë¶ĢëģĦëŁ½ì§Ģ":12768,"ctv":12769,"ĠìŀĲìĨĲ":12770,"ìľłíķĻ":12771,"Ġìĺģê°Ĳ":12772,"ĠìĨĲìľ¼ë¡ľ":12773,"ê°ļ":12774,"ĠëĦĪê·¸":12775,"Ġë§İìĿĢì§Ģ":12776,"ĠëĤľë¦¬ë¥¼":12777,"Ġëĭ¤ë¥´ëĥĲ":12778,"ìĭľì¼ľìķ¼íķľëĭ¤":12779,"íĦ¸ë":12780,"ĠìĨĮìľĦ":12781,"ì¤ĢìĦĿ":12782,"Ġì£½ìĸ´ìĦľ":12783,"Ġìłķì±ħìĿĢ":12784,"Ġ--":12785,"íĸĪëĭĪ":12786,"Ġìłģë°ĺíķĺ":12787,"ìĶ©ìĿ´ëĤĺ":12788,"íĶ¼íķ´ìŀĲ":12789,"ĠíĦ¸ê³ł":12790,"ìĹĨëĭ¤ëĬĶ":12791,"Ġìĺ¤ìĦ¸íĽĪ":12792,"Ġì§ĵë°Ł":12793,"ìĹ¬ìŀĲëĬĶ":12794,"íĸĪëįĶëĭĪ":12795,"íĨłë¡ł":12796,"íĤ¤ëĬĶ":12797,"Ġê¹ĢìĦ±íĥľ":12798,"Ġìĭ¤ëªħ":12799,"íķľëĤĺëĿ¼":12800,"Ġì§Ģê³ł":12801,"ë¶Ģíĥģ":12802,"ìŀĦëĮĢ":12803,"Ġë¯¼ê²½ìļ±":12804,"Ġê¸ĪìĪĺìłĢ":12805,"Ġìī½ì§Ģ":12806,"ĠíĺĲìĿĺ":12807,"Ġê±°ì£¼":12808,"Ġë¶ģíķľêµ°":12809,"ðŁĸ":12810,"ĠíķĻëĮĢ":12811,"ĠëķħìĹĲ":12812,"ĠìŀĺíķĺìĦ¸ìļĶ":12813,"Ġê²½ìłľíıŃë§Ŀ":12814,"ìĿĦëĿ¼ê³ł":12815,"Ġíķľë§Īë¦¬":12816,"Ġëĭ¤ë¥¸ìĤ¬ëŀĮ":12817,"ĠíĸīëıĻìľ¼ë¡ľ":12818,"Ġê±°ë¦¬ëĬĶ":12819,"Ġê²ĢìĤ¬ê°Ģ":12820,"ĠëĬĺëł¤":12821,"ĠìłĢìĨĮëĵĿ":12822,"Ġì§Ģê¸Īê»ı":12823,"Ġë°ķì§ĢìĽĲ":12824,"ìĺĪìĪĺ":12825,"Ġëıħìŀ¬ìłķê¶Į":12826,"ĠìĻ¸êµŃìĹĲìĦľ":12827,"ëŀĢíŀĪ":12828,"ê²Ħëĭ¤":12829,"ĪĦ":12830,"ĠìķĦê¸°":12831,"ìĭľìŀ¥ìĿ´":12832,"ĠìĿ´ìĬ¤":12833,"Ġê±°ìłĪ":12834,"ĠíıīìĨĮìĹĲ":12835,"ĠìłĦëĿ¼ëıĦëĬĶ":12836,"ë³¶":12837,"Ġë¬¸ìłľìŀĦ":12838,"ĠìĹ¬ê¸°ê¹Įì§Ģ":12839,"íļĮì°¬":12840,"Ġì¤ĳìĤ°":12841,"Ġì£¼ìĿĺ":12842,"Ġëĭ¤ëĭĪëĥĲ":12843,"ĠëįķìĹĲ":12844,"ìĭłì²Ń":12845,"ĠìĥĿê°ģíķ´ëıĦ":12846,"Ġê±°ë¡ł":12847,"ĠíĸĪìĸ´":12848,"Ġê°ķëıĦ":12849,"Ġì¶Ķíķľ":12850,"Ġê¸įìłķ":12851,"ì¼ĢíĮħ":12852,"Ġìĸ´ìĿ´ìĹĨëĭ¤":12853,"ĠëĤĺë¨¸ì§ĢëĬĶ":12854,"ëĵľë¦¬":12855,"Ġë¯¼ì£¼ëĭ¹ëıĦ":12856,"Ġìĭ¶ìĬµëĭĪëĭ¤":12857,"ìľ½":12858,"ĠìĿ´ë¦ĦìĿ´":12859,"êµ¬ëıĦ":12860,"ĠëĨĪìķĦ":12861,"Ġê°Ħíĺ¸ìĤ¬":12862,"íĺĢëĿ¼":12863,"Ġíķµë¬´ê¸°":12864,"Ġìŀ¥ìķłìĿ¸":12865,"ìłķíķĺê²Į":12866,"ì¹ĺë©´ìĦľ":12867,"ì¡°ë§Įê°Ħ":12868,"ëķĮë¬¸ìĿ´ëĭ¤":12869,"ë¯¸ëĬĶ":12870,"ëĤ¨ìĿ´":12871,"ê·¸ëŁ¬ëĥĲ":12872,"ìķĺê³ł":12873,"ĠìĻ¸ì¹ĺê³ł":12874,"íĻķìĿ¸":12875,"Ġë¨¹ê³łìĤ¬ëĬĶ":12876,"íķ´ì²´":12877,"ê°Ĳëıħ":12878,"ë²Īíĺ¸":12879,"Ġë²Ħëł¤ëĿ¼":12880,"Ġê¹ĮëĿ¼":12881,"22":12882,"Ġìļ±":12883,"Ġíķ´ê³ł":12884,"ìķĺìĿĮ":12885,"ĠëĬĲê·¸ëĵ¤":12886,"ĠìŀĲë°ľìłģìľ¼ë¡ľ":12887,"ì¹ĺë¡ľ":12888,"íķłê¹Įë´Ĳ":12889,"ë°ĶìĿ´":12890,"ĠìĻĦìŀ¥":12891,"ĠìķĦìĿ´ëĵ¤ìĿĦ":12892,"ĠìĤ¶ìĿ´":12893,"Ġì²´íģ¬":12894,"ĠìłĢì§ĪëłĢ":12895,"Ġë§ĲíĪ¬":12896,"ëĵ±ìĿ´":12897,"Ġì§Ģì¼ľë³´ê³ł":12898,"31":12899,"Ķ¸":12900,"ì¹ĺëĬĶê±°":12901,"ê³łë§Ī":12902,"ìŀĲë¦¬ëĬĶ":12903,"ĠìŀĲìĹħìŀĲëĵĿ":12904,"Ġìĵ¸ìĸ´ë²Ħ":12905,"ì´ĿìĦłìĹĲìĦľ":12906,"Ġê²½íĹĺíķĺì§Ģ":12907,"ìķ½íķľ":12908,"íķ´ì¤ĺëĿ¼":12909,"Ġê¹ĶìķĦ":12910,"Ġë·Ķ":12911,"ĠìŀĲìĺģìĹħìŀĲëĵ¤":12912,"íķĺëĬĶê²ĥìĿĢ":12913,"íĨµê³¼":12914,"ĠíĸĪê²łì§Ģ":12915,"Ġë°°ìļ°ê³ł":12916,"Ġëĸ¨ìĸ´ì§Ħëĭ¤":12917,"Ġì¿µ":12918,"ë°ĺìĹĲ":12919,"ðŁĻ":12920,"Ġì£ĦëĬĶ":12921,"Ġëĵ¤ìĸ´ê°Ģë©´":12922,"êº¼ë¦¬":12923,"íķĻìĥĿëĵ¤":12924,"³´ë£Į":12925,"ëĭ¤ëĤĺ":12926,"Ġë¬´ê°ľëħĲ":12927,"Ġìĺ¬ëĿ¼ê°Ģ":12928,"ĠìķĪìĨį":12929,"íĨłë§ī":12930,"ĠìĿ¸êµ¬ê°Ģ":12931,"Ġêµ¶ìĸ´ì£½":12932,"ĠíķĺìĪĺìĿ¸":12933,"ìĸ¸ë":12934,"Ġë§Ĳì¢Ģ":12935,"Ġë³´ê±´":12936,"ĠíĽĦë³´ìŀĲ":12937,"Ġìıł":12938,"Ġê³łê¸°":12939,"ĠëĮĢíķĻêµĲ":12940,"ĠìķĪì£½":12941,"Ġê°Ģë³į":12942,"ĠìĽĲíĿī":12943,"Ġë¬¸ìŀ¬ìķĻìĿĦ":12944,"¯¸ëŀĺ":12945,"ĠìķĪíķ´ìĦľ":12946,"ì£¼ëĬĶëį°":12947,"ëĬĶê²ĥìĿ´ëĭ¤":12948,"ĠíķĺëįĶë§Į":12949,"ê°ĲìĹĲ":12950,"ĠìĿĺìĽĲëĭĺ":12951,"ĠìĹĨëĬĶì§Ģ":12952,"Ġêµ¬ìłľ":12953,"ìŀ¥ìĿĺ":12954,"Ġê±°ìĭľê¸°":12955,"ĠìĻķì°½":12956,"ĠêµŃìĿµìĿĦ":12957,"ìĸ´ëĬĶ":12958,"ĠìķĪëĭ¤ê³ł":12959,"Ġê°ĢëĥĲ":12960,"Ġê·¸ëıĪìľ¼ë¡ľ":12961,"ĠìĨĮë¦¬ëĥĲ":12962,"Ġë³µê·Ģ":12963,"Ġì±Ħìļ°":12964,"ĠëĨĶëĳĲ":12965,"Ġìĭłë°ľ":12966,"Ġëĸ¨ìĸ´ì¡Į":12967,"Ġë§¹ëª©":12968,"ĠìĨĲíķ´ë°°ìĥģ":12969,"ìĭľëĿ¼":12970,"ëıĻìĿĺ":12971,"Ĳł":12972,"ĠëµĪ":12973,"ĠëĭĪëıĦ":12974,"ëĵľëĶĶìĸ´":12975,"ê°Ĳìľ¼ë¡ľ":12976,"ìĻĶëĦ¤":12977,"íĩ´ê·¼":12978,"Ġíķľìľłì´Ŀ":12979,"ìŀ¬ëĭ¨":12980,"ĠìĦ¸ì¢ħ":12981,"ëŁ°ì§Ģ":12982,"ìĺ¤ëĬĺëıĦ":12983,"Ġíķłë§ĲìĿĢ":12984,"ë¶Ħëªħ":12985,"ìķĦëĭĪëĿ¼ê³ł":12986,"Ġë¶Ģë¥´ì§ĸ":12987,"Ġê·¸ëŀĺëĨĵê³ł":12988,"ĠëĪĪë¨¼":12989,"Ġì¤ĦìĹ¬":12990,"Ġìłľë°ľì¢Ģ":12991,"Ġê¸°ìĹħìĿĢ":12992,"Ġê¸°ëĭ¤ë¦¬ê³ł":12993,"Ġìŀĳê°Ģ":12994,"ê¹ĢìłķìĿĢìĿ´":12995,"ìĭľë¥¼":12996,"Ġìłķëĭ¹ìĿ´":12997,"ìŀĪìĸ´ìļĶ":12998,"ĠíĬ¼":12999,"Ġì°įëĬĶ":13000,"ĠìĿ´ëŁ¬íķľ":13001,"ĠíĪ¬ëªħíķĺê²Į":13002,"êµ¬ìķ¼":13003,"Ġë½ĳìķĦìķ¼":13004,"Ġë¿Įëł¤":13005,"Ġìĵ°ëłĪê¸°ìķ¼":13006,"ìĿ´ê±°ëĤĺ":13007,"íĻĶë¡ľ":13008,"ĠìĹĦíķľ":13009,"ëĩĮê°Ģ":13010,"Ġì¾Į":13011,"ĠìķŀëĴ¤ê°Ģ":13012,"Ġë§ĲëĿ¼ëĬĶ":13013,"ĠìĪĺë°ĸìĹĲ":13014,"Ġë²½":13015,"ìŀĳìĹħ":13016,"ëª©ìľ¼ë¡ľ":13017,"ë¬¸ìŀ¬ìĿ¸ìĿĺ":13018,"íķ´ìł¸":13019,"ìĿ´ëĿ¼ê³łëĬĶ":13020,"ĠëĸłëĦĺ":13021,"ëĸµ":13022,"Ġê¹¨ìĸ´ëĤĺ":13023,"ĠíİĢëĵľ":13024,"ê°ĦìĿĦ":13025,"Ġê°Ĳë°©ìĹĲ":13026,"ìĦłìĿĢ":13027,"ĠìķĬìķĺëĬĶëį°":13028,"ĠðŁĺ":13029,"ìĽĲìĪĺ":13030,"ìĨĮë¦°":13031,"Ġëĭ¨íķ©":13032,"Ġê´Ģìĭ¬ìĿĦ":13033,"Ġê°ĢìĪĺ":13034,"ëĭ¨ìĭĿ":13035,"Ġë²ķìĹĲ":13036,"Ġë¶Ģìłģ":13037,"Ġì§ĳìĿ´":13038,"Ġê·¸ëŁ°ì§Ģ":13039,"Ġì´ĿìķĮ":13040,"ì§ĢìķĬê²Į":13041,"ĠìķĬì§Ģ":13042,"Ġê°ķìĿĺ":13043,"Ġì¹ĺìĤ¬":13044,"ê°ķëıĦ":13045,"ĠìķĦìĿ´ëıĮ":13046,"Ġíİľ":13047,"Ġì¥":13048,"ìĻł":13049,"ê¼°ëĮĢ":13050,"ë§ĮëĤĺ":13051,"ìĽĲì¹Ļ":13052,"ì¤ĳìĿ´ëĭ¤":13053,"ĠìŀĦë§Ī":13054,"~.":13055,"ìĿĢíĺľ":13056,"Ġê°Ģë¡ľ":13057,"ìĿ¸ëĶĶ":13058,"ĠãħĩãħĪãĦ¹":13059,"ë§ĲìķĦë¨¹":13060,"ĠíĮĲëĭ¨ìĿĦ":13061,"ĠêµĲê³¼":13062,"ìŀĲìľłëĭ¹":13063,"ë¯¸ê°ľ":13064,"ìĹ°ë´ī":13065,"ë²Ħëł¸":13066,"¡ł":13067,"Ġë§İêµ¬ëĤĺ":13068,"ëĵ±ìĹĲ":13069,"Ġê³µìĤ°ì£¼ìĿĺìŀĲ":13070,"ê²ĥìĹĲ":13071,"ìĦĿìĿĦ":13072,"Ġíį¼íĬ¸ë":13073,"ë§Īìķ½":13074,"ĠíĶ¼ë¥¼":13075,"Ġë³´ìĪĺë¥¼":13076,"ĠìĦ¸ëł¥ìĿ´":13077,"ë³´ëĤ¸":13078,"ĠíĹ·":13079,"Ġãħłãħłãħł":13080,"ĠëĲĺê²łëĭ¤":13081,"Ġìłľëªħ":13082,"Ġ26":13083,"ĠìĦ±íĿ¬ë¡±":13084,"Ġê²Ģì°°ê³¼":13085,"Ġë½ĳìķĦì¤Ģ":13086,"Ġëĳ¬":13087,"ĠìĪĺìĤ¬íķ´ëĿ¼":13088,"ë³´ëĵľ":13089,"ìķĪìłĦ":13090,"ìłĢê²ĥ":13091,"ìª½ìĿ´":13092,"ë°©íķ´":13093,"ì±":13094,"ìłķìĪĻ":13095,"êµ¬ê¸°":13096,"Ġëĭ¤ì£¼íĥĿ":13097,"Ġê°Ĳìĭ¸ê³ł":13098,"ìķ±":13099,"ĠëĤĺê³ł":13100,"ĠìĮĵìķĦ":13101,"ìķĪíĥĢê¹Ŀ":13102,"Ġë¨¹ìĸ´ëĿ¼":13103,"Ġëĺ¥ì¤Ħ":13104,"ëľ¨ê³ł":13105,"ĠíĮĲê²°ìĿĦ":13106,"ĠëĤ´ë¦¬ê³ł":13107,"Ġíį¼ì£¼ê¸°":13108,"ĨĶëĿ¼":13109,"ĠìķĮê²łì§Ģ":13110,"ì½ĶìĬ¤":13111,"oo":13112,"ĠíķĻêµĲìĹĲìĦľ":13113,"ìĿ¼ìĪĺëıĦ":13114,"ĠSNS":13115,"ìłķíĻķ":13116,"ìĪĺíķľ":13117,"Ġë°ĺë©´":13118,"ĠëĤ¨ë°ľ":13119,"Ġê²¸ìĨĲ":13120,"ĠìĿ´ì¯¤ëĲĺë©´":13121,"Ġê¸°ìŀĲëĬĶ":13122,"Ġìŀĺíķľê±°":13123,"Ġë¬¸ìŀ¬ìķĻìĿĺ":13124,"Ġë²¤ì¸ł":13125,"Ġì£¼ë§Ĳ":13126,"ìłķì±ħìĿĦ":13127,"ìĿ´ìĸ¸ì£¼":13128,"ëħĦìĥĿ":13129,"Ġê°ľëĬĶ":13130,"ĠìĪĺìĤ¬ëĬĶ":13131,"Ġì²´ìłľ":13132,"ĠìłĢëŁ°ê±¸":13133,"ë§Įìľ¼ë¡ľëıĦ":13134,"ĠìŀĲìĭĿëĵ¤ìĿĢ":13135,"ë§İëĦ¤":13136,"ĠëĮĢíĨµëł¹ìĿ´ëĿ¼ê³ł":13137,"Ġë¶ģíķľë§Į":13138,"Ġ35":13139,"ĠëĨĪìĿĺ":13140,"ĠìĪĺìĤ¬ê¶Į":13141,"Ġíĺķíİ¸":13142,"ì²ľìĸµ":13143,"Ġë°ķìĪĺë¥¼":13144,"ìĿ´íĭĢ":13145,"êµ½":13146,"ĠíķĺìĿ´":13147,"íĻĶëĬĶ":13148,"Ġëĭ¨ëĭ¨íŀĪ":13149,"Ġëĵ¤ìĸ´ëıĦ":13150,"Ġê¾¸ì¤Ģ":13151,"ëĭ´ë°°":13152,"ĠìĹĨëĤĺìļĶ":13153,"ë§ŀëĭ¤":13154,"ĠìŀĲìĭłëĵ¤ìĿ´":13155,"ê´Ģê³Ħë¥¼":13156,"ìĨĮë¦¬ìķ¼":13157,"Ġë§īìķĦëĿ¼":13158,"ĠíĨµìĪĺ":13159,"ĠìķĦë²łíķľíħĮ":13160,"ĠíķľëªħëıĦ":13161,"ĠìłĦìŀ¬ìĤ°":13162,"ìĶ¨ë¥¼":13163,"ĠìĤ¬ëŀĮëĵ¤ë§Į":13164,"ĠíĻ©ìłľ":13165,"Ġë»Ķíķľ":13166,"Ġë¬¸ë¹¨":13167,"ìĻĢìĿĺ":13168,"ĠíĿĻ":13169,"ìĸ´ì§¸":13170,"Ġìĵ°ëĦ¤":13171,"Ġëĭ¹ìĭłê°ĻìĿĢ":13172,"Ġêµ´ë¦¬":13173,"ë²ĦëĭĿìį¬":13174,"Ġêµ°ëĮĢëıĦ":13175,"ĠíķĺíķĦ":13176,"ì£ĦëĬĶ":13177,"ìłĦê¹Įì§Ģ":13178,"Ġìĸ´ê±°ì§Ģ":13179,"ëŀĺëıĦ":13180,"ĠëĮĵê¸Ģëĭ¤ëĬĶ":13181,"Ġì£½ìĹĪëĬĶëį°":13182,"Ġì¢ĭìķĦíķĺëĦ¤":13183,"Ġjtbc":13184,"Ġëıĭ":13185,"ìĸ´ëĨ¨":13186,"ìļ©ì§Ģ":13187,"ĠìķĮê²łëĦ¤":13188,"ìŀħìĿĢ":13189,"ĠëĤĻìĦł":13190,"ê·¸ëĨĪìĿĺ":13191,"ĠìĥĿê°ģíĸĪëĬĶëį°":13192,"Ġì§ķìļ©":13193,"Ġì¶Ķì¢ħíķĺëĬĶ":13194,"ëĮĢë°ķ":13195,"ĠíĦ°ì§Ģ":13196,"ĠíĨ":13197,"Ġë¯¿ìĬµëĭĪëĭ¤":13198,"ìĨĲìĨĲ":13199,"íķĺëĬĶê±´ì§Ģ":13200,"ĠìķĦë¬´íĬ¼":13201,"Ġëį©ìĸ´ë¦¬":13202,"Ġë¨¸ë¦¬ëĬĶ":13203,"ëļĿ":13204,"¦Ń":13205,"ë§Įë´ĲëıĦ":13206,"ĠìĪĺíķĻ":13207,"ìĿ´ìĹĪìľ¼ë©´":13208,"ìĥģíĴĪ":13209,"ìłĦêµĲì¡°":13210,"ì²ŃêµĲìľ¡":13211,"Ġì°¨ê°Ģ":13212,"ìĿ´ëĿ¼ëĬĶê±¸":13213,"Ġë°ĽìķĦëĵ¤ìĿ´":13214,"Ġëĸ¡ê²Ģ":13215,"Ġë³´ìĿ´ëĤĺ":13216,"Ġë§ŀìĦľ":13217,"ì¸µìĿĢ":13218,"ĠìŀĲë¦¬ê°Ģ":13219,"Ġë§ĲìķĪ":13220,"íĸĪìĸ´ëıĦ":13221,"Ġíķĺë£¨íķĺë£¨":13222,"ĠëĤ´ëł¸":13223,"ê·¸ëŀĺìķ¼":13224,"Ġë°ĺìĿ¼ìĦłëıĻ":13225,"ĠëĲłê²ĥ":13226,"Ġì¡°ì¹ĺë¥¼":13227,"ì²´ìłľ":13228,"ì©Ŀì©ĿìĿ´":13229,"ëĭ¹íķ´":13230,"ĠëĮĢê¹¨ë¬¸ëĵ¤ìķĦ":13231,"ëĮĢíĳľê°Ģ":13232,"Ġìĳ¥":13233,"ìĿ´ëħĲ":13234,"ëĮĢíĨµ":13235,"Ġë³´ì¢Į":13236,"ĠìĪĺìĨĮ":13237,"Ġìłģìľ¼ë¡ľ":13238,"Ġë¯¿ëĥĲ":13239,"Ġë¹Ħë¡¯íķľ":13240,"ë°ľê´ĳ":13241,"Ġìĵ°ëĿ¼ê³ł":13242,"Ġê°Ĳì°°":13243,"Ġë¨¹ìĸ´":13244,"Ġë°°ê³ł":13245,"ìŀĲê¸°ê°Ģ":13246,"ĠëĤ¨ìĹĲê²Į":13247,"ĠëĶĶì§Ģ":13248,"ĠëĤĺìĻĶëĭ¤":13249,"íķľë§Ĳ":13250,"ĠìĻľëĵ¤":13251,"Ġê²ĢìĤ¬ë¥¼":13252,"Ġìĸ´ìĦ¤":13253,"Ġìļ°ìĥģ":13254,"Ġì£½ìĹĪ":13255,"Ġë©´ë":13256,"Ġê°ĢëĬ¥ìĦ±":13257,"Ġì´Ľë¶ĪìĿĦ":13258,"ìĸ´ëĨĵìĿĢ":13259,"ìŀĲíķľ":13260,"ìĭľëĤĺìļĶ":13261,"ĠìĿ´ìĬ¬ëŀĮ":13262,"Ġíķ´ì£¼ëĬĶ":13263,"ĠìĻ¸êµĲë¥¼":13264,"Ġëħ¸ì¡°ê°Ģ":13265,"ĠìĬ¤íĨł":13266,"ĠìĦ¸ê³Ħìłģìľ¼ë¡ľ":13267,"ĠëŃ¡ëĭĪê¹Į":13268,"ìĭ¬ê°ģ":13269,"ëĳĲê°ģ":13270,"Ġìķķëł¥":13271,"ë³¸ë¶Ģ":13272,"ĠìŀĶëľ©":13273,"ë¬¸ìĪĺ":13274,"Ġë§ŀìĿĢ":13275,"Ġìĥģìĭ¤":13276,"íİ¸íĸ¥":13277,"ê¹Ģê²½ìĪĺ":13278,"Ġê²½íĹĺíķ´ë³´ì§Ģ":13279,"Ġë©Īì¶Ķ":13280,"Ġêµīìŀ¥íŀĪ":13281,"Ġê²½ëĤ¨":13282,"Ġìłķì±ħìľ¼ë¡ľ":13283,"ĠìłķìĥģìĿ´":13284,"ĠìĿĺìĽĲìĿ´":13285,"ĠìĹĦê²©":13286,"Ġëĭ¤ìĭľíķľë²Ī":13287,"Ġê´ĳíĻĶë¬¸ìĹĲìĦľ":13288,"Ġëĭ¤ìĭł":13289,"ìĦ¸íı¬":13290,"ĠëĳĲê³łë³´ìŀĲ":13291,"Ġìłľì¡°ìĹħ":13292,"ìĿĮìĭĿ":13293,"ĠëĤĺìĺ¤ëĤĺ":13294,"Ġë°©ë²ķìĿĢ":13295,"Ġì¶Ķìķħ":13296,"ìĿ¼ë³¸ìĿĺ":13297,"Ġëĭ¨ìĪľíŀĪ":13298,"Ġì§ĳìĸ´ëĦ£":13299,"ëĦĪë¬´ë":13300,"ìĨĲìľ¼ë¡ľ":13301,"Ġíĩ´ì§Ħ":13302,"Ġê°Ģëĳ¬":13303,
[...]
